eb
c2
da
00
cc
db
0f
f8
00
ed
f0
ed
e5
e9
f5
f6
d3
00
00
09
19
0e
fc
02
ff
fd
ea
e7
05
fe
ea
00
ef
00
0d
f7
ed
dd
ff
f3
d9
ed
04
f3
fc
f3
e3
00
ec
d5
f7
f7
eb
f2
f4
08
30
fb
14
22
e5
fe
0b
d9
ff
09
d7
ed
f2
13
f8
f7
0e
ed
fa
00
f2
16
f7
fc
fe
ec
ec
e9
00
f1
ee
02
00
0b
f4
f2
0b
03
f3
0c
f9
ea
04
00
e6
04
13
ee
f0
1a
11
05
01
08
1b
ff
e0
01
0c
f1
f6
19
e2
e0
15
e7
dd
1c
f0
d5
fb
05
0b
fa
f8
fa
0d
0a
07
e9
1e
08
f1
19
0d
e8
08
1c
00
f6
fd
17
e5
00
1b
0e
11
f7
f9
06
09
04
02
00
18
09
07
0d
0d
1c
00
00
05
0c
09
10
17
0a
02
ee
fe
04
d1
fb
0b
fe
07
08
03
05
16
f0
f6
ea
03
03
f8
f8
00
08
0f
0d
ef
03
03
fb
29
11
ea
1b
1a
0d
f6
ea
12
f9
e3
07
02
f7
0f
fe
fa
01
f4
04
ef
f5
0d
00
df
db
f2
ce
da
fc
e4
d8
10
ed
04
0d
12
02
0c
10
11
e4
de
03
e1
e5
fa
fd
e0
f2
e3
ca
cd
ff
c4
d4
0e
f2
f7
ec
cf
e1
e8
c6
e8
11
f4
01
f2
07
f4
e6
f4
fb
f0
fd
00
0b
f0
06
0b
f4
fa
f6
00
fa
15
1f
fb
20
1d
08
ea
d1
04
10
2b
00
0b
08
f8
f6
e4
e3
f1
2b
07
fc
f8
04
04
dc
e6
13
1d
f8
1a
19
06
fe
f8
ed
ee
ef
f0
fd
0c
0b
01
ef
fa
0d
f7
fd
f8
e6
f7
fc
3c
0f
f9
09
05
02
09
02
00
f7
03
00
01
fc
00
f3
f4
ff
f4
f4
21
23
f9
1c
ff
08
f4
fd
11
cc
cc
02
f5
0c
12
26
34
f6
f4
f2
1b
fe
ef
14
11
f8
04
ea
e2
f8
04
fc
ff
0d
03
09
e3
d5
02
00
02
0a
29
19
f6
0c
c9
dd
d3
cd
ef
00
1d
13
fc
0b
02
06
f4
0e
f8
f5
00
ed
e6
f6
0f
13
07
0a
1c
ed
f1
f0
0f
f7
f3
1a
d6
e7
05
fa
0e
f2
ee
f1
00
f6
e4
f8
ef
0e
0e
02
0b
10
03
f6
f2
fd
f4
fd
00
ff
05
fe
f6
ff
e9
df
ed
ee
e8
ea
ff
f1
f2
f0
fd
fe
00
fd
11
0a
fd
f5
ee
ef
fa
ee
ff
03
00
10
ef
19
21
0f
29
08
ed
d7
c2
dd
fe
ec
fb
19
fa
07
00
f1
f8
ee
f3
f2
f9
fc
f9
fe
00
00
00
0d
02
00
ed
f5
df
ca
f9
fc
0e
f7
e5
fd
08
fd
01
fb
fc
f8
fa
00
f3
13
09
05
05
0f
00
fb
04
f9
f4
f6
fa
07
02
fe
ff
01
df
f9
f4
f2
05
e1
fc
fa
01
fe
01
fa
00
06
06
00
f1
fb
e2
fe
12
13
02
fe
00
fb
ed
f6
ff
df
fd
02
e7
f6
f7
f5
f0
03
03
f8
02
00
f1
f8
f7
fd
ef
fb
fb
f1
06
16
0e
e2
ef
01
f8
04
fd
07
fb
08
03
19
fc
02
09
f7
05
0d
09
fa
0a
fc
0f
35
fd
02
f1
f7
d9
f3
e7
e5
f8
ec
06
19
00
14
11
06
f0
0c
0c
00
ef
f4
0b
0d
f4
05
fe
03
00
1a
1d
0c
28
24
11
21
10
02
0f
15
00
ee
0b
ff
03
fb
f8
11
02
f7
02
06
f3
fb
00
f0
00
00
19
0f
17
0c
0e
08
e2
e8
f6
fd
f0
f6
01
ee
e5
f3
06
e9
fc
23
eb
f4
28
f5
f6
ff
f8
f9
04
03
05
0b
f9
f6
f5
f8
dc
cc
f0
ea
e4
e7
f3
0e
07
03
00
f7
08
f9
fc
df
ed
f7
00
06
fb
e1
f4
01
d4
cf
04
f1
ee
07
de
e9
f3
eb
f9
f3
07
0b
01
04
ff
fc
e9
06
fe
0f
f4
f8
0e
19
ea
06
00
01
fe
f7
03
09
09
11
fd
e3
f9
ea
fa
fb
eb
06
0f
e1
d3
dd
ae
c2
db
b1
c9
e0
fe
e6
f7
e9
f6
f8
ec
ef
ed
cf
e4
01
e6
e6
00
d0
eb
fb
f6
e2
f7
d5
d4
eb
e3
f4
09
08
11
00
cf
dc
f4
dd
f0
07
26
18
08
00
08
fe
00
0d
03
eb
14
0c
09
fd
11
00
f7
09
e5
f5
01
de
f3
0d
f2
05
1e
06
f8
f0
f5
f2
e1
fd
02
fd
08
11
08
07
09
0d
f8
fa
f8
0e
fd
f2
e6
e0
d9
04
f9
12
16
00
05
10
08
fe
fe
ff
05
dc
fe
f2
ea
00
f7
e4
06
f3
0b
12
29
07
0c
1a
00
fd
11
ee
f5
0d
f3
f2
f9
06
f3
08
0d
fa
02
06
fc
f9
fb
fe
14
05
f7
04
0f
00
01
0a
fa
02
fb
fd
08
02
fd
02
f9
f1
09
05
ec
01
ee
e6
e9
0e
fa
0e
03
fc
07
05
04
0d
05
fa
08
00
f2
fd
04
02
fe
0d
12
08
f3
0f
1d
f9
09
22
fd
00
04
d8
ba
cf
c8
aa
c6
0e
d4
f3
e3
db
f7
e5
07
06
0c
15
21
e0
e1
e2
e1
df
dd
e7
d3
e2
d6
e0
00
d3
dd
ec
0a
eb
e6
0c
0d
f5
09
02
fd
fa
f3
fe
e7
01
0d
f5
00
f9
f5
f3
ec
f6
dc
e5
0b
01
ec
24
15
0e
f3
f2
0b
ea
ea
fc
e4
ed
0b
02
fb
17
f9
01
07
08
09
13
e4
ef
f3
e4
f5
e7
e0
f5
f2
f9
ef
10
f6
ec
0c
f6
d4
11
e9
ec
f5
09
03
0a
fe
04
f7
08
09
07
0b
0f
09
fa
f0
0a
00
e4
fb
fb
f3
f3
ef
e2
e5
05
df
fc
f3
e1
e8
04
ef
fa
15
0d
f4
14
09
fd
e0
e0
e3
e7
ca
f1
db
c3
f4
e0
ca
fb
fd
fe
e9
e6
00
fc
e4
f2
00
14
f0
f5
13
0d
22
f5
02
fb
f0
d0
fe
e2
f2
db
02
00
f3
12
04
18
0c
0d
0f
ef
f8
00
16
13
06
f9
18
16
e7
e4
f7
04
05
2b
ee
f1
f1
1c
19
ec
15
00
fa
fe
10
16
f3
05
1d
11
03
14
02
fc
05
f7
ff
f2
c5
d9
c8
d2
dd
ce
ee
04
fc
00
06
08
06
f7
11
f3
fd
00
da
e8
eb
e3
01
fb
08
13
16
fc
0d
0c
0a
f5
09
17
0e
0e
fe
fe
0b
05
09
20
0c
01
0d
06
ff
00
f9
fd
08
f8
07
eb
14
fa
18
0b
00
04
04
fa
03
f1
f7
f8
00
0d
0d
f5
09
06
ec
0c
03
db
ea
fa
e3
f8
fb
0e
0c
12
14
09
18
04
0f
f3
0f
07
0b
00
09
fc
16
ef
fb
a6
ad
b5
cc
c1
c1
08
24
ff
b3
d3
d7
d2
e2
e7
02
03
00
f9
08
01
e9
0d
f7
f7
12
07
18
08
ee
02
18
28
e5
fa
18
06
00
09
09
f3
0c
00
03
0b
eb
ef
11
cd
ea
ff
ec
0a
05
df
d0
cf
d4
e2
cc
db
e9
e6
00
00
fe
fe
f7
00
06
f2
f8
bd
cc
c3
d2
c4
db
04
e3
e5
06
09
04
05
f9
05
ec
e5
f0
12
f3
ee
0a
01
08
d9
01
f3
0d
f6
02
f7
fa
f6
f1
ef
ee
cf
d7
db
ea
f4
cd
ff
10
ff
fe
fe
f3
fc
13
fd
f0
07
f2
f6
2e
17
02
11
e5
fc
d1
de
2b
0a
16
11
f0
0f
e2
fe
e7
eb
0a
1e
f3
04
ed
10
06
df
e5
c7
ec
e1
e1
17
fd
38
2f
f9
09
10
fb
03
00
07
ff
00
cf
bb
db
00
f1
10
31
4e
4c
d7
d9
16
04
15
07
08
19
ec
02
f9
1b
09
03
0d
ff
ec
f1
01
fd
04
07
fd
f9
06
1b
0c
1b
29
fb
0c
04
03
f5
e7
f3
0b
ee
ec
03
f7
0c
05
13
1d
24
f9
fa
e9
e0
ed
f4
05
18
18
0a
e4
f2
e6
e1
ec
e8
0f
fc
05
01
0f
0e
f6
03
ff
f0
f1
dd
ca
fe
eb
04
01
0e
21
08
09
07
00
0b
0b
02
05
fb
f4
ed
fc
0e
00
00
05
fd
f9
04
05
f3
f7
f4
dc
f8
f3
df
06
03
fb
0c
05
03
cf
e3
e0
0b
08
ee
f9
eb
ff
ee
ef
13
12
06
00
f3
f3
f6
f2
fe
06
fe
df
c2
e2
c4
e6
05
05
36
f8
03
0c
f8
06
10
f5
09
f2
02
ff
f5
fd
e0
fb
0e
00
0e
12
e6
13
0f
03
01
e9
29
0a
06
0c
08
14
00
09
11
fc
e2
0c
1a
01
0b
e8
fb
e8
d2
04
fc
f3
d4
ef
ea
ea
fb
ec
00
1f
45
f3
00
01
ce
e7
9d
fe
f2
fc
02
fd
17
f9
11
f3
e3
f3
d4
f5
f5
06
02
02
16
ff
ea
00
f8
05
0d
fa
0a
ff
f8
1a
ff
e1
19
00
d8
14
17
f9
03
01
ff
0a
fe
ff
0d
0e
04
06
f1
00
0c
f1
00
14
ff
0c
ed
0e
0c
f8
00
00
fa
f2
f6
d3
18
f2
c3
4a
23
e2
03
f6
de
1a
00
ec
08
e6
f2
00
eb
fa
0c
ff
f8
09
f7
fa
fc
08
03
ff
f6
fa
fa
f1
00
ff
04
e8
3b
f8
df
34
15
00
da
cc
21
e9
fc
14
d6
e9
13
02
07
00
fd
f4
04
06
ee
03
fa
ec
e9
2e
0a
ec
37
1e
d9
da
ed
c3
0e
18
b8
1b
4a
cb
ec
f0
fe
f7
fd
fb
e7
f1
03
f4
fd
0e
f9
ec
09
01
f3
fb
00
01
08
ec
e4
fb
de
e5
04
f7
f8
03
0c
0d
0d
fa
07
00
ff
04
00
f7
ff
0b
f3
02
07
03
0e
09
05
00
03
f8
fa
09
04
fe
09
f1
f7
00
fc
ff
fc
02
09
01
fe
e8
0c
05
fb
fe
fd
f7
f3
0a
20
00
fe
01
fc
f1
f6
24
f7
e6
19
ea
df
26
ff
fe
0b
fe
00
0d
f7
f5
03
fa
fc
05
f8
f9
ff
ff
fa
fc
fc
08
11
ec
d6
0c
f3
dd
0e
f9
f3
f6
f1
e9
f7
01
f5
15
16
00
f1
fa
0a
f2
fa
0f
f7
fb
02
f4
0e
0f
f5
00
11
eb
eb
fa
08
f0
01
f5
03
11
0b
ff
08
10
fc
fa
05
01
eb
01
f4
f7
df
fa
f9
0c
41
f9
f5
0d
ef
13
2e
17
08
30
03
ea
f7
f8
0a
0c
07
03
01
02
04
03
00
fd
f5
f8
15
1e
02
f7
11
f4
15
01
0b
14
ff
08
04
f9
f6
f2
e3
04
de
c6
f7
04
ff
06
f6
ee
01
f8
fd
15
fc
fe
ea
e6
cc
f8
2d
10
09
06
f7
ef
fd
ed
0b
e8
d4
05
f2
e5
04
f4
fb
03
fb
fc
16
ef
fc
00
f8
fd
f6
fe
03
05
0b
12
fa
f8
08
ec
0c
0b
01
f7
09
e4
f7
d3
09
da
c6
fc
00
f4
05
01
f2
ec
05
f1
f1
05
f9
f1
0d
22
23
0a
25
16
eb
f0
f5
f8
16
ee
09
09
ed
e7
fe
d4
ff
fb
0c
f5
07
11
01
04
0f
fb
04
fe
0d
07
0b
f6
09
f5
e7
d8
ff
ef
c8
f7
02
e0
ef
f8
04
f2
e0
fc
05
f4
f9
17
02
0c
01
0e
fd
0c
09
f9
10
03
fe
ee
01
02
02
07
12
02
ea
f1
ed
f6
ff
01
02
12
00
fa
fd
f7
ee
07
fb
f3
03
fe
f1
f1
fe
fb
e8
f4
01
00
f1
10
25
0d
04
16
21
08
15
01
fa
eb
ef
e1
eb
f3
f4
f6
ea
17
00
00
0d
e7
f6
fa
f6
00
08
fd
ee
0c
15
08
10
01
03
fa
17
ff
10
22
e7
e8
ec
f0
03
fd
eb
ff
10
fa
03
19
0c
ed
ef
0d
f5
e8
04
f5
ee
f0
e7
b4
e7
fa
d5
db
fe
1a
fc
07
17
08
f9
ef
f7
f7
f7
fd
07
0b
f6
f8
0f
0d
f4
e9
e5
08
ef
f4
03
00
eb
fd
fc
f5
fc
d2
0c
0f
fb
0f
fe
2a
13
08
fd
fe
f4
3e
07
16
f2
06
eb
f3
00
f8
ec
f6
07
2c
03
f7
05
13
f1
11
1a
02
11
f1
ef
ca
ee
f0
ef
f4
fa
03
f5
fc
fe
03
fd
0b
03
01
fb
ef
03
08
01
fe
fb
fe
00
fa
e7
15
e9
dd
07
31
ec
ee
0c
ec
f3
e9
f4
e6
e4
fc
12
12
1c
03
10
13
fd
dc
e8
02
f9
04
0c
01
09
0b
14
f8
fb
f9
ee
f8
04
d7
00
00
f6
01
ec
d2
02
f3
00
f8
f1
f9
00
fa
07
0d
27
07
fd
f8
0b
fe
05
06
f1
e3
fb
ee
d4
ef
f8
eb
f8
e3
e0
e6
fb
00
f6
00
f8
0e
f9
f2
f1
ff
ff
00
0d
00
06
f9
f3
ef
fc
f9
fe
ec
f6
f0
fe
05
1d
11
da
12
0c
0f
fa
01
f1
ee
00
f3
f1
02
fc
08
f7
f2
fc
0a
f5
f7
03
f7
05
fa
0c
0e
fe
12
0e
f4
fc
00
00
e8
f6
04
f4
fb
fd
f2
00
17
ec
e3
07
38
00
e8
2a
fc
09
0b
00
10
0b
0e
00
e7
ee
01
1d
03
f2
eb
fe
ec
e5
e1
06
e3
f6
07
f8
04
fe
f7
04
fe
05
00
fa
18
14
0d
f2
fb
ee
f8
07
08
10
0f
fa
03
f3
f5
e1
09
06
10
2e
1a
2f
25
fb
00
e2
03
fc
f5
13
13
06
01
23
16
1d
06
f3
fd
f0
df
dc
01
18
f1
0f
1d
eb
13
17
fa
04
03
13
f6
f1
15
0e
22
c9
d8
ef
00
0c
0d
04
1b
12
ea
01
08
09
18
0b
03
17
fe
0c
00
00
00
f3
f3
f3
f7
f6
cd
e1
f4
ef
1d
28
04
1e
ff
13
03
f8
08
f2
ea
07
f8
ef
05
07
00
06
fd
f0
f8
02
04
e9
f2
eb
dc
fd
11
ff
1d
20
f2
ec
eb
ed
ee
fa
02
21
21
fe
0e
0d
0d
1b
07
f8
f2
f1
13
05
e3
01
ec
d3
00
ee
e1
0f
03
f5
06
02
e4
00
03
f1
eb
d1
db
e3
c9
f3
f8
f2
fd
ff
e8
e1
f7
dc
e7
e8
d2
fa
0a
02
20
f2
f7
f5
0d
16
27
f8
df
ef
ed
dd
00
ee
fb
1b
00
01
01
08
f4
fe
02
f6
f9
e3
e5
f1
f4
06
27
fe
15
13
11
2f
1f
03
12
fa
fa
f8
f5
f6
0c
0b
f9
0b
08
07
01
fe
f1
ef
02
f9
fb
f8
10
17
0d
1c
0d
01
14
15
12
1e
14
0c
fd
df
d1
f9
ec
f4
00
08
03
0a
05
04
f6
ea
07
0a
03
09
f4
0c
16
f9
16
16
fc
12
fe
ef
f0
06
08
18
08
0a
f9
fe
03
13
05
11
12
fc
0d
0d
fd
f6
fd
21
f6
5a
29
f9
0c
19
09
08
f2
2c
4b
24
1e
55
3d
09
f0
e3
0a
ee
05
3f
00
16
0f
1e
24
fa
f6
0e
ec
18
22
35
50
fa
1c
25
f8
d5
91
b2
ee
e7
d2
fb
e3
de
f2
9f
c1
f2
d6
cb
e1
c2
fb
f4
d1
fd
03
08
df
25
20
e0
0f
28
0f
04
17
09
ff
06
ef
f0
fc
1e
f7
11
09
0d
13
00
e4
e6
f5
0a
0e
03
e3
d8
ea
07
b8
09
ec
d0
cc
fe
b2
c8
0a
0c
09
09
1a
2b
db
dd
15
f2
af
fa
22
11
03
11
f4
fd
00
ea
f0
05
01
f6
c5
e6
f4
bb
ca
e7
0f
c9
ce
eb
a4
c0
e5
e5
e8
ea
ca
36
e8
c9
f7
00
d7
e7
f8
fc
fb
0c
e9
fd
2c
32
09
1b
1e
3b
0b
22
1d
21
f4
01
fd
c3
fd
0f
e3
05
14
ef
10
14
d0
fe
0e
e3
d6
01
e9
f0
ff
f9
f0
fe
e7
da
02
fb
ee
0d
0c
f9
f2
e7
04
da
b9
0a
32
0b
fc
f6
b2
cc
df
b4
d0
11
06
0a
0c
eb
e0
fd
c2
f8
00
2e
0c
02
47
0d
00
36
25
09
ad
f2
03
e8
e3
09
1d
11
e3
32
04
e3
31
26
1a
35
11
f2
f6
f5
ea
c1
de
13
c2
ff
fb
f9
14
1e
41
03
26
47
2d
fe
1f
0e
01
e4
f5
0b
0e
15
09
12
ea
fe
d1
f0
05
f9
0b
fc
e7
e0
02
01
19
0b
0b
ff
ff
e6
e7
ff
ef
fd
f6
0b
12
0a
12
03
e9
e3
0f
09
ef
f3
fa
08
0d
ea
1a
00
00
ff
09
d8
e4
fe
ee
0f
06
1b
16
0c
ea
f1
f8
0c
0d
06
1b
04
04
e3
e9
f3
e7
00
0a
fa
11
0a
fd
06
1c
02
1b
1a
f3
03
f5
0f
0c
f4
20
1b
f8
16
f6
e2
f5
f4
f3
e6
f6
10
fd
1f
1c
09
07
15
03
00
08
0b
f1
f2
01
06
0c
0d
15
02
03
f5
eb
fc
f5
fb
e1
f6
f6
f3
02
01
00
f5
e7
07
f7
e5
fd
02
10
05
05
10
f5
f6
0c
eb
f7
ff
f6
f1
e8
f6
fb
f1
f7
ef
f8
fe
de
e9
0b
fb
02
04
f4
00
06
09
17
ff
00
1a
f0
fc
12
e9
e4
12
ce
e8
1e
e5
ec
05
05
06
f6
22
f9
fd
1d
eb
ed
eb
d8
d4
f3
ce
da
e5
e8
ec
00
ee
00
10
f9
0a
00
f0
fd
f9
f7
f5
fc
e6
f3
07
1d
12
fb
0c
08
03
35
25
04
1e
20
12
03
fb
1d
2e
ef
28
16
f6
e4
0b
03
eb
07
ed
04
f4
ef
f9
16
2b
f4
12
20
ff
f1
05
f6
12
11
ea
f5
00
d6
00
f0
e5
ec
dc
f4
f0
f8
eb
fb
f4
f3
f5
f4
ed
f6
f3
03
0a
fe
0a
1d
26
0e
27
25
fb
08
fa
e7
fa
09
fb
07
f6
13
e9
f2
ed
ec
fa
cf
ca
e1
cc
c6
e2
05
09
05
ed
01
17
e7
09
10
03
06
0d
fc
f9
03
fd
ee
f3
1d
0a
03
0b
fd
fd
06
fc
fb
0f
00
0a
f1
de
f9
fa
e7
09
fc
04
01
1d
20
09
0f
0a
fe
ec
db
e6
01
0b
f3
e7
00
e3
f8
07
fd
f1
fe
fc
f4
01
0c
03
01
fa
00
f0
04
f8
00
09
f2
fb
f6
16
24
fb
fd
12
fc
00
ff
04
02
06
06
ff
03
fc
01
fa
f1
fe
03
00
03
f8
01
ff
1e
0e
d8
d1
06
e0
c7
05
03
05
12
03
f2
f8
fc
db
e6
f8
0d
02
f8
07
04
f9
f7
ee
00
01
f0
0d
11
00
01
04
f5
fc
1a
fe
f7
11
07
01
06
12
11
10
0c
11
fc
05
04
0b
00
fe
13
10
f9
02
0b
fd
f6
ff
fe
f7
04
fa
f0
fc
fa
fc
fe
01
fb
04
fc
02
09
fe
f4
00
f6
fa
fc
f5
e9
fb
f3
f2
f8
f0
e0
db
1b
36
f5
0a
40
02
1c
03
12
fe
eb
03
0a
f4
06
1c
0d
fc
0b
f9
06
fb
06
0f
fe
03
fd
f5
f6
fb
fc
00
04
00
fb
07
f0
f1
fe
f7
fb
0b
fb
f0
0c
f4
fb
0f
fb
00
04
07
01
f8
fa
f4
07
fa
01
09
06
fc
09
dc
e4
fb
ea
ef
05
09
f8
ee
f7
e2
e6
f6
eb
f8
00
f4
07
fe
fa
06
fa
ff
02
0f
f3
f0
08
f1
f1
1a
ff
f8
19
ec
fa
06
f7
f0
12
f2
fe
fb
30
30
0a
20
15
01
09
0a
0f
10
09
19
31
02
03
05
08
fe
ef
fb
07
0d
10
07
00
0c
f7
29
12
0e
3e
06
fc
f7
05
ff
fc
f3
fc
fc
e9
fb
dd
ea
08
1c
08
0b
00
f9
e9
e8
f9
11
fb
dd
02
fb
f0
f3
ee
f7
0e
34
11
fe
0c
fc
f7
ef
02
de
c0
e8
00
ea
01
1d
03
1f
16
17
04
00
f8
f7
f8
f5
fb
13
1c
eb
fe
03
fb
00
f8
e9
e7
26
14
00
18
0e
f3
d5
e9
fa
eb
ff
fb
02
07
02
0f
02
f8
e4
fd
f3
e7
f1
07
fb
0f
00
f2
07
10
fd
19
04
00
1b
09
32
1b
e4
f7
00
de
e4
e5
f7
0b
12
f6
17
09
f4
f7
f7
f9
eb
ff
03
04
0b
07
11
11
ef
e1
f6
06
05
fe
12
0d
f9
04
fa
f2
03
0a
00
0b
08
f7
33
34
fe
27
f2
dc
06
e6
de
04
01
00
0d
1d
1b
06
25
2f
05
fe
e5
13
05
f8
f5
fb
f8
f0
b4
d5
f6
de
f6
f9
fb
23
f3
01
f2
f8
1a
14
0a
23
04
ce
cd
e4
e0
da
d9
0d
ed
de
f0
f7
0d
f8
02
08
f6
06
fa
03
fe
0f
05
00
17
01
fb
03
fc
05
f9
e0
df
e7
0f
04
f9
f8
ea
eb
00
e2
f5
f5
ef
1d
00
03
09
05
08
fd
fc
f8
f3
04
06
0c
fe
0a
10
00
01
05
00
0f
05
fb
0e
05
f9
00
0c
00
0a
00
fe
07
f9
0d
07
fb
f8
f6
ff
00
05
00
08
13
0f
13
fb
f6
02
14
05
05
07
03
06
05
0d
05
f6
ff
01
f7
f5
0b
0d
f0
0a
00
f5
06
f0
fa
00
20
11
08
14
12
00
0b
12
00
04
01
ff
00
ff
0b
05
0a
fe
0e
fa
fc
1d
0d
03
1a
05
07
05
05
00
0f
09
f4
02
06
00
02
f8
fd
ff
f2
00
02
04
f8
f0
ea
f5
f8
f3
fb
00
fb
ff
ff
fb
04
0d
04
00
fe
f9
df
ff
f9
e4
f9
fc
fe
00
fd
00
fd
fa
06
11
02
fc
09
fe
07
09
f8
f8
00
fd
08
01
01
0e
1e
18
0d
0e
0f
14
0a
0a
fe
ee
0a
fa
02
05
f2
03
08
00
f6
02
f7
02
fd
f8
01
01
f0
fe
fd
00
ff
05
f3
f7
00
f3
ee
f6
00
ec
ec
f8
fe
f6
fd
f0
ec
fe
0a
f7
01
00
f8
fc
07
fd
fd
05
06
fd
00
04
f6
f5
f4
fa
04
07
fc
0d
04
01
0f
04
00
19
0c
f5
fe
03
13
0c
11
14
1f
09
fe
1c
08
08
11
0d
fa
1b
18
fe
1b
0b
f4
0a
05
fc
00
fd
12
fb
06
07
0d
08
09
0f
0d
ff
0a
0d
02
0f
12
06
0b
14
05
10
06
1a
f9
ed
09
dd
e5
fb
db
01
e1
08
00
f0
0b
ff
ea
18
f8
ef
00
00
e6
f8
f9
f8
09
03
0b
ee
ff
1c
0d
ff
21
00
f1
15
dc
fc
f4
d8
05
04
fa
18
f8
0d
11
f6
f6
f3
f7
eb
f8
1d
05
14
0b
ff
0a
f9
fc
11
e2
bf
2e
da
bc
2c
ea
d0
3c
e6
fc
0f
db
06
02
fe
1d
07
0b
fb
02
05
f6
04
04
f8
15
f6
f8
18
f9
0b
15
fa
07
fa
fe
ff
01
00
fc
fa
04
00
f3
34
e5
13
25
cb
01
0f
c4
13
27
fa
f2
20
ea
e3
20
ec
f2
f8
f7
f0
ec
0a
0e
fc
13
0d
ee
e5
fd
f2
ec
fd
fc
ea
e8
f4
0b
f6
fc
fc
eb
ed
0d
07
f9
f9
ec
ee
fa
04
f5
05
14
f9
03
f2
f8
f9
fa
f8
fe
08
d3
fe
03
e1
06
ef
f0
2f
fe
ec
09
f2
f1
ff
fc
f8
15
04
ee
e6
fc
ec
ef
01
f8
fb
0b
1e
06
05
04
ea
f7
02
e6
fd
15
fb
fa
06
05
fb
03
fa
fb
fe
f4
07
f0
eb
fc
0a
11
fe
e5
05
12
e6
0f
06
f6
20
16
e4
03
02
e7
05
0f
fe
0d
06
11
1a
eb
01
18
f2
fe
1a
00
fb
f3
f9
f7
fe
02
07
00
03
07
04
00
fe
ed
f6
fc
02
01
26
ef
d4
15
ed
fd
22
05
eb
ed
f1
10
ee
f9
06
f6
02
05
0a
fc
f3
03
05
f8
ff
f4
f3
09
0c
12
e1
ef
10
eb
e4
09
02
07
0d
f2
e5
04
02
00
09
f5
00
00
f3
fb
09
f3
f2
03
06
04
09
00
0a
fc
0c
00
02
b8
b1
e6
64
01
e5
1d
2f
eb
f8
08
03
e7
fb
06
c9
e9
fb
fc
ff
03
f0
f6
02
eb
f0
03
05
00
00
f3
f7
02
f6
fb
00
c2
bc
c7
7f
40
d3
2a
21
cb
fa
fb
fa
f2
f5
fb
00
fa
fc
02
00
01
04
f1
05
0e
f3
09
fc
02
0d
05
ef
f8
d1
ff
fa
d6
c0
df
21
23
d5
e6
4d
e0
01
fe
fa
09
03
02
fc
06
0e
fb
06
0a
fb
07
09
ed
07
fd
0e
f7
fb
11
0e
02
00
01
ff
f0
f0
0a
00
fb
07
05
08
00
03
02
03
fa
03
07
f4
ff
06
03
01
ff
0d
00
00
0d
09
fc
0d
14
0b
e7
fe
04
fd
f9
06
00
05
fe
07
f4
03
02
00
03
f6
fd
e6
1b
00
f8
11
da
f3
06
0f
14
e3
ee
12
de
ef
15
03
04
0a
f5
fe
07
01
f5
04
09
00
fd
f9
f1
02
00
f3
0b
05
0b
f3
fe
03
00
03
0a
0a
07
05
f7
fa
ef
ff
fc
ee
f9
02
08
04
dc
ff
05
f9
07
02
09
01
11
f2
fd
02
f9
04
0d
f3
00
06
04
00
f5
07
06
fe
0b
06
02
0b
fc
fc
15
f7
ff
fc
02
02
03
04
05
04
00
ff
00
f2
ff
f9
eb
f9
0a
fc
08
e8
df
f2
e9
e3
f3
e4
e0
ec
f7
f3
f1
f4
f6
f6
f7
07
fd
01
16
08
07
0d
0b
00
f3
07
04
f4
f7
06
e4
05
fb
20
fd
fd
f6
ff
fb
01
00
fd
03
0f
00
f9
f8
01
fd
f4
06
fe
fc
f4
e8
e4
fc
e5
e9
ec
e9
ef
00
fa
f2
f7
06
03
ff
0b
0a
ef
fb
ee
f9
01
fb
f8
0a
00
ec
fd
05
fd
f4
fa
07
ff
03
08
10
00
06
00
0a
f5
f6
f9
00
00
0c
ff
03
0a
04
14
05
fd
fc
00
05
00
fd
10
08
04
09
0f
05
0b
0f
0d
0b
16
1f
fb
fb
07
f2
f4
04
f9
f8
fc
02
00
09
09
00
01
06
06
fc
f4
f0
fc
ff
eb
ee
02
f8
ec
e7
e9
f4
f8
f8
f6
f7
f0
fb
fd
0c
01
09
03
05
03
fe
03
ef
ed
fa
e8
ec
f5
f1
f3
00
f9
f7
f5
ff
07
ef
0a
f9
10
06
0e
01
02
03
01
ff
03
fd
00
06
02
fa
00
05
fa
fd
06
07
fc
f8
07
07
0b
0b
03
06
f7
f7
f7
f5
ed
f6
fd
fd
f8
e7
fb
03
fa
f6
03
05
f4
02
0c
0b
07
04
fd
fe
00
fb
05
fc
fc
f3
fc
fc
f4
fe
fb
ff
01
00
f2
fa
f4
f3
02
f8
f2
10
05
06
05
14
09
03
09
0d
ee
00
10
ee
0a
0c
0b
f9
fc
07
fb
05
0f
1a
1e
ea
e3
eb
0a
11
19
ea
eb
05
fa
de
f0
0b
11
fa
ff
0b
f8
ff
10
01
fb
e5
e8
15
ec
e2
27
13
03
00
ea
08
07
e6
f3
08
fd
02
e2
df
ef
05
da
f4
24
17
09
da
e5
eb
15
39
16
fb
05
1a
17
0d
0b
f8
fc
f6
e5
f2
03
f6
f6
06
00
fc
f4
09
f8
f7
fc
ee
05
0e
09
01
f7
05
04
f5
d6
e8
09
fc
f7
07
06
f3
ee
fa
fe
02
ed
e1
16
1a
06
f1
e1
ee
05
e9
e1
1c
21
0b
fd
00
ef
e8
01
ff
f4
e3
f1
d8
de
e2
07
0c
0b
f5
f3
fa
10
06
10
0a
0d
0f
f4
f7
e4
02
dc
d8
08
10
0c
fd
17
1e
03
f7
0a
ed
ff
f7
05
f6
ff
08
f2
fd
19
0d
16
f6
f2
f6
05
fb
e5
09
13
09
10
1a
1d
07
1a
11
fc
0a
12
fb
f5
fc
00
e9
f7
0a
df
e5
21
03
e6
0d
04
00
0b
0f
12
fd
f1
04
fa
09
0a
e7
f1
f3
18
08
04
fb
00
ec
f9
0a
10
fe
13
17
10
1f
23
f5
f8
0e
f0
e3
00
13
fe
09
22
0d
06
06
23
0e
e7
eb
ea
e0
ec
e1
f4
fe
f2
ff
fa
0d
f9
09
05
ed
e4
07
ec
00
0d
f6
de
f2
02
02
0d
df
d3
f2
f7
e7
f0
fc
ff
05
f5
e7
0b
fe
e5
00
f1
d1
f9
00
01
fd
17
fd
f1
16
17
f9
14
1d
f2
fb
11
f8
09
08
fd
df
e4
12
f5
df
f6
00
ed
02
f4
0a
1d
ef
ec
00
01
f2
07
05
0e
fa
04
12
00
f9
05
00
e7
fc
11
00
ea
00
21
02
08
02
04
02
0e
07
f9
1b
13
0a
04
fb
fc
ed
04
00
e9
fb
01
f1
00
0b
f1
0a
0c
f7
f2
ff
f2
01
1c
f8
f3
00
04
f4
e7
00
dd
f1
2d
f3
e5
2a
08
f9
fb
10
fd
ef
03
09
f2
fd
fb
f6
0e
18
f3
f7
15
f9
df
f8
fb
fe
ed
f1
ef
e8
00
ed
ed
ed
df
1f
fd
d8
ff
22
f4
f1
f5
19
1b
fd
00
1b
fc
ff
09
dc
ec
16
eb
ca
f1
f7
e7
cc
11
11
16
0d
0e
09
04
14
02
01
e2
fa
f2
f0
00
02
f4
08
09
f2
fa
ff
0b
01
03
22
0f
00
07
18
e9
fb
06
fa
f5
0c
fe
f7
24
f8
e6
12
07
ea
ef
dc
0b
09
e8
f8
00
e2
02
f8
f0
01
0c
e4
ee
f7
ff
f3
f6
0a
f3
f8
f6
05
12
00
fa
11
06
fd
0c
f7
fa
fd
f2
fa
ef
f4
f5
ed
f1
f3
e2
13
1b
f7
00
e3
03
0f
ed
f9
0d
fa
ee
0b
ff
e4
10
03
ea
15
1f
f6
f1
e9
13
df
d8
01
03
e3
ed
f0
02
04
f4
f7
fc
ef
07
0a
f6
f1
f5
e2
dd
07
ed
fd
0b
0e
12
f1
03
f7
f4
ef
ff
eb
f9
fc
f7
f3
f7
f5
e6
ee
02
05
f3
ef
ef
f2
f3
f5
ea
f7
c7
e2
0e
c8
f5
28
ea
16
2a
0b
f3
02
ff
03
05
13
0b
fc
05
ff
08
f2
fe
16
f1
0f
0f
08
fb
05
f7
fd
00
f6
0c
07
fe
f6
07
06
fd
f8
fb
00
fb
23
fe
f0
06
f2
ea
05
ee
f0
19
0f
04
10
00
00
11
0d
fb
da
da
fd
dd
f6
08
07
10
08
d6
f1
0c
e1
ed
19
e0
00
27
fc
e2
eb
e8
de
e8
e8
e1
f0
fc
03
f9
f4
f6
fc
00
fe
f5
0b
17
f1
16
19
ec
13
07
e2
01
0b
04
09
fc
02
04
fe
f8
06
09
f7
0f
ff
f6
f6
fc
16
ef
fc
09
06
07
08
08
02
f7
fa
ff
03
00
0f
03
06
02
04
ff
fa
05
0a
fa
03
07
02
02
f3
f5
f6
f4
ee
f6
fb
f5
f2
fa
f8
da
18
e2
e2
f3
cb
f8
ff
00
fe
ff
ea
fa
ec
ed
f3
00
ff
11
00
04
13
0c
0d
1b
00
04
f7
f7
02
07
f3
f8
ff
fe
08
00
09
f7
fa
0d
07
00
f1
f9
ee
f1
f2
f2
f8
fc
ed
fe
f4
eb
df
e8
00
ef
05
02
e7
f2
fe
da
f0
0b
e2
08
17
04
00
f3
08
06
fc
0b
11
05
00
e7
ee
f3
fb
fb
00
10
fb
ca
be
d5
f2
da
dd
13
0a
f2
fa
f1
fe
0d
10
fd
19
19
03
fd
0e
fe
18
15
f0
fe
fb
11
ed
d4
d0
e6
ec
0c
fb
fe
15
f5
04
fb
14
32
01
fc
0d
d1
fb
f1
06
f7
17
09
fb
ff
ee
dd
2e
fb
fe
11
de
01
b5
e1
f5
d8
e5
e8
e8
1a
e3
f1
07
0b
ff
0d
06
10
1b
00
f3
ff
12
23
f0
f1
cc
ea
f2
db
29
00
e4
0c
01
ea
13
f1
ef
f6
d7
d8
d8
03
c4
e2
fb
f7
f5
d2
dc
f2
1b
2e
fa
fa
1e
d3
16
3e
20
fe
10
f5
05
d8
e8
01
02
04
f7
ed
db
f4
e5
fc
cc
01
db
cb
f5
ba
dc
d6
da
d4
b0
ec
df
e0
f9
01
15
19
0c
ce
0b
06
f7
09
13
1a
eb
09
f1
08
2c
11
e4
14
05
f3
fe
de
09
f9
e6
10
d7
e2
00
0b
f4
00
16
f2
ea
0c
f1
db
f5
e1
f8
d4
f3
fa
e8
fc
1f
10
3b
09
23
30
02
0d
ee
f3
e9
c1
b2
0f
11
22
4c
5e
41
1c
13
0d
04
2a
1e
0d
37
f8
01
e9
f2
fd
fd
0d
fe
2e
02
ce
9a
d7
e3
c3
05
15
02
0e
ca
d1
21
04
00
07
1a
26
0a
f9
d2
f9
1f
ec
03
22
28
09
05
f5
ed
04
0e
0f
0e
00
ef
f1
f0
ec
da
f7
fb
eb
01
f7
12
fd
fa
fc
15
15
ec
19
12
09
f8
20
fd
eb
14
ef
e5
f4
0d
1a
13
04
07
01
03
0b
f7
e5
e5
d9
ec
fa
ee
e8
00
06
0f
fe
ef
f6
04
02
05
03
fd
1c
fd
f2
03
ef
f6
ee
ea
f6
fe
f7
f7
e7
d2
fc
d6
ce
ec
05
f3
1e
f2
e5
0e
e2
d5
fd
05
e7
e3
e5
e4
d9
eb
e2
fa
f9
04
00
f2
f4
f8
f4
ea
e5
ec
f0
e6
ed
17
f9
f7
07
fe
06
fd
e5
fa
f7
00
1b
26
27
fa
dc
e0
df
ce
d0
fa
e4
e9
04
fd
e3
00
fb
f6
0a
11
fd
29
26
14
01
01
01
f1
e5
ed
ea
ed
e9
ea
ec
fd
e7
f7
10
fe
eb
f9
ee
e9
f1
fd
e2
f5
0e
f1
1a
f5
00
0e
f0
dd
e5
fe
e8
f2
de
c6
d0
c6
d3
dd
02
08
0a
00
03
10
f6
00
fe
fd
19
0b
00
09
00
f2
f9
11
f9
e8
f5
ec
e6
f3
ed
d4
e8
18
0d
07
fa
f6
f6
fa
ef
ec
0b
fd
f1
ef
e0
ea
ef
e8
ec
19
08
00
f4
f7
06
fe
fe
ff
0d
04
01
f8
ee
fd
f8
f6
05
2a
02
f9
0d
f5
f2
ef
e1
f7
ed
ed
f4
e3
e2
ea
04
1a
f8
0b
08
07
13
08
0d
0c
03
12
03
f5
ee
fc
ef
08
f8
f3
0b
df
f8
ef
04
01
ff
00
13
fe
01
16
00
0f
ea
de
0b
02
fc
fc
fc
f8
01
e6
fa
f0
e3
f8
0a
04
01
05
f0
f9
00
00
fb
08
f6
f8
0a
eb
f0
f5
f9
fd
fa
f3
f9
f4
f4
05
f3
08
11
10
06
06
00
ff
f6
e9
0c
06
0c
11
0e
f0
e3
ff
ea
f1
f4
02
f2
e7
fd
fe
e8
f4
fe
0b
f6
00
05
f5
f8
1f
06
04
22
f7
1b
09
17
f6
dd
02
d7
f7
f9
11
f0
01
12
ed
14
fd
0a
10
08
01
08
ff
f2
0a
0a
00
01
00
fb
03
e7
e6
f6
e1
f0
fd
ff
00
0a
f5
ec
06
00
f3
e9
f1
08
ec
f7
ff
f8
15
13
19
0b
09
04
03
01
f8
ee
f7
03
f6
f2
fc
e3
fa
fb
ff
fc
e9
da
e4
f7
f1
f9
f2
ef
f4
fa
f1
f3
ff
e9
f0
09
fc
09
14
24
17
12
0c
0d
07
ec
11
00
ef
04
00
0b
13
02
1f
0d
f9
df
e0
f0
cb
dd
f9
ec
f0
02
06
11
ff
fb
00
03
15
fc
f4
e3
f2
f7
ec
f2
f8
ff
04
f8
0c
0b
15
0d
03
11
03
fc
0a
05
ff
00
04
d9
0a
f2
e3
00
0e
fb
06
24
00
1a
17
19
10
17
0a
0d
f2
e9
06
dc
dd
fd
08
fe
09
f8
db
02
e1
de
f3
f5
03
d9
d5
01
dd
ee
02
fa
f0
f0
06
eb
ef
04
f2
fc
12
0c
f9
ef
d2
ee
f0
f6
f8
08
fd
0d
f8
f7
ee
ec
ef
f6
f3
0a
02
f8
0f
01
fb
f6
fe
04
06
0c
f3
03
03
f0
e1
f7
fb
06
0d
fd
25
04
03
fe
f5
f8
fc
f4
fd
02
f6
04
00
fb
02
1a
0a
01
da
00
fd
f2
fb
08
12
f9
00
fd
f6
08
0a
04
09
1a
01
1c
04
01
fb
fe
fa
f6
4c
00
e6
37
04
cb
d7
e2
0e
14
f3
03
f5
e5
fe
f5
f6
fc
f6
fb
fa
0d
02
fe
02
0a
00
34
02
00
28
00
e9
ed
ed
f4
f5
fe
ff
ff
fb
ff
fc
00
02
df
e1
0a
e8
05
05
00
0a
df
dc
ff
ed
df
fa
06
07
05
03
fc
ec
f4
fb
fb
fc
05
fd
00
15
00
f8
00
ff
fc
f4
ff
02
eb
fe
00
09
07
f9
fe
fd
f7
f6
06
f7
e6
01
f9
fc
06
0b
f0
07
f8
0d
f4
04
ff
ff
00
05
06
fa
fd
09
04
02
05
03
f9
05
0e
00
00
00
01
05
fa
fb
07
02
fd
07
02
fa
f8
08
f7
00
00
f4
f9
fc
00
ff
07
46
12
e1
55
19
e7
e9
ea
10
00
01
03
f4
f9
fc
fc
fe
00
fb
f6
fe
ec
05
07
fc
04
f6
fe
f8
f9
00
fb
f3
f6
ff
02
ec
02
fd
ef
f2
04
f4
f7
f8
0a
03
f4
fb
00
ff
fc
fd
f9
f1
01
eb
f1
f7
f7
f8
fb
0d
0b
fe
ff
0f
fb
fa
0b
0c
02
01
0d
00
f8
fb
fe
fe
07
10
00
e4
16
f2
ef
04
ff
06
04
07
1a
ff
f4
00
f3
0c
02
1d
04
f3
14
00
00
f5
09
07
f8
14
fa
fa
02
ec
f8
0b
03
fa
0c
05
13
16
06
15
0f
15
00
08
fb
11
11
f8
ff
f6
f1
f4
e4
f2
f3
f3
ee
01
fc
07
ff
f8
e4
02
09
02
01
f4
ec
1a
17
2b
f7
0b
0c
26
14
29
f1
f7
06
fe
f9
f3
00
e8
f4
0e
01
07
09
f7
f1
1b
fd
03
ec
d9
f7
f5
e5
f2
ea
d7
eb
08
fa
ec
00
f9
e7
0e
00
fb
0e
fc
07
0d
03
f8
03
f9
ed
0e
fe
17
06
eb
10
fd
ed
fe
fd
19
2e
ef
ff
04
03
0f
0f
ff
d9
d6
ff
ea
df
24
ef
f5
0f
f3
0a
fe
e9
ed
f1
e9
f5
10
03
06
fd
f1
f0
21
02
0f
0a
07
1e
f5
ef
e7
14
f8
eb
08
19
17
f6
f9
04
f4
f1
01
0b
e1
cd
0f
c8
c7
07
dc
be
05
10
02
05
07
01
09
14
05
02
f8
05
fb
f1
ed
05
ef
02
1d
16
ff
07
08
e9
08
1e
05
f1
ec
e6
ea
ef
e3
e4
e0
e4
00
0e
04
f6
e1
10
f5
c3
f0
11
02
e2
f6
03
ec
f1
0e
ee
03
fd
ed
fd
e8
d7
03
d8
e0
21
f6
00
0d
06
0a
04
f3
f3
25
de
f2
1e
eb
0b
18
f5
08
12
0b
ed
0e
2a
0c
ee
15
04
1d
b1
c1
d6
97
a7
e7
97
aa
fa
f2
f8
f8
f8
09
f0
00
02
0a
f7
fb
f9
f7
03
f3
f2
ea
11
0c
0a
fd
0f
04
09
10
09
fa
e6
fe
fc
e9
f5
e8
d4
e6
f4
06
05
f4
00
12
de
f9
02
0f
18
0d
06
05
0b
0f
ff
f1
04
fb
04
fa
fa
04
f7
00
0f
f9
fc
11
f8
0a
0d
fb
02
07
21
12
fb
10
18
fd
1f
08
f5
fe
f5
f9
11
fb
00
12
fb
f8
f3
05
04
fa
f8
f8
f8
f6
fc
fe
f6
fd
02
f0
fc
fd
ee
04
fc
06
08
fa
09
f6
ff
02
fa
f9
e9
fc
f7
f9
f9
07
01
03
ee
ec
f7
fd
f8
0b
ea
f1
01
e1
a5
c7
dc
a7
c4
e3
9e
bc
fd
09
07
0b
11
09
00
00
05
e1
e3
03
dc
e5
0b
c3
d5
f6
e3
ea
fc
e6
f2
19
e1
df
fb
06
04
fe
f6
01
00
00
00
0a
03
03
00
0a
06
f9
1c
09
fe
01
fd
01
03
00
07
03
fe
fe
1c
01
fc
0d
fc
00
04
f2
01
f7
f3
f3
fa
ff
fe
f2
f4
f4
fb
f2
f1
fb
fc
f4
02
04
f8
04
0c
ff
00
03
00
ff
11
0b
f4
f5
ef
fe
fd
f5
01
04
12
1d
20
16
0b
13
0e
10
01
f7
f9
0d
07
01
06
00
fd
fd
f5
f2
04
00
f6
f7
00
fb
01
fd
09
e2
ec
ef
e6
f7
e0
e7
f3
13
00
14
18
09
0c
0f
ff
00
fe
0c
04
f7
f8
fe
fa
f4
f3
fa
f9
04
00
06
09
ff
ff
12
00
f9
fd
ff
f3
fc
f9
03
ff
f5
f4
fb
00
00
ff
f3
eb
f1
07
1e
0e
f4
00
02
f5
00
f7
05
fd
fd
fc
fe
f8
fe
03
fe
10
1a
11
fc
09
0e
05
0d
10
05
00
f7
fe
02
fb
f9
02
fa
01
0c
03
fb
00
00
01
fe
fd
0e
04
fd
0e
08
ff
02
0d
09
f5
00
fe
ff
09
07
fa
08
02
f5
07
0d
f7
00
04
fc
05
03
0b
09
02
fa
04
f8
fe
fb
f4
08
12
0f
05
09
09
fc
0d
13
01
fd
0b
0e
0b
0c
0d
08
0f
01
06
02
f8
06
0b
f7
00
03
0c
02
fa
00
00
01
07
fd
00
f3
f7
fb
f3
ec
f7
f8
ef
f1
0f
0d
02
02
0a
00
01
07
fd
08
19
0c
04
09
02
0a
00
03
08
fc
07
fe
fd
f8
ff
f8
ff
00
03
00
fe
fc
fd
fc
ff
f9
f6
0e
17
ef
ff
06
f7
f7
fa
0a
09
09
0b
07
ff
05
f9
f4
fd
fc
00
fe
f3
02
01
f5
f9
00
03
fe
f6
fc
ff
f9
fd
f9
0b
04
03
01
00
01
03
fb
f9
f5
ff
13
fd
fd
05
05
01
0d
ff
09
0c
fd
04
00
fa
03
08
04
08
01
f7
03
fd
f0
fc
00
f1
f8
f6
f8
fa
fd
00
f7
f9
01
00
09
fd
ff
00
00
f9
03
00
0f
0e
03
02
0c
04
f9
f9
ff
fc
e6
ea
eb
e2
f3
f6
fa
f1
e8
fc
fa
ed
0d
f8
f7
04
06
e9
ea
f9
09
fb
00
12
02
10
06
08
04
f6
fe
ee
e8
ec
06
f8
10
fd
19
01
fb
08
16
f1
02
0e
f0
e6
05
00
00
fb
f4
dc
ee
f0
f1
07
06
ef
f1
fd
f6
f9
fe
fb
02
00
09
14
fc
f9
ff
fd
f9
02
12
18
0d
db
dd
d5
e4
e6
e1
f0
ee
e1
10
fc
ff
06
11
fb
06
0b
fc
fd
0a
0a
fa
00
09
01
fb
00
03
09
06
fc
e4
fd
05
f2
f7
04
18
18
0a
01
0c
fb
f6
f1
23
1d
ff
01
f9
fc
0a
02
f0
d7
d7
f0
e7
ea
fa
e0
e7
ef
ed
ff
f8
eb
f5
f0
ef
ec
ef
d8
e1
15
f3
eb
ef
00
ee
e4
da
bf
ff
e0
e3
04
ec
e6
18
f8
f3
04
04
f1
f3
fc
e2
ef
00
00
f4
05
fe
f9
f7
fd
f6
0f
15
20
00
f5
fb
ff
07
ff
f4
ef
e9
04
fd
ea
07
10
00
18
fe
e7
05
0d
fa
f3
05
fe
ff
ee
f4
ef
f9
15
f4
03
11
e1
de
da
dc
e4
e5
e0
e6
f3
fb
d9
f2
ef
e3
f4
ed
e9
fd
14
13
0c
08
05
01
fe
00
fd
ff
f6
ef
07
f9
04
0a
f0
04
0c
f7
e1
f7
01
e9
ee
f6
fe
17
f7
fb
e7
03
0a
f0
ee
0d
fc
00
fe
10
fd
f9
07
f8
ec
f7
00
05
f4
00
fc
f8
ef
f0
f7
05
00
0e
15
f8
fb
f9
f3
f7
f1
f0
04
04
fa
09
ff
01
f5
11
f6
1c
37
04
0e
0d
f1
fd
1e
02
06
ef
f3
ef
fc
fe
f3
04
ef
0b
29
f4
0a
11
f3
f0
ea
eb
e4
ef
00
f5
fe
01
00
f8
fe
f7
fd
0a
fb
01
0c
08
fd
ff
fa
c9
fd
f5
f5
0a
00
f5
f7
02
00
05
0c
f7
f9
e1
0a
f0
fc
29
08
00
14
ef
fb
f2
f2
12
0e
f1
1d
17
ec
fe
e0
e9
0b
e2
e6
0e
ef
e8
f0
ed
ea
f4
e4
ec
f5
ff
f6
fc
e8
e8
fe
f9
ec
ff
00
fb
f3
ed
f9
ea
e2
fe
f1
e9
01
fd
df
f4
f5
dd
ec
fa
da
e8
07
fc
ff
09
f8
00
01
fd
fd
f2
f1
fa
fa
f0
fc
f9
eb
03
ff
f9
f8
03
ec
f3
f7
e5
01
03
f2
f8
08
f8
0f
fb
f1
0b
04
fd
ef
fa
13
17
fe
0b
12
f4
ea
e6
f8
e3
e0
fe
f7
ea
01
13
02
fd
07
00
05
09
00
0d
0d
09
00
fb
00
ff
ee
f7
06
d8
ef
02
df
fb
f5
dc
f9
ff
09
10
0c
ee
00
ff
05
00
f4
f8
f0
fb
01
f2
f4
f8
e4
f6
fd
f5
07
05
fa
f4
e6
ec
00
0b
fa
10
f8
f9
f1
ec
02
05
01
f4
fd
e6
00
00
fc
0d
08
de
eb
08
fd
03
f2
0b
09
fe
fb
f6
f2
0c
0d
05
0d
07
12
18
ee
fc
04
0b
0c
f8
00
e1
f3
fe
02
f2
f1
00
fd
0b
00
14
07
00
f2
f2
04
fb
ef
e8
fe
1b
e7
dd
f0
e7
de
ed
02
1d
17
ff
05
0b
f6
f8
03
fc
e6
eb
10
10
e6
06
0a
fb
f6
f2
00
00
09
04
fe
f0
f1
f2
f4
0c
ed
f5
fa
f2
ea
fb
e5
f8
1a
dd
d2
f2
f6
d7
f5
e3
ec
16
f5
d4
e3
05
f5
fe
02
0c
19
02
ef
03
02
ec
00
00
18
2c
fb
ef
f8
01
f4
dc
08
06
e0
f8
1b
fc
f6
06
0a
e0
00
32
fa
e0
fa
13
fb
02
13
11
13
06
04
15
f3
fe
10
eb
eb
fe
06
ea
e4
0d
fe
f5
05
04
08
0f
11
03
fd
fe
0a
07
00
f9
f7
fb
00
f6
ef
e8
03
07
13
fe
14
fe
e9
09
fc
ff
16
21
01
05
0e
05
fa
fd
fd
2b
22
e1
0b
0c
e6
e1
f7
0a
fd
f6
05
02
fa
f8
0c
00
03
09
0d
f3
08
03
f0
df
fb
0f
2b
0d
05
18
17
04
f7
0a
11
f5
fc
f9
f0
f4
00
fc
02
e6
f4
14
fc
e5
e5
e9
ff
eb
dc
ee
07
f2
d9
f4
0a
ed
f1
fc
c5
f8
03
17
f6
20
2d
07
fb
03
00
f4
fa
12
fb
f5
fc
03
22
1c
f2
fc
0f
f7
f4
05
da
e0
04
f6
16
12
f4
07
c9
fc
09
03
09
17
f7
0b
0b
e7
0e
de
0a
e7
ff
14
f4
2b
19
05
06
13
f8
0b
19
10
10
0c
1a
10
0b
04
0e
00
09
01
06
d5
d3
ec
c7
b7
e2
e8
ef
06
eb
e6
e8
ee
e0
f4
f3
e9
0f
ed
fc
fc
ee
00
12
ef
03
04
02
fb
08
00
f8
1a
fc
0c
15
ff
fc
ee
05
e9
fc
f8
eb
15
f2
eb
f2
e9
e6
fd
00
eb
17
fd
de
dc
09
ec
f8
15
00
10
00
f5
ec
01
01
09
fc
fb
0b
1c
f6
d3
16
ed
eb
0f
f3
0b
f8
03
12
02
0e
12
f7
04
e9
29
f0
ed
20
e9
10
1f
e6
06
d3
dc
e9
d3
ef
f0
f4
0a
f0
0a
f6
06
e3
e7
0c
09
ee
0e
f6
f1
dd
fa
ed
d7
14
f1
de
04
ed
ee
f5
d4
f2
f1
ed
09
0c
0b
de
ed
d8
ea
06
eb
0f
0a
f9
fb
00
08
ff
fd
15
fe
26
e8
df
06
c1
f0
f8
db
0f
f5
fc
00
fa
1a
f1
11
15
fb
07
03
0a
06
fb
f9
0a
1a
00
0f
09
30
fc
12
08
0b
2c
11
e6
e2
f4
07
10
00
22
27
08
2b
1e
e8
e9
ec
f1
eb
fb
06
07
f7
e8
fd
ec
dc
02
f3
f9
fc
3a
ef
27
1f
e4
0e
07
f3
ee
0a
01
f2
0b
ec
f7
07
ea
fb
f7
fc
f8
d5
0f
e1
eb
1b
fd
ed
05
01
de
ec
20
f7
ed
0a
0b
ff
fc
1a
0b
e8
fd
07
0b
07
10
09
06
e3
01
08
eb
11
18
0f
fd
02
01
00
ef
fa
0a
00
0e
01
ec
f2
11
f2
f8
e9
d0
d5
e7
c9
e2
f0
ce
da
f1
ef
f9
e2
e5
f1
dc
d4
e1
db
08
01
e3
f4
fb
f2
04
00
0d
0c
05
0f
0a
08
ff
01
04
fb
f1
eb
00
04
00
00
13
08
05
01
06
06
00
09
f7
fc
09
ff
01
f9
0d
fd
f9
17
00
f0
ee
ee
fe
e8
e3
f6
01
e7
f5
06
db
ee
07
d3
d9
13
e1
d9
fb
11
0f
fd
fc
ed
f0
08
f3
f3
31
1b
ed
14
11
dc
08
01
0a
fb
fa
00
e7
e9
0c
00
01
ec
05
ff
f4
f8
f9
0c
03
ff
00
0e
1e
01
06
00
0b
0b
04
05
f2
fa
03
fe
03
fd
fd
08
0e
02
03
12
09
07
0a
00
fa
00
fe
fb
fc
ed
07
00
fd
0c
00
f4
f0
fe
ea
f5
fd
e0
e5
09
00
f7
f6
e5
e3
10
ed
ea
16
21
0d
08
03
ff
02
f8
fe
07
03
04
07
f2
00
f0
fe
03
13
fe
fe
18
f1
f5
15
f7
f3
09
fc
ee
12
f9
fa
00
06
ea
05
06
03
ff
f7
e7
fc
f0
e8
fa
fb
f3
e2
ed
ee
01
fc
fa
01
04
0b
02
f8
ff
ff
06
12
01
06
fd
0d
fd
0b
fc
fb
fb
f9
ec
08
ff
fc
09
0c
00
05
03
09
ef
fa
03
f9
02
12
03
ec
ed
14
da
e9
11
e6
01
15
2a
fc
c5
30
e5
d9
09
d1
0a
2d
f8
d9
1b
f6
dd
00
eb
e5
e2
1d
10
f1
0e
0c
f6
25
07
06
09
de
0f
0e
e0
0e
07
ed
1c
ec
d1
21
e0
d9
12
ed
f2
b3
0a
06
d6
f8
1a
d8
0e
2d
11
fb
fb
13
0d
f1
15
f3
e4
e9
f4
1c
e1
df
15
fc
e8
15
18
24
f8
11
04
e8
13
06
e8
18
03
06
03
fc
f3
00
ff
f9
07
01
dc
09
0e
e8
15
0c
dc
19
ed
05
1b
06
ea
06
eb
00
12
0f
bf
1b
fc
c9
12
fc
ed
f5
06
10
09
12
14
06
26
14
2a
03
e1
35
f0
c1
0b
e5
f3
f1
07
12
eb
f5
fc
d9
07
fc
05
11
f8
f4
e0
f4
00
05
01
df
04
44
f0
01
14
f1
00
18
17
fe
f8
0c
e5
f2
17
fc
f2
0d
22
e1
f7
18
fc
f9
1a
07
1f
f7
14
1b
f1
16
22
e5
20
e6
df
d4
0c
0c
02
0c
11
22
ce
f1
f5
f7
f6
f6
fe
ff
00
f8
e9
0a
03
ee
0a
14
07
13
ef
0e
28
de
e2
04
c2
f5
09
15
0a
df
02
0e
f1
0d
fc
ff
08
09
06
03
01
f1
00
f5
05
1f
f5
c0
1c
0e
af
27
fc
d2
d6
00
1d
ed
f6
03
f5
06
1b
00
f4
04
07
e4
fb
04
02
09
f1
e9
f3
f0
e3
e9
f5
ef
f6
14
f6
e7
ff
f7
e5
02
f7
f3
01
f0
f0
ef
e8
e8
e9
f4
ef
f4
db
fe
04
e7
f8
09
06
05
10
0f
10
00
26
15
00
fd
07
08
fc
06
fe
f1
04
01
05
04
ee
eb
f1
fb
f8
f3
07
09
05
fc
e6
0b
00
e6
f6
f9
e6
f7
03
0c
00
01
08
00
f9
05
00
0a
08
0f
12
0d
18
0f
0d
13
ff
0d
ff
01
11
06
f1
0a
03
04
12
fe
f9
fc
fe
f6
05
f5
05
f4
f6
fb
00
fc
fb
f7
fc
f4
fb
0a
fe
f4
09
03
f5
f4
f8
22
19
e9
0f
05
ee
14
05
03
f6
03
f7
ee
00
f9
f5
f9
ef
f4
f0
fa
ec
f0
04
f5
f6
f3
ef
ff
f3
e5
ef
ff
f9
ed
fb
f1
07
ef
f2
03
f6
ef
0b
08
f7
ec
04
00
fb
12
00
f2
ff
f3
00
fb
eb
f1
02
f2
05
02
06
f4
0d
01
fd
f7
02
f9
fc
fe
fc
ff
f7
fe
fd
f4
f8
f4
e2
e4
f4
e6
f5
f3
ea
ef
e9
ed
ed
ec
f2
ef
e5
f9
f9
fd
f9
ff
f6
00
fa
fc
f8
f8
00
f6
ee
0a
f4
f6
02
fd
f9
0d
fb
fc
0a
00
01
02
07
00
fc
ff
05
f8
e3
00
04
00
02
e9
f8
e5
ea
f8
ec
f5
01
02
02
02
fc
07
f7
07
f7
00
f3
fb
06
ff
03
1b
11
ec
09
1a
ff
0c
f9
f9
16
03
fa
09
fd
02
0f
26
f9
00
15
ff
fe
fe
f7
f2
e9
f9
f1
02
fc
eb
fc
fe
0f
f9
03
11
03
e4
fd
f5
02
fc
f6
ea
f8
fe
fe
e5
e3
f1
fb
eb
f8
1a
05
eb
16
23
ec
f8
07
e5
07
25
e0
f0
1b
ff
f2
fb
f3
df
e8
fd
df
ea
02
ff
12
fb
03
07
f5
fa
f7
fb
00
0f
fa
f4
ff
00
f6
f5
05
05
fb
04
0d
07
f5
09
13
11
0f
0c
0d
fe
15
00
ff
01
fc
00
fe
f8
05
00
fa
fd
e8
02
fd
fb
fe
12
10
0d
ef
12
02
f0
ee
24
fd
d8
0d
f0
e9
00
fd
fc
0d
f7
f1
0d
fa
ef
08
fc
e9
16
0c
e8
0a
0d
04
06
e1
ed
fc
ed
ec
fa
eb
01
fc
06
f0
ef
e3
f8
02
f6
fc
0b
0f
03
10
14
06
0b
0b
25
f0
00
ee
f4
f6
f2
fd
03
fb
f0
ef
fa
fe
e7
07
f7
e2
f8
fa
01
fa
06
00
00
0e
05
03
f6
fe
ed
04
f3
e8
01
00
f4
14
0d
0a
fb
f4
0e
0b
f7
0b
0c
f7
f3
23
fd
f5
1d
0d
02
01
17
06
01
19
07
00
0a
1a
0b
01
e6
04
fc
ef
04
f1
e9
0c
1b
f4
fe
37
0e
e8
fa
f8
fa
e2
ea
05
f1
f6
00
e3
f9
0a
f3
01
00
ed
ee
00
f4
f0
16
f5
ec
05
fe
e2
05
fb
ff
09
ee
ee
f8
fa
0c
05
05
0f
ff
f7
ff
02
09
0f
02
fc
fc
e7
10
08
e7
e7
15
0d
f7
fc
eb
17
23
e2
ef
0a
fa
e7
e9
02
e9
f2
08
f9
18
06
f5
fb
d3
30
04
ad
44
62
a5
ea
3b
e4
10
0d
d4
fd
11
ec
e1
0c
08
f8
dd
0e
ef
00
04
02
00
e0
15
06
d6
11
29
de
f6
16
09
f5
fe
0d
ef
f3
f5
fa
fb
d5
06
2b
e3
e0
0b
0c
ef
f4
f0
f0
13
03
e9
fc
fa
00
00
00
f1
03
e1
ec
15
d6
dd
02
fc
fb
fb
01
ff
03
02
09
07
e9
e2
0b
ea
fa
10
f4
f7
1e
0d
f8
10
0f
f2
00
17
06
f0
f5
e3
f5
fc
02
fd
0c
10
01
03
f5
05
09
e9
f4
0e
0a
00
09
07
ff
05
fe
fc
0d
02
f7
ef
00
f9
fb
f1
07
05
00
fb
02
00
05
fd
01
f6
f1
13
0f
cf
fc
f3
c0
1b
4a
d8
e0
0a
10
09
f1
05
05
e5
14
ff
ed
1d
22
fc
05
17
0f
e1
fa
04
1b
09
f1
0f
03
f0
01
06
00
0c
02
f5
06
07
ed
04
00
00
02
f6
f1
0a
ef
f1
1d
19
ef
11
fe
06
17
ed
e0
24
02
df
12
06
04
03
06
f9
00
ff
fd
0c
f7
fa
0f
f0
f9
0a
fe
fc
00
f9
ef
08
0b
ec
04
ff
f2
f9
eb
fb
00
da
f0
f3
00
f3
16
32
fd
15
f3
e5
fa
ee
f5
05
04
f6
09
f0
fd
04
fe
f9
fb
09
16
fe
07
0d
ee
0a
07
19
f0
fa
0b
d8
fe
0d
f2
07
04
0f
0f
06
28
12
02
12
15
0f
f3
fa
f2
a7
eb
00
d5
0d
fd
fd
0e
f0
0c
04
f4
1b
00
f3
ee
f9
f6
e3
f0
f6
e7
fb
1c
dc
17
db
9a
f7
07
e8
1f
e9
fe
fb
fe
ff
01
02
08
08
fa
d4
cd
01
ea
e1
12
0f
ef
ea
0b
e9
10
23
e7
e2
ee
d7
2e
f9
12
03
a7
ca
f9
c4
e7
ff
0d
15
fa
fe
00
00
11
00
f9
0d
0e
00
13
05
fc
05
04
0e
0f
10
05
00
04
06
01
02
ea
0a
04
00
15
07
00
0a
0c
f4
fd
00
ee
f4
ff
fb
f6
f8
f8
03
00
f6
ed
fc
f4
e9
04
03
0e
fe
0c
f9
fe
0c
05
01
fe
05
02
04
fd
07
fc
fa
02
23
25
09
27
f6
04
1e
f0
0d
eb
f8
fd
df
e4
fd
e3
ef
fa
04
03
00
0b
05
fb
0c
00
fc
03
09
08
f2
08
0d
03
15
fa
00
04
02
ff
ed
f3
f9
05
fb
0b
05
f6
14
ff
fa
18
fa
fa
09
14
fb
03
3a
0f
f4
10
00
f9
fa
f3
f1
ef
00
f7
f8
07
f8
f9
ea
eb
e9
e3
eb
f6
ec
0c
f7
f1
fc
0f
00
f7
0c
f9
13
f9
e3
f6
d8
d7
fa
fb
00
fa
ff
fb
01
f0
fb
00
fb
02
fd
f0
fc
04
f0
02
04
07
05
01
14
0a
00
0c
10
f3
0e
09
eb
da
e1
f4
eb
ea
ff
f9
ff
06
ed
00
ff
00
07
fa
ee
fe
e6
dc
f6
f2
da
fc
fd
ff
0f
02
07
07
00
03
fc
10
05
f8
16
0d
fb
fd
fc
08
02
0b
0d
f3
f0
f6
fe
ec
f9
0d
0f
0b
f4
f0
fc
fa
e2
e9
07
ff
00
f7
e9
ea
ff
0b
0c
06
10
0e
fc
0c
fe
ee
ff
f1
ee
fb
f7
f0
f3
00
01
04
fd
04
0e
0d
ef
e3
ee
f1
f0
01
ff
0b
00
f2
16
14
ff
13
0e
00
05
fd
19
f2
f3
00
de
ec
fd
f6
0c
02
1c
14
fb
05
fd
fb
08
fb
fa
01
06
09
08
fd
fc
04
00
15
03
01
00
f5
fe
ff
01
07
00
fa
f7
07
02
f7
00
03
ff
06
18
0f
fd
0b
03
03
0d
02
16
24
0d
10
fd
f3
0b
02
06
10
02
f1
f1
d0
d7
e6
eb
fe
17
12
06
0e
07
0f
06
12
0a
ff
05
f5
f8
fa
f6
01
0a
00
0f
eb
e6
fe
ec
e9
01
0a
0f
eb
eb
f5
f8
e7
f1
01
fa
01
f5
ef
ed
fb
f0
f7
f6
e7
f2
f4
e4
f2
e8
f6
f5
04
0d
09
ff
0b
07
01
00
fb
03
fa
02
03
f8
01
01
f3
fc
fb
ee
f3
08
1a
26
fe
01
11
e6
e9
e4
0a
00
f8
f5
00
11
f5
13
14
fd
ef
08
f6
fb
05
06
ff
02
f1
da
e5
d6
e1
d2
e3
ff
ef
0b
fe
00
f4
e6
ff
e6
e9
f6
e7
b3
dc
da
d0
f0
d4
da
e7
28
21
3e
07
ee
03
da
e5
de
04
06
f3
02
06
f0
fb
f4
fb
14
ea
ef
f7
dd
04
e3
e5
16
00
00
e7
04
ef
00
f9
f6
07
f9
f8
fb
f8
eb
fb
10
fc
13
0d
f1
fc
05
fa
f6
00
13
09
11
16
1d
1b
02
0b
06
e5
00
00
e3
f5
00
f9
ff
13
02
09
ee
00
0a
e9
eb
e7
05
fa
ed
03
ff
03
06
f0
f3
18
20
18
f9
f3
fe
1f
08
0c
1f
18
09
f6
fc
fc
f4
e9
ec
0c
01
fb
ea
f7
07
e5
d9
d6
ef
e7
e7
00
f6
04
fb
e8
17
e0
f7
02
e0
d8
00
fa
e2
f5
f6
e5
f3
fc
fa
00
f6
00
ff
07
0b
07
0f
0b
15
f7
f1
15
db
f9
15
07
e9
01
00
ee
f8
02
fc
08
0c
e5
00
f1
e8
09
eb
ed
05
1f
09
e3
fe
04
e9
f9
00
02
02
0c
ff
0c
15
06
15
15
0b
00
29
0f
fe
0c
f2
f7
f4
e5
0b
fd
fa
fc
fe
f3
07
f0
0d
0f
13
04
19
0d
05
10
0a
f9
13
16
0e
e8
ed
f4
f3
f6
07
0d
e6
f2
ee
c6
ef
dc
dd
08
00
f3
fe
fd
f9
18
00
f1
00
14
e6
de
0f
00
f9
0f
00
e5
2f
0b
f9
00
fd
fd
24
f4
f3
cf
ef
10
f8
f7
0e
f6
01
23
e3
00
f9
f5
fd
0c
f6
04
ff
0d
0d
21
01
fd
f8
01
14
17
00
24
f7
ec
0c
0a
f5
0c
f5
d0
00
0f
e7
16
27
df
f9
03
20
fe
fb
06
fb
fd
0c
f6
f5
f3
fe
06
03
fb
e6
fa
0f
11
f8
fb
0e
02
f4
ee
0e
f0
06
e7
18
06
f0
05
f7
ef
08
f1
e9
1a
01
fa
00
d8
00
27
04
e9
f4
ff
f0
ed
e2
f6
03
09
f1
0e
ff
f4
fc
00
04
03
00
ec
d6
f0
18
f6
07
f3
ef
01
f2
dc
ff
f2
e3
00
f1
f1
fa
c6
ec
f4
d2
d7
ef
ef
d7
09
04
ec
fb
0e
02
18
0f
0c
08
0e
f5
04
ff
00
08
08
fb
0b
19
0d
00
06
0b
0c
19
27
fb
0b
05
18
08
16
11
10
04
19
ef
00
15
f1
03
09
ff
02
08
fd
df
ea
ff
ed
02
fe
ec
fd
06
ef
fa
04
fa
f8
13
03
fb
fa
fd
ff
ea
f1
f2
e8
f4
e0
0d
e4
d8
14
e8
e9
1d
e8
e6
03
f8
df
04
0f
fd
05
08
ed
f0
e9
06
fc
00
fa
fd
ff
07
fe
f8
e6
f7
04
f5
ed
02
db
07
ec
35
fe
bc
fd
1d
f1
14
e8
e2
ec
f9
e4
f9
f1
e6
e6
06
01
0f
00
15
0c
df
f1
e6
f2
04
03
ee
f9
00
e8
f5
e5
ff
0c
00
01
11
12
fd
04
f9
07
0e
02
02
0e
06
f8
01
00
05
f5
f6
03
f0
01
0e
fe
0a
f0
00
03
f6
0b
0e
f5
03
0c
f5
07
fa
fc
12
04
ea
10
fb
f9
01
fe
0e
1a
fe
fb
0a
f6
ec
f4
ef
e7
f3
ea
e7
f2
f5
02
15
ff
0d
30
02
eb
0c
eb
e0
ed
f3
eb
ea
f3
f9
f8
f5
ec
ea
e0
03
f9
f5
12
0a
05
f4
f0
f3
00
f7
ff
12
06
01
18
1e
04
0b
1e
f5
f3
0e
f6
14
19
05
15
20
0a
00
0e
fd
f7
e8
d6
09
ed
ea
05
03
ff
f2
ff
f9
eb
01
04
ee
f4
00
f4
f5
f3
00
f7
fe
02
04
0b
ff
f3
f2
f3
f9
f7
ec
e9
f3
f3
ea
f3
f8
f2
ea
07
1b
0c
00
f6
04
f6
fb
00
06
0d
02
ff
01
f2
fd
fd
fa
0a
00
ff
f6
09
ed
0a
10
00
00
07
f2
f1
fb
ff
e9
fc
fc
ee
ed
f1
f5
f8
ef
fb
ef
f9
f1
f1
fe
07
16
05
f5
15
0f
10
1c
17
ed
ee
00
ff
f6
fd
f6
eb
ec
02
07
fe
09
00
ec
17
0e
0e
fe
f0
00
01
f5
09
01
f4
00
05
14
f8
16
1d
ec
02
0a
e5
fe
fa
00
01
03
08
f0
ef
f5
09
f6
f7
02
ee
e8
fe
f6
f2
e0
d4
f9
e6
cd
f1
e9
f4
02
00
08
eb
fe
19
13
f8
16
1d
00
00
f9
07
03
f5
05
03
f6
00
03
01
01
00
06
f9
08
04
05
f7
eb
09
fc
fe
11
0d
04
ea
d5
ed
dc
ce
df
ea
da
e7
d9
f3
f8
fe
19
14
11
29
1a
f6
ff
f0
0d
ed
ea
05
05
f5
f7
dd
ea
f4
e0
eb
ec
f2
fb
fc
0b
f0
00
1d
02
fa
18
ff
f5
f5
f5
f7
02
f3
00
04
ec
00
f8
f2
0c
02
01
12
18
08
f1
d6
f6
e4
c0
f0
f4
e5
0f
00
d5
d7
f8
d9
e5
03
f6
ff
f1
08
0d
08
08
0d
0a
04
fa
16
25
0b
05
23
ff
f8
0c
fb
ff
05
0d
ff
00
0e
fe
07
0e
fe
01
02
05
fb
02
fd
02
fc
ef
dd
f2
eb
de
f0
fc
e9
ef
00
f8
f6
0d
04
00
04
fa
05
0a
10
14
13
13
0e
1b
0b
f6
08
0a
fc
0b
09
05
fc
08
00
fa
fb
f5
06
25
10
f0
14
02
f3
f2
02
ef
f1
fe
eb
ea
f4
03
f9
02
fa
f4
06
f9
f4
07
06
17
0b
0f
17
0a
01
1b
12
06
00
03
08
ff
05
01
00
05
07
f7
ff
fc
fc
02
f9
f7
f9
01
f5
f0
f0
f5
f6
f1
e6
f6
f3
e5
f7
f4
f2
10
05
00
00
00
ed
f1
fe
e9
f9
fc
ff
fa
13
01
ff
02
05
f6
02
00
f5
f2
fd
07
05
f9
fa
00
1f
00
f1
fd
07
f0
ef
f1
f3
ed
dd
f9
04
06
17
1e
05
f2
2d
15
e1
f9
ef
cf
f9
fd
f1
04
fd
d9
d4
06
e0
dc
06
13
05
22
16
07
0b
fc
fb
f4
15
0f
01
06
ff
2c
ea
dd
f0
04
f4
03
d4
f2
ee
e4
f0
0c
07
fa
e3
22
e8
e4
12
02
d1
21
29
d3
f7
f2
14
fa
f4
0a
ff
e0
00
f3
09
ee
d6
f4
e4
de
fc
f3
f9
cd
d8
0c
c8
e6
1e
e4
fd
f0
18
1a
d4
f5
09
c9
e3
12
07
cd
28
fb
a9
ee
2a
c4
ff
ec
26
16
e8
1f
10
e3
25
fc
eb
fb
f9
07
06
03
19
f2
09
e2
e4
ed
04
eb
d9
1f
10
fe
02
14
02
ea
13
05
f3
11
0f
f6
12
fc
fb
12
01
fc
fd
00
f9
fc
ed
16
fb
ee
10
f7
e2
ff
f5
d3
09
ef
e9
04
02
11
f5
f3
01
fd
f6
01
02
02
01
08
e5
06
06
d9
ef
1d
00
01
f2
36
10
f0
30
0f
dc
20
0c
f6
00
e5
dd
f2
eb
10
02
06
e8
19
19
f1
f3
ef
00
02
f2
d9
09
e8
dd
19
01
d8
14
09
f5
e9
f7
01
03
e7
0a
36
0d
e6
ec
0e
ff
f9
17
fc
fa
0d
f5
d7
04
eb
d4
ea
fb
e7
e2
0f
2c
00
d0
19
1d
d4
fc
03
e8
fa
fa
dc
fc
0b
f6
1f
0e
02
05
fe
00
05
00
fc
00
00
02
fe
fc
f7
f3
fe
00
00
fc
06
05
05
09
06
05
05
00
ff
f1
fe
05
05
0e
07
07
02
0b
08
06
03
04
09
f8
f5
f7
f6
01
0b
05
05
0f
fb
06
00
09
1d
0b
06
17
0d
04
13
10
02
01
00
fd
ff
0a
fa
f8
03
01
01
07
07
05
06
02
08
09
fc
00
00
fb
00
01
02
02
fc
00
fb
fd
02
ff
03
03
02
0a
04
0b
13
16
0f
1b
04
05
07
0d
06
0f
07
0e
0e
04
07
0c
0a
fb
00
fc
fd
ff
ff
02
06
04
fa
f4
f5
06
02
00
01
09
03
03
f8
01
00
fb
ff
02
fe
02
fa
ff
ff
fb
06
02
fd
04
05
05
fe
ff
02
fd
03
fd
06
00
04
02
fb
03
04
06
00
0b
0f
fe
09
fd
03
00
fe
fb
04
fd
fe
f8
f9
fb
f6
fa
f6
fe
00
f7
ff
fa
f9
fb
fa
01
ff
fd
00
09
02
05
06
07
07
13
08
f0
f7
fc
f6
fb
ff
fe
fe
ff
f1
00
02
f9
09
06
00
fd
04
07
fd
03
00
00
fe
02
ff
fc
f2
f9
fc
00
fa
04
ff
04
09
f4
f8
f9
00
f9
f4
ff
ff
fa
f9
03
01
00
07
06
fb
ff
01
fc
03
01
ff
07
fe
ff
05
fb
fa
f8
fd
fa
01
04
fe
00
03
fb
05
fe
ff
05
fc
0b
03
ff
f9
02
f6
08
fa
ee
16
1e
07
0b
1c
13
16
ef
d8
03
d1
db
01
ff
01
09
09
f8
f8
f3
f7
fd
ff
02
09
fb
fc
ff
fc
fe
e3
f1
ee
ee
08
09
e6
ea
d4
fb
e6
e4
fa
3c
25
f7
29
06
f8
14
0c
0f
f4
e8
24
04
f6
f7
df
e9
f8
f5
05
f8
25
21
00
05
0e
f8
ef
ea
0a
fb
fd
10
d5
20
d6
80
bb
07
92
fb
18
1d
1a
00
b7
df
03
c4
ed
ee
f2
f5
f1
1b
0f
db
00
f4
ca
f8
e7
0f
7f
19
d0
48
f0
07
15
2d
f6
eb
e8
03
f5
e3
f6
fa
00
f8
d0
ea
f9
e5
ef
0b
de
f9
12
e8
f1
0a
e4
f7
0b
13
11
01
07
14
00
fd
10
fb
0b
09
05
2e
16
07
00
0f
05
04
01
00
f9
f8
08
f5
fc
06
07
01
f5
f2
0a
fe
ef
ff
09
f9
f3
12
fd
ef
fb
02
0a
fd
f9
f3
f6
ea
fd
fd
ea
05
ef
fb
f4
0a
00
0e
02
e2
f2
f3
19
08
f3
06
0e
ed
01
f8
eb
07
00
0c
1a
09
10
06
05
02
03
06
f9
fe
0a
04
06
01
03
ed
e5
03
dc
e2
fb
e4
e5
09
ee
ff
00
0a
f4
00
0d
1b
05
fd
e9
09
5b
23
fc
35
08
f1
05
f8
06
20
1a
f1
ff
f5
0c
07
0a
f7
01
ff
00
f7
f6
ef
f5
fd
e6
ef
18
f2
08
15
ff
f3
fb
fe
ef
fa
14
11
0c
05
0e
f7
ff
ea
ef
04
09
18
04
0d
f5
07
ff
ee
ff
02
fb
03
03
fd
fa
f7
f7
ff
fa
fe
f3
09
08
f9
0b
06
fc
01
fb
f6
f5
fb
ff
fa
fa
05
00
01
f5
ff
fd
01
ea
f8
08
ff
05
fc
ee
01
09
fa
0a
0a
0c
ff
08
00
00
00
f1
fb
ff
fd
02
00
d9
ea
fd
d7
ff
05
13
0b
03
07
ff
06
0e
09
0c
00
07
e7
3b
3d
dc
2b
27
d8
f2
e7
ff
1f
02
08
03
01
fb
f6
fa
fe
f2
eb
10
dd
df
14
00
01
06
03
f9
0d
fe
04
07
0d
02
fc
15
09
09
09
f9
06
05
02
02
03
13
09
f9
10
02
01
0f
f8
ec
f2
fe
e9
f4
00
eb
fe
f8
f3
fe
00
f2
f3
01
f4
fc
04
07
11
f7
03
01
03
fe
0a
0a
01
f8
08
fc
f3
04
03
03
07
f8
03
03
fc
08
00
fb
07
e9
ef
06
ff
f1
ff
05
0d
00
02
f9
02
f8
01
f9
f3
f5
f0
00
f2
f5
f5
f8
f9
f8
f9
08
01
05
f9
f5
eb
f8
04
ff
ff
04
00
02
f7
fb
fd
f2
f7
f3
09
04
f5
08
fe
f8
05
00
0c
00
1b
0d
0e
0e
09
08
0e
09
df
dd
f7
e5
ce
f0
f2
d7
f4
00
0e
01
fa
07
03
00
05
0d
02
f9
18
ef
02
20
03
0e
07
00
03
01
02
de
01
1b
ec
fa
01
0f
fe
04
f4
08
f5
f4
00
ff
02
08
f5
d9
f2
ff
eb
f2
f6
f5
ea
f1
de
f2
fd
f2
f7
04
10
12
01
fc
03
fb
f9
fb
fb
f6
fd
ed
0e
f4
e7
0a
fc
c9
ed
08
be
b1
0d
ee
da
04
fc
fd
fc
e4
e0
f1
e8
ee
fb
ff
00
f5
0e
f4
04
fd
fd
00
fe
03
ff
e5
ea
f3
f8
02
09
fb
0d
17
ff
dc
14
f4
f0
09
da
c7
cd
f7
dc
e1
0f
11
fa
03
00
ec
09
1c
de
ee
00
d1
0f
16
07
02
09
ef
f6
f0
e9
ff
03
f4
f9
06
fd
f3
f1
fd
f6
1b
e3
0d
2b
00
ea
21
f5
eb
f4
22
ca
bf
19
eb
be
0a
0b
0d
06
08
f7
0e
03
f5
02
fa
00
10
06
f7
03
0e
f7
04
f8
f6
ff
07
e6
05
f8
ee
00
06
fe
07
0a
e5
06
14
fb
06
f0
fe
f4
ec
eb
06
e9
f6
fe
0a
13
fa
18
fc
f1
12
f6
e6
10
fb
15
f4
be
fd
10
c9
00
ff
06
04
ff
f7
09
03
09
12
fe
10
00
08
08
f8
fe
0c
04
f3
d9
03
df
bb
f3
00
e2
08
fc
14
ff
f8
0c
02
00
03
00
fc
ee
f6
00
f3
fc
01
02
fa
f4
08
00
eb
f0
01
ec
ef
02
07
00
fd
01
fa
ec
f9
02
f8
f5
09
03
fd
01
08
fd
05
15
fc
00
05
fe
0b
06
ff
05
1a
07
21
25
fc
f0
03
e0
db
e1
fc
1b
fd
e9
e3
ff
f9
e5
f9
1b
f9
06
fb
00
10
f1
fc
0c
df
ee
df
0c
02
f2
25
26
1a
04
0e
13
08
f9
ef
fe
ef
f6
ed
f3
f4
fa
e9
f6
01
fa
f3
1d
fb
09
13
02
fb
04
05
01
f2
04
06
d9
c1
e6
e2
ca
d1
f5
fb
fa
0e
ff
02
fd
06
fd
f0
12
0e
e9
df
03
01
fc
fd
09
f8
f5
14
0b
05
01
0f
0c
dc
ed
e6
08
0c
f7
1c
1c
08
d8
e7
e5
0d
00
f1
18
07
06
20
05
f6
12
08
0e
0a
04
05
13
0d
04
11
14
04
ff
0f
07
f3
f2
08
ef
ef
00
fc
f8
01
2c
05
00
10
11
11
ff
09
0a
0e
20
1b
11
0c
20
15
0c
08
f7
29
09
c7
d5
f6
dd
c5
dc
fa
04
03
f1
ed
fd
13
f8
ee
f6
00
04
ef
f3
f9
fa
f9
fe
f2
f3
ee
f2
ed
e9
fd
05
ff
07
03
16
08
03
03
04
08
00
e4
f2
fb
d2
d2
e5
e4
df
e8
07
13
fb
e0
ed
f3
fd
e8
ec
11
0f
0f
fd
f8
fb
ff
ef
f1
02
12
0e
ed
f2
fe
12
01
fc
f7
f5
f7
07
f3
fe
17
00
09
ee
e4
f1
00
fa
f3
f7
00
fb
0b
fd
fb
ff
f6
fe
f3
fb
f9
f2
04
09
f9
e8
f9
07
ee
fa
fb
09
08
f5
e5
05
00
fd
15
fa
01
07
f8
e7
ef
02
fd
00
fd
f8
f0
ff
00
ef
00
05
fa
02
fd
03
02
ee
f3
fb
fc
fe
04
02
fc
01
00
fd
01
f8
fa
fa
01
04
f4
f0
f3
fc
06
fb
eb
ea
f0
fe
02
08
10
00
08
05
00
09
00
03
06
fd
ea
f2
f5
f4
ff
00
00
f9
01
08
f8
fc
00
04
f6
f7
fb
f1
f4
02
0b
12
0f
05
0c
09
0a
12
0d
00
fc
f4
04
fd
00
06
03
00
00
ec
00
00
fb
f5
06
0a
00
fc
f0
f1
f6
e5
f3
f9
fd
fe
13
1f
13
00
fb
12
03
f7
03
08
13
07
05
11
08
ee
fd
ef
fc
08
0b
00
fd
06
02
ff
08
0b
1b
0d
12
30
0f
03
f7
03
fe
fd
08
fc
f9
0b
00
0c
00
ff
04
05
03
00
02
09
08
09
0b
08
03
07
0e
08
18
0d
0b
fe
fe
06
fc
00
fe
fe
00
00
f9
f5
f8
fa
fb
fc
fa
f6
ff
fd
f7
fd
f3
eb
f4
f1
f7
f4
1a
16
0a
11
0d
0f
14
1b
0b
00
f5
02
f4
03
00
f9
ea
ff
fe
f2
02
f5
ea
f1
f3
f8
f3
02
f9
f8
f6
fc
01
ed
f5
fc
06
07
00
06
fd
fa
fd
f0
f3
03
0e
f7
f4
eb
08
10
0a
0a
02
fe
08
f5
fa
f8
ee
ec
fc
01
ff
fc
fb
f7
ee
f4
f6
ff
01
fe
1e
ed
fb
17
f7
00
07
2f
fd
e3
27
fc
e2
0b
f2
f4
fe
ea
e5
f1
e9
e2
ef
fa
f4
00
fa
ef
13
fe
f6
0d
04
06
02
0d
1f
00
2c
21
02
17
09
11
f8
fc
ef
fa
ec
f3
f7
ef
e6
f1
f3
00
04
f8
1a
fd
f1
2a
ec
e1
07
1a
f2
fd
38
e7
0f
ee
f9
fe
13
2f
ff
23
3b
f8
e9
03
f3
db
f7
0f
e6
0b
fa
f8
0d
e2
ec
f8
de
f6
fe
e9
fe
e1
06
0f
e5
ea
ff
f3
fb
f4
10
f4
13
0a
ff
fe
fb
fc
eb
1d
0d
f8
24
08
fb
01
ed
06
11
00
fc
ea
19
f5
f3
d9
f3
e6
f5
02
e4
04
0c
e1
eb
de
03
e8
ed
04
e8
f3
02
0a
07
08
eb
01
14
02
ff
09
02
10
1d
11
16
15
02
f4
05
ff
c1
d3
e8
a6
e3
ca
b7
fd
00
05
10
02
0d
15
02
fe
02
00
f1
ef
01
e5
06
07
f8
01
12
f8
fa
e0
06
10
ea
f7
fa
de
f5
f8
e1
d9
04
ff
03
1d
0f
17
1d
03
f3
24
03
18
0e
07
02
e7
03
ee
f8
e5
ee
09
f0
e6
fa
dc
e0
f8
ef
ef
f8
ef
c2
e6
ef
d9
e1
ed
d2
ea
03
00
f5
ff
00
f5
00
06
12
f7
dd
f4
fb
f7
fc
fd
03
11
0a
13
fb
0a
f9
f2
fb
fd
e4
25
08
00
f8
fa
00
f0
f9
00
01
dc
03
00
ec
f1
0c
24
ef
09
00
fd
f4
03
f4
fc
e6
07
1a
fc
0a
00
f9
f7
f5
09
fd
ef
f6
00
05
cd
e6
18
08
0c
f7
fb
f6
01
01
03
11
25
04
0b
04
0e
03
05
07
f9
fc
fe
17
21
19
04
05
09
f5
eb
e7
f2
11
0c
e5
f0
0b
04
df
16
06
13
17
11
05
22
fb
f5
0d
1b
2d
12
ef
13
05
e5
d5
e7
13
02
07
09
fd
ff
e8
ec
0c
00
f8
fa
fe
eb
f7
01
0d
09
0d
0b
fc
1c
1d
03
e0
f0
f5
f9
08
fa
f3
15
03
ff
df
f3
04
06
f6
05
28
fb
17
32
01
da
ed
ef
e6
f7
fa
f5
e3
0e
e4
e2
fe
ef
dd
f5
3c
24
00
f1
ed
f1
0c
fa
f5
21
30
00
f8
e7
ed
17
e8
ed
1a
18
07
06
19
07
f4
10
09
fe
b2
e6
03
13
12
00
05
f3
0e
e5
df
fb
ec
f9
fc
f8
03
0e
0b
16
f3
06
00
f6
03
07
e8
ed
f9
f9
d8
d9
ff
ef
e5
24
2d
02
00
00
f7
e7
e6
f2
e9
f8
08
00
fc
05
f0
f7
00
e9
c9
00
ef
e6
df
04
19
f1
de
29
21
23
1e
1e
03
fe
09
f7
fe
dd
f6
fb
00
f3
f6
ff
1f
f1
0b
06
0e
ff
f2
01
0e
f1
e1
00
f6
01
f0
f6
20
f5
e7
29
33
06
f3
00
07
f9
ea
f2
fc
f2
24
15
e9
20
fc
de
1b
ef
e3
eb
fa
14
04
11
05
15
13
f1
ea
0b
07
02
f6
f6
f6
f6
fe
07
0d
f7
24
f7
f9
08
f1
e8
e7
f6
f6
f6
f2
f1
f0
e8
00
15
16
04
1a
fb
e2
12
f0
f5
f6
01
06
fe
ff
f1
fd
06
fb
15
f1
e7
16
e1
fe
f3
f5
ff
fa
11
05
05
14
fc
fd
ff
f6
f8
06
01
f6
06
03
f9
0a
0b
02
f6
ff
f9
f2
ff
04
f9
09
e5
f9
0b
f9
f6
02
ee
06
18
02
f9
ff
fc
f5
05
e8
ec
09
f2
0e
fe
08
03
ff
f1
03
17
0f
db
f1
ef
e0
08
eb
ee
0c
dd
f5
02
f7
0c
0d
f5
06
13
19
25
f8
21
00
f0
1a
03
0d
1d
f5
e7
15
e6
f2
0b
e6
02
fb
c9
b9
e8
9e
c9
d0
d0
f9
07
08
fe
0b
f8
ed
16
03
ee
03
ee
f4
e6
ee
ea
ee
14
03
eb
05
f8
0a
fe
f7
01
f6
f4
03
ed
fc
f9
f1
fd
00
e3
0d
2b
1b
09
32
f3
ee
1d
d2
fb
e7
39
0f
1b
2b
14
23
23
07
e5
03
0a
f8
05
17
17
15
00
25
1b
ea
25
f6
f4
10
ed
00
ed
10
02
f7
06
eb
03
f8
f6
f2
ec
02
fc
07
0b
0f
02
00
04
f6
00
f5
18
fc
ff
0d
0c
13
f5
ef
28
ef
ed
1b
e7
e7
f8
03
14
fa
0a
fe
f7
02
f9
05
0c
08
f5
f8
ea
00
eb
fb
e5
00
00
04
ed
f5
04
0b
1a
01
09
01
f7
f9
f0
ed
ef
f6
fa
f6
fa
02
14
1d
1a
05
20
0c
0a
0d
f4
f3
00
fe
02
01
fe
0b
04
02
f1
f6
f1
fa
fd
29
1d
14
eb
ed
da
ec
e0
e6
f4
f3
f5
04
fb
f7
0f
f7
00
f2
fa
f8
e1
f9
fd
e8
f0
ff
01
fa
00
00
06
04
09
05
03
ed
00
f7
01
00
ff
f1
03
f9
f1
ec
ee
f4
f7
fa
15
15
02
07
1a
18
f9
f3
ee
e6
eb
f8
14
10
1c
f4
f0
e9
f7
ed
e4
00
22
13
21
11
14
23
06
1a
01
f8
f6
0f
0f
ff
0d
03
00
04
09
f9
f7
02
fc
f9
03
f6
fb
f3
19
12
18
01
18
01
01
f9
f8
f9
12
fa
e8
02
fe
06
fa
fd
f5
d6
d2
e7
d4
ed
05
ea
fa
fb
ee
e1
e3
f3
ea
f1
fb
14
fd
03
16
01
03
0a
04
19
04
0b
03
f9
02
ef
fa
fb
ea
ee
05
05
12
0b
fc
00
0e
16
0b
fb
fd
0b
18
02
11
03
01
fb
fa
e5
08
0f
09
13
18
f8
f5
ff
f4
ec
ec
ed
ee
00
e3
da
eb
ce
d1
e5
e7
f8
f9
09
0e
0d
16
fe
17
03
10
0a
fb
09
04
27
13
02
15
fb
00
17
fc
10
1e
09
17
11
f8
0b
18
0e
fd
04
e7
fc
f5
fc
0b
39
fb
01
0b
f7
0b
14
09
1e
06
f2
fa
fe
ef
fb
f4
e3
ec
f5
f9
f7
fb
fd
e8
f2
eb
f3
fe
03
07
05
e9
f7
f6
ec
f9
0d
ff
0d
07
08
10
0d
09
1b
00
19
19
1b
20
10
0f
00
05
ee
d4
de
db
c3
e0
de
db
ed
09
08
0c
0d
f9
fb
ff
ff
f3
0a
05
fb
02
07
fe
00
ff
01
f7
1c
07
11
f9
f3
fe
fb
fb
00
fe
f7
06
09
02
08
00
fd
ed
ee
fc
f3
f2
fc
ed
fa
fd
e3
f3
f7
eb
dc
00
f3
f5
07
f2
f3
fb
08
01
f4
01
05
fb
ed
f4
f8
06
f1
f9
ed
f8
f6
f5
00
fa
fc
07
0c
04
17
0d
14
0c
f8
f1
f8
fb
ec
f6
eb
f2
ed
f4
f3
e9
f2
f0
e5
eb
05
e2
ef
e4
fb
00
fb
fb
00
f7
16
00
07
11
09
1e
07
0b
ed
f6
f7
fc
f8
f7
f9
ef
f6
0e
0c
01
01
00
01
03
03
07
09
13
f0
00
f1
ea
01
f4
fc
0e
f9
f5
00
e6
f2
f0
eb
fc
fc
f8
f4
ed
ee
fc
fd
fc
ff
fc
f6
09
07
fb
00
05
f3
fb
0f
fa
02
fc
fb
f6
f2
ef
f1
10
0c
f8
0e
01
15
0b
03
0d
0e
1b
23
0b
08
00
03
0f
0a
03
ff
f5
f4
fc
02
f9
0d
03
09
fe
12
11
0f
08
01
f8
0c
fb
1e
0c
0f
0a
02
1e
0e
16
e2
ec
fb
f4
e2
f2
05
f5
ea
0f
f6
e8
16
fd
f2
0e
06
f2
08
f9
f7
04
fc
fa
04
0c
f9
d6
d9
fc
ed
e7
f4
f9
f0
08
f8
fd
ff
fd
ed
f9
fd
fc
f1
07
0d
fc
0d
ff
fb
09
05
04
0d
0b
14
12
fb
07
06
01
03
f8
fd
0d
ff
fd
f3
f6
f6
f1
13
fe
f5
0b
02
f8
f7
ec
fd
f0
04
0f
f9
f8
06
ff
00
09
01
03
0a
fd
0c
0b
f8
fb
06
ff
02
01
00
00
fe
fd
00
f1
06
0c
03
00
02
fb
fa
f6
04
00
ff
0d
ef
eb
f5
07
f2
fa
e2
f4
0a
00
e9
f5
0c
09
f7
dd
e3
f2
e6
e0
ef
e5
e6
f3
ee
eb
f2
eb
f6
f9
ef
e0
ed
09
15
f3
17
f9
fd
1d
ef
f0
06
03
03
08
fd
fe
0e
16
f5
00
f7
05
06
ff
0f
0a
fd
0b
03
fd
00
ff
00
01
10
12
02
ee
e3
fa
f0
e0
f7
f5
dc
e6
ee
f1
ff
ff
eb
f8
02
f9
fe
fd
07
fc
ff
00
fa
09
f7
fa
e7
f7
ff
f8
fd
0e
fc
f8
0f
fc
fc
f8
f9
f8
f6
f5
fb
f5
ed
e2
e9
fb
ee
e8
12
f6
f6
ff
fc
01
0a
fd
f5
0e
0b
f9
f6
ef
ea
06
f0
e6
ff
ed
f0
ff
fa
fd
fb
f9
ef
00
f5
ec
e1
ef
ff
f7
dd
ff
f6
e0
e9
12
13
04
0a
12
17
09
0c
0c
06
0b
fe
08
26
0b
ef
26
0a
fb
eb
f2
e7
ff
fb
eb
11
fe
ec
03
f8
e6
00
03
04
0e
21
07
fe
f2
e9
07
fc
d5
fc
2f
03
c5
e0
1e
e9
ee
0d
03
f9
0c
ed
00
0b
00
fd
f8
0b
f6
ec
de
f4
ff
cd
e9
2a
e9
ee
f9
fe
0a
f8
ff
19
e8
e5
10
1d
f9
0c
fe
14
1b
e4
f3
05
03
00
09
fc
f9
06
f2
fc
ff
14
0d
00
fe
ff
0c
e2
eb
0f
1a
e3
fe
16
f6
fc
26
05
e6
f9
d1
0a
02
e5
0f
11
fb
17
fa
d7
f4
17
e9
ef
21
0c
ef
ee
06
03
f8
1e
0d
f1
1d
2b
fa
cc
d8
08
ef
00
26
f0
12
22
e8
e2
1a
0e
fb
ff
24
04
fc
f4
f9
f2
fe
ef
e4
fb
ee
2d
d5
d4
24
21
f1
18
33
0d
f5
00
00
09
04
02
0d
14
f8
fd
f3
ef
09
f5
00
12
0d
00
11
00
e4
0f
0f
12
ff
1a
07
f6
d0
f0
0c
e7
e8
0a
06
fb
28
2e
07
e9
1e
11
e2
11
23
fb
fd
04
fa
02
03
ed
f9
12
e2
08
fb
f0
f8
f2
0d
e7
f7
fe
3b
1b
cf
14
2c
d5
ec
19
04
07
00
01
08
fd
fe
2e
08
e7
ee
f8
01
db
ee
09
f2
e8
0c
ff
f2
f0
05
fd
e3
0b
0a
e2
23
00
d6
38
1e
d4
dc
03
06
e4
ef
f6
f9
fa
f7
fb
07
fd
fb
f8
fa
fa
f6
fa
f5
f6
fc
08
0b
ee
fc
01
00
05
f8
0b
05
01
11
14
0f
0c
21
fa
f5
f6
f6
0b
03
01
08
03
f7
ee
05
15
e8
00
10
0f
01
13
e6
f8
f3
e0
f6
02
04
14
0d
e0
fd
08
c5
da
00
e8
f9
08
0a
01
e4
0c
f5
ef
09
01
fc
eb
f6
01
ec
fe
f0
ee
fa
f8
fe
04
05
fc
18
03
02
08
e8
1a
0f
07
07
08
f7
00
fe
f5
fa
e9
f0
06
de
ff
2d
0f
0e
0c
08
02
f8
00
f9
08
00
f9
fe
01
09
ff
fb
fe
f3
fd
fc
fd
0c
fc
0c
0f
00
1a
0c
f3
03
ff
eb
09
fb
e7
ed
f3
e8
fe
1c
10
fd
12
12
f3
17
0f
f9
fd
05
f0
fd
0c
ef
fa
12
eb
f3
f6
e4
ec
fd
d4
e2
fb
15
16
00
02
fe
ed
ff
10
0d
16
1e
10
05
18
1a
0b
0b
13
06
02
fa
04
f7
fd
fe
fc
ee
06
0b
04
f5
de
f1
ff
ea
fb
fb
ff
0e
ff
ff
08
f8
07
0b
e6
06
0d
02
08
14
fa
e2
f5
fe
10
0c
23
10
15
0c
1e
12
f8
fa
fe
f2
f7
01
fb
ee
05
02
fc
f3
f1
fc
f9
06
00
f2
16
11
02
03
14
0e
0e
22
0c
f4
03
fc
03
0d
04
17
05
03
e8
e3
e6
e5
e2
f8
ff
fe
08
00
f9
fb
fb
00
f4
ed
fa
08
f9
f5
f3
ec
d2
f0
fd
f7
f5
f4
29
f8
22
29
05
07
f9
fe
f1
ff
00
fa
ec
f9
f4
fb
f1
fd
08
01
05
02
fd
03
f7
fd
07
ff
fd
f4
f3
f9
ff
08
fb
08
fa
f7
e5
fc
f7
ee
00
fe
08
0a
02
07
0f
09
0a
17
03
00
e8
ff
c5
0b
19
eb
23
10
00
00
fb
0a
0d
f0
0a
05
0b
07
05
ff
0b
f9
ef
06
eb
f2
fd
e9
0d
d7
d8
f2
de
d7
ee
f8
00
01
f9
16
02
f0
0d
fd
fc
00
00
f7
07
0a
ed
04
0c
06
f4
ff
fe
e7
ee
00
f4
f1
f0
f0
00
ff
07
ff
27
12
f7
f0
ff
10
f3
0d
08
ea
06
f4
0a
0c
06
f5
ec
05
f5
dd
f7
fa
0c
00
fc
0b
08
0e
0a
06
fa
0d
03
03
06
f9
09
fc
f7
e8
f5
fa
00
f4
f6
fa
ee
02
fc
fe
01
03
06
08
0c
0b
03
e5
f3
ff
ea
e9
03
ef
f6
00
fe
06
f9
eb
f2
01
d4
f9
06
11
04
03
ff
e8
f8
f7
ea
ed
12
09
0d
0b
00
0a
fc
fb
01
00
01
00
f7
1c
02
03
0d
01
05
e7
fe
fa
e9
f1
f8
eb
f9
fd
13
02
2c
f8
09
0e
fd
02
fb
06
fe
fc
f1
0b
06
00
0f
02
03
00
00
f9
f7
ea
eb
f5
1a
01
00
03
fa
ff
fa
eb
f8
f1
f8
fc
e8
07
05
06
04
01
0d
07
dc
12
17
dc
04
0a
e4
f6
11
fc
0e
14
ef
06
05
fa
05
0b
fd
0f
fe
08
07
fc
fd
f8
ec
f5
ec
f5
10
d4
ee
12
fb
e3
0b
08
f1
12
fc
fb
04
1d
f1
dc
04
e9
f0
08
f4
05
2f
fa
d9
3b
08
ca
25
08
d8
0f
f1
e0
0c
f5
00
f4
fc
fe
02
f2
03
f3
e9
e9
fd
ee
ed
1d
f9
b9
2d
01
c2
15
fd
ec
fb
f9
03
02
00
fa
0f
02
f9
db
e8
23
e5
f2
1b
fe
05
0b
d8
16
17
d0
20
08
d5
11
01
fd
f5
03
03
f8
0f
00
f2
0c
14
ff
f2
1c
0b
f9
fb
00
fc
f8
f0
07
0b
00
0e
03
ef
0b
05
07
00
ff
fc
08
fb
04
ff
ea
fa
07
f9
f4
0b
fc
f8
0e
fc
f6
00
f9
10
0b
f8
0c
00
09
09
fe
ff
f0
02
10
fc
fa
0c
0f
04
fd
08
06
10
0a
0a
fc
f9
f4
fc
fc
ff
f4
f5
f3
13
de
da
33
01
cc
1a
07
dc
01
f6
16
01
fe
0e
04
ee
03
f6
f3
fe
f4
e9
11
f4
fb
fe
10
0b
ff
0d
fd
fb
11
f9
f8
00
04
f5
10
05
04
08
07
0a
17
e3
ec
0e
00
08
fa
fe
fe
f9
ff
08
e7
fd
02
e6
f1
ff
0b
fa
09
0d
e9
fc
03
f0
0b
e9
f0
1c
f3
f7
1c
f1
e3
18
21
e6
f7
0e
c3
ff
07
da
fe
f9
e4
07
ed
da
ec
07
1e
12
05
f4
00
fb
19
07
01
03
f2
08
cb
d3
04
25
11
f9
3c
36
03
e4
08
09
c6
f2
dc
f7
e6
23
47
11
fb
df
0c
d5
c2
06
01
ea
fa
fb
f8
f6
e7
f9
f9
2c
49
0f
ed
f5
08
d2
b0
ff
02
ee
00
fb
ff
eb
f3
0a
ff
ed
e8
f4
05
f7
e7
1f
18
07
04
00
04
f6
f9
ff
f2
f0
f3
ef
f4
e8
e7
f8
f3
00
fe
00
fc
31
22
fa
ee
08
e9
ad
c0
25
27
0d
f8
f2
02
ee
e2
f9
00
0b
09
04
07
f3
fa
fa
f9
04
f7
f9
f7
11
05
f6
2f
0c
0f
1c
0e
01
f3
ff
ed
af
e2
df
cf
ed
ff
f8
06
28
22
16
00
e0
fe
fe
00
f4
0b
16
01
f2
fb
11
e7
fa
10
06
01
04
e0
ee
fe
03
fc
ea
1f
16
07
ea
f1
03
fb
fb
f4
0d
08
00
f5
e8
e7
fa
00
02
05
19
05
ff
3a
14
fb
08
1a
11
cd
de
06
e6
04
f7
f8
f8
f4
10
0a
f3
e3
ec
fc
eb
e9
f8
00
00
02
f2
ef
f8
f0
ff
f6
08
0e
f6
e4
f4
09
11
00
08
1c
fd
f4
0e
f9
fe
f5
00
1a
00
04
26
15
10
00
0c
f9
fe
ef
fb
f9
ef
05
0b
10
f2
0b
15
f9
0d
00
fe
fb
05
e4
e8
fd
db
0a
15
01
11
01
0b
fd
ec
05
fc
ec
f8
e9
f3
02
fd
0c
03
ed
f0
1b
ef
0b
17
20
27
f9
fe
f6
f1
f1
dc
f9
e0
fa
04
fd
e5
f0
09
f1
fc
08
f0
fe
17
f6
db
01
df
df
ed
f0
fb
f3
0f
13
08
13
08
07
f8
e9
2a
0b
f3
12
f6
e5
fb
e6
e2
f1
fb
f8
f8
fe
ff
13
1f
05
fb
03
23
fe
0a
22
fc
2f
27
0e
06
fa
18
fb
fa
fd
e1
f4
00
f0
08
ed
df
14
ee
f7
09
15
0d
f7
10
eb
ec
04
f2
f1
20
09
eb
00
e2
ea
e6
cf
f9
16
12
f3
fd
01
e6
00
ee
d9
f0
f9
02
f8
0f
0b
0e
00
ff
fe
f7
ea
01
d6
dc
07
f1
fa
e5
f3
07
e6
f3
f9
01
0e
05
00
f4
00
f5
f5
0b
f6
1f
f9
ef
ed
ed
f0
db
e7
e8
df
f1
0c
00
00
ef
fa
fe
f1
f5
08
09
07
13
05
04
fd
f6
ec
f8
f8
f1
f5
ee
f1
ee
f0
11
16
0a
0c
0d
0c
08
00
08
f7
f2
fc
f2
0c
fe
f2
0a
02
0a
1e
06
04
ff
0b
14
0f
13
2f
02
11
fe
f8
00
eb
01
fd
1b
03
f9
f9
0d
0a
06
28
24
3a
10
f4
f3
0a
ff
f6
04
e1
fb
01
03
fb
f7
ff
f7
00
fe
fe
17
0a
09
06
f8
03
fb
fb
ed
07
00
f8
f9
fd
08
04
17
1b
f2
08
11
1a
ff
0d
18
08
03
01
e8
c3
db
27
1a
fa
fa
3e
fc
ef
e2
e0
ed
e7
ee
f3
13
08
ff
fd
0c
f2
f7
00
00
fd
f2
f0
02
01
f2
0a
05
06
f4
fa
f4
dd
ff
0b
d5
f1
2b
29
0a
07
09
09
dd
0e
02
d3
ef
e5
bb
80
ac
1d
10
fb
0f
64
10
19
f0
f6
ff
03
13
d5
ed
00
00
04
ff
f9
ff
0d
e3
03
05
f3
cf
f0
0c
25
00
eb
12
fe
ea
c4
e3
00
d9
f6
0d
f7
08
f1
f1
e5
06
1e
06
f3
18
00
1e
36
08
d4
d0
d4
ca
cd
e7
04
f6
01
f9
e5
f8
07
f6
f1
0c
ff
06
2d
1a
11
fd
2d
07
f0
1a
0a
fc
0e
0e
ed
dd
ef
d8
df
fc
fe
0e
10
2c
23
14
ef
09
f5
e5
e7
00
0a
06
13
06
fb
f3
ee
fb
f2
eb
e2
f7
20
fc
13
fe
02
ff
e3
f1
05
20
02
e7
03
16
14
e8
09
0a
f9
fc
01
00
fb
00
09
05
01
13
d2
dc
0e
dd
eb
ee
11
05
d7
d2
d7
fe
ef
09
23
2b
2a
0b
15
03
f9
00
09
fb
e0
f3
f3
08
f7
f4
f0
05
f6
17
0d
f4
d5
e6
10
03
0f
1a
09
0a
02
fd
12
13
fb
fd
08
f2
eb
02
26
0f
02
f3
f6
05
d2
f3
d8
ef
f4
fc
e3
f3
22
0c
00
e9
f2
f5
ec
d8
06
0a
03
fe
fc
f0
1b
07
01
0a
10
01
e9
12
03
1f
00
fc
17
10
01
13
00
f7
f9
fc
fc
fb
f2
f6
fd
01
06
f0
00
f7
eb
04
ff
05
10
00
f0
0f
f4
f2
04
f5
fd
de
ed
f1
f1
fe
e7
fe
f9
f3
e3
f0
fa
ea
fc
0a
f9
01
04
ec
e4
ff
f0
eb
ff
f5
eb
fc
fa
eb
15
f8
e9
0f
12
0b
02
07
04
00
ff
00
09
00
0b
15
10
0a
fc
09
fd
04
fc
ff
06
f4
0d
02
00
1b
ff
ef
fd
e9
e6
e9
ec
f2
fa
ec
f9
f4
e2
02
0a
f8
1f
15
02
21
12
fb
fb
0b
09
fe
07
0d
05
06
08
19
1c
11
0f
26
05
09
0b
f4
f0
37
12
f9
27
06
e3
02
ef
00
02
02
fe
05
ff
fe
05
f4
fe
08
fc
f2
01
f8
fd
00
f5
f2
14
16
0b
10
11
09
06
fc
fe
f6
f5
01
fc
00
01
fd
0d
fe
f9
00
0a
01
f5
ff
fd
f1
01
02
00
04
08
02
03
0e
04
fc
de
d8
ee
da
db
f9
de
df
00
fa
02
f9
f7
00
f2
fc
00
01
04
fb
05
08
f8
00
03
00
06
fe
06
05
ff
fc
f5
fc
03
00
09
07
02
02
0b
f8
02
ff
f8
07
fb
14
04
f9
0c
f5
f8
fa
0a
07
0e
1c
02
0d
10
ff
08
01
19
ff
f4
0d
0b
05
fd
fd
f1
05
fa
f1
0c
02
19
01
ff
ff
00
fe
fd
09
f4
f4
00
