04
06
fd
fa
04
f8
fa
00
ff
09
f2
ff
00
f8
0f
14
01
06
08
f1
0a
ee
ea
0d
f4
ec
10
00
08
06
f7
f4
fe
04
fa
17
00
fe
03
f7
f4
02
f7
06
fd
02
05
00
f4
02
f5
fa
09
07
03
24
01
f5
11
f5
00
f3
f5
f8
03
f7
f8
ff
0c
04
06
fd
d1
d7
f1
e5
df
ec
ed
eb
fa
f8
fb
00
f3
fd
f7
00
08
f9
0e
15
f8
1d
2c
10
07
16
00
0a
04
fe
00
0a
17
0a
f7
04
0a
17
00
03
0f
02
01
fc
00
06
00
ff
07
04
fc
00
04
fb
ff
05
0d
15
1b
08
05
15
ff
15
f6
0f
09
00
0b
0f
00
0a
fe
f8
f7
f8
08
00
fd
00
fe
00
ed
fb
02
f4
f6
02
00
01
fa
fd
04
00
08
02
0b
f9
03
00
fb
e7
0a
00
f8
0c
fa
fb
1a
fb
0e
07
fc
00
05
fd
05
f0
06
07
ff
ff
06
ed
e5
f5
f2
f5
fb
ff
fc
09
fe
07
07
f7
00
07
ff
fe
01
fd
07
06
03
f0
08
ec
ca
ff
f9
de
00
f9
fb
f6
f9
fe
fb
f6
06
f9
f9
02
f7
fa
02
f7
fc
f9
02
ee
0b
ff
ff
0b
f6
05
07
00
ff
fc
fe
fc
f3
04
09
01
fa
fa
17
02
03
f8
fe
fa
fe
08
fe
ef
fd
00
ec
f2
fa
fa
03
f2
de
f4
f1
ea
ed
fe
ed
f3
07
00
fe
08
00
f9
eb
f5
ec
fb
f7
0e
f9
f3
03
ff
f6
0c
03
06
06
01
00
04
f5
ff
f0
02
ff
ff
f7
f9
02
07
f8
f9
01
00
ff
07
19
fd
f1
0c
eb
04
fe
f6
05
01
f7
00
17
05
01
0f
03
f7
f5
fd
f9
00
fe
00
fd
02
f6
fa
fb
08
f4
f5
f2
0d
fb
12
3d
17
00
07
00
f1
ea
f8
08
f1
f6
11
fd
0b
03
0b
02
05
12
f9
ff
00
f8
06
0e
11
08
09
0c
0c
21
1d
14
18
0b
0b
17
ff
01
0d
fe
09
16
0d
f3
fd
fc
fb
ea
00
03
f4
fa
fa
f3
f4
00
f7
00
f8
05
03
07
02
04
ec
f8
fb
f6
02
09
02
0b
0b
07
08
09
f9
00
f8
0a
02
0b
07
0c
0d
01
01
05
fc
f3
f8
00
f0
fb
f7
08
f8
fd
11
06
fa
00
fd
1f
1f
08
13
0f
0d
0a
01
fb
00
e9
fd
f6
eb
00
fd
ff
07
0d
09
04
fb
00
fe
0d
08
1b
f3
00
fd
fc
f6
fa
fc
f9
f9
fc
07
06
11
22
0a
06
0c
01
00
f9
0c
03
fb
01
0b
06
fb
1d
29
08
0c
1a
05
11
06
0d
f8
f0
00
16
ff
07
f9
f6
0d
07
01
04
01
fe
04
fb
fb
02
f6
f1
07
0b
06
09
04
07
03
03
fe
03
f8
00
fa
02
07
0b
13
0d
f8
18
08
ff
0a
fa
fe
fa
02
09
07
f6
f8
05
f8
f9
f8
fe
00
ea
f4
02
fa
0d
0a
fa
fb
fc
f3
05
06
fb
fc
0a
03
fa
06
00
09
0a
08
08
0c
fc
08
05
f3
10
f6
ec
f3
f8
00
02
00
09
08
08
f5
f6
08
1c
09
07
ef
f1
ee
fa
f5
f6
f6
f6
00
0a
11
0b
01
e9
fc
1d
01
05
01
f9
f7
02
fa
f8
05
02
f5
03
ff
01
fc
13
0c
03
fc
fe
ff
04
fb
fb
fd
03
0b
03
0b
08
fe
0b
0a
fc
fe
f9
fa
fb
fc
fa
fb
01
0b
00
01
02
02
f5
f9
ff
03
06
fb
13
01
0a
06
fe
fd
fc
02
08
0e
fe
fd
ff
e2
eb
0b
f6
08
fb
fb
02
01
f5
02
fe
f2
09
07
f1
07
f5
02
f7
0c
fd
fb
fd
07
04
f9
fe
08
fb
09
ff
0b
fb
00
fc
fa
00
00
fe
ee
fa
f4
f9
f9
f2
fc
f6
f4
f9
fa
0b
08
02
12
09
fd
fc
0c
03
06
fb
00
fe
fd
04
fb
04
11
0d
08
11
12
0e
f7
fb
04
fb
fc
f5
06
13
01
f5
08
00
fd
fb
f4
f6
ff
09
01
04
f9
05
f1
03
00
fd
fb
fb
fe
0d
00
00
0e
f5
f5
f6
00
08
09
02
0b
f8
03
0a
07
01
fb
f5
fb
f5
07
02
fc
ff
ff
f8
05
08
10
fb
0e
0c
f6
00
ee
f3
fd
00
f3
fc
0b
f6
03
f7
02
ff
03
ff
ff
fc
02
06
f7
05
fa
00
08
09
fe
01
fa
f5
00
fd
05
07
05
03
06
06
02
fe
00
fc
00
fc
f7
ff
04
01
07
00
f6
16
13
12
17
07
10
07
0e
02
06
0b
00
0d
fd
07
fe
f4
0c
0a
0b
0c
00
f3
fe
00
f0
ef
fe
03
ef
01
08
ec
00
11
01
07
f9
f0
fc
0c
07
0c
00
05
fe
08
0d
00
00
03
ff
12
10
06
02
0b
02
fd
f8
02
ff
11
0b
0d
13
05
fe
f3
07
19
1f
fd
09
0a
f2
ff
f2
fe
f1
f0
f7
ff
e0
ec
02
ed
f6
fc
fd
f9
ff
fc
05
00
09
fc
02
fd
f6
f0
fc
f0
fc
05
04
1d
1b
15
0b
11
01
fe
fc
05
eb
f3
f6
ed
f5
f5
f4
f6
f9
f9
06
f3
04
03
f4
05
05
02
05
09
fa
08
1c
03
02
fb
f2
fb
06
fd
12
fc
00
0c
00
fa
fa
01
ff
f3
f7
fa
fb
f1
00
23
f9
0e
09
de
fd
0b
f1
08
01
f8
03
05
05
05
f8
00
00
00
fe
ff
07
15
09
0e
14
18
f8
f3
f6
00
fe
f5
04
ff
f5
ec
18
fa
12
21
fa
08
02
0a
0a
06
03
fe
04
03
02
f8
f6
00
ea
00
05
f6
fe
fd
f7
0c
f6
f5
00
05
f6
ff
04
f6
05
0b
00
04
00
ff
02
fd
00
fb
f5
ee
f9
f9
f2
05
09
05
02
fd
0a
fe
01
06
05
f6
f9
f5
01
09
fd
f3
f7
f4
f7
fa
f7
ec
eb
f1
e8
e2
f2
f2
e4
f0
05
f5
17
ef
ef
0e
01
f8
09
01
02
00
05
ff
ff
f1
fd
f5
0a
06
00
f9
fe
ee
00
02
fa
f7
04
00
07
26
0c
f8
00
fb
ff
f7
06
fd
09
fd
ff
eb
fb
ed
f6
00
f6
f5
fd
03
fe
fc
0b
01
ef
f7
0a
f7
00
f3
f3
00
ff
f7
02
00
fb
fa
02
f2
f3
06
09
fc
02
fc
00
09
07
09
13
03
fc
15
fd
09
05
00
00
28
02
0a
32
0e
04
0d
fe
02
17
08
08
14
0e
fe
f9
00
f9
04
fb
06
03
04
05
f3
0b
fe
03
06
fe
0b
08
05
fe
0d
0a
02
ff
07
f1
07
02
09
0d
04
02
f7
fd
fa
f9
02
fc
0a
f8
f2
05
fa
fc
04
04
f6
03
0e
ff
08
f6
eb
f1
01
f2
f6
df
de
f2
f1
f1
f4
fe
07
05
03
fe
09
03
08
0d
04
f8
ff
0d
05
0a
01
fe
05
fc
00
08
f5
fe
fa
10
07
f8
f1
00
09
ee
fb
01
00
00
fb
fe
fb
f5
04
f5
f9
fc
fc
fb
f5
f2
f9
fd
f3
01
01
03
ff
05
00
09
0a
00
07
fd
f0
f4
02
f3
f9
ff
fb
12
eb
ef
f4
f7
fe
00
00
0a
04
00
0a
f8
f8
fe
00
02
00
07
00
0b
0c
0a
f7
fa
f2
fa
f6
12
10
fb
03
f5
03
0c
f9
fe
03
fb
f3
fe
06
f3
02
00
07
f7
07
f7
00
f3
ee
12
fa
fd
02
fd
fc
0e
fc
0c
00
06
0c
09
09
f7
f2
02
0c
fa
f2
09
fb
ef
00
fb
06
07
01
ea
05
f1
f5
f0
fc
f8
f8
fe
11
00
f8
15
ff
f9
07
fd
05
fd
07
fc
0d
03
0e
fd
0b
11
06
03
fe
02
04
00
fa
06
f9
f1
06
0a
04
06
0c
04
09
f9
eb
f0
0c
0b
02
00
f5
06
f9
07
fd
09
ff
02
08
07
06
04
f5
0d
06
06
f4
03
07
0c
fc
15
fd
00
fe
fb
07
00
0b
06
00
02
0e
fb
02
ff
00
03
fa
f5
eb
01
11
fe
f0
f5
e8
03
02
03
f6
00
ff
f2
fa
09
02
00
fb
00
0d
f4
ea
f5
ed
0d
09
ff
0a
0a
ff
0a
10
fb
06
fb
01
f8
fe
05
00
02
fa
f8
04
fa
f8
00
01
fa
0a
05
f5
f9
f9
f7
f3
f6
fc
f3
f7
f7
f6
00
ff
07
06
04
fc
fc
f7
00
fe
02
f6
f8
fd
fd
fc
1a
ee
09
ff
e9
0a
0d
fc
ff
0e
02
0b
00
fe
fb
02
00
01
00
fc
00
01
ff
ff
fa
f5
03
fc
f6
05
00
fc
ee
fe
f7
fb
f7
f0
fe
e4
e0
f1
f7
0d
01
fc
e5
18
ef
f0
06
0c
fd
04
f7
eb
fe
f7
02
06
f0
fd
fe
f5
f6
f9
02
00
fe
00
0a
ff
0f
f1
03
07
f7
05
02
0b
05
0b
fd
00
fb
08
01
00
f7
02
03
f5
04
fe
f7
05
05
07
fe
0d
fb
f8
00
fe
01
03
0a
fd
0a
0d
0a
0b
0a
00
04
0c
f9
0c
e1
01
fc
fe
f3
10
11
03
00
f6
01
fd
00
11
0c
ff
00
fa
00
04
fd
f8
fe
f9
07
06
06
e5
04
fe
fa
fd
04
06
0e
fe
0c
fe
00
1e
f9
04
0a
03
02
09
02
fa
f4
ee
00
02
00
fe
02
f8
fd
f2
00
08
ff
ff
f7
f2
02
04
f1
0d
03
f9
fd
00
f7
10
f8
02
04
fc
f7
0d
fb
00
ff
f5
fe
fc
00
04
fb
11
0f
08
0e
1f
16
08
12
04
0a
16
f9
0d
26
0a
05
12
04
07
13
0f
0c
04
04
fa
01
fa
04
f9
00
07
14
f4
f6
0a
f4
eb
d5
09
f1
d3
f7
00
ef
00
f7
ff
10
02
00
07
08
fd
fa
12
0a
09
0a
01
06
14
00
08
fc
00
07
fd
07
01
02
f1
12
05
00
10
fe
f6
0e
fd
fa
04
0c
f0
e8
f7
03
fb
07
fa
01
ff
fe
f8
f8
f6
fa
08
f4
00
1b
fe
00
10
15
17
13
15
0c
eb
02
0a
00
00
0c
f5
f9
f7
15
04
f9
ff
01
ec
ff
f0
06
08
09
07
08
02
01
0c
0c
09
0d
ff
fe
fe
03
0e
02
07
ff
f8
08
fe
02
03
fa
f9
09
00
13
00
14
07
fc
04
0d
0a
ff
04
ff
f3
00
fc
f6
01
00
fa
09
f6
f8
09
fa
fa
ee
ed
fd
02
fc
ff
fb
0b
fa
fd
08
f9
0a
13
04
11
13
05
0e
0e
fe
0d
1a
10
11
00
13
f7
f3
fc
19
fb
10
00
ed
0b
0c
0d
14
f8
fe
fb
fe
f2
fb
02
04
0b
09
f9
fa
f6
06
0b
00
01
f7
02
00
fc
05
f8
00
fc
0d
01
f7
01
09
00
07
01
12
05
0c
e4
fb
f3
f1
0c
01
f6
fe
f0
f4
fc
00
f7
08
f7
f9
00
00
11
05
08
04
0a
09
02
01
f7
12
13
12
fa
03
ff
06
08
00
06
f1
fa
fc
dd
f4
00
f2
fa
f7
f5
00
06
f7
f7
f2
fc
fd
06
fb
01
f9
00
0f
0a
06
06
0b
14
05
0f
0b
03
0d
0a
08
03
02
00
f2
0b
fc
04
03
00
f4
00
f7
02
fd
fe
fa
00
02
03
1a
10
09
01
0d
fa
05
00
f7
f1
fc
fe
fd
f5
fe
04
07
04
02
03
fb
05
01
00
02
f8
f4
05
fe
ee
ef
fa
fb
04
fa
0c
0e
12
0b
06
eb
07
0d
06
02
10
12
f7
f6
00
10
06
fd
ff
00
f9
ff
04
f9
f9
05
ff
ff
f6
fd
f6
0c
04
ef
04
fa
f6
f4
fc
f5
fb
fc
f4
04
06
fd
0a
fb
01
23
ff
02
09
01
09
04
06
00
fd
fa
05
fb
fa
07
04
06
0a
fb
00
0b
00
00
0a
fc
fa
03
f8
02
02
fa
00
06
09
02
fd
06
f8
fc
fc
fc
09
01
fe
05
f6
02
01
fd
fd
00
00
ff
07
ff
06
07
fb
07
f6
ff
f9
f8
02
fa
fa
04
fc
01
ff
fd
fc
01
fd
08
f9
02
06
07
00
fb
03
00
02
03
fa
09
07
05
fc
fb
08
06
01
00
00
fc
fc
f7
06
04
fc
04
fb
f9
04
ff
ed
05
fc
00
01
fb
f9
07
fd
f7
ff
07
01
0b
fd
02
09
00
f7
0b
00
fa
fe
00
01
03
02
fb
01
00
f7
00
fa
04
fc
fb
fd
fe
f5
02
04
fe
02
00
fd
02
fb
fd
07
00
01
02
fe
ff
06
07
05
fb
fe
fc
ec
00
0d
fa
00
f8
05
fd
00
15
0f
ff
03
07
02
fc
05
07
36
c3
dc
17
d9
ef
13
da
eb
05
03
04
fc
fa
03
fb
f6
00
00
09
04
06
fb
03
f9
04
03
fe
08
00
ff
ff
05
00
fa
06
fd
02
fb
04
06
ff
f9
f4
09
05
f8
03
fa
00
05
03
02
08
05
02
01
06
ff
04
06
02
fc
04
f8
f8
01
fd
f7
ff
fa
02
05
00
f9
02
f9
ff
00
fc
f9
f2
ff
07
fe
09
02
0a
00
08
f9
ff
fe
0d
02
fc
0c
05
fd
07
ff
07
05
fb
fa
01
05
00
00
f7
fe
02
00
07
0c
02
05
0f
01
01
00
03
01
fc
fa
ff
01
01
00
0b
0b
06
13
0c
10
03
fd
01
05
fe
00
fe
00
03
f8
00
ff
04
f3
fe
fe
00
fc
00
04
01
fd
fa
01
01
00
06
ef
00
fb
06
fb
fa
01
f8
05
fd
03
ff
0a
04
03
fb
02
08
20
fe
fa
0a
f8
fe
02
fe
ff
06
01
08
02
01
fc
08
06
03
18
f2
fe
f9
fa
07
0f
ff
fe
05
fe
fb
fe
fa
07
f0
fe
fc
05
fc
00
f6
00
00
07
03
02
01
f4
fc
ef
06
02
ff
00
f6
00
00
01
ff
fe
fc
00
08
01
e7
fd
fa
eb
04
04
e2
f8
00
08
f5
fa
fa
fc
00
fc
04
ff
03
00
03
06
fa
fc
00
ff
fe
03
0b
0b
f8
01
08
f8
fb
01
00
fb
04
01
fc
02
06
07
fc
18
fd
f7
ff
03
00
0c
05
02
f7
f4
fa
ff
fd
f9
01
06
05
00
f1
ff
ff
fd
03
0f
07
05
0b
fb
ff
08
f4
00
ff
fa
00
04
fa
04
ff
fb
fb
08
0a
00
fb
fd
00
fd
01
04
fc
08
f9
fb
fe
0f
fc
fb
06
f9
00
06
ff
03
01
09
fd
01
00
05
f9
ff
01
01
f9
01
f9
fc
fb
08
01
09
06
01
06
00
ff
04
09
fa
fe
02
04
ff
fa
01
fc
00
ee
09
ff
fc
06
fc
fd
00
0e
05
fe
fe
02
04
fb
fe
fe
06
fe
ff
08
01
01
09
fb
00
00
00
f0
f9
08
fb
f8
03
fe
07
00
fd
06
ff
fa
0a
ff
03
07
05
02
f8
ff
0a
02
ff
fd
00
00
03
fb
00
02
fa
08
ff
07
fe
f8
ff
f4
f7
fc
fe
fe
fe
36
ed
ed
06
f1
fa
0c
f5
05
ff
f4
00
02
02
0e
fe
f6
01
02
fb
06
ff
fc
fc
ff
fd
f3
06
03
fb
f9
02
02
f5
fe
03
fd
fa
03
fd
07
04
01
fc
fa
02
00
00
fc
fb
fe
f9
00
06
00
fa
01
01
06
fb
02
f9
05
06
fb
02
fc
01
f5
ee
f5
fb
03
02
03
f9
04
ff
00
ff
02
fe
04
fc
fb
fb
f9
00
03
f9
02
fc
fe
fd
fb
01
fc
ff
fb
00
fe
fe
f8
fa
05
fb
02
04
13
02
05
04
fe
fe
08
03
00
fd
07
ff
00
00
01
06
05
05
ff
01
fe
00
fc
04
f8
06
fd
1e
0d
00
f6
01
04
08
fd
fa
00
07
00
01
fe
00
01
03
08
fa
00
04
f3
09
06
f9
00
0e
fe
00
fc
01
00
07
fd
03
00
07
fe
fd
ff
fa
00
05
00
03
09
00
f8
01
fb
fd
08
ff
fe
ef
f9
fa
0d
f6
fe
fe
fc
fe
0b
f2
f3
06
f7
02
f8
f3
f4
f8
06
fd
07
00
fe
00
0a
05
f1
f3
f6
f8
00
04
fe
03
06
f8
06
fd
00
fb
f6
04
04
00
04
fd
fb
05
ff
fa
ff
fe
02
0c
0f
08
06
fc
fe
ff
ff
08
f9
ff
01
f8
01
00
00
fe
01
f5
f6
03
f8
f8
02
fe
05
fa
fc
fa
00
f9
fb
00
f7
f6
ff
fc
fd
fd
f5
f5
f3
04
00
00
fe
05
f8
f9
06
00
04
09
01
fd
fd
01
05
09
06
08
ff
00
f6
f6
f4
04
04
f9
00
06
00
06
04
f0
fd
fa
04
00
fc
fc
f5
f7
01
00
fd
f6
09
fe
06
0c
00
f2
04
fb
00
00
fa
03
0d
02
fe
ff
f8
f8
02
0b
00
07
03
00
07
05
00
00
09
02
18
08
02
0c
f3
06
07
fb
f8
0b
ff
00
00
02
02
f6
fb
06
04
02
06
fc
fd
00
fe
f7
09
05
00
09
00
fd
03
fd
08
fc
f9
0a
fd
ff
02
ff
06
00
fb
fe
fb
fb
ff
07
0a
00
fa
00
05
05
08
00
06
0e
fb
fd
00
09
00
f5
13
f7
05
05
f5
fd
02
fa
00
fc
01
fd
fe
f7
fe
01
fb
ff
01
f8
0f
f5
04
00
00
02
08
fd
f9
03
fd
01
fe
f4
f7
fa
fa
05
00
f5
f7
ff
f4
05
00
03
00
f5
08
09
03
fd
04
00
f3
00
02
f9
f8
07
0a
06
05
03
0b
fd
04
0b
07
06
06
04
00
00
ff
f8
08
00
fc
03
ff
00
03
f9
04
fb
08
06
03
09
00
ff
03
fb
04
06
00
03
f8
fc
01
f9
fc
f8
fd
06
ff
fc
02
00
ff
fc
04
09
ff
00
00
f8
01
04
ee
f3
06
ff
ff
00
03
02
fc
06
04
08
0f
03
02
fd
fd
00
00
01
f9
fe
04
03
f8
05
ff
08
01
04
1a
f2
f9
07
fd
f3
09
fa
fe
fc
06
00
fc
03
fd
fe
05
00
0c
04
f6
fc
08
06
fa
06
07
02
02
05
fb
ff
07
03
03
fd
05
05
04
07
05
f9
00
ff
f8
f7
f9
f6
00
00
02
07
0e
04
20
09
fd
05
f7
03
00
fd
05
fe
04
00
08
08
00
0a
04
fd
03
fe
fc
06
01
02
f9
00
fa
0b
f6
01
07
ed
f9
05
f5
fb
05
07
05
00
fc
fd
ff
fc
fc
04
03
00
fb
00
06
02
00
01
fe
00
f8
00
fa
00
fd
07
00
06
0d
07
07
05
00
01
03
02
f0
00
fe
01
0a
fb
07
fe
fb
08
f7
fe
fc
00
05
fa
f7
f9
07
ff
f4
07
05
06
02
00
02
dd
00
01
d7
0a
06
fb
fd
f9
03
f8
06
0b
fe
f9
fe
05
03
08
f7
01
03
ff
fd
01
f8
06
fa
ff
fe
00
f8
f9
00
fc
fc
f7
00
fa
00
06
fe
01
06
fb
f3
00
09
f8
00
fe
f9
00
0c
fb
fc
06
04
fb
fd
fe
fa
03
00
f9
05
03
00
01
fd
fd
00
ff
f9
fe
07
ec
ff
01
f9
01
04
fc
05
03
04
fa
04
02
fe
05
fa
00
fe
02
00
fd
fc
fa
02
ff
01
09
f7
03
02
0c
0d
03
e7
f3
f6
f1
05
02
f5
fc
12
01
ff
f9
f5
05
0b
02
ff
24
ee
fa
10
ed
fa
11
f5
f7
fc
07
05
fa
fd
fc
00
06
02
00
01
03
fa
01
fe
00
05
03
06
01
06
fa
06
01
03
02
06
ff
f9
f8
04
01
0b
02
00
fa
f6
f1
fd
fa
fd
fb
fc
01
07
0a
f8
ff
fc
ff
00
00
ef
ff
f7
ff
ef
fa
01
f7
00
fc
00
f6
fa
fe
f9
00
fd
fb
08
06
02
02
ff
ff
00
fe
06
03
fe
08
08
02
f1
00
f9
f9
0c
02
10
f1
f6
ff
00
00
fc
03
07
fd
fe
06
06
fa
fc
fc
01
f4
ff
08
05
ff
00
fb
06
fe
02
fa
04
fe
ff
05
00
06
fb
ff
f4
fe
04
f7
00
03
02
01
08
02
04
fa
05
fb
f8
00
03
fd
0c
fb
fb
0c
00
07
01
fc
01
fe
fe
06
06
01
fb
ff
03
01
09
06
fb
06
00
00
02
00
02
ff
00
03
ff
00
00
08
04
00
04
f9
00
00
00
03
ff
01
01
fb
f7
fd
fa
00
03
ff
fd
03
1e
08
00
12
00
08
0b
f8
00
04
f4
03
06
fc
f6
fa
f6
01
fa
00
fc
00
07
00
f2
07
02
08
f7
fd
04
f8
05
07
05
00
00
fe
06
04
f7
00
05
06
ff
03
ff
05
01
00
02
0e
08
ff
07
00
fd
fe
00
00
05
fc
01
03
f9
01
fc
03
04
00
00
06
07
04
03
ff
fe
0a
ff
06
01
29
02
08
ff
f3
10
fc
07
fe
04
fd
f8
f7
f0
f7
ff
01
07
fb
ff
fe
fa
fd
00
05
01
09
36
fc
01
09
f2
00
0a
f6
00
05
f6
05
00
fe
0d
02
00
fc
fc
09
00
f8
fe
08
fe
fb
fc
00
07
07
fe
02
00
fc
fe
08
f8
f6
00
f3
fa
0a
01
03
02
09
03
f9
09
ff
06
fe
fb
f9
00
fd
fb
03
fc
ff
02
06
04
0c
08
fc
05
fe
fa
ff
03
fc
fc
fe
07
fd
f7
fa
00
09
f9
e6
f1
fe
fa
06
f9
f4
00
00
f2
f1
ff
f0
fa
01
f6
00
08
03
02
08
03
f7
02
ff
06
ff
f9
fc
f9
04
f8
01
00
fd
ff
03
fb
00
f6
00
f9
fe
08
07
f7
f7
f0
03
09
0a
0b
00
fe
07
ff
08
f7
f9
01
fa
f8
07
05
06
fa
03
00
00
00
09
01
07
fe
08
03
08
07
04
01
fe
16
fc
f4
01
f7
01
01
f4
01
f4
f7
03
ff
fb
fd
fd
f5
f3
1f
f5
ff
00
f5
f7
00
02
ff
fe
00
fe
00
fa
00
f8
06
02
06
07
fa
05
fb
00
04
fb
01
fc
05
03
fd
06
fa
f8
06
fc
0a
f3
ee
05
fd
00
07
fc
02
04
fe
01
01
fa
fc
03
04
fe
df
fc
03
fa
07
08
00
0d
04
07
f9
01
fe
f9
fe
03
fb
05
f4
00
fb
fa
00
01
02
07
02
f5
fe
00
01
02
f5
07
02
04
00
f5
03
fa
f3
01
00
00
f9
07
01
fe
06
04
07
fe
07
00
07
04
fd
03
f7
06
ff
04
03
02
06
02
ff
fc
f8
fc
fb
fe
fe
04
fc
fd
fe
00
03
05
0a
fd
02
06
00
0a
00
fa
01
01
fb
09
00
06
01
08
00
08
09
12
f7
f7
04
fb
08
06
00
05
f8
fc
01
f8
09
fb
00
04
00
06
01
fa
03
02
00
17
0e
0d
fb
06
0b
ff
06
06
f6
06
fb
1c
f1
04
0d
ec
09
07
ec
fc
0a
fe
fa
05
01
02
f9
fd
00
fb
ff
ff
05
f9
fc
07
09
f8
fe
05
ff
03
05
06
00
01
0a
fe
f3
fa
fd
00
00
f9
ff
07
fb
fa
07
03
03
fd
02
01
fe
ff
fa
f9
00
04
fa
00
03
fa
ff
05
03
00
00
f9
fe
03
ff
0d
05
f5
14
fe
09
10
fa
fc
fb
00
05
f7
00
07
fd
07
03
01
02
fe
03
06
00
ff
05
f5
fb
08
02
03
fb
00
fc
fc
01
fa
fa
fb
fd
fc
fe
03
01
04
00
00
05
03
03
f8
03
fe
06
fe
05
03
00
fd
00
fe
02
01
03
03
ff
fd
fb
fd
02
fd
ff
00
fe
fe
00
04
ff
05
02
ff
03
fc
00
05
01
ff
ff
fe
ff
02
02
fe
ff
00
00
fe
fa
fb
fc
fe
ff
00
fa
01
01
fe
ff
04
fc
04
ff
f9
04
03
02
04
fb
fe
ff
ff
ff
fe
04
00
ff
03
00
00
00
02
04
00
fd
02
f9
02
04
f4
fa
03
fb
fe
01
04
00
03
00
fc
01
00
ff
02
01
05
07
01
01
06
00
fd
ff
fd
ff
00
fe
00
fc
00
01
00
fe
01
04
06
02
fb
00
fe
fb
08
04
08
00
f9
04
fe
fa
03
00
04
01
fb
01
07
ff
fb
06
ff
02
02
01
01
ff
00
00
02
02
fe
fd
03
fc
02
01
02
ff
f6
ff
01
00
01
fc
fd
fc
fb
f9
f5
f9
02
00
00
00
fd
00
04
fe
04
f9
fe
0b
01
fc
07
00
fa
00
01
00
fe
00
ff
00
01
ff
fe
03
00
02
fb
fd
ff
fd
01
fe
01
ff
ff
fd
fc
fd
04
ff
08
05
fe
00
00
ff
01
01
00
01
03
fc
04
02
fb
00
03
00
04
02
ff
00
ff
fc
fc
04
fb
00
04
f4
04
05
fc
01
05
ff
fe
00
fc
02
fc
00
fd
ff
01
01
ff
fd
02
fe
04
06
0a
0d
fc
03
02
fe
03
fd
00
00
00
03
00
04
05
fc
fc
f8
08
02
07
04
05
05
02
fe
01
03
03
00
fe
fd
01
ff
01
fc
00
01
00
02
ff
fe
01
00
fc
fe
fe
02
ff
fd
ff
fe
ff
ff
07
08
01
01
fd
05
00
ff
04
04
fe
05
fe
09
04
ff
00
fc
03
07
00
fb
05
fe
f6
02
01
00
02
fe
02
01
fe
fd
00
ff
04
09
ff
fa
02
06
fc
fb
00
fe
fd
07
01
fa
02
00
fb
fa
03
f7
00
fc
f9
06
03
fa
01
fd
08
01
fb
01
06
fd
00
02
01
00
02
00
08
07
fc
04
fc
f8
fa
ff
f9
ff
03
03
02
00
07
03
06
02
fd
04
ff
01
ff
06
05
02
03
05
03
fc
06
ff
fe
00
fa
ff
00
00
00
02
fa
ff
02
03
00
fd
01
00
fd
01
fd
fd
fb
fe
fd
00
02
02
fb
01
00
00
02
00
fd
04
04
04
fe
f9
0a
00
ff
00
fe
ff
02
f7
f8
05
02
fd
02
04
fa
00
00
03
ff
00
02
05
fa
fd
00
02
00
02
fd
f9
02
02
fa
fd
fc
03
07
f2
00
04
00
fb
fb
fa
00
fd
01
00
fe
04
ff
02
fe
fd
06
f7
fa
08
fa
fa
02
fb
04
00
fd
fc
03
05
fc
ff
fd
fb
fd
fe
fd
fc
ff
00
02
ff
ff
03
02
00
fc
02
fb
01
02
00
00
ff
00
fe
02
01
00
04
06
00
fa
05
f7
00
03
fa
02
fa
02
01
fc
fe
00
fd
fc
00
fe
ff
fa
04
01
02
ff
fc
ff
fc
fb
03
01
00
03
fc
00
04
01
00
00
00
ff
fe
04
00
00
02
01
fb
01
02
00
f9
ff
fb
fb
02
fc
fd
01
ff
fe
02
fc
04
01
fb
fd
00
ff
fc
00
fe
08
00
ff
ff
08
01
00
05
f7
fe
fd
fe
fe
ff
fd
01
00
01
07
04
0c
04
05
02
02
03
04
00
ff
fc
fe
01
fc
00
01
fd
ff
01
03
fc
fd
fb
fe
02
fe
00
ff
03
00
fe
01
fe
00
00
fb
02
fd
fa
fe
01
00
fd
05
04
01
07
0a
00
ff
03
ff
f5
00
02
f8
02
00
04
03
02
05
fd
fd
02
04
fd
01
06
fd
03
00
01
fb
fb
00
00
fe
00
fd
ff
00
00
00
ff
fe
00
00
06
04
00
ff
f8
00
02
fe
03
02
fc
01
fc
02
ff
fc
03
00
01
03
07
fa
fe
01
ff
00
fe
fe
01
06
02
fe
fe
03
fc
00
02
00
fd
01
00
fc
00
04
00
ff
03
fb
03
ff
00
02
01
07
fe
00
fe
fd
00
ff
fb
fe
fb
00
00
01
04
01
08
04
05
00
0d
0d
fe
00
05
04
ff
f7
fd
fc
f7
01
ff
fa
ff
07
03
03
ff
fe
02
00
02
04
02
00
00
05
05
00
04
fd
03
00
01
03
f0
f0
fd
fe
fc
01
00
fd
01
00
fb
03
01
ff
fd
ff
04
01
fe
00
02
ff
fb
00
00
02
00
fe
fe
02
01
fe
02
ff
00
00
02
fc
fb
00
fe
fb
fe
fb
00
fc
fc
06
ff
fb
00
05
ff
00
00
05
ff
03
ff
fe
ff
ff
ff
04
00
04
00
01
07
00
01
03
00
f9
fe
fc
00
01
02
00
00
00
03
00
00
03
03
04
fc
f9
0b
07
02
01
04
04
fe
03
05
00
01
ff
fe
04
02
03
01
fc
fe
00
fc
00
fc
00
fc
00
02
05
01
01
fe
02
01
fd
00
04
02
01
02
f6
f2
00
ff
fb
fb
02
fb
01
0b
04
00
04
01
01
fa
01
fa
fd
fe
01
02
fe
05
06
06
00
02
04
00
00
ff
fd
fe
02
05
f9
fc
fd
fb
fa
00
ff
ff
01
01
00
00
01
ff
fc
fd
fd
04
fc
01
02
04
fe
04
01
fd
fe
fc
fd
01
03
00
fe
00
fc
ff
04
00
02
00
fe
fc
08
fe
00
03
fc
00
00
fe
ff
fe
fd
fd
fa
00
ff
fd
01
02
04
0a
01
f9
00
07
01
fb
00
00
01
fd
01
06
01
00
04
04
01
02
04
fb
00
04
ff
02
06
06
ff
ff
05
05
fb
01
04
00
fe
fa
02
00
f8
00
09
01
fe
00
03
04
fe
fd
00
02
fd
05
ff
06
02
00
00
00
fb
fb
00
03
01
ff
02
04
00
02
00
02
05
04
01
03
01
01
03
05
02
fc
03
01
02
0d
02
00
05
03
fe
ff
01
04
01
00
00
fb
fc
0c
0b
02
00
02
04
03
00
03
02
fe
01
ff
fe
fe
04
00
ff
ff
06
00
00
f9
00
00
00
01
09
04
08
fc
fb
06
fc
fe
ff
fe
fc
03
ff
ff
ff
ff
f8
ff
00
02
ff
00
03
fe
fb
01
ff
02
fc
fc
ff
fb
04
00
fe
ff
fd
fe
02
00
00
03
01
ff
04
03
ff
fd
fb
fe
fd
01
02
00
02
05
05
fa
00
05
00
01
04
fc
02
fe
fc
fa
05
00
fb
ff
ff
04
00
03
00
03
fe
fd
fd
fd
ff
03
00
fd
01
fb
ff
00
05
01
04
00
00
02
00
fb
fe
fe
fa
fd
00
f9
05
04
ff
ff
fe
ff
ff
ff
00
fa
ff
00
ff
fd
00
02
02
fc
00
01
00
ff
04
03
00
05
09
03
03
00
02
01
ff
02
02
06
f9
01
fe
00
04
fe
fe
fd
00
fb
fa
00
fe
03
04
fe
07
ff
fd
02
01
fd
00
00
03
f8
01
07
00
03
00
01
02
00
00
00
04
fa
00
00
fd
01
04
fc
ff
0b
02
03
0a
fc
fd
00
ff
00
fe
ff
01
03
00
fd
fa
04
fc
fc
00
03
05
07
04
07
fb
09
fe
ff
ff
fe
fe
ff
00
fc
01
ff
01
00
fe
fc
fd
fc
01
ff
01
00
01
05
06
06
04
00
00
07
04
03
04
00
fe
00
00
00
fd
02
fe
fe
02
ff
01
04
00
fb
02
fe
fb
fd
fb
04
fe
f6
00
00
f9
ff
01
04
05
f6
00
05
fd
01
02
08
05
ff
ff
fa
00
ff
00
fc
00
07
05
fa
00
04
00
fd
00
04
04
01
00
fd
00
02
01
fe
ff
03
01
fd
00
ff
02
00
00
fd
fa
fc
ff
00
f8
00
00
fe
00
fd
fe
fd
fc
fc
02
fc
01
f7
02
01
fc
fd
05
ff
fa
02
05
ff
fd
00
ff
01
05
03
01
0b
07
01
08
03
05
ff
01
01
fd
fe
00
fc
02
00
02
fd
00
00
fe
ff
03
04
fd
fc
01
04
03
f9
01
fc
f6
ff
01
fe
02
ff
fc
fc
fd
ff
fa
03
02
05
02
05
00
02
03
fc
01
f9
00
05
fe
fa
02
02
fc
00
ff
fd
06
00
fc
02
04
fe
03
02
05
fc
fe
fe
fd
fe
fe
ff
fd
fa
06
05
ff
07
09
00
01
00
fe
ff
01
fd
fb
fd
00
fd
fb
ff
ff
03
02
fc
fc
00
fb
fe
00
03
ff
fe
fb
f7
00
02
ff
fe
02
fc
fe
fe
02
fd
00
01
00
00
fc
00
00
00
00
ff
01
02
fd
01
f9
00
00
fe
fd
01
00
f3
fe
02
ff
fb
00
04
00
fc
08
0b
fc
03
00
fe
fd
00
00
02
00
02
02
00
01
03
00
00
00
00
fc
fd
ff
ff
00
fd
00
ff
04
03
ff
04
00
fe
ff
03
05
04
03
fa
fe
00
02
fa
00
02
fd
fc
fc
00
02
fb
00
fd
03
00
00
ff
03
00
02
fe
00
00
00
04
fe
fb
00
02
fe
04
03
08
03
fb
fb
05
00
fa
00
04
fd
02
02
02
fb
fc
00
00
fb
00
01
ff
fc
fd
fe
00
fe
00
fc
01
ff
00
04
02
00
ff
04
00
fc
fe
01
02
fa
00
01
ff
ff
04
02
01
04
00
03
04
01
f9
fd
00
07
02
00
00
00
f8
04
01
f3
00
09
fd
04
03
0c
12
02
01
f6
fb
00
02
01
02
ff
ff
ff
ff
01
00
01
01
04
01
01
ff
00
01
02
00
ff
fa
01
06
00
00
01
00
fe
01
0d
05
02
02
06
ff
02
00
01
01
06
fd
f8
f9
02
fd
fd
04
01
04
fe
fd
fa
ff
01
00
04
00
05
02
fb
00
00
01
02
00
04
03
00
ff
fe
ff
00
00
04
0a
09
fd
f9
00
fe
ff
fa
fe
02
ff
00
01
fc
fd
fe
ff
01
02
fc
fe
fb
fa
00
00
ff
00
04
04
fe
00
fc
ff
01
fd
fd
06
0c
05
00
00
04
03
f9
02
00
06
07
00
04
fd
05
ff
fe
fc
02
fe
fc
f9
07
08
01
08
ff
00
00
fd
03
01
04
00
ff
fd
ff
fe
01
00
fc
00
00
02
01
fc
01
02
fe
00
fc
fb
fd
09
01
fb
00
01
02
fe
ff
02
02
00
fe
fd
00
00
fe
ff
fd
00
03
00
fd
0b
03
fe
ff
fc
fd
01
ff
ff
ff
ff
fe
00
fb
02
03
07
fe
05
03
fe
00
fe
fe
08
00
fa
04
fe
00
02
00
05
00
06
fb
fb
05
01
00
ff
ff
00
fb
00
03
fb
fe
fe
fe
ff
00
01
00
00
ff
fc
01
fb
02
02
01
fc
01
03
fd
fd
fc
05
06
06
f8
fd
01
fa
01
ff
fb
fc
02
03
f9
01
01
07
fd
00
02
fe
00
00
fd
00
02
fc
02
06
ff
01
02
00
fc
00
01
03
04
fd
ff
01
ff
01
05
04
ff
01
00
00
fb
00
fc
f5
00
fb
03
02
fd
00
00
00
fb
ff
00
fe
03
f9
ff
00
00
fa
00
01
02
01
05
fd
fe
fe
fc
02
ff
ff
fd
fd
00
04
02
fd
fe
04
ff
00
fd
02
03
ff
00
02
ff
fe
02
03
fc
02
00
ff
03
01
fe
01
01
03
fc
01
fe
04
00
fc
fe
02
00
fd
00
00
fe
fd
fd
03
01
fd
00
02
02
04
05
06
00
00
04
ff
ff
f8
fc
fc
fb
00
fd
01
00
01
00
fc
fc
01
02
ff
fd
01
02
ff
fd
ff
fb
fc
ff
ff
fc
02
02
fc
04
fc
00
05
00
00
fc
fc
ff
03
06
02
03
00
02
00
01
05
fb
00
fb
fb
07
fb
00
00
04
fc
f8
ff
00
f7
02
00
f7
00
fa
ff
06
01
07
06
ff
01
05
f8
02
fe
04
04
06
fb
fc
05
fe
fe
fc
07
08
01
00
06
07
f9
08
04
01
fa
fe
fe
00
fe
08
03
03
03
02
ff
06
00
fc
03
04
01
ff
06
06
00
02
04
00
05
ff
fc
07
00
fd
03
00
00
01
04
01
f7
fd
02
f9
ff
fb
fe
fb
ff
fc
0a
fa
00
0b
fb
04
fe
0a
ff
ff
fd
f6
01
01
01
03
07
fc
fc
04
f9
fa
01
06
01
05
ff
08
05
fc
09
ff
fb
01
fc
fe
03
01
fe
0c
fb
05
03
ff
00
fa
01
fe
00
fb
08
f8
00
fc
01
fb
04
f2
0a
05
fe
09
ff
02
00
05
fc
03
08
07
fa
03
01
f9
fc
03
ff
06
07
fd
04
02
00
fd
fb
00
f3
01
fb
f1
14
fc
f0
02
00
07
04
00
fe
fc
fc
00
01
00
01
fd
fa
02
f7
08
04
07
0a
00
fc
00
08
02
ff
01
08
f9
fc
f8
f7
f9
01
04
00
f7
0c
fc
fe
0b
03
07
ff
03
03
f7
fd
fc
06
fb
00
fd
00
fe
02
01
01
00
09
0d
02
04
07
03
01
00
05
00
00
fd
fd
01
fd
fb
f7
fe
fe
00
03
00
07
fb
01
f6
fb
01
05
f5
f9
01
fa
f9
fe
00
03
03
09
00
fd
00
05
08
00
08
ff
00
ff
01
04
07
ff
02
04
05
06
fb
fe
03
00
fd
fc
00
fa
00
04
f0
02
05
fc
fc
fe
fc
fa
01
fa
fe
fb
00
f7
05
fa
f7
01
ff
05
fd
00
fa
f5
f1
00
f3
fa
f4
fc
04
f6
fd
f9
00
f2
fb
07
fc
fe
fc
01
fe
01
02
fd
03
fe
04
fa
ff
01
00
fb
0a
02
f6
00
f9
f1
00
06
fc
fb
f0
ee
f2
fe
f0
fd
f5
f4
01
ff
05
fe
00
02
00
01
03
0b
fa
00
01
07
fe
03
fb
fd
01
fb
08
fb
f8
00
02
00
04
05
fa
05
fc
fa
fa
fb
04
05
06
fe
0e
02
03
14
08
07
16
0c
01
01
fa
fc
fc
f9
00
fd
f9
fd
05
05
fa
06
00
fe
fc
03
00
fd
00
fb
01
f8
00
05
02
fd
04
fd
fc
fe
02
fd
fe
05
f9
03
03
fe
f7
03
f9
f4
fe
0b
00
ff
04
fe
00
00
01
ff
02
fc
07
ff
fe
01
fe
fe
06
f7
03
ff
f8
07
0d
fb
fe
ff
fe
00
fc
fc
fc
00
ff
f9
05
ff
08
00
fa
00
00
09
05
03
03
00
04
fe
ff
fd
00
ff
08
fd
01
fb
00
f7
01
04
f9
f7
f5
07
03
ff
fa
02
05
fd
f9
fe
fa
03
fa
00
f8
00
03
00
06
ff
fb
01
01
04
01
04
05
fe
fe
fe
04
04
ff
fe
fc
f8
04
05
ff
05
08
00
04
fa
fa
06
03
07
00
07
f6
01
fe
04
00
f9
07
ff
ff
02
00
f5
08
08
fe
fd
fe
09
07
03
04
02
fb
fd
00
fd
00
fe
fe
0a
04
fe
00
02
fc
fb
02
06
01
f8
fa
f8
fc
f8
f4
fe
ff
fb
f8
fc
f7
fd
f9
fe
04
05
fd
01
f9
04
fe
ff
0a
07
fc
fe
f9
05
fb
04
fd
03
f9
ff
06
02
01
03
f8
05
f8
fe
03
f9
04
00
08
fb
f9
fb
06
ff
fe
02
ff
02
06
00
00
f9
fe
02
00
00
04
fa
fb
fc
08
ff
fb
fb
07
0c
02
ff
01
01
03
00
fd
00
04
05
fc
f8
00
fd
01
f5
fd
fa
03
02
02
fe
05
04
fd
04
fa
01
05
05
01
fb
ff
06
01
fd
fa
03
05
f9
01
fa
fb
f5
fc
fb
fb
03
ff
08
fe
05
fc
02
01
05
ff
01
ff
fd
ff
08
07
09
08
0b
07
fe
04
03
fa
f5
ff
02
fc
fb
05
01
08
05
fe
00
05
01
f8
00
00
fc
02
02
02
f9
01
09
05
ff
04
03
00
ff
fc
03
00
05
fc
04
f4
04
fd
02
01
ff
03
ff
f7
fe
03
fe
04
00
04
00
fa
00
f7
f9
fe
f4
f2
f5
01
ff
ff
ff
f9
07
fd
00
08
fe
fe
05
fb
04
00
fe
fa
fb
07
fc
09
08
04
02
06
f3
fb
00
fa
ff
03
01
03
fe
01
fb
fd
fd
04
fa
f8
fd
05
ff
fc
fe
05
02
02
01
07
fc
f5
00
08
05
02
05
00
04
fc
fa
fe
06
fd
04
00
02
08
f5
00
fb
fd
fb
fe
ff
05
f9
fe
00
06
fd
05
0a
00
00
03
fb
fc
f9
09
00
01
00
06
01
fe
0f
03
fb
07
08
f8
f9
f9
00
fd
fd
09
00
f9
fb
f7
fe
fd
04
05
fa
f6
fd
00
f9
f4
06
fd
ff
00
ff
02
07
02
fb
fe
01
fe
fe
f9
f9
f9
f6
f8
01
00
fb
03
07
03
fe
f3
fb
01
f8
fa
05
f6
ff
00
06
06
0a
01
00
02
06
00
02
fa
fc
f7
00
00
fa
f7
f7
00
07
fb
00
04
fe
01
fd
03
fd
f9
fb
f6
01
fa
06
06
04
00
08
00
05
05
01
00
07
06
f7
fa
06
f7
f9
01
fd
ef
f9
02
00
01
00
fa
04
04
fe
03
07
fa
f9
00
02
fc
03
ff
0b
f8
fe
01
f7
06
0c
f7
00
05
08
04
ff
fc
01
08
03
06
fc
fc
ff
f2
0a
02
fb
09
05
05
04
fb
03
04
01
00
ff
fe
fd
00
fb
03
04
f9
fd
fe
fe
02
fd
f9
05
ff
fd
fd
00
fc
02
fd
03
01
f8
03
06
f8
00
fe
06
ff
07
00
05
fe
ff
04
03
0b
fd
fe
05
01
00
08
08
06
00
fd
02
fe
06
04
09
0a
02
03
f7
fc
fc
fc
04
f8
05
01
ff
fa
01
fa
f7
01
00
f6
fa
05
04
00
ff
f9
02
06
ff
fe
00
00
00
fc
00
05
01
00
0a
02
08
00
fd
fe
00
06
00
00
06
fb
00
00
08
02
04
03
06
fb
00
01
02
f7
02
fe
fd
fd
02
f8
01
00
04
05
f9
05
09
06
05
00
02
02
00
fb
06
fc
00
00
f1
00
05
fe
05
00
f4
03
01
05
07
ff
f6
03
05
fe
00
08
03
00
06
01
05
06
06
fe
05
fe
01
fc
f8
03
02
04
fb
fe
fa
01
ff
0b
fe
f4
ff
03
05
f7
00
fa
f9
fa
fc
02
ff
03
00
fd
05
ff
06
fa
05
f9
f9
02
04
ff
01
fc
fe
09
ff
06
fc
ff
fa
f6
04
f3
f8
08
fc
ff
01
01
fa
0a
05
06
ff
04
08
fd
04
00
08
04
fc
ff
f8
ff
fd
f9
f9
00
03
03
00
05
08
fe
02
f8
06
03
02
00
f9
00
00
01
fd
02
08
0a
ff
02
01
fe
f6
00
07
fa
f4
f7
06
f9
fb
01
05
f8
0f
03
fc
04
00
02
05
05
f8
fe
fc
f8
f6
02
f5
f8
02
02
fb
0d
02
03
00
06
06
ff
05
07
05
00
06
01
07
06
fd
01
02
07
f1
ff
fa
f9
08
f9
fa
ff
ff
f8
04
fb
04
fd
03
fa
04
fe
ff
ff
fc
08
03
fb
01
01
f7
00
f8
05
fd
ff
00
04
07
01
fc
fa
f8
03
fd
f8
04
fb
fc
01
00
fa
07
04
fd
fa
03
fa
fa
f9
00
f9
ef
00
03
fe
f9
f3
f9
f3
fd
09
01
fb
05
10
f8
fc
09
fd
f8
00
fd
04
fb
f8
f5
07
ff
f8
04
f9
f7
05
01
06
02
f8
fd
00
fa
ff
fd
02
05
00
00
fb
fb
fc
05
fd
04
fd
f7
05
00
f2
04
f9
f8
0b
00
03
00
fd
03
fd
fd
03
00
03
00
fe
01
06
ff
f8
07
03
f9
04
f8
04
04
01
03
01
05
ff
01
00
fd
04
fa
00
0a
08
04
fb
04
f8
fe
06
02
fe
03
fc
fd
01
07
03
00
05
00
08
ff
fb
fd
06
03
07
fc
0f
02
fe
fc
05
ff
07
06
f9
07
02
07
06
05
fe
06
08
f6
01
07
03
00
fb
03
04
ff
08
04
00
07
07
00
00
fb
05
05
00
03
06
fc
01
f1
f2
00
fe
00
fa
ff
fe
02
f8
05
fe
fc
00
fd
02
02
01
05
fb
ff
fa
fe
03
06
fd
08
ff
f9
00
f9
fa
03
ff
03
03
fe
fe
08
fe
01
01
04
01
f9
07
06
00
04
04
01
09
07
07
04
06
fe
03
fd
ff
09
fe
00
04
05
fd
00
00
f7
ef
00
fd
f9
02
f9
fd
ff
00
f9
fb
fc
00
f6
f7
f7
fc
05
00
fb
fc
04
f9
02
fb
04
fd
ff
fc
02
03
fc
00
02
07
fc
00
00
04
02
fc
0b
04
f6
02
03
02
00
03
fe
fd
02
10
02
fd
f8
00
fe
fc
00
f9
f7
01
01
04
01
03
07
01
03
02
fb
fa
fd
01
07
00
fd
00
ff
fc
ff
fb
fe
fc
06
fc
ee
13
fb
f9
00
fe
f0
00
fe
02
fc
05
fc
ff
fe
ff
00
04
07
00
f4
f2
03
fc
fe
06
fd
f7
02
06
01
01
02
09
06
00
f5
f5
fd
fc
fa
fb
f8
fc
05
fe
03
fe
fd
fd
02
fc
fd
03
09
fe
fb
f9
fe
01
09
07
fb
03
03
f3
05
0b
fa
ff
00
fa
ff
fb
02
fe
07
fd
05
ff
f8
02
03
02
05
fc
04
ff
ff
fa
fc
01
f9
fb
f9
04
fb
01
03
fe
06
f6
06
fe
01
07
00
02
0c
fd
fd
ff
06
f9
fd
08
f8
fb
02
04
01
fe
f8
fb
03
fb
fa
0c
fb
01
fe
08
00
f7
ff
f9
00
fc
00
00
02
f7
00
00
f9
fe
fd
fd
03
05
fc
03
f3
f6
03
03
00
03
01
01
01
05
ff
00
fc
05
f8
f7
f8
fa
01
03
fb
f8
fe
06
fa
05
fc
05
02
fc
fc
ff
ff
f6
fc
05
00
01
ff
03
04
02
ff
0f
04
fd
0c
06
01
f9
fc
fd
fd
01
fd
fd
00
08
03
fc
fd
07
05
05
06
fb
00
02
f7
06
f9
00
04
f9
fc
03
01
04
01
ff
fd
fa
08
06
01
fd
01
00
fc
fc
06
02
09
07
02
03
fc
fa
fe
fb
06
ff
07
00
01
00
fb
fa
ff
08
03
03
03
00
fe
03
08
f5
fd
08
fc
fd
f7
07
f9
ff
01
fe
05
f9
02
08
ff
ff
fd
fc
ff
02
f9
f9
fc
00
00
f2
fd
fd
fd
09
02
ff
07
03
04
07
03
06
02
ff
fb
fe
ff
02
06
04
f9
fb
05
fb
01
fa
01
07
04
00
f9
02
03
01
ff
fd
fa
00
f7
01
fc
03
01
08
0b
07
fd
00
fe
07
fa
00
f9
07
00
01
f9
f7
01
06
00
05
06
02
03
02
fb
06
fa
fa
02
00
04
0a
00
01
fe
08
06
fe
05
04
f1
06
0a
0a
f9
0e
09
02
07
fc
00
f8
fe
fc
00
01
09
f2
02
00
00
ff
f9
fb
fa
00
01
fa
00
ff
f8
01
fa
fb
00
fe
06
07
05
05
f6
0b
fc
03
fd
fd
02
03
fc
04
fa
05
00
00
08
02
fa
00
00
02
f9
03
fd
fb
06
fc
02
09
fc
04
03
fc
01
06
05
08
07
fd
03
fb
06
08
09
05
f4
00
ff
f2
fb
fb
fc
00
fa
02
fc
f9
f3
ff
fd
fb
00
04
02
01
00
07
00
00
0a
fa
04
03
06
01
02
f9
fd
fb
fe
00
00
fc
04
03
fb
fb
06
fe
fa
0a
0c
03
04
01
fb
fa
f9
03
07
f5
f6
04
07
08
f9
00
f3
fd
00
f5
08
fb
f4
02
0f
f4
e7
fc
f9
ef
fb
03
ec
f4
01
f6
f2
ea
f2
f2
fd
08
0f
ff
f7
05
fc
f9
f9
0b
fb
fe
05
f7
04
00
f6
04
f8
fa
05
0a
0e
16
fc
02
fc
08
f2
00
f4
f7
fb
04
f7
01
05
01
fa
fd
ea
04
eb
d0
f0
03
d3
f8
f9
03
fa
fb
13
04
14
11
01
06
17
07
19
0d
06
12
02
f5
07
10
0b
03
fa
07
06
0a
11
08
ff
00
03
04
f5
fb
fd
f9
09
fe
fc
04
fa
05
fc
f6
f8
2c
10
13
1a
03
09
11
04
02
fc
ec
f3
ef
dc
fb
f7
fa
02
fc
f1
fd
ff
f9
f7
05
07
0b
fc
00
04
fa
00
02
00
fe
f9
fb
f6
04
f3
f1
fa
03
03
01
ff
0d
00
00
02
02
06
0b
ff
0f
00
fa
0f
fc
0a
03
0a
08
05
ff
05
e5
ef
e7
07
f2
03
06
09
00
f8
09
fb
fe
02
ff
08
05
fa
f7
01
fa
fb
f5
fb
00
e7
05
e6
e4
f0
f0
ea
00
0e
fb
ef
0b
f9
fd
00
f7
ff
f5
0d
fd
fe
f5
f6
fe
f4
ff
03
fc
05
07
0a
f8
fd
06
f7
f5
f9
fa
00
05
f6
f9
fb
f8
f4
e8
fa
07
fc
fa
01
0c
05
05
01
07
fe
fd
fc
fc
fa
05
15
0d
09
08
1a
0c
14
11
fe
fc
f7
08
04
04
07
04
0e
0d
12
08
10
05
ea
fd
fc
f9
03
f2
f7
fc
06
f3
fc
f6
f1
04
fd
fb
fc
05
fc
ff
03
00
01
04
00
fd
01
18
00
fc
05
00
fb
fd
f5
02
06
f3
f7
ef
f2
05
18
07
08
00
f2
00
ee
ed
00
04
fe
f8
fa
00
01
ff
fe
f0
ed
f0
f2
db
f1
fa
ed
fb
f3
0d
ff
07
23
0f
fb
03
00
f2
ea
fb
fa
03
0a
f5
fd
f9
13
0d
11
02
f7
03
03
f6
06
18
0a
05
10
fb
03
0b
06
ff
16
05
0d
09
08
08
f9
ff
00
ff
00
fd
00
f5
fe
0c
04
0d
f0
f1
04
e5
00
00
fc
ee
00
0f
13
ff
07
10
08
07
02
0a
09
0f
09
fd
fb
fa
08
02
04
00
f6
05
00
06
07
05
fb
05
0a
0e
08
f9
0a
00
fd
fc
f9
0f
15
ff
08
18
02
ff
03
01
fc
00
f6
fd
f2
f7
f2
f3
00
00
f0
f0
fb
fd
f5
f2
fd
f2
fc
12
eb
02
0f
ee
f5
eb
f1
f5
f6
00
fe
eb
fd
08
0d
0a
18
27
15
10
00
fb
0f
07
01
12
1e
13
0a
fc
03
11
03
f7
10
09
13
03
f5
0e
f8
02
0b
03
00
05
fd
06
0c
fb
fc
fa
04
00
04
fd
f8
06
fa
02
fa
01
00
f7
08
07
04
fa
06
01
01
f9
fa
0b
02
0d
02
0a
fb
02
f5
f6
03
05
00
03
f8
00
ff
0c
fb
fd
f7
05
0e
12
0f
00
03
07
f8
00
01
03
00
09
00
00
fd
f6
f9
fd
fb
fb
fc
e7
ef
f7
f9
06
fe
07
00
fe
06
fd
04
03
f5
05
fa
fc
03
0e
fd
07
03
f5
f9
01
09
fa
ff
0d
fd
06
fd
fa
03
f8
06
06
16
00
03
12
12
f3
00
f8
05
0d
fd
f7
03
00
02
07
ff
0d
fd
fb
04
fb
06
0d
0f
09
00
08
00
f2
03
fe
01
04
04
09
02
02
0e
fd
01
00
ff
00
0a
fe
fd
f9
fd
02
ff
00
08
07
fc
fc
00
0f
fe
ff
fd
09
fd
06
f8
02
09
fc
f4
fe
f6
fe
08
00
09
0d
f7
00
01
09
01
fe
07
00
f6
08
fd
00
01
02
08
00
fb
0a
00
fe
01
f5
07
fc
00
f1
e6
02
f3
ec
f9
fc
f8
07
08
08
fc
07
ff
fe
00
f9
fc
04
03
07
ff
00
00
f3
f4
05
f3
00
fd
fa
08
02
19
1c
0d
0b
03
01
03
07
01
f5
f9
02
f3
ed
fb
f8
00
07
f0
fb
f1
ff
16
fb
f9
00
01
06
fd
fa
f5
ea
fe
0d
0b
0a
00
02
00
f3
02
fa
08
14
08
06
04
19
f7
f2
0a
02
f3
1e
02
02
09
f8
f5
f2
ff
f9
fe
09
02
03
1c
24
1a
03
12
f9
0a
ff
07
06
08
fd
00
01
f2
00
0d
f9
fa
08
fd
fd
01
ff
fc
f5
03
00
00
08
03
09
04
f2
f6
f8
f2
0a
00
02
fd
01
fb
f6
f4
fe
06
f6
00
fd
07
03
f8
11
fd
01
fd
02
06
ff
0d
0b
02
0b
0f
03
fa
07
02
0c
23
00
1b
15
06
0e
fb
11
01
13
03
00
fe
02
04
fd
f4
eb
f3
00
01
f1
f0
fa
08
07
08
07
14
f6
fd
09
02
04
03
03
03
fe
07
11
f0
f6
0c
ff
eb
e3
f1
ec
ed
ea
00
f2
fc
ff
11
fb
0b
0e
0b
09
02
09
f0
eb
f9
fc
ee
ec
f8
fd
02
01
03
fe
03
fd
ff
fd
f1
00
02
07
04
0b
09
fc
03
ff
fd
12
1c
1c
16
2e
12
07
18
fb
0e
03
0a
0e
15
14
09
07
04
fd
08
00
00
f1
fe
01
ff
03
fd
01
fc
00
04
f6
fe
ee
fd
02
06
03
06
05
fb
03
fc
f8
fb
04
fb
03
05
f2
e1
ed
fd
12
19
05
10
21
09
0e
0f
03
07
ff
fa
0c
fd
fa
03
f8
07
00
08
06
1c
1a
08
f9
fd
f8
f3
0c
ec
01
15
f0
f6
02
f2
09
fd
fe
ff
f5
fe
00
00
08
0c
01
00
04
00
f6
ff
fd
fd
1d
07
12
f8
f1
01
10
02
0e
f7
00
fa
f9
f3
00
f1
fd
00
fe
05
0c
03
f8
fc
02
01
05
ff
f6
05
04
fd
0a
09
04
04
03
07
f8
f9
08
03
fd
f5
ef
01
f6
fb
02
0d
fd
fc
f8
02
04
0a
fc
02
00
01
00
0e
fc
f9
02
f0
07
fa
00
fa
fe
03
fb
00
fa
fd
f9
fe
06
05
02
fa
01
f8
06
02
06
fe
07
03
0a
0c
03
fd
04
0a
fb
fe
04
05
00
03
02
10
13
03
06
08
ef
01
fd
fb
05
00
05
05
05
00
f4
02
fd
fb
04
fb
07
09
01
fc
09
00
f5
02
f8
fd
10
1a
39
1e
0f
35
17
0e
14
0f
05
05
fb
fb
fb
01
00
00
07
ec
ee
f9
f1
ee
06
f9
f2
f4
0f
0f
07
0e
10
ff
0a
04
0b
fa
f9
f7
07
01
05
ff
09
09
00
f6
f1
00
f1
03
f6
05
fa
e6
f7
e7
fa
f6
ec
f8
02
ed
fb
fd
00
fe
03
03
02
04
fc
f9
02
fa
f6
01
f4
fe
fd
ff
03
04
fd
00
01
06
02
0b
07
f3
09
0e
f7
02
0b
01
07
11
ff
00
fb
06
08
fa
f3
0a
04
ed
05
f6
04
0b
07
fb
f7
00
ff
f7
f5
0e
00
f0
fc
fe
fc
fc
ee
f0
11
00
f7
00
04
fb
0a
03
f4
ec
ec
e3
f4
f5
ff
f4
fd
f9
f4
f8
f8
00
08
fe
07
00
f7
fe
fe
fa
05
06
fa
10
15
0c
0c
1a
0b
fc
fd
f8
fa
f5
fc
f7
f5
f2
fa
fb
f5
06
fd
00
fe
f8
03
fe
fb
fd
ef
ec
e5
fc
dc
e6
00
08
00
0b
fd
02
07
fc
fc
f9
fa
eb
06
00
0b
f8
fb
fb
ff
fc
f9
06
00
f4
04
08
f5
00
03
fd
fc
06
fa
00
06
0a
fe
0a
ff
f6
ec
fe
f5
e6
f6
ff
02
f9
ed
f7
f0
0a
1d
00
ed
fb
eb
f7
0d
03
00
00
02
05
07
05
04
02
ff
08
08
00
fb
05
03
03
0a
ff
04
17
0d
f7
0b
fd
04
06
09
07
f9
02
02
0a
fa
ec
ed
03
ff
f2
fa
f4
03
01
02
fa
03
f4
07
ff
04
0b
07
12
05
0c
09
01
03
fc
04
02
0a
06
04
04
0e
00
00
fe
02
01
04
fe
fa
fb
00
04
fb
f9
03
05
00
ed
e6
eb
ff
f0
00
fd
fd
04
fe
fc
0c
05
0b
01
04
00
03
fc
f7
fb
fb
f0
00
f0
f3
02
fc
01
f8
f9
02
f9
f4
ec
f3
ed
e3
ee
ea
f8
ff
05
f7
f7
f5
fb
fe
04
ff
ff
03
0e
fb
00
02
f9
fb
ef
01
f4
0e
0b
01
09
07
ff
fc
00
00
f4
05
fa
04
00
02
03
01
0c
03
09
fd
01
0b
fc
10
07
00
00
f6
f3
fc
f3
fb
ff
0d
fc
ff
07
06
0b
06
0b
fa
04
f5
06
07
04
fb
fe
f4
f2
fb
fb
f7
f5
1a
00
02
01
10
04
f9
fd
ff
f6
fc
01
1d
0c
0e
00
ff
ff
fd
f3
f4
fc
f3
06
fc
fc
f8
06
00
fd
07
fd
fd
01
f6
12
0a
f1
09
ff
00
09
eb
f7
ee
06
06
01
f3
00
fb
09
fe
09
0e
0f
fe
0a
fa
ff
fd
0a
03
00
ff
06
03
ff
03
02
10
0c
12
00
00
0c
0e
05
0c
fc
07
0e
14
09
02
17
f3
ef
f4
f6
df
f1
ec
e9
f3
f6
fd
f4
f3
05
f8
f3
02
f9
f5
1f
06
0f
08
20
0f
f9
17
03
f8
2d
ed
1c
45
11
0b
17
ff
0d
fa
f8
03
fe
f4
06
00
fc
fa
fd
fd
f0
f5
fe
f0
03
fd
0c
08
0f
0c
ff
ff
12
03
00
05
00
04
03
fc
10
08
09
04
02
05
06
08
fd
0e
f9
00
09
05
1e
fd
0c
1a
0c
fa
15
02
00
fd
f5
08
1d
05
f7
f9
10
f6
fa
ff
fe
fb
00
08
f8
05
01
05
f9
00
ee
02
ea
fb
e6
02
f0
16
f4
f7
fe
11
ff
0b
ea
e6
f1
04
ff
08
02
13
ff
f7
f7
06
ee
e9
fb
fe
ed
06
01
fc
ff
00
fd
01
e7
ff
fa
fc
0c
00
00
08
0c
00
09
fe
02
08
f4
05
00
02
07
09
01
f9
fa
ff
0a
ff
07
02
08
02
04
00
08
fa
e4
f8
00
ee
04
17
09
0c
18
0e
02
06
0a
f9
eb
e9
e7
00
04
09
12
10
10
03
ff
02
fb
03
00
02
03
fe
0a
12
05
0d
02
05
0d
0b
0d
fc
ff
06
fe
04
00
ff
fe
fe
0c
18
08
18
1d
04
0b
18
0a
08
00
ff
fa
f7
fa
00
08
fd
e0
0a
f0
03
17
00
03
06
f6
03
03
fc
0e
11
04
01
f5
f5
0d
10
01
11
16
05
09
ff
fa
12
2a
12
05
11
05
07
ff
fe
ed
f2
04
fd
00
fd
07
16
06
ef
fe
f7
f8
fa
fa
01
f6
fe
fd
f6
02
f9
f8
fe
08
01
ff
f8
08
04
01
0f
07
11
09
00
15
00
16
f7
f5
01
0e
0d
08
03
04
f9
fa
15
00
fa
e9
fd
fb
f9
0a
01
fb
f9
06
f9
00
02
04
00
03
09
02
03
12
01
07
00
11
f3
ef
03
0b
0b
0e
e6
df
eb
ef
ef
f3
f4
eb
f8
00
f2
09
03
00
fe
09
0e
09
e8
f8
02
e8
fd
f6
ed
f6
fd
05
06
0c
0c
05
fc
0a
08
01
f5
f2
01
fc
03
08
fa
13
0b
00
f2
f7
fd
00
f1
ff
07
04
ef
0d
f7
07
00
fb
fb
02
f2
05
09
08
fe
09
10
fe
02
08
f1
f2
fd
fa
00
00
04
fa
00
f4
0e
02
ff
0a
fd
f0
00
fb
fc
25
05
f9
15
04
f6
13
07
fa
13
09
0c
0a
08
0b
0b
fa
03
0b
06
fb
07
fc
fc
fe
f9
00
05
f5
f6
05
fc
03
f8
01
04
f4
fa
05
f5
f9
00
06
fc
fc
02
fb
f6
e3
04
fe
f5
05
03
03
00
09
04
00
ff
05
ff
00
fb
fa
fc
f9
f9
ff
f8
fd
02
09
01
fd
04
02
fc
08
03
fb
fe
fc
02
fc
04
05
fd
fe
09
ff
07
00
02
00
00
04
04
02
fe
fd
fe
02
fc
02
02
fe
06
03
fc
ff
03
00
fd
ff
00
fc
fd
03
00
fe
04
ff
ff
00
ff
00
fb
ff
ff
00
04
06
0b
00
ff
03
fc
f4
fd
fa
00
00
02
fc
05
01
00
fe
fe
03
04
f9
fa
f8
01
00
ff
0a
02
fe
05
06
06
07
05
0a
02
ff
01
fd
fe
01
02
05
00
03
00
05
fe
00
00
fa
00
00
01
03
04
fd
fa
01
00
fb
02
ff
04
00
fb
fd
fe
fc
fd
00
05
fa
00
03
03
04
02
00
00
fe
05
fd
0d
05
02
0a
0b
07
01
fc
03
fe
ff
03
04
0c
01
ff
04
07
01
01
00
03
fd
fc
00
03
00
03
00
00
fa
00
03
fe
fb
fe
fc
00
ff
03
01
01
fc
00
03
03
07
01
ff
02
fe
05
00
00
f8
f9
fa
03
fb
02
ff
fe
01
04
00
00
fd
01
fa
00
ff
00
fc
05
00
04
fe
fd
00
00
05
fe
fd
fd
fd
00
01
00
fe
04
fd
00
01
01
fd
fe
05
fe
04
08
06
04
01
03
00
04
04
03
fb
fd
fc
f6
f8
00
fd
fc
fa
00
fe
fd
fd
fd
ff
ff
fe
04
fe
07
fb
fe
06
02
00
ff
fe
00
01
ff
07
00
00
01
05
04
04
fb
04
fc
04
01
01
fb
ff
fb
fe
fb
02
00
fb
04
03
fb
01
00
ff
fd
00
f9
04
02
02
fb
00
fe
ff
f2
fa
ff
fa
fd
ff
fa
00
ff
fd
fa
00
06
02
02
02
00
03
ff
fb
00
01
01
fd
fa
fc
f7
f7
fe
00
fc
fe
02
fd
03
fe
04
05
05
ff
fe
fd
04
04
f6
00
00
00
ff
00
02
00
00
00
fe
02
00
fe
fb
fb
02
00
fb
fd
01
06
01
fc
00
fa
ff
00
02
fd
07
fd
04
00
fb
02
fd
01
fd
fa
fb
ff
fc
ff
03
00
00
01
0b
f8
fe
05
ff
07
fc
05
fe
00
00
fc
01
00
00
fe
fc
00
fc
02
00
00
04
02
fb
fb
00
05
00
00
03
00
fe
05
fd
00
03
ff
ff
00
04
03
02
00
01
00
06
04
fe
00
fa
0d
08
00
06
04
02
04
fe
02
fd
fd
00
02
07
00
00
fc
fb
fc
00
fb
fc
fd
00
01
01
01
f6
fa
f8
09
09
06
04
ff
00
00
00
04
f8
01
03
fb
fb
01
f8
f5
fa
fb
fc
00
fe
fb
02
fc
03
f9
00
fa
01
0a
07
03
02
01
fb
02
01
ff
02
06
fc
ff
fc
fe
fc
02
fe
fd
03
fe
03
fd
00
00
ff
ff
ff
f7
00
ff
f6
ff
fe
00
f8
fd
01
04
02
fe
04
02
02
06
05
03
04
00
fe
02
04
05
fb
fd
fe
00
00
04
03
fd
00
07
00
01
00
01
03
08
00
00
ff
ff
04
01
fe
02
00
08
06
03
00
ff
00
00
01
05
fd
fe
04
00
f8
fb
fa
fd
ff
01
0a
00
ff
fc
ff
01
ff
fe
03
01
fd
fc
fb
fe
fb
f8
03
01
fe
fd
03
01
00
fd
fb
03
fd
fb
fb
fd
fc
00
00
03
02
fa
01
fe
01
ff
03
05
03
fe
ff
05
fd
fe
05
02
02
00
ff
fe
fd
04
fd
fb
00
01
fe
02
fb
04
01
05
fb
fb
04
04
00
ff
ff
fd
01
01
fc
ff
00
fd
05
05
04
fe
fc
fb
fc
00
fb
00
05
fe
fd
03
fe
04
01
ff
06
01
06
00
ff
01
04
fe
00
fd
00
03
fb
fa
fe
f3
fa
fc
fd
06
07
fd
00
02
01
01
00
04
fe
fc
f8
f9
03
f9
fb
fa
05
ff
02
ff
04
ff
09
0c
06
02
ff
02
05
fd
fb
03
ff
00
fc
04
fa
04
05
00
05
05
04
03
fc
00
08
05
04
02
fd
02
01
fa
01
fc
ff
01
fb
fc
02
fe
fd
ff
03
02
ff
ff
f9
f9
f7
fb
f8
04
fa
fa
fb
f8
01
f9
00
02
02
ff
fd
fc
fe
03
f9
fe
05
f8
01
03
f9
fa
fc
fe
fa
01
04
00
f9
0d
0a
ff
09
07
fe
06
fe
04
04
04
fe
05
fe
01
ff
fe
fa
fc
ff
04
fc
03
00
ff
f9
04
fb
f9
00
00
fe
fd
00
fa
04
f9
03
05
03
02
03
f5
fc
f9
00
00
fd
00
01
00
05
00
04
fe
02
fc
ff
fe
00
01
04
00
ff
fd
fe
00
fd
fe
04
02
ff
00
ff
02
00
07
04
01
fa
00
ff
01
00
ff
07
01
fb
00
fe
f1
f7
f7
fe
f7
ff
fe
02
fb
ff
f7
fc
03
ff
fa
00
f9
02
f7
ff
fa
02
01
fc
fe
f9
fe
02
fe
fd
fe
00
03
fe
f9
02
00
ff
03
05
08
01
00
04
05
01
01
fd
fb
ff
fa
01
fe
03
03
04
03
fb
02
fc
fc
fc
02
03
fb
06
00
ff
fe
fe
fc
fc
01
01
fa
06
01
00
04
02
fc
02
ff
00
ff
fe
00
fb
fd
fe
fd
ff
00
fc
03
07
fc
00
01
ff
fe
05
02
fc
04
03
04
00
fb
fe
01
fe
ff
fe
01
01
00
fc
00
04
00
fc
03
03
00
01
00
fe
fc
fc
01
fe
01
fd
fe
00
f5
fc
02
f9
05
ff
00
ff
01
01
fe
fd
03
04
fb
00
fc
02
fb
ff
fb
00
00
00
03
fd
01
04
00
fe
02
02
01
fe
03
00
fb
00
02
f8
fd
ff
03
00
06
03
06
fa
00
fc
00
01
07
0b
06
07
fe
ff
02
02
00
ff
fe
04
00
fe
00
02
04
fd
00
fb
fe
fc
fc
ff
01
fb
00
00
fc
ff
fb
fa
f8
fb
01
00
00
fc
ff
02
00
01
02
00
00
f9
fb
fc
fc
fc
00
03
03
06
00
01
06
04
02
fc
00
f7
fb
fd
fb
fa
f8
03
fe
fe
ff
00
fa
f9
fc
01
03
01
03
01
07
fd
02
ff
fd
fb
fa
fe
04
05
ff
00
04
01
03
fe
02
00
fa
01
fb
00
07
fc
00
00
05
04
03
00
04
00
03
ff
04
01
fb
03
ff
ff
04
06
07
01
fa
f8
00
01
ff
01
04
03
fe
fb
00
f9
02
02
06
01
04
05
01
fc
04
00
fc
fc
fe
fe
fb
03
01
00
00
02
01
ff
01
00
fe
00
fe
00
fb
fe
02
fb
fd
01
fc
ff
fb
f9
00
00
05
03
fd
02
02
fd
00
00
02
fb
fe
01
01
05
04
03
00
fd
02
01
ff
02
03
fd
f9
f7
00
01
ff
00
fb
03
07
00
01
03
02
ff
05
fa
fe
fc
ff
02
fd
00
01
fd
fe
fe
fb
04
05
01
fe
ff
03
06
fd
fe
00
fd
0e
01
03
00
03
04
02
01
05
04
04
01
00
03
01
f9
fe
f7
f9
fd
00
fb
fa
05
fe
00
05
00
02
fd
00
03
fd
04
fc
04
01
05
00
fd
01
00
f9
fb
00
fd
00
05
fb
00
fa
05
02
fc
05
fe
04
03
fb
02
04
fc
ff
fc
01
ff
04
02
02
fe
03
fd
00
fd
fd
fa
ff
02
02
ff
fd
03
00
06
05
00
ff
01
03
ff
fd
01
00
01
02
02
07
05
03
04
fc
02
fd
06
06
fd
ff
fb
02
03
04
fd
fa
00
fd
f9
03
05
04
03
fa
08
fd
01
08
fc
ff
00
06
fd
ff
06
02
fd
05
00
fa
03
fd
04
00
fa
f9
01
ff
05
05
02
fc
00
00
01
ff
04
fd
04
03
02
00
03
02
02
01
00
fb
03
00
fd
04
05
05
0e
0d
00
06
02
07
00
fe
02
07
04
00
fb
fd
fd
f9
f8
00
06
08
01
fc
05
01
ff
0b
07
01
03
07
fc
fd
03
00
07
06
fd
ff
fd
01
00
04
fe
fe
fb
fd
04
01
04
00
00
00
ff
04
01
ff
02
01
01
04
fd
f7
fc
f9
fb
fe
fc
05
06
01
01
ff
01
fe
07
03
fc
01
fc
f9
fe
06
03
07
00
02
00
fd
fc
fd
00
02
ff
00
04
00
02
05
fc
f8
01
fd
02
00
02
fc
01
01
03
fa
00
fc
04
fd
01
fb
ff
fd
fe
01
fe
02
00
fe
06
08
04
01
04
05
02
02
fd
fb
04
ff
f9
00
00
fe
fe
05
ff
07
05
fe
00
06
03
07
02
07
04
01
06
01
fb
fe
02
fb
02
02
02
05
05
01
ff
02
fb
fb
00
fb
f8
f8
00
fe
ff
03
03
00
00
fa
fd
fb
ff
fa
ff
03
02
ff
fb
fe
fa
03
fb
00
00
00
fd
f7
04
fe
03
ff
fd
fc
02
03
05
01
00
00
01
00
fc
f8
04
fe
05
01
00
fb
03
00
04
03
fd
00
fe
00
fe
fe
fb
fb
02
04
fd
f7
fd
f9
fc
f2
fd
fd
02
00
00
07
03
ff
00
fc
07
02
04
ff
fa
05
02
fd
02
fd
00
04
f7
f9
fc
fb
fc
f7
00
02
00
f7
02
fd
fc
fc
03
06
02
ff
fc
fd
03
00
fe
00
04
00
05
fe
ff
fe
fe
03
02
01
f8
fe
00
fc
02
fb
00
00
02
08
fb
fa
00
00
f5
f8
00
fd
05
07
04
00
06
03
03
ff
fd
fa
f9
07
05
fe
fe
fd
00
f7
fa
f9
00
05
03
01
fe
00
03
06
03
00
fe
00
fa
01
03
fd
01
02
f9
fe
fe
fd
00
fd
01
06
03
f8
02
00
fb
01
00
fc
01
05
00
f5
fc
01
01
00
08
04
01
01
01
fb
f5
f6
01
fc
fd
fc
00
fe
fd
fc
f6
03
00
01
07
03
00
ff
00
fb
fc
fb
00
03
03
fc
01
02
fa
ff
04
fd
04
04
08
00
fc
05
00
fd
03
03
fb
fc
fb
fe
00
fe
03
ff
fa
01
fd
02
00
fd
ff
f8
f7
fe
02
06
00
fc
00
ff
fe
00
fe
05
03
fa
02
fc
fb
fd
05
04
03
00
fc
03
00
00
02
fd
03
07
01
fc
00
06
04
05
fd
00
ff
01
fd
ff
fd
fc
fe
fa
fe
04
fc
03
02
fa
01
03
04
fe
00
00
00
f9
fd
02
02
04
03
fd
04
fb
02
00
02
04
fd
fb
06
03
fd
f7
fe
fc
05
ff
00
ff
fa
ff
04
00
06
06
08
01
fd
f9
00
fc
fa
fd
fa
01
00
04
04
05
04
03
05
06
04
01
ff
02
05
02
fe
fd
fc
fc
02
05
ff
02
00
01
00
04
02
03
fc
01
01
03
fc
fe
04
fe
fe
00
fc
04
fb
00
00
07
00
03
fe
00
05
04
ff
ff
ff
03
05
01
00
ff
fe
01
fc
f9
00
01
ff
ff
fc
00
fa
00
01
ff
00
00
f8
fb
fe
fd
02
01
ff
ff
03
03
ff
06
02
06
fe
06
07
ff
fc
00
00
05
00
02
ff
03
fe
05
06
00
03
fd
04
00
00
00
f6
00
fd
03
ff
00
01
04
fe
00
02
fd
fe
05
05
05
02
00
00
04
fa
01
03
03
fb
01
fd
fe
fe
02
fc
ff
00
ff
fe
05
07
05
04
fe
02
00
ff
fc
00
00
fe
04
02
04
03
05
04
01
04
02
fc
00
f8
00
fc
fa
ff
ff
fe
00
fc
fa
04
fd
00
00
02
fa
03
fd
00
04
fd
fe
ff
03
fe
05
01
fb
04
04
05
03
fd
fd
05
04
fc
00
04
02
02
02
09
fd
fd
04
fe
02
02
00
f9
08
fa
05
06
fc
03
fd
00
00
17
f4
f1
00
05
00
0a
fd
f5
00
ff
f1
f6
00
fd
f7
0a
fd
01
08
f2
ff
f7
f9
f7
03
05
02
0a
fc
00
0b
fc
05
07
01
05
04
f5
02
04
fd
fe
03
01
fc
05
00
01
0a
fe
03
06
f6
05
fc
ff
fd
08
fd
ff
f9
fd
03
f7
0b
fb
f9
ff
ff
f8
fe
02
f5
f7
f5
0a
fa
02
f2
e4
fa
ec
ec
f6
fe
ed
02
f4
0f
f1
10
22
00
f0
01
f0
03
fb
f8
fa
fd
00
fb
fa
f9
00
ff
ff
06
02
03
02
ff
fc
0b
1d
0f
0c
25
09
0c
14
10
14
f5
00
f7
09
fc
fd
f1
05
08
fc
fb
f8
fd
fc
fb
f7
02
04
fb
04
00
ff
01
03
06
02
10
09
05
00
f0
fc
f3
f4
f7
00
f7
f5
f3
f0
01
fc
ff
ff
00
05
f9
fc
00
f7
05
0a
08
ee
05
fc
0e
10
00
f7
03
01
03
ff
05
05
00
00
fe
05
0d
f8
07
f5
f9
03
04
fc
fd
f7
0e
21
08
03
01
0d
00
05
00
f6
fb
00
06
f8
13
fe
fc
06
04
04
fe
0a
01
0a
f6
06
05
f8
fa
08
07
07
03
0f
00
05
ff
fb
fa
04
fd
03
00
f8
0b
ee
f5
07
fe
f7
f5
00
fd
ff
0d
0a
0f
0b
07
09
05
00
fb
00
fc
00
ee
eb
fc
f7
ec
ed
f7
fc
fc
f9
01
fb
0b
f5
ff
f1
eb
fa
f7
e4
ff
11
05
13
00
f4
fe
f4
02
fc
04
0b
05
fc
fb
fc
00
fd
05
05
ff
f8
fb
f5
02
ee
e3
fc
05
e3
f9
00
00
02
fe
ef
02
f9
02
00
fb
00
0d
ef
ed
05
fa
e7
ee
03
01
06
0a
02
fd
fa
03
fb
ee
fc
f0
f6
2b
f8
e6
dd
ef
f4
ea
fd
f1
dc
f0
fb
03
fa
06
0c
09
fc
f2
09
14
ff
13
e4
ee
ff
ea
e4
05
01
f5
01
00
eb
09
f9
f8
f6
08
fd
0b
ee
17
00
02
ff
fe
00
0b
ff
03
07
0a
00
06
05
10
0c
09
01
ff
f5
07
ef
00
fb
fa
f9
fe
ff
fc
01
f2
fa
00
fe
00
02
04
03
07
f9
f5
03
fe
03
fe
f4
09
0b
f2
fc
f9
00
03
01
00
02
f5
f4
fd
06
06
05
fa
05
fa
fd
fa
0f
10
05
04
f7
0b
f5
07
13
07
13
0f
10
f6
f7
fa
fe
15
fc
f1
ee
f8
fc
04
fe
00
fe
f6
03
03
f7
fb
fb
fc
05
ff
0b
f6
07
01
02
06
05
16
0f
06
ff
ff
01
f8
18
f1
13
16
06
f9
05
01
f6
fd
f0
02
14
f0
02
0c
f5
04
01
03
01
fe
01
11
03
10
fb
fb
03
f2
fd
f8
f4
fb
00
07
04
fc
fa
00
03
01
f6
03
03
17
f7
0f
19
02
0c
0e
02
f7
fa
00
01
00
07
fe
04
05
fb
03
f8
06
06
03
fb
f3
ff
05
02
00
01
08
fa
02
06
00
06
fc
03
fa
f9
09
03
02
00
fe
e7
07
f1
d8
02
10
f9
07
09
fe
fe
00
fa
04
fa
08
02
08
00
0a
13
12
0e
00
07
09
fe
19
f9
ff
21
0b
f5
00
fc
10
fb
f6
fc
06
f9
01
06
00
f5
00
00
ff
04
fe
fd
08
f8
ff
fd
f7
ed
03
0c
00
01
fd
04
fd
00
08
f3
f8
ff
f7
fa
fd
00
04
f8
ff
fb
03
f9
f8
fd
00
03
00
02
03
05
0a
fa
00
0c
02
03
07
00
01
06
08
00
0d
04
05
0c
0a
06
07
01
f6
08
ff
f5
fb
08
0a
09
00
00
fe
fe
00
04
fa
02
01
04
fb
03
f8
f8
07
10
f9
0a
fd
03
0d
01
01
0f
05
00
05
0f
00
00
f7
f5
f5
00
01
04
02
00
10
01
18
0b
0c
0e
05
0d
00
fe
03
fb
07
01
fc
00
06
f8
ea
ff
11
05
01
fb
08
00
0a
08
00
fd
00
02
fe
f5
fc
01
f5
00
fe
f6
00
fb
fe
00
01
09
00
0c
07
07
13
15
0d
00
e6
f3
fe
18
08
00
fb
f5
07
01
0e
01
f0
09
0f
09
03
06
11
02
04
0d
11
01
fa
fe
07
ed
fd
f5
d2
ea
ff
ed
f8
04
11
02
f8
fb
fd
ff
f6
00
05
f6
f8
02
00
fa
06
f5
fe
03
05
05
07
f8
fe
fd
f7
00
f5
f3
fb
02
08
00
00
05
fe
01
fa
01
f7
f6
06
fb
05
05
f6
24
00
0c
12
13
0d
0b
05
f7
03
f6
02
04
00
fb
f7
05
07
01
09
ff
fb
f6
03
ff
fb
ff
fa
02
07
08
00
00
00
fb
03
fb
00
f7
ec
f2
f8
f7
04
f1
ff
fa
03
0e
ef
07
03
03
06
f2
00
ec
f1
fc
05
00
14
0d
06
00
fa
ec
f6
ed
f5
ee
f6
f5
03
f5
ee
05
01
05
ff
03
0f
fe
0c
11
06
01
0a
06
00
f9
fa
04
fe
09
00
fc
fc
fb
f9
f8
f9
04
0c
00
fd
05
f8
f7
ff
04
fa
f9
0a
12
06
09
0f
0a
f9
02
f7
0a
03
02
07
00
02
08
00
fe
06
0e
00
f8
04
01
00
02
09
fc
f8
f0
fc
f9
02
0b
fa
0a
08
03
fe
04
ee
fc
f8
ec
fb
fc
02
09
11
fb
13
08
fb
fb
05
0b
ff
02
fb
00
fc
fa
f9
fc
fb
fb
ec
ec
f8
ec
e3
f7
02
eb
06
f8
fd
04
fa
fa
05
f6
fd
f2
08
0e
00
0c
03
04
f3
ef
f4
fe
fd
fd
0f
0d
06
02
00
00
0b
00
09
fd
f6
fb
02
03
fa
04
ff
fd
fe
f7
07
fd
ff
fc
08
f2
05
0d
04
00
05
fc
00
f7
02
02
05
ff
03
fa
06
fa
fd
f7
02
ff
eb
fd
03
ee
0b
08
00
00
fd
f9
fd
fc
05
f8
11
11
fc
0a
21
02
0b
22
07
08
fe
fc
00
0b
01
03
01
ff
f5
f4
fe
ee
f2
fd
fb
f7
f9
fd
f5
02
01
0a
02
f4
ff
00
11
00
fd
04
f6
fa
fe
f8
01
0a
ec
fb
09
ef
03
0d
06
0c
03
00
06
f8
03
f9
08
02
ff
00
fd
fa
fc
f2
09
04
00
05
0d
ff
00
02
02
f7
fc
ff
f4
eb
f2
f1
fd
00
f8
f1
fa
fb
f9
fa
00
ff
f7
fd
08
07
fa
05
07
f0
fd
10
10
ff
00
fb
fd
03
00
ff
03
ff
07
10
0a
00
f9
03
fc
ff
f9
05
f9
fd
12
0e
11
0a
ff
fc
fa
01
fe
f1
f0
f6
f5
ec
f7
fa
f3
f3
fe
f8
fe
fc
ff
ff
f8
08
fb
fc
02
01
01
fd
f8
ff
fe
fe
fb
f5
03
0c
09
fc
09
15
0b
09
09
0d
f7
ee
fe
08
fb
00
fb
fe
05
03
02
00
07
00
0a
08
e7
f5
f3
f8
00
fd
fb
fd
06
1e
fe
f7
ff
f6
fd
00
05
ff
0b
07
f8
02
0f
f6
f8
07
0e
f7
02
0f
04
00
04
05
f7
05
05
ff
03
02
06
fd
fd
ff
f3
e7
fb
f3
e3
00
fd
f9
01
fc
fb
0b
f2
ea
00
06
12
07
fc
03
02
f9
00
fd
00
f8
f8
03
00
00
f9
f8
f9
fc
ff
fd
15
f6
04
03
d5
f4
05
f3
00
f4
08
03
06
fc
00
03
04
0d
f9
f5
f6
ff
f5
00
f6
f4
03
01
f3
05
05
f6
07
19
05
15
f3
0c
ee
fa
12
f2
08
10
03
f9
fb
03
07
29
14
fd
fa
04
fe
fa
fa
ec
df
f5
13
00
10
08
0c
0a
05
f1
09
0f
f7
08
05
00
f5
fb
fb
06
fd
fa
ff
07
0e
ff
13
08
fa
fa
0d
fe
03
ff
05
ff
fb
f5
f8
fa
fa
12
05
0f
f6
f9
fd
f6
01
fd
07
f2
fc
ff
f2
fa
08
fa
00
05
fe
fb
fb
0d
00
0b
09
08
fc
fd
f8
fc
f2
fd
fc
00
00
0b
0e
07
00
00
ff
08
fe
fd
fc
fd
f4
01
0e
ff
04
09
0a
ff
fe
fb
03
fe
f6
fa
06
06
03
f3
09
02
0a
13
05
06
0b
0c
0f
0a
06
0c
0d
06
f6
08
f5
00
fc
fd
02
01
f8
f8
f3
fe
02
fa
fa
ef
fc
03
00
02
00
fe
00
ff
fe
05
f9
fd
00
00
0b
f9
ff
f3
ef
01
f6
04
fe
ff
01
04
08
01
02
f2
fa
fc
06
fc
05
0c
05
0e
16
09
08
01
10
04
02
08
f3
fc
00
fb
f3
f9
f9
02
00
04
04
02
f6
fb
04
ff
01
03
05
f6
f9
0c
24
10
08
0e
f7
12
02
fc
06
f4
04
f8
fd
fc
f9
fd
fa
f7
ff
04
06
06
02
02
fa
f4
f5
f2
f5
f4
f7
f5
06
fd
03
09
fa
f9
f9
fc
fa
f2
f8
f2
00
0d
f4
00
fd
03
0a
f3
01
01
fd
02
05
00
02
08
00
06
00
01
f7
f9
00
00
fc
f7
01
02
f6
02
f6
03
00
02
fb
07
fc
fd
f7
f7
16
f5
02
f7
fc
fb
09
01
12
fd
fc
08
09
07
03
fb
02
fa
0b
04
09
fd
06
fa
f3
f2
eb
ea
f7
f2
07
fd
f1
ff
e8
ff
15
f8
fe
fd
f9
fb
f6
f9
04
00
01
f5
05
02
01
05
f7
f5
f9
fd
00
f8
fd
08
12
f5
18
17
01
05
04
04
00
f5
fb
06
08
06
0c
10
09
f1
04
ff
04
03
f6
0f
0d
03
01
ea
fc
f5
e7
f3
06
fe
fb
00
f2
fe
fe
ed
fd
00
01
fd
02
00
0e
f5
f5
00
04
01
fd
fe
03
fd
0d
06
00
fd
f8
f8
0c
1a
0a
0d
14
ff
f9
02
0f
fd
09
00
fc
07
07
09
02
03
fe
f5
08
f6
c7
f8
00
df
fc
06
fe
09
00
00
01
05
f0
fb
06
fb
0a
06
fe
04
07
08
ff
fb
00
06
fc
fd
0a
00
02
0a
12
0e
07
13
0b
14
08
03
ff
f5
f6
f9
e8
e4
f0
f4
e9
06
e3
ee
08
ea
ec
02
fd
04
ff
01
f5
f9
fb
eb
f2
03
f9
03
ff
f9
fd
fe
f5
f2
fc
00
fe
02
f2
09
00
f7
fa
fb
03
f4
06
02
03
03
f8
fa
f5
fc
00
f2
f4
fd
01
f2
00
fa
fd
09
fd
07
fb
05
04
fd
00
00
01
f0
fb
09
f6
09
05
12
07
fe
fe
02
09
06
01
fb
01
ff
00
f2
f6
f3
f3
ee
ed
03
f7
08
fe
fe
0c
0c
11
07
fd
08
0a
05
10
02
01
0a
01
02
fc
f0
01
fa
09
fb
fe
ff
fb
09
f7
fa
04
00
f8
f5
01
02
07
ff
0e
fd
ff
05
05
f0
fd
fa
05
ff
ee
0b
f1
f6
0a
ff
07
12
f9
f7
fe
f4
d5
f8
00
17
10
01
00
03
f8
ff
fb
00
fe
fc
00
fa
fa
fd
f9
f9
09
02
fb
fb
16
09
10
19
02
ef
f4
fd
f8
0a
01
f9
0a
07
07
fd
f8
ee
f5
f5
fd
f8
f5
fa
fd
fe
11
13
0b
f9
f1
00
ff
f9
fe
fe
fc
f6
f9
fc
02
f8
fe
fa
05
04
03
f6
04
06
ff
07
f3
05
fd
03
04
ff
01
0a
f8
00
f3
fa
f6
04
fe
02
08
14
06
f4
00
fe
f6
f8
f2
0c
06
04
00
00
ff
fe
fc
04
fc
f4
f7
09
f8
03
fd
f8
fc
04
0b
02
14
fa
fc
0b
f9
fe
f7
f4
fb
00
03
03
f8
ec
06
04
02
00
02
02
f9
00
ff
ff
f6
fd
06
03
fc
04
02
06
ff
f8
fd
f5
ff
02
00
04
f6
f8
f7
fc
fd
ec
fd
ff
df
eb
f1
f6
ee
f7
00
05
06
fd
09
06
07
02
06
ff
f3
f6
03
f5
f5
05
09
fb
03
03
00
05
04
03
06
09
02
03
fe
03
fb
f7
fb
01
fb
06
0a
08
02
09
03
09
00
0b
08
fd
fd
05
02
02
02
ff
fe
00
03
fe
fc
00
00
03
fc
01
02
ff
02
fe
ff
00
00
03
fc
01
fd
f6
fb
fe
00
03
00
00
01
04
05
04
fa
00
02
00
ff
00
00
fb
f8
fe
f8
f7
0f
04
00
ff
00
f8
f5
f7
fd
00
ff
03
00
08
ff
06
05
06
05
fd
03
01
0a
09
05
06
03
ff
ff
05
fb
02
fa
f8
fa
01
fb
ff
05
fe
00
fb
fe
0a
fd
06
09
02
00
fb
05
04
00
02
ff
fc
fa
05
02
fa
04
07
fd
ff
00
03
06
f9
f6
04
fb
fc
f9
03
fb
fc
ff
fd
04
fa
fe
04
fc
ff
fe
00
04
01
03
ff
01
fe
ff
02
fd
fe
f9
fb
fb
f8
f5
ff
04
fa
02
06
fd
ff
01
f9
01
01
06
02
04
fe
00
04
03
00
00
01
f7
f5
f8
fb
03
ff
01
fe
00
05
fa
fe
04
00
fd
f9
04
05
06
0a
09
05
04
04
07
03
ff
00
07
ff
04
03
01
fa
fe
05
00
fd
fc
fc
fc
fa
02
00
06
05
04
05
05
09
0b
09
02
fd
f8
fc
ff
fd
f9
f7
f3
f9
fe
fd
f9
02
06
01
05
f8
06
fe
02
04
02
05
05
06
06
fa
fd
01
06
00
fb
08
07
00
fe
04
fc
00
01
fd
00
f6
f7
fe
01
fb
00
ff
fd
fb
fa
02
00
03
f9
f9
f1
ff
f7
fb
ff
00
03
03
fa
f9
00
f8
f7
fd
fc
01
02
fb
f4
fc
00
00
f7
fb
fc
fc
01
f9
fb
05
02
fd
fe
fe
fd
00
00
04
00
fb
00
02
07
f9
fe
07
fc
f8
00
ff
ff
05
04
00
05
05
09
fc
02
fc
fa
fc
02
09
04
05
07
fd
f8
fc
02
04
00
09
00
05
03
02
04
fb
05
fe
ff
fc
06
fc
fc
06
fd
06
fc
00
ff
fe
fc
fa
fd
00
f7
f9
01
f6
fa
fa
ff
06
08
03
fb
01
fa
f8
03
00
00
04
00
00
01
04
fe
04
fe
04
ff
00
f9
08
fd
ff
05
fe
02
00
01
04
fc
00
02
fe
f9
00
f5
05
f8
fa
03
f4
fa
03
08
03
fd
fd
00
02
00
01
fd
02
fa
f8
f8
01
02
02
00
04
fc
00
fb
f9
fd
02
fa
01
ff
fe
04
fc
fa
03
00
03
05
00
fd
01
fe
f8
00
fd
f9
00
ff
f9
fb
f4
f2
ff
f8
f8
f8
f8
f8
ff
00
fa
ff
01
f9
01
01
03
fd
00
02
f9
fb
fe
fb
fd
f7
ff
f9
fc
02
ff
ff
03
f9
fb
fc
fa
fc
fa
00
fc
02
02
f4
f5
03
fd
f7
04
ff
03
03
ff
ff
fc
04
00
02
05
04
01
fc
fe
07
fd
01
06
fb
03
ff
fe
00
06
f8
ff
fe
05
fd
00
08
08
00
09
00
01
08
ff
0c
08
fc
05
09
01
05
04
07
00
01
fd
fd
02
fd
00
03
00
00
00
fb
fb
04
fc
05
f8
02
f8
f9
fe
00
f6
f9
00
ff
f7
fa
00
f8
06
fc
05
00
00
00
02
00
03
f4
fa
02
fa
fc
00
ff
ff
03
f9
01
fb
01
fa
fe
f9
02
fa
fb
05
05
fd
04
00
fd
fe
f8
fb
05
fc
05
fc
01
ff
ff
fb
fa
f8
01
02
fc
00
02
fc
00
f7
01
03
fb
00
03
01
00
fa
f6
03
fe
f7
fa
02
01
06
06
ff
00
00
fe
02
ff
f8
fb
01
ff
f8
03
fb
f9
fb
00
fa
07
f9
f8
fe
00
fd
ff
f7
ff
fa
00
f6
f6
fd
f9
f8
05
00
04
fe
00
fb
06
f9
fb
00
fe
fc
02
05
fb
00
07
fd
01
00
02
00
00
0a
03
fe
ff
00
01
ff
03
01
06
01
03
00
07
06
00
fc
01
00
fd
00
fe
fe
ff
fa
00
02
fb
fb
fc
ff
f9
04
fe
f7
fc
fa
ff
00
04
fb
fb
03
00
ff
06
fc
f7
f6
02
ff
08
f7
00
01
f9
ff
01
fe
00
03
01
ff
03
fc
00
ff
fd
ff
f6
fd
05
fa
fa
00
ef
00
fe
f9
fc
00
00
08
04
ff
00
05
01
f9
fd
fa
05
fb
ff
02
fe
02
04
f9
ff
00
02
ff
fe
00
08
fb
03
02
ff
01
fd
fa
03
03
00
fe
01
fd
ff
05
01
fd
04
00
f4
fb
fc
01
fb
00
06
05
01
05
05
02
fc
07
f9
01
02
f5
f5
ff
f9
ff
f8
0f
15
08
07
00
06
0c
09
08
fb
02
06
01
05
fd
02
02
09
ff
fd
f5
fc
ff
02
03
03
04
05
00
01
01
fd
ff
fe
fd
02
fe
fb
02
fa
fc
fa
fb
00
05
fd
02
04
00
fb
fe
02
ff
08
fb
fc
01
f9
05
04
03
00
f9
fd
00
fb
fd
06
fc
03
f9
00
fd
fc
fc
fc
02
08
fc
06
06
fe
fd
fb
00
00
ff
fa
fe
03
02
fa
fb
fb
02
05
00
0a
06
ff
00
fb
06
02
00
fc
05
fa
00
f4
00
00
f8
f8
f9
00
00
fe
01
00
fd
01
04
00
00
fe
05
09
0d
fc
fd
04
fd
fc
01
07
00
ff
0a
00
02
07
09
04
fd
05
ff
05
fb
fa
fe
ff
05
fa
06
03
fd
fb
fc
fc
fe
ff
04
fa
05
fa
fa
fb
00
fb
fc
05
f9
fc
02
fc
fe
0a
fc
01
f8
fe
02
02
fe
00
00
02
fa
fe
fb
02
07
08
07
09
01
00
01
12
04
06
0e
07
08
11
07
02
04
07
ff
07
fe
fa
07
02
00
ff
ff
04
00
ff
01
fe
fe
03
fa
fc
09
fd
fc
08
0e
04
01
00
02
fb
fe
00
02
fe
fd
fb
04
ff
06
02
04
0b
01
00
fd
ff
ff
01
fa
f6
00
fa
f8
ff
fa
fe
fd
02
00
03
05
02
fc
00
f8
06
f5
02
00
fd
f9
fe
05
03
02
fc
ff
fd
00
ff
fc
f9
fe
02
02
fe
03
00
f5
f8
00
00
01
03
fe
04
01
ff
00
f9
00
01
f7
07
fc
ff
09
fd
03
03
04
fd
05
fe
02
00
fd
fc
fb
07
00
03
04
00
01
09
f9
01
03
01
01
02
00
04
03
02
01
02
01
00
02
04
00
0a
fe
ff
00
fd
ff
01
fd
01
fd
03
04
f9
03
04
01
fe
00
fd
fa
02
fb
fe
fd
02
02
fc
f8
fe
03
fc
fd
f8
05
ff
fd
fa
02
06
03
f9
05
02
fb
04
00
03
ff
f9
fa
ff
04
fe
04
00
fe
02
01
fb
fe
ff
00
f9
03
05
02
fb
03
fe
fc
fe
fd
fb
fb
00
05
01
fe
fd
03
01
02
01
03
00
fa
f7
fd
04
fc
07
fc
fd
f8
fe
f9
fe
f4
04
06
fc
fe
fe
fd
00
05
fe
fe
f6
fd
02
00
f4
fe
01
fa
fd
fe
00
fb
f6
fd
ff
fd
00
fe
fe
fd
fa
fa
fc
fd
03
04
01
00
05
06
fd
05
fe
f7
fe
01
f9
fa
fa
02
01
02
fa
03
fd
02
00
fd
fb
05
ff
00
ff
03
fb
fb
01
02
fb
fd
04
03
ff
fe
fc
fe
03
fb
fc
04
f8
fb
02
fa
03
fd
03
fd
fa
01
fa
fd
fe
04
02
01
08
06
02
fe
fa
f9
03
f0
fb
fb
fd
fa
02
02
f7
00
06
06
08
fd
02
fc
02
00
03
03
03
fe
08
fc
ff
00
fa
00
06
fd
03
06
ff
f9
00
03
ff
f9
fd
fc
fe
f7
f9
07
01
05
ff
08
07
fc
06
fd
fb
01
00
01
fd
00
ff
fa
02
00
02
fa
00
01
05
05
04
fc
fc
ff
00
ff
fa
06
fe
f9
00
fd
fd
03
ff
fd
ff
05
f9
00
fb
ff
ff
fc
08
00
fd
01
fa
0d
01
05
05
03
04
06
02
05
fe
0e
05
fb
03
f8
01
fb
fe
04
fd
ff
fe
00
fa
f7
00
03
fd
02
fb
fe
04
02
fa
02
04
fb
00
fd
05
01
fb
02
fa
f7
05
fa
00
ff
0d
07
08
0b
03
f6
fe
f6
f4
05
f3
fc
ff
00
03
00
02
fd
ff
fb
00
fd
ff
04
fe
00
03
fa
00
fc
00
01
f9
00
f9
ff
01
fd
01
03
fd
02
02
02
01
01
fd
01
0a
03
ff
01
fb
05
fe
fe
00
fa
01
00
00
fe
09
00
04
fb
06
02
00
02
fe
04
fe
fb
00
00
02
fe
00
05
fd
06
00
00
09
07
00
fe
06
01
04
01
ff
00
04
fb
03
06
02
fd
ff
04
06
00
01
f9
04
ff
ff
ff
fc
00
00
fb
03
fa
f5
fd
01
fd
01
01
01
01
fe
fd
00
09
fd
03
fe
05
05
07
ff
05
fe
fd
0c
03
01
fa
fb
fa
00
03
ff
02
05
ff
ff
00
00
03
02
00
ff
fc
00
04
fa
01
06
04
fd
f5
fb
ff
fc
fe
f6
01
fd
fd
06
03
fa
fb
04
f9
fb
04
fc
00
02
02
01
f9
00
05
f5
f6
00
00
00
01
00
02
f8
03
03
fa
00
fd
01
fd
02
02
00
fe
00
01
00
05
fc
00
03
ff
ff
ff
fd
fb
fd
00
ef
f5
ff
04
fb
02
02
f8
f7
fc
f8
fe
fe
fe
fa
04
00
fb
fe
05
04
00
fa
00
00
fa
f9
f4
fe
00
02
05
fa
ff
05
00
fc
03
fe
01
04
fd
f8
fc
fd
fb
f9
04
fe
ff
06
01
01
00
01
ff
fb
ff
fc
f5
f7
fa
01
f3
fb
fc
fd
fe
00
02
fa
fc
ff
fd
fb
01
00
fd
fa
f7
f6
fc
00
01
00
00
00
ff
f8
fa
03
fd
f7
01
f9
01
fb
03
04
05
fe
fb
ff
00
01
f9
fa
01
00
fc
05
03
05
07
08
07
09
04
12
02
0b
12
09
00
fd
07
ff
fc
04
f9
f7
fb
00
fa
ff
04
fe
01
01
fe
fe
00
fb
fd
fd
01
ff
07
fa
f7
06
02
04
01
00
06
01
08
fa
fc
fb
fc
ff
ff
01
fd
fd
fd
fe
ff
ff
04
fa
00
fc
fd
ff
fe
fb
ff
03
fb
fc
fd
00
fd
f8
f9
ff
f9
fd
03
fc
04
01
ff
fb
01
03
00
fb
01
01
fc
f8
03
03
fe
fd
fa
05
05
fc
f5
f8
03
f6
f2
03
f7
f9
fe
0a
06
02
00
fe
04
fb
f9
fe
00
fa
f5
fc
fb
00
fd
fa
f9
fa
05
fb
fd
f9
fc
fa
03
00
fa
04
02
00
02
fc
01
fa
00
00
02
04
04
fe
00
06
00
07
08
09
06
02
03
05
f6
fc
fb
f8
f3
fd
fe
fb
ff
00
f9
01
05
05
06
ff
ff
ff
fa
07
01
ff
02
04
fb
fd
fc
fe
02
ff
04
00
fc
06
fa
04
04
06
ff
fe
00
fc
fa
00
fe
fc
f9
ff
07
02
03
0a
02
03
05
01
fe
00
01
01
05
00
fb
ff
ff
fd
fe
00
ff
03
fa
fa
ff
ff
03
ff
ff
03
f9
06
07
ff
01
ff
02
ff
f7
f8
f9
02
02
04
02
fd
fb
fa
01
ff
02
06
f9
f9
07
fd
00
04
06
fc
02
07
fd
fe
ff
03
03
fe
ff
05
fe
00
08
00
04
00
fe
02
02
01
fb
ff
00
fe
03
02
00
fe
fb
f7
fe
01
03
fe
01
fe
fa
fe
05
ff
f8
00
fa
03
00
ff
fa
03
fe
04
ff
fe
00
03
fe
06
ff
00
03
00
03
f9
fd
03
fb
00
fb
fd
04
03
01
02
fb
04
00
02
fb
03
fc
fe
00
00
02
03
fe
09
00
02
01
fb
f8
fc
fd
fd
f8
ff
07
fb
02
00
fa
fe
00
00
fb
f9
fc
00
04
ff
06
fc
f8
00
07
fe
00
ff
f7
fb
05
fb
02
fb
01
05
03
00
f9
00
fb
fe
07
01
05
f8
00
07
00
fe
ff
ff
01
00
08
00
05
ff
06
02
00
01
05
f9
03
ff
fa
04
f7
fa
fa
fa
fc
f5
02
f6
f6
fa
06
ff
00
fc
f7
fa
01
03
00
ff
fc
01
fc
f9
00
fc
ff
00
05
00
fa
06
01
fd
fa
09
fe
07
0b
00
fa
09
f9
02
fb
f7
06
f7
f7
01
00
ff
fb
04
02
02
f7
f8
fa
f7
01
fe
07
fb
01
f7
f9
08
05
fa
fe
08
fa
fe
04
ff
ff
03
ff
01
ff
f8
09
03
08
02
00
fa
03
01
fb
fe
f8
fb
02
03
fc
03
05
fa
08
fc
fb
09
00
04
fc
07
ff
03
fe
04
01
f9
ff
04
09
f7
08
06
04
fb
fa
06
00
05
01
02
01
fc
04
ff
fd
05
fe
02
01
02
01
fb
00
f9
f9
00
00
01
fd
ff
02
fb
fb
fe
fe
ff
fa
05
fb
02
fe
04
f7
fb
fb
ff
fa
04
fc
05
00
f9
fa
fc
fc
fd
05
03
06
f8
fb
00
fa
fe
05
00
05
f8
fd
f8
07
07
05
09
fa
f9
fb
fb
04
fe
f8
ff
00
fa
04
02
fe
02
00
fd
01
03
06
02
f7
01
fb
05
02
01
07
00
00
05
00
03
fa
08
07
0b
01
08
01
fc
f8
fd
08
00
07
00
03
00
fa
fe
fa
fa
f8
ff
f8
03
f8
f6
00
03
07
f8
fd
09
08
f8
08
ff
f6
fe
01
f8
04
00
ff
01
f9
fd
f8
fb
04
fd
fe
07
05
fc
01
f6
fe
f9
01
fe
fb
f8
00
fe
fb
fc
03
fa
01
fd
fc
fb
f6
06
05
f8
f9
07
fb
04
fb
01
01
f8
f7
fd
f7
fd
00
04
04
05
05
f8
f7
f7
fc
03
f9
05
fa
00
fc
fa
fd
fc
fd
ff
f9
00
fb
ff
fc
06
00
fc
fe
03
05
06
02
02
05
00
04
06
01
f9
03
06
f9
07
ff
ff
fa
07
03
00
ff
06
f9
01
fe
fd
ff
07
01
04
02
ff
04
fb
f8
00
05
05
ff
ff
06
f9
fc
05
04
00
fd
f8
ff
07
ff
02
03
fb
fa
f9
00
00
f9
fd
ff
02
01
f8
f6
02
01
03
00
f9
fb
00
f9
00
fe
f8
f9
03
fa
02
03
02
00
02
fa
01
06
07
fb
07
fd
02
04
fb
07
05
09
02
02
01
03
04
f7
03
f9
ff
04
fe
f9
f8
f8
06
02
fc
00
05
07
fe
03
fa
fe
f9
07
fb
fc
06
09
fc
00
02
05
f9
ff
05
06
02
fa
04
f8
ff
07
f9
fe
02
ff
07
00
ff
fe
fa
01
03
fd
00
05
02
fe
05
07
05
fb
ff
03
00
fd
02
fc
01
01
fe
fa
00
00
00
fb
06
ff
01
fb
03
03
04
fd
f7
fc
f9
00
01
08
fe
fe
fd
08
fa
07
fe
08
ff
fb
01
05
fd
fa
fd
05
fd
fa
fa
05
fe
06
00
fa
fd
02
01
ff
fb
fc
fe
ff
00
03
00
00
01
08
00
07
f8
f9
04
fc
fc
f8
f9
02
fd
fa
fc
03
fc
06
06
01
fd
fd
fa
00
02
01
0a
fa
fc
00
05
07
fe
fd
06
fe
00
02
03
04
03
04
fd
07
f8
02
02
fc
01
01
06
09
f7
06
ff
00
fe
ff
03
00
06
04
01
fa
09
ff
ff
fe
f9
fa
f9
05
08
ff
03
07
f9
fc
fb
03
07
fa
03
f8
f9
fb
05
02
02
02
fe
03
fd
08
07
fa
ff
fe
fe
00
04
01
fe
02
f9
f9
02
fc
ff
07
08
fe
f8
02
ff
fa
04
f9
03
00
03
f7
f7
07
f6
05
f8
ff
fe
01
08
f9
fc
ff
05
fe
00
01
02
06
00
02
fc
01
fd
01
05
f9
03
ff
00
00
00
01
ff
00
00
00
08
06
f8
06
07
fd
fc
05
02
03
fe
fb
ff
06
04
01
fd
f7
fb
06
fb
fa
fe
02
02
05
fa
08
fd
00
00
fb
ff
00
fa
00
06
ff
fb
00
fa
00
04
04
fc
03
00
00
f6
08
00
fa
f8
06
05
01
04
f9
02
f8
03
f9
fc
fc
03
fe
01
00
05
06
f9
08
00
08
05
05
02
fc
fe
03
fc
f7
f8
fc
08
06
06
03
06
00
03
00
02
07
02
fc
fc
fb
04
f7
f8
03
f6
00
05
05
fe
01
f9
06
00
fe
09
00
01
09
ff
00
02
fc
f9
fd
06
04
fc
00
fa
01
05
f8
03
08
f5
05
00
05
04
05
01
06
01
fa
fd
00
03
f7
00
fe
00
fb
05
02
01
05
03
07
01
09
00
ff
f9
fc
fc
f8
fb
06
f7
08
05
03
08
03
09
f9
fa
06
fb
04
fd
05
f8
fd
01
03
fc
fe
03
05
fd
fa
fa
fd
00
00
ff
02
fe
ff
ff
fa
fb
00
06
fc
04
fa
fa
05
f8
ff
00
fa
03
fb
06
fa
02
01
f8
f9
05
fb
00
fd
04
07
07
fa
fd
fd
ff
00
06
f9
03
02
fd
09
00
fe
02
fa
00
00
00
ff
02
f9
f9
01
f9
03
06
02
fb
06
03
f7
08
f9
ff
fa
03
ff
ff
00
fa
04
01
02
f9
fa
03
00
01
fd
f7
fd
01
f9
fb
05
06
f9
01
f8
06
fb
f6
03
fd
01
06
f7
f8
fd
02
fb
fa
fc
07
fb
00
04
05
fa
fb
08
ff
03
f6
02
01
05
03
fb
f8
00
00
f7
fb
05
00
fc
06
02
02
01
07
06
05
06
fb
fb
02
f8
fb
03
07
01
ff
07
fb
f8
06
05
fb
06
ff
04
f7
03
02
01
f8
02
fd
05
fb
fc
01
f9
f8
06
fd
02
05
00
fe
03
f9
05
05
ff
04
03
fd
f8
00
03
07
02
00
02
fd
02
fe
03
fe
04
f9
fb
05
fa
08
fa
04
04
00
fb
00
02
f7
fc
07
06
f7
fb
fb
04
09
fb
00
00
06
05
fa
fc
00
00
07
00
02
04
01
00
06
fe
fd
00
02
06
f9
05
fb
fb
05
fc
ff
08
05
fc
f9
fa
07
08
07
f8
fb
fe
00
fa
03
f9
04
fc
00
01
03
06
f8
00
03
fc
fe
07
fd
fb
f8
03
f9
05
f7
fc
fa
07
fa
f8
07
ff
00
00
01
fe
03
00
06
ff
fc
06
fe
00
00
fb
03
06
fa
fa
f9
fb
06
fa
f8
05
fe
fa
08
06
ff
06
fd
08
ff
08
fd
f9
ff
fb
00
03
08
06
fa
ff
f6
03
fa
fa
07
fd
fc
04
00
ff
04
fb
02
02
07
f8
00
fb
f9
09
fa
fe
f9
00
00
00
fb
ff
fe
fd
05
ff
f9
f9
00
f8
fe
05
06
f7
fe
02
f9
fa
fe
f9
ff
f9
fd
ff
f8
ff
04
fa
05
f7
fe
f9
ff
02
fc
fb
fa
ff
ff
04
00
06
03
fe
06
fa
f6
f6
fc
ff
f8
01
00
fe
f7
ff
03
02
fe
03
05
fa
07
00
f9
fe
07
fe
06
ff
fa
fe
fd
06
04
fc
07
05
fc
fb
fc
fe
04
05
04
04
fd
00
ff
f6
fe
ff
ff
ff
07
00
05
04
05
01
fa
07
08
ff
04
03
01
02
00
05
03
02
fa
00
00
07
fd
07
fe
04
03
04
fa
f9
fe
fb
02
f8
07
00
01
08
fe
01
fe
f8
fa
05
02
01
01
fe
fd
03
05
05
01
fc
02
f8
fa
03
f7
ff
06
fd
01
01
ff
00
f7
f8
fe
fd
01
03
fe
06
02
08
01
fd
fc
09
f9
fc
07
04
00
02
06
02
fc
03
fa
fc
f7
03
06
fe
fa
06
ff
00
fb
f8
fd
00
07
04
fd
00
fa
01
00
fd
06
fe
fa
ff
f8
07
fb
ff
03
fe
03
03
07
00
fa
fa
fe
02
02
01
03
f5
f8
03
f6
00
fb
fc
fb
08
06
fc
fe
06
03
ff
03
06
01
fd
fb
fd
fa
fa
06
fe
fe
fe
09
09
f8
04
09
fa
00
09
00
02
fc
f6
00
f6
fa
05
04
07
fb
00
05
f8
06
08
ff
08
f9
fd
fc
fd
03
fc
fa
00
05
ff
08
fe
fe
01
f9
02
01
03
02
05
02
00
04
07
08
01
07
05
00
fc
04
01
01
07
f8
fe
fa
ff
f9
f9
05
08
ff
f9
00
01
05
fb
fc
00
f8
06
09
06
04
07
00
02
05
f9
08
01
05
00
fe
04
07
00
fb
f7
02
f9
fa
fe
fd
01
06
f9
03
f7
00
03
07
01
00
04
00
f8
ff
fb
f9
fd
04
06
07
fd
04
08
09
f7
f6
04
f9
f5
f6
fe
00
06
ff
ff
08
06
fb
08
fe
03
01
06
04
08
fb
08
fe
07
07
fd
fb
02
fc
fb
03
fc
08
05
fd
f8
fb
06
08
04
fd
07
03
ff
04
f8
fa
ff
f6
f7
ff
fb
08
03
f6
04
f5
fa
fe
f9
fe
f8
00
01
09
04
02
fc
03
02
07
06
00
00
ff
fe
02
02
04
02
02
fc
06
01
0a
f8
fd
07
fe
06
f9
02
f7
01
fb
06
fe
06
f8
f8
ff
09
fb
07
00
ff
fb
f8
f6
04
02
00
f8
06
fc
fa
04
02
fa
fa
00
ff
f7
00
fa
ff
00
02
fe
02
05
05
02
06
05
fb
ff
f8
fe
ff
f7
fb
f9
fa
f6
fd
fd
04
f7
00
f7
00
06
fb
fa
f8
02
03
03
08
fe
ff
03
0b
fb
ff
fa
00
fe
fe
f8
fd
ff
f9
00
ff
00
f8
ff
ff
fe
00
f9
fd
03
fc
fd
fb
06
f7
f7
fc
fe
02
fc
01
fb
fd
fe
05
03
fe
fc
fe
00
07
f8
f8
09
00
01
00
f9
03
07
03
f6
fc
08
f9
fd
07
fe
05
01
00
ff
05
f6
04
01
03
fa
04
fb
03
04
fe
04
02
04
fd
fa
06
09
f9
02
f8
ff
fd
f7
05
fe
ff
01
08
08
f8
05
07
05
fe
03
f9
fe
09
05
fa
fc
00
07
f9
06
fd
08
06
ff
01
05
07
07
05
03
fc
fb
fc
fb
f9
fd
f9
f9
fc
00
05
fc
03
05
07
05
f8
ff
04
fa
fc
07
f6
f5
fb
fe
02
f8
fd
00
03
04
06
f8
09
09
fe
07
06
fe
fb
02
00
f6
00
fe
05
00
05
03
05
f8
00
06
f9
04
fe
08
0a
09
01
05
01
fe
04
00
fd
f8
01
ff
ff
08
fb
08
f9
05
ff
08
ff
fc
01
fb
fe
fa
f9
00
07
ff
00
06
fd
fa
02
f7
01
fe
00
f8
ff
fa
fd
04
f9
00
06
f8
fa
fa
07
01
ff
01
07
07
04
08
00
04
ff
09
02
05
fb
fd
05
05
04
fe
04
fb
fe
f9
f6
fd
00
02
fd
03
f6
fe
00
00
08
fe
fe
01
fb
04
fd
04
04
f7
00
06
fd
fb
01
f6
02
fe
fb
0a
ff
fa
ff
f9
07
06
f8
f7
fd
02
00
fc
f8
08
06
fe
03
fb
fa
01
ff
03
ff
02
07
f9
04
00
00
07
00
fb
fb
06
fc
f9
03
fb
f7
f7
03
00
fd
04
00
fd
fc
fc
02
00
08
f9
fb
00
05
fa
02
01
01
fa
fe
f7
fb
00
06
ff
00
01
02
01
03
00
fc
f7
fc
03
fc
01
f8
08
f9
06
09
fd
ff
04
ff
f9
fc
09
fc
03
f9
00
fb
f8
07
04
05
01
fe
00
f9
00
00
fe
fc
04
09
fd
03
f9
fb
00
fe
02
fd
04
04
00
04
01
fb
02
00
01
04
00
fe
00
07
08
fa
03
00
04
f9
ed
f8
fe
02
02
ff
08
fd
fd
fc
ff
ff
fb
01
fe
f6
01
fc
01
00
07
fd
00
03
fb
03
00
02
01
f9
fa
f8
fc
fe
01
fc
02
00
02
03
f9
fe
f5
fe
fd
f1
02
f8
ff
fe
f9
fe
fe
fe
05
00
02
ff
00
fd
00
03
ff
00
fd
01
0b
01
fd
f7
04
fb
f7
02
fd
02
fd
03
05
05
f8
f8
fc
fd
fc
fb
02
f8
02
02
04
ff
fb
f8
f6
00
00
f6
03
03
03
f9
02
fc
fe
07
fe
fb
03
ff
07
05
07
08
00
0a
fb
ff
00
05
09
07
01
0e
00
00
ee
03
fd
04
03
ff
07
fe
00
fb
fc
04
fd
02
fe
fb
ff
07
00
02
fe
fa
fe
02
03
fa
01
00
01
fe
f4
f9
05
02
ff
f9
f5
fd
ff
00
07
fd
09
fe
fd
f8
f9
03
f8
00
00
00
02
07
06
ff
fc
00
ff
00
09
07
02
07
06
02
00
02
fe
00
00
ff
00
01
04
08
01
02
fe
08
04
f9
03
00
00
05
05
ff
fe
00
03
06
03
01
02
fc
ff
04
00
00
04
02
0d
fe
ff
f7
ff
f1
ec
fc
02
01
00
ff
00
02
02
04
fe
fa
fc
fe
03
02
03
ff
00
00
0b
0d
02
06
0d
08
fc
ff
00
fc
00
fd
fd
00
ff
ff
ff
fe
01
00
03
05
00
06
fb
00
05
01
04
f9
01
08
00
fa
f6
01
fa
fd
ff
fe
05
01
05
01
01
fc
f9
fe
03
ff
fb
02
01
05
01
06
00
08
02
03
03
f7
04
00
fe
04
06
00
00
03
fb
fd
fd
f5
fe
00
0c
fb
f6
0a
fe
fd
02
ff
ff
fc
05
03
fc
02
02
00
00
02
10
03
fe
fe
00
05
f9
00
00
fa
fe
02
0b
01
fe
ff
07
f7
05
00
fa
f6
07
04
06
fe
00
0d
04
05
ff
ff
fc
00
ff
01
0b
03
00
00
00
fd
05
03
fa
00
01
fe
fe
00
05
00
08
07
ff
03
05
02
00
02
05
fe
fd
04
02
02
06
07
fe
fd
02
02
03
fe
fc
fb
02
00
00
07
03
fe
00
05
fc
09
fc
02
02
fc
fd
fc
ff
02
fb
01
08
02
fd
fb
01
fb
fc
01
00
01
05
ff
00
02
05
03
fd
f3
f6
f5
0d
05
02
fe
ee
fe
f6
00
f6
00
01
00
05
04
fe
01
0b
00
00
00
05
02
01
00
00
01
06
f3
ee
fa
05
00
00
03
00
03
00
01
fd
00
03
ff
05
06
03
fd
fe
02
02
00
00
00
06
02
fe
fe
01
fe
fa
f9
04
02
02
fd
03
00
05
07
06
fe
00
02
01
00
fa
fb
fc
02
04
01
04
ff
f9
ff
fe
00
02
fe
03
01
03
08
02
00
fd
00
00
02
01
00
fa
fb
ff
05
04
fa
00
04
00
04
00
08
07
03
fc
02
fd
03
fd
fc
00
ff
fb
fa
f7
f8
02
fd
01
06
00
fb
02
00
00
00
00
00
ff
fe
03
03
fb
ff
00
fe
fa
03
fe
fd
00
02
fb
f9
f8
f7
fd
06
01
ff
fd
ff
00
03
fd
05
06
05
f7
f6
00
08
fc
ff
00
00
00
01
01
02
03
06
01
04
07
01
01
fd
fe
00
00
00
00
03
04
04
04
fd
00
01
ff
fc
00
fe
fc
06
fc
01
ff
01
fe
03
ff
02
fe
fe
fc
fa
00
02
01
06
02
fa
00
f9
ff
fa
02
03
00
03
ec
04
fb
f5
06
fe
06
fc
00
fa
01
ff
04
fb
07
00
00
fb
03
fc
f9
00
fd
fc
02
04
03
ff
ff
fc
fe
00
07
02
00
05
00
fd
03
f5
fe
09
f8
06
fb
01
ff
00
02
fe
03
03
fb
01
09
06
fe
f9
fd
00
fd
03
00
ff
01
01
fb
f8
03
f7
fa
04
00
00
fe
03
ff
02
03
00
05
03
fa
07
05
f9
ff
00
03
00
0a
00
05
00
06
00
fe
fd
ff
fd
ff
00
f9
fb
fc
f6
fe
02
05
07
0c
21
04
00
ff
03
03
09
0a
f6
00
02
fe
fe
02
fd
fb
fb
fc
00
fe
fd
04
04
fc
06
fd
fc
03
01
02
fa
fe
f5
f3
fb
f4
f6
03
04
01
02
02
01
00
f9
fb
fe
ff
06
04
00
f9
fe
fe
fa
fb
fe
fd
fe
fe
f3
fe
fb
fd
00
06
08
02
00
00
00
fd
fb
fa
ff
fe
fe
05
0d
ff
fb
f2
ff
ff
eb
f7
07
06
06
fe
fe
fd
04
01
04
03
07
03
09
07
00
00
00
02
05
07
04
01
f5
00
f4
f7
f6
04
02
00
fd
00
05
fe
fe
01
0a
0c
00
01
06
06
00
f9
ff
02
01
fb
01
0d
ff
fb
01
fc
02
05
fd
00
03
fe
00
fc
02
fe
00
fc
fc
fb
03
fa
fd
00
00
05
06
01
fb
f9
09
00
02
fa
00
fd
00
00
fd
06
09
07
00
f7
00
f8
01
02
07
05
08
08
0a
05
02
fa
00
00
03
07
07
07
00
fd
fd
fd
fd
f5
03
03
00
03
ff
fd
fa
01
02
02
04
fd
fd
f8
fe
fc
01
03
fd
05
ff
fc
ff
04
01
02
08
08
02
01
04
03
fd
07
fb
f8
fc
09
04
ff
02
08
01
00
06
ff
03
ff
fc
f8
fb
ff
fb
fe
fa
ff
00
fe
02
01
03
fd
f9
ff
02
00
fc
05
06
07
03
03
01
fe
02
03
ff
f9
fb
f9
f3
00
fc
01
ff
00
fe
00
00
03
f8
04
03
00
08
00
00
ff
fc
00
01
00
fc
04
01
00
00
fc
01
f9
ef
00
01
fe
00
07
01
00
fb
fa
00
01
00
ff
05
06
04
fe
00
ff
ff
07
02
00
fd
03
04
00
03
01
ff
03
04
0d
fe
07
02
04
04
04
00
00
04
08
08
01
08
07
0e
03
01
00
00
f9
fe
00
ff
fe
07
01
fd
03
fc
04
fc
00
02
01
fc
f6
03
05
07
04
ff
04
fd
00
f1
fa
ff
10
ff
04
0a
01
f9
ef
fc
fc
02
fd
ff
fc
03
01
01
03
00
04
07
fe
ff
05
f9
ff
06
fe
f7
f9
01
02
01
06
05
05
fc
07
fe
00
fd
00
fe
fa
fe
06
08
04
00
00
05
ff
00
00
05
0a
00
fe
05
fe
ff
f9
fe
02
06
08
00
ff
07
05
00
ff
02
02
00
fc
fb
00
fd
fb
fe
ff
fd
00
05
00
fe
fe
ff
04
05
09
09
00
fa
03
fe
f4
fd
ff
03
f9
fe
01
03
05
fc
fd
00
fe
ff
02
00
ff
fc
01
02
fd
ff
fc
fc
03
04
09
00
08
fd
fe
fd
08
04
01
fb
02
03
00
01
fc
ff
00
00
fe
fe
fe
07
01
04
00
03
02
00
05
00
ff
04
02
fd
f8
02
01
00
07
01
01
01
00
00
ff
fd
01
01
fb
f9
01
ff
fb
fc
00
00
05
05
03
fe
00
0a
05
05
fd
fe
02
03
03
00
00
ff
fd
00
05
00
00
06
03
02
fb
fe
00
00
fe
01
fe
04
00
02
fd
ff
fe
fd
00
ff
00
fa
fc
fc
01
fe
02
04
07
01
0f
02
f9
f2
f8
ff
00
02
ff
ff
00
00
03
03
03
fc
00
ff
00
fd
03
fb
fb
00
05
08
fe
04
fc
f9
fa
04
f9
00
ff
05
fe
02
02
fa
00
06
03
05
f3
f3
fc
00
03
ff
04
fc
01
01
0a
06
03
ff
00
fc
01
05
08
0f
05
fd
fe
fd
0b
0f
02
00
00
02
fa
fa
fa
04
02
fc
fd
00
01
00
00
00
fb
fc
fe
ff
02
03
ff
03
04
f0
f4
fc
f8
fc
00
03
ff
01
fd
ff
fd
00
fa
01
00
00
ff
fe
fb
02
01
ff
02
f7
fe
ff
f7
f2
fc
01
00
fd
fe
04
fe
04
ff
00
ff
00
02
04
00
06
00
00
05
fe
f9
ff
03
ff
08
01
04
ff
ff
fb
00
00
00
ff
fd
fe
00
01
03
03
09
12
02
06
05
03
01
05
ff
f9
ff
00
01
00
fd
fd
00
00
fd
f9
fc
fb
f7
fb
02
fe
f8
fb
fd
01
02
f1
ff
02
09
07
0c
0d
06
fe
00
fe
00
fa
f9
00
f7
fe
fe
fe
fc
00
01
ff
fb
ff
02
fd
04
01
00
01
03
00
02
02
05
02
07
04
0a
05
06
03
03
04
fc
00
ff
02
03
ff
00
03
fb
f7
fa
00
04
fe
ff
03
00
fe
ee
fe
00
01
fe
04
01
07
ff
00
f7
00
0f
ff
02
06
04
ff
fe
ff
fe
03
03
03
01
05
05
03
01
01
04
00
fe
02
00
08
00
00
01
fd
fc
fb
f8
fa
03
fe
00
04
06
03
01
03
09
fa
01
fa
03
00
00
00
05
02
03
f8
00
ff
04
fa
02
05
00
05
07
00
fe
02
00
04
03
05
ff
fb
fe
fa
01
fd
ff
04
fc
fa
f6
02
00
ff
fb
f7
f0
00
fa
01
fc
f9
fd
04
ff
01
04
f7
f8
f6
fe
0e
ff
00
04
03
08
00
04
01
06
fe
01
fb
fe
02
f8
fe
ff
f6
00
02
00
fd
03
02
05
fc
fb
04
0c
11
0a
fc
00
01
06
fc
05
02
07
fe
10
17
06
09
ff
ff
f5
e6
f6
05
00
04
03
03
ff
ff
fb
00
fc
05
01
04
08
fd
fc
01
fe
08
0b
05
f8
f8
f7
fd
03
00
fb
ff
00
03
00
04
06
fc
00
00
11
fe
02
0e
01
f2
e5
fe
00
02
fe
05
06
09
f9
f3
03
01
07
fe
02
ff
f9
f9
f6
ff
03
05
01
fd
09
fc
fc
f8
ff
00
00
ff
08
11
07
e3
d1
f0
fe
ff
02
fa
03
fa
02
04
00
04
00
fc
00
fe
fb
01
00
02
02
01
fe
fd
f8
fc
04
03
fe
05
0c
02
00
0d
01
fd
00
05
fa
fe
00
06
00
ff
fe
fa
03
0b
18
00
00
04
fd
f9
e5
fd
fc
f6
fb
ff
04
00
fc
fe
03
fe
01
04
05
03
04
03
04
00
00
02
00
03
ff
00
05
fc
00
fd
fd
04
03
06
f8
01
02
05
fa
00
ff
04
00
02
ff
01
01
f9
f9
fa
01
08
fc
f8
fb
fc
03
ff
fa
fd
02
01
03
08
03
05
02
05
fe
ff
09
04
00
07
02
ff
ff
fb
f8
f9
f9
00
fd
01
ff
07
00
f9
07
fa
f6
f9
02
02
02
00
f8
00
07
03
05
03
03
04
ff
fd
fe
04
ff
04
ff
00
04
01
fb
fa
00
fe
fc
02
08
05
03
03
fb
ff
ff
fd
f8
fd
fd
00
f9
01
f9
fd
f4
04
ff
03
03
03
00
03
04
03
04
01
fd
fc
09
02
02
ff
ff
00
04
01
05
ff
fd
ff
04
ff
f9
f8
fc
f9
f9
ff
05
01
05
fc
00
ff
fa
03
f8
fa
05
00
04
08
04
ff
00
00
f6
00
04
02
fd
01
02
fd
02
05
00
04
05
00
fd
f9
f8
00
03
07
01
fd
04
04
03
00
00
fb
03
01
00
00
fe
fd
f6
fc
05
04
ff
03
05
04
00
02
fe
01
fe
ff
ff
f9
03
fe
fd
04
fc
fc
00
03
ff
04
fa
f6
ff
02
03
05
02
fa
02
f9
0f
03
04
00
00
fa
fd
01
fe
03
07
ff
00
ff
fb
fb
fe
ff
00
ff
fd
00
ff
02
01
08
01
fb
fc
00
fd
03
fd
fa
05
03
fc
ff
ff
01
fe
00
04
ff
01
07
05
00
01
fc
f7
fb
fd
05
07
09
05
04
fe
07
f7
fc
0a
f9
f9
fd
ff
07
02
00
fe
01
07
05
fe
fe
fd
00
06
03
fe
02
ff
0a
03
00
0b
00
02
08
0b
00
fc
0a
02
01
00
ff
07
05
00
fd
fd
fd
03
00
05
01
0e
fc
04
fd
f3
fe
fa
01
ff
05
02
02
04
02
01
0f
05
fc
00
fe
fb
07
fd
04
03
06
f5
e3
fb
05
21
01
fa
fb
01
f9
04
fe
00
08
00
02
08
04
f8
f4
f3
00
1b
fa
fe
01
00
02
03
03
03
fc
05
00
fd
00
08
00
fb
00
03
02
fa
00
00
fc
f4
f5
00
03
00
00
05
00
01
0d
fd
fa
10
fa
fc
f8
01
fb
fd
ff
02
00
fc
05
07
06
01
03
00
00
01
04
06
03
05
02
07
00
f7
f8
fa
09
f6
fa
10
13
02
f9
04
fa
01
fe
fa
02
00
f6
f4
01
ee
04
07
04
04
04
04
02
00
01
03
01
03
05
fe
00
fd
00
01
07
06
08
06
00
01
00
fd
03
ff
07
fd
03
18
00
f2
f9
fd
06
fd
fd
ff
fa
01
f9
00
02
ff
f9
04
ff
ff
00
00
04
fd
02
fe
fa
fb
0b
04
fe
fd
fd
09
f9
fe
01
f8
04
08
03
08
fd
fe
05
ff
0a
04
00
00
00
fa
01
00
f5
f3
ff
fd
fa
ff
fc
f9
fd
02
02
ff
01
14
ff
00
05
fd
ff
00
02
00
ef
f8
00
03
fe
fb
01
f9
ff
04
07
05
03
00
00
07
fd
07
fb
04
01
fb
03
fe
fd
01
00
ff
fc
09
0a
00
ff
f8
ef
06
11
05
05
03
05
00
ef
f9
f5
f6
fa
f7
fb
fb
08
03
0b
01
ee
ff
00
05
01
00
04
03
03
02
07
00
fc
ff
f9
e4
fc
05
1b
03
fe
ff
ff
01
00
01
09
0c
06
01
01
fa
fc
0d
02
f7
10
01
fd
ff
fc
00
fb
04
fb
0c
07
00
ff
00
f7
f1
ff
07
17
00
03
f6
fc
fc
00
00
02
00
fa
05
01
07
fd
fd
01
ff
ff
fb
00
fc
08
fb
f8
07
0b
ff
00
fe
04
f9
fc
03
fe
00
00
fc
05
01
fd
fd
01
01
06
06
fc
ff
03
04
00
ff
05
00
f7
fc
02
03
ff
fa
fe
fe
fe
fe
09
00
00
fd
01
ff
06
04
fc
fd
f4
ea
fa
06
22
05
f6
04
fd
03
fd
ff
fd
f8
01
02
09
fc
01
ff
fd
fd
f5
fd
05
00
f3
00
ff
01
fb
f3
f8
16
1a
0a
fb
07
ff
02
06
f7
fa
0b
02
03
fc
fa
00
f3
fd
12
15
03
00
fb
01
00
00
00
ff
07
00
00
02
ff
f8
fe
00
fc
f8
ff
01
01
ff
fd
01
fe
00
00
04
ff
01
ff
fe
fc
fb
05
00
02
06
09
0a
fb
ff
01
0b
09
05
fc
00
02
ff
fc
fe
02
00
fd
02
f6
02
f6
f5
fb
04
0e
02
02
fd
fd
ff
fa
fb
00
00
fd
09
00
00
05
01
03
00
04
03
fc
04
05
fd
fc
01
00
0b
02
00
04
06
06
01
00
ff
fe
03
fd
00
02
fd
f0
f6
02
1a
03
01
01
fe
fd
00
fe
f9
10
fc
07
e9
fb
0b
13
0b
fc
f5
fb
05
06
02
fc
01
07
f2
e9
f5
02
05
06
fd
fb
f5
0a
12
04
01
fd
06
00
f4
03
fd
f8
fc
06
01
05
fd
fc
00
03
01
01
01
03
00
01
05
04
fe
00
06
fe
fe
04
00
04
0c
f8
e7
fb
fe
fb
fe
07
05
07
fe
f5
05
07
04
00
00
fd
09
fd
fb
02
00
01
fe
fd
fb
01
fd
ff
00
03
fc
ff
06
fa
fe
fd
00
fe
04
fe
02
fb
fb
fc
ff
0d
0a
fc
05
00
fd
ff
fd
00
01
fd
fc
ff
ff
00
fa
00
07
07
f8
fa
fa
fc
01
06
00
03
fc
00
0e
09
07
0a
00
07
fc
f6
02
02
00
05
06
fb
fd
04
02
02
00
fe
fb
00
fd
fd
02
00
fc
00
00
01
fc
fe
ff
fb
fe
ff
fe
ff
05
00
ea
ec
fb
fe
f9
00
fa
f5
0c
18
06
fa
f4
00
02
03
05
02
fd
00
fb
fd
ff
00
fa
03
fb
fc
f7
08
15
fc
02
fc
fc
07
0c
0e
00
05
00
05
03
01
07
ff
03
06
fb
ff
06
fe
04
01
fa
04
00
fe
01
07
05
05
f2
e4
ee
11
18
0b
ff
05
fe
05
00
fc
04
00
01
fb
f2
fb
00
0c
06
f8
fd
fb
ff
f9
fb
fa
03
fd
05
00
02
00
03
00
09
04
fc
00
09
01
03
fd
f8
00
02
f8
ff
fd
fb
fc
f7
fe
fd
fb
f6
fd
12
03
fd
05
05
fe
fa
f6
f6
f5
f7
00
00
ff
02
f7
fb
03
06
02
fe
0a
01
02
fb
03
03
00
04
fe
f6
fd
01
00
fc
00
fe
fb
00
02
02
fe
fe
f5
ff
0e
04
04
00
fc
00
05
09
fd
f0
02
fd
ff
f9
08
f6
fb
01
0c
07
04
fd
06
fd
f6
ff
fd
07
00
f3
fb
04
04
06
ff
04
03
ff
05
05
fe
02
fa
08
06
03
fe
02
fe
fa
09
ff
05
00
02
09
ff
ff
00
03
00
05
01
fc
01
00
00
05
fe
00
fd
ff
f9
01
fb
00
fe
fb
f5
ff
03
06
fe
01
06
07
fd
fe
fb
f9
f0
fd
fa
00
03
fa
fe
fc
fc
0f
fd
00
f3
00
00
f7
fe
00
01
fd
07
07
07
06
0c
00
f6
ff
fb
ff
00
f7
fa
02
fc
05
ff
fc
07
06
f5
f8
fa
fb
fa
01
03
02
0a
05
03
ff
02
fd
fe
03
05
ff
f7
06
0c
01
06
01
02
01
06
fb
fe
05
f9
fe
07
00
02
00
fd
00
f4
fb
fd
03
ff
04
06
06
00
f3
fd
f9
e5
f5
00
03
03
05
02
00
00
fd
fb
05
06
02
f7
f5
fd
f8
fe
fc
00
fd
04
fa
02
02
f9
fd
fe
05
05
02
00
fa
00
0a
0c
0b
04
08
00
fd
f3
f8
05
10
06
04
fd
00
02
ff
fe
ff
09
01
02
08
00
04
02
00
09
05
02
05
09
07
04
01
fd
ff
fd
ff
05
00
ff
07
08
02
fe
02
02
fc
ff
00
fc
06
04
00
09
fe
05
01
ff
00
00
fe
f9
0b
04
fb
ff
fd
02
00
06
f7
0d
06
00
fd
fb
01
00
01
02
05
00
02
04
fe
fe
00
02
06
05
07
ff
02
03
fd
fc
fe
02
01
ff
02
02
01
00
f5
fa
00
18
06
00
02
00
ff
fd
00
05
02
07
03
03
06
00
fc
03
00
01
fd
05
00
03
ff
fa
fd
00
f8
f7
00
00
fa
09
08
09
fc
f0
f8
fe
03
02
08
ff
fe
05
06
01
fc
f9
04
03
ff
fb
01
00
07
08
06
04
f5
03
03
f9
09
f4
fd
fe
04
fc
fc
00
01
fb
06
07
05
ff
03
00
fb
f6
02
00
fb
f8
fb
f9
fb
01
ff
02
08
00
03
ff
fc
00
fe
fb
ff
00
02
02
03
f4
f5
02
0a
03
fb
fc
03
fd
ff
fc
01
04
fe
04
00
00
07
08
08
00
00
05
08
02
fd
fc
04
fd
01
fc
03
fe
0a
ff
03
fc
02
ff
fe
03
00
05
fe
02
ff
00
fe
fe
ff
fc
03
04
fe
01
fe
f9
f9
06
fa
07
fd
02
01
f4
f0
08
11
f3
fb
06
03
f6
e9
f8
08
05
00
04
f9
01
00
f3
f7
00
0c
00
04
05
fe
fd
f4
03
f7
02
00
03
00
0a
00
f5
01
fc
07
03
00
00
00
06
00
00
fc
fd
02
fe
00
01
fb
02
08
ff
fd
fe
05
03
02
09
fc
04
09
03
01
08
06
07
05
f8
02
01
03
fe
00
05
01
f8
f7
fe
fd
fb
f8
02
0c
09
0a
0d
06
06
05
fe
03
fc
02
fe
05
04
fb
f6
fc
04
06
fd
f9
fe
fa
ff
13
ff
f8
00
02
ff
fc
fe
f9
fa
01
ff
fb
00
f6
fb
00
f8
06
00
ff
09
03
06
fe
06
00
04
05
05
fc
02
03
f4
fe
09
05
09
00
00
08
02
00
07
0a
04
09
01
02
00
00
fc
03
f2
e5
fb
06
fb
02
04
fe
fa
fc
01
fc
02
00
02
ff
f9
04
01
02
00
00
0a
05
fd
fc
00
04
14
05
00
04
fd
04
07
02
f8
fe
ff
fd
03
01
00
00
05
00
fb
fc
02
fd
02
08
09
03
03
06
06
00
fa
f8
05
0e
01
f4
e4
fb
fd
04
fe
02
04
00
f9
00
00
07
05
08
03
f5
fd
00
03
fe
f9
fc
f9
02
fb
00
fd
04
ff
00
00
00
fa
fb
f2
04
04
00
01
02
00
02
f6
f6
07
1d
02
00
00
00
00
f8
02
04
ff
06
ff
ff
01
02
01
fe
ff
fb
fd
fd
03
04
03
00
ff
ff
02
02
08
09
01
ff
df
f4
fc
22
07
fe
fd
04
fd
00
00
04
0d
05
00
03
fb
00
04
04
fe
03
05
03
0d
04
ff
ed
f9
fd
05
fb
fe
06
ff
f7
f8
f1
ff
18
fa
ff
03
03
00
00
06
03
07
05
fe
00
00
06
fd
fe
ec
e3
f4
f7
f7
00
01
02
02
01
0a
fc
03
f0
fa
ee
e4
f7
fd
04
00
fe
fb
fe
fc
fc
04
04
ff
fb
fc
00
02
03
fa
04
fe
0b
00
00
0b
06
fe
04
04
fd
ff
06
fc
06
ff
00
05
04
fd
f9
fb
00
fd
00
f5
f3
f9
ff
10
fe
00
fc
fe
fb
03
fe
f2
08
fb
f9
fc
fe
00
02
fb
f8
01
f7
fb
01
f8
f8
f2
f8
02
06
07
00
fd
05
f2
e7
03
03
ff
00
04
fd
fe
ff
00
04
03
fa
06
fa
fc
fb
ff
ff
fe
ff
02
04
01
03
01
00
06
06
07
05
fd
05
00
fd
f9
f3
fa
fd
0a
04
f7
00
05
03
14
0b
ef
e7
f0
fd
fa
f8
f7
fb
f9
f7
06
00
06
00
00
07
00
ff
fc
04
03
01
00
03
fc
03
01
f8
fc
fe
09
fb
fe
fa
00
00
01
ff
08
00
02
02
f5
f7
fc
00
05
04
04
03
00
00
fb
03
09
00
08
f7
f9
01
fc
f5
03
10
01
01
fd
03
fe
fc
01
fd
03
fe
01
ff
fa
00
07
f5
06
00
00
fe
08
05
01
00
f7
fd
08
08
04
00
f8
01
01
00
00
f8
fd
01
00
00
fe
06
ff
01
fe
fd
00
08
02
03
fc
02
fd
00
04
01
05
00
fe
fc
f5
fd
fe
03
fa
00
0c
00
07
09
fa
07
12
00
00
07
01
fe
08
fe
00
0b
03
02
fe
03
06
fb
06
fd
01
07
06
fe
04
04
fd
02
02
fd
01
02
00
fe
00
00
fc
08
06
f8
02
08
0a
00
f8
f6
fc
14
fb
f6
00
03
ff
00
fd
00
ff
fa
f6
01
00
ff
05
fc
f5
00
f9
00
ff
04
01
fc
00
00
02
02
04
fe
04
f8
f1
fd
05
07
04
fd
ff
fd
00
03
06
02
03
ff
fd
05
05
fd
fd
f9
fe
02
01
08
02
05
fe
fe
05
01
05
fa
ff
ff
fc
06
fc
04
fd
00
05
fd
ff
00
ff
fe
00
04
00
00
06
fb
fa
0e
f6
f9
09
06
05
0c
07
01
0a
ff
03
04
13
06
00
fb
fc
02
fd
01
ff
00
ff
04
03
01
04
ff
fb
05
06
03
00
03
fc
06
fe
04
ff
fc
04
fe
04
00
fe
06
04
01
05
04
0e
fd
fa
fc
08
07
01
02
fa
01
05
09
ef
0a
00
fd
09
06
fa
f8
fd
01
12
01
04
0e
f8
fb
fa
01
f2
f3
00
03
03
08
f7
f1
ff
fb
f2
f6
01
03
fe
03
08
04
01
f9
f6
02
fc
05
fd
13
02
fb
f6
fd
fe
00
02
05
01
fd
00
04
01
09
fc
02
e3
e5
ed
f6
03
f5
e2
e5
ec
f4
06
fd
fe
f3
fa
02
0b
0a
f5
e7
f4
f9
ff
f2
01
f7
fd
f7
f9
f8
f9
fe
0f
f9
fe
00
fc
04
00
04
f1
f5
ff
f2
f8
f2
fb
05
f4
00
07
01
f9
04
19
1e
1c
21
14
11
0e
12
0d
03
00
fb
f9
03
f2
ee
ed
f0
05
fa
f7
02
00
02
fb
fb
02
f5
f2
03
02
02
00
01
00
07
05
fe
f7
fe
02
05
07
fd
04
04
ef
01
04
f4
01
f7
00
00
04
12
0d
fa
f1
00
04
04
00
e9
ea
e2
f3
e5
f2
fd
00
00
04
02
01
fc
03
08
ff
fe
03
fd
fe
00
01
f7
ff
03
00
00
1a
0b
16
0f
00
0c
09
02
01
02
00
00
f4
fe
f4
05
06
00
fe
fa
fb
ff
02
07
07
fd
09
fa
04
f6
0e
fe
fa
01
07
07
f6
fb
fd
f9
05
f5
f7
f5
04
05
05
04
f1
f1
00
f7
fd
fd
1b
10
09
0b
15
08
01
0b
05
e4
d2
ed
f2
ec
ee
ee
e5
eb
08
02
fd
06
0b
f9
ff
0b
02
fe
f8
08
03
14
02
f5
fa
07
00
05
06
02
fa
00
01
fd
f7
07
03
00
fb
ff
f5
01
05
06
f9
10
fe
08
14
0d
05
04
06
06
f7
00
ff
fb
fb
f9
fa
f1
0a
00
00
05
01
0b
09
fb
f5
f5
08
f8
07
00
f6
05
00
07
08
03
09
02
f8
09
03
03
01
fd
08
fc
fb
08
02
f7
f4
f3
04
03
06
fa
fd
ff
fb
f9
fb
07
09
00
07
0e
07
06
0f
07
15
0a
17
05
fd
07
16
07
06
17
12
12
0c
00
00
f8
fd
ff
08
05
fa
08
07
fb
08
02
10
f1
f4
03
f9
fd
ff
fe
fe
f8
fd
fb
f5
f7
fd
fa
f6
fa
f9
fc
ff
00
05
fb
f5
0d
04
0a
fb
00
01
fc
fd
fc
09
03
07
fe
0c
04
01
06
fe
02
03
04
13
17
12
09
06
0a
0b
fb
12
11
05
f7
0b
03
fe
0a
09
04
ed
f5
ef
15
1d
fc
01
05
05
04
07
06
05
14
08
09
00
07
0f
0a
0a
12
12
0c
f7
03
03
12
ff
0d
03
00
01
0d
0a
05
09
20
f7
0b
21
06
02
13
01
09
08
15
0f
fe
0f
ff
00
00
05
0b
09
00
04
00
fa
ff
02
f8
09
08
00
fe
00
00
fa
fe
ff
fe
02
05
05
fa
02
07
05
f9
fa
ff
09
13
10
f9
02
f4
fb
fb
ff
06
ff
fd
07
fa
06
05
00
f9
f8
ec
08
11
14
13
f4
f6
f7
09
f8
f6
fb
06
08
fb
08
fd
00
fe
07
0c
f9
fd
00
0c
02
00
1f
fe
04
06
fd
f8
f4
f3
fd
f7
fd
ff
09
05
00
fc
00
02
0c
fd
ff
06
fb
e9
f7
ee
00
00
fc
00
03
f4
fc
04
f6
09
10
fd
05
06
05
0c
0f
05
ff
fa
07
0a
0e
fc
04
02
fb
09
04
01
05
fc
06
fc
07
03
00
fe
00
f8
fe
01
08
fa
05
07
03
02
01
00
08
f9
07
06
fb
01
ff
06
01
fc
04
f9
00
00
05
fb
09
05
f8
08
10
fe
03
fd
05
01
fc
03
0b
04
09
09
07
05
09
14
00
fd
04
09
02
fa
f7
f7
fd
f9
f8
fb
09
05
01
04
03
fb
00
00
03
fa
03
f0
00
fd
f6
ff
fc
f9
01
00
fc
fd
01
05
00
05
03
00
0d
fa
fe
00
f6
0a
f8
0b
00
ff
0b
08
0c
03
00
17
09
0e
ff
00
f5
fd
ef
fe
ff
07
04
f1
fe
fe
01
ef
ff
fe
08
06
fb
0a
fe
fa
fc
fc
0a
fb
07
f1
e6
01
f3
fd
02
f7
0e
08
f9
f9
f4
06
f9
02
04
06
1d
ff
00
0e
05
0c
0f
08
08
07
01
f7
00
00
00
f8
fb
14
00
07
14
01
f9
00
f7
0b
00
00
fa
fd
04
03
f7
fc
fc
fd
fa
01
04
08
f9
fb
00
f7
00
fe
f8
04
fb
06
fd
f8
fb
01
fb
fd
07
01
fa
f8
fa
07
03
f5
fc
f7
ff
00
02
fa
f7
09
04
ea
ff
ef
f8
f7
f6
1a
1d
03
17
05
fc
13
0a
06
ef
f1
f2
eb
ee
fe
f4
f9
f7
09
f7
03
f2
ff
00
01
ff
02
fd
02
0c
fd
fd
08
f4
00
fb
08
0b
09
ff
10
01
06
00
f8
fa
15
00
04
13
01
04
0a
02
08
05
fd
06
0c
09
01
05
0d
fb
00
f5
ff
f7
04
f8
07
0d
f5
f7
fb
ff
02
08
06
f5
fb
fc
fc
fa
fe
fb
fe
0d
f8
f9
04
03
00
05
f3
fa
05
fc
00
03
0b
0c
0a
0f
15
01
0f
05
ea
ee
f6
fd
00
03
f9
00
00
0b
ff
00
f7
0a
fa
03
ff
fe
f4
06
05
00
f9
00
e4
f7
f4
09
08
05
fd
fd
00
06
fd
ff
0f
0f
04
fe
08
04
02
f9
ff
0f
f7
09
ff
fc
fc
fc
06
fd
0a
06
f5
fa
0c
fa
fa
fa
ff
09
1c
fc
18
30
0a
06
0a
fd
ef
f8
ef
ff
00
ee
fa
f8
f5
08
06
ff
04
07
fb
06
06
00
f6
fb
fd
00
fa
f9
f2
f7
f2
03
05
09
ff
12
00
0a
12
05
f8
f9
fd
f3
05
04
05
00
00
fa
05
07
fc
03
f6
07
fd
f8
03
01
00
0b
04
05
00
05
fe
0c
0c
05
f9
f4
00
05
ff
ff
ff
03
06
f5
fe
f2
03
fb
fc
0c
00
fd
05
12
0c
0c
04
02
f9
fb
f9
04
f8
ff
fd
f5
ff
00
f9
ea
04
f9
00
00
01
fe
fa
08
03
05
13
05
08
0f
04
f5
f9
07
08
06
0a
11
19
12
ee
db
f9
f7
01
fa
00
fd
f6
f8
f7
02
05
fd
fe
03
ff
f8
06
ff
00
fe
04
02
04
f9
04
07
04
fb
fa
f8
f8
f0
fd
f8
0a
f3
fa
08
ff
02
04
ff
f8
01
05
f2
04
ff
f7
f7
00
00
00
0f
12
fd
0c
04
00
f9
f7
01
12
02
0b
09
06
11
04
0a
00
f9
00
06
01
08
07
fe
f8
f1
f6
00
f3
05
01
f3
04
fe
f6
ec
fc
e2
d9
e9
f0
e2
f8
fe
fb
09
fd
08
f9
0a
08
06
03
00
f8
04
05
01
00
07
ff
fd
f4
f9
ff
f6
01
03
01
00
02
04
06
05
0f
ff
0a
16
fd
09
06
07
05
05
03
07
00
01
02
0a
fc
02
f4
fd
f6
ef
fa
00
01
f8
fd
f5
fd
f6
00
fb
fe
fc
01
06
01
03
03
0b
fc
16
14
08
fd
06
fe
09
0a
09
07
ff
03
0c
fe
03
02
04
01
09
00
06
00
0a
fc
0a
0f
00
f9
f9
00
ef
ef
fa
f1
fe
00
03
04
01
ff
fc
fa
f5
f7
00
08
03
05
00
01
09
fb
05
00
02
02
f4
0d
f3
f9
00
f9
fe
06
fa
04
02
00
fb
fc
f2
ff
0b
04
01
09
01
0b
01
f6
fe
00
fe
03
00
f4
07
fc
fd
fa
f9
f8
f9
06
f6
02
09
07
02
fb
f5
f9
08
fe
06
0e
ff
00
f8
00
f5
fd
07
02
03
fa
07
fd
08
00
00
fa
02
00
06
00
08
fe
02
08
01
07
fe
fc
07
f9
01
00
fe
10
0c
fe
f9
03
f7
01
f6
fb
fd
fd
00
06
fe
f4
ec
f9
f6
f9
05
00
08
fb
fa
f9
03
fa
f6
02
fd
00
07
03
07
16
10
13
0d
02
08
07
fe
f5
f9
08
00
02
fa
03
06
f2
f0
fe
01
03
07
07
00
f0
fd
00
ec
f0
fe
fa
f7
fe
fd
0e
03
0f
05
00
f1
fa
f9
f9
f0
f6
02
08
f8
f7
00
fe
01
f5
f8
fd
02
0e
01
fd
fc
f5
06
ef
fb
f6
f1
07
0e
fa
09
06
fa
00
00
00
05
fc
f9
01
01
01
ff
e9
00
f4
f8
f6
f7
06
11
0a
06
10
04
08
0a
08
ff
00
f7
f5
f9
fa
fe
ff
fd
fa
fc
fb
06
01
ff
f7
01
00
fe
fa
fa
01
f6
f2
06
fb
01
02
0f
00
fc
02
0c
fc
00
00
f9
07
00
f5
f7
00
f7
fa
0b
0c
f0
fc
03
eb
f6
fe
f3
01
ef
e8
f3
01
ff
07
fb
00
01
ef
fd
fe
f9
f3
fc
fd
eb
00
f9
f9
07
08
fa
07
ff
06
fd
0c
03
10
00
ff
ff
06
07
09
fc
04
fe
11
1d
12
15
15
0f
f6
fb
05
05
00
f3
00
03
f6
07
fd
f8
0a
01
08
09
0f
06
09
09
ff
ff
ff
0b
01
fa
02
e7
f5
f8
f8
f8
f8
fe
05
f2
f2
f6
fa
f4
ec
fb
f9
06
03
01
07
07
ff
05
06
03
f9
f6
02
05
00
01
00
ff
10
0e
0a
00
00
fe
fa
fc
fe
0c
ff
10
0b
08
01
05
f4
fb
06
01
fa
ff
0a
f4
f7
00
ff
01
03
03
f1
05
f7
fd
f8
fd
fe
f5
fb
02
09
0c
03
00
f9
fd
f9
fe
08
fb
fd
09
03
ff
f6
f3
08
fa
f5
fe
f7
f8
ff
05
f1
05
02
07
f7
fe
05
06
fe
07
00
fb
0a
0a
06
0c
f5
0b
07
01
0a
0f
09
00
00
fb
fc
00
fb
f2
d7
fd
ee
da
fe
ff
f9
fc
f6
fc
03
00
eb
fd
00
f2
ff
05
f2
f6
f7
df
e7
fb
f1
f7
fc
fa
ff
07
00
00
03
04
05
fe
03
fe
00
f8
00
fb
0a
00
0c
0b
00
fe
05
0e
03
fc
f6
0a
00
04
06
03
05
09
fd
03
ff
00
fe
f9
15
fa
f1
00
f8
07
f0
04
f1
fa
05
03
f0
ff
fc
01
03
00
f3
fe
0e
fc
fe
00
fa
03
ff
ff
03
f4
04
f6
05
04
fe
fb
02
fb
fd
00
f7
fd
ff
00
f8
f8
ff
0c
09
09
12
10
ff
ff
fd
f9
0d
09
0a
02
fb
06
05
06
ff
06
0a
09
f7
f6
05
fb
fa
00
02
f6
02
fe
ff
01
05
05
03
fc
fa
02
fb
f8
00
f7
00
04
fc
00
fd
0f
07
03
ff
fc
fc
f6
fc
fe
fe
09
0d
00
02
05
02
01
ff
ff
fa
fb
fd
f7
fe
fa
08
f6
07
fd
ff
ff
fa
ff
f8
08
01
01
07
fd
05
05
03
fe
fe
fc
15
14
04
0a
18
0e
11
0d
13
e5
eb
fc
ec
e4
f8
01
f9
06
06
05
fc
fd
f8
07
fd
01
fd
ff
ff
0a
03
09
fd
03
01
09
fb
fd
f9
ef
f3
fb
05
01
0f
02
fe
f7
f5
ff
fb
ef
ef
f7
f6
f2
fc
ff
f6
fd
f7
fb
ed
03
06
03
01
fe
03
00
f5
02
fa
03
fa
0a
06
fc
01
0b
09
f8
fb
03
fd
fa
fd
fa
f9
fb
fd
f4
ef
f9
eb
f3
f3
ef
fb
f2
05
f1
ee
fd
f5
f7
f2
f6
01
07
fb
f8
02
f9
fa
f7
03
00
f5
00
03
f5
f9
04
f6
fd
01
0f
00
06
07
fe
ff
06
fc
f7
0c
0d
00
19
01
01
0e
01
f6
f9
fc
00
06
06
00
01
07
04
0a
04
02
fb
00
fa
f7
ff
05
fc
09
f9
02
f5
f6
f9
fc
04
f5
fa
f7
07
0a
fb
fc
fc
10
13
00
0a
00
f9
00
09
00
05
fe
07
fa
fa
fd
fb
00
06
f3
ff
f2
fd
fe
f7
06
03
fc
09
f3
00
fe
f7
fa
06
04
00
00
04
01
0a
00
04
04
fc
02
09
05
01
07
06
0a
08
02
01
01
fa
03
02
f8
03
fb
fd
06
fc
00
0b
04
00
fd
fd
00
00
f9
fa
03
05
05
f9
fa
ff
00
0a
f7
03
fe
01
07
04
fe
06
fe
ff
00
fc
f4
05
f9
f6
08
02
fd
f8
f9
f9
fa
07
fc
fc
04
fa
00
fa
f8
00
f8
00
fd
06
01
06
03
fc
02
05
02
03
f9
fb
07
05
06
00
07
07
03
f7
ff
03
f9
fd
fb
02
03
ff
04
06
05
f9
02
fd
09
00
01
02
fb
fd
00
fd
fe
fd
f9
05
01
0b
01
07
fe
07
01
01
ff
fe
fb
08
04
01
03
03
03
00
ff
06
fc
02
fe
02
03
03
f8
fe
0a
fb
fb
00
fc
01
f8
fc
06
06
04
f9
fe
fa
f5
f9
07
05
07
03
fb
fd
02
06
04
fc
08
03
05
0b
00
05
08
06
fb
03
fc
f7
f8
fc
03
03
fa
02
0b
04
06
0c
02
05
04
02
09
fa
00
02
fb
fe
fd
f7
08
01
04
02
ff
01
fe
f7
04
f1
fe
02
f8
fc
00
06
03
fb
04
f8
0b
03
03
09
04
09
00
07
fe
00
02
f5
fa
00
03
fe
fe
02
fc
fe
0b
ff
f5
09
f8
fe
08
04
06
05
07
0b
fe
fd
05
06
fa
fe
03
f7
f7
04
fc
f9
06
fd
01
fd
fa
fb
03
fb
f9
f8
06
f9
06
05
03
06
01
00
04
fe
02
01
fc
fa
08
fa
f9
f7
ff
06
ff
07
fa
0b
0b
00
0c
01
00
0b
f0
fa
08
ff
f9
03
07
05
ff
07
02
fb
00
ff
fd
fb
03
06
fb
07
02
fe
02
05
ff
04
0e
fa
00
02
f9
02
02
f4
fd
fe
01
fc
fd
fa
f8
fc
f9
fa
00
fb
ff
ff
fd
f7
00
04
05
00
00
fd
0b
00
00
01
03
fa
00
05
f7
02
00
f7
fe
fa
fc
02
02
05
ff
00
01
fc
04
07
ff
fd
ff
f9
fd
fe
fc
ff
f9
fd
06
fa
02
fc
04
07
07
ff
fd
fd
01
02
05
fc
ff
fe
00
04
fc
fe
04
00
01
03
01
07
00
02
fd
ff
07
fb
ff
fc
f7
f6
fe
fb
f9
00
00
00
f7
ff
04
fe
00
fe
00
03
06
fa
fc
00
f8
00
fb
ff
ff
02
00
fe
01
f7
04
09
f9
00
00
03
f6
06
fe
f7
fc
ff
04
00
02
fd
02
fd
00
08
ff
00
01
f9
11
01
fa
08
05
f7
fa
02
f8
00
f9
fb
fd
fd
fc
04
00
ff
fb
00
fe
06
05
08
fe
fe
05
ff
03
fe
00
00
00
fe
ff
fc
03
00
01
02
05
01
fa
fa
02
fa
05
fb
fa
03
04
ff
00
00
fe
00
00
06
05
fc
fd
01
01
02
fc
f7
02
03
00
00
02
fe
07
00
ff
04
03
fc
fa
fd
fd
05
fd
06
fd
02
ff
04
00
fd
fd
03
07
fd
00
07
fe
ff
01
f9
04
f9
00
04
02
f9
00
fc
00
09
f3
02
08
fb
01
06
fe
03
00
fd
00
0a
fa
fc
00
fa
fd
03
f0
03
07
00
01
01
03
ff
ff
fd
05
02
03
06
00
fc
f7
04
02
04
02
07
ff
05
00
fa
03
06
03
03
03
05
00
ff
07
fc
01
02
00
fd
08
00
fb
04
00
02
f9
01
02
03
ff
fd
fd
01
f9
fc
05
f4
02
04
02
fb
f9
f7
00
fc
f9
fe
f8
fb
05
fd
03
fa
fa
fc
05
fb
03
ff
05
fb
04
ff
04
f9
ff
00
fc
00
fb
07
05
02
fe
01
fa
01
f8
fc
01
f8
ff
00
f9
01
03
05
03
00
fd
02
05
fb
f7
02
00
f9
f8
01
00
fb
01
02
08
ff
fe
fc
fe
02
ff
fd
01
05
04
02
00
04
01
fa
fc
f8
02
fb
fc
06
05
ff
00
09
01
fc
fd
f7
fa
fd
00
00
fd
07
f9
04
fe
01
03
fd
00
fc
f7
fc
03
fd
00
02
00
ff
f9
f7
ee
f6
f8
ff
00
ff
02
ff
00
fd
05
fb
00
f8
f9
05
05
02
07
ff
f7
05
00
00
f9
fc
f5
08
0d
f6
fc
08
fd
00
02
0a
09
00
02
05
04
01
07
fb
fe
04
05
fb
02
04
02
05
04
ff
00
fc
00
00
08
00
01
fb
fb
f9
ff
02
f8
fe
f9
ff
fb
fe
04
fa
f5
ff
fc
f4
00
05
05
fd
07
04
01
00
06
ff
fe
04
00
09
f7
f5
fd
fe
01
fd
f5
07
05
fd
08
02
01
0a
fd
fd
f7
04
fd
02
f6
00
04
06
fd
00
01
f3
fe
00
fc
02
02
f9
f6
f6
fc
fa
f9
06
02
07
fd
ef
09
fa
fa
08
f9
04
06
fa
fc
00
fe
fd
fd
05
fd
fc
fc
f8
09
fe
f9
ff
01
fc
02
06
fe
fd
08
08
ff
07
03
09
04
05
00
03
fa
f9
ff
ff
fc
04
fa
ff
03
fd
01
01
05
04
f9
f9
fb
04
fa
01
fc
fe
03
00
02
ff
ff
00
09
00
00
fc
fe
08
01
ff
02
02
f5
fe
01
04
ff
f8
00
00
fd
03
ff
00
fe
00
02
09
07
00
08
fd
f5
05
02
fb
07
02
fe
fe
00
06
02
03
fe
fb
00
02
fa
03
f9
fd
00
01
00
fc
02
fe
fd
04
01
ff
09
01
ff
07
fa
fc
00
fd
fc
05
fa
f4
00
04
f9
0b
04
fc
0a
06
ff
ff
fe
fd
04
f4
01
f9
fd
fd
fe
00
fa
02
01
00
04
07
04
fd
04
08
fd
f8
0b
05
f8
ff
03
03
07
07
fb
fb
fc
03
fc
05
04
03
07
f8
00
06
00
05
fd
00
01
08
ff
f9
03
ff
f8
00
0a
f9
00
fc
04
ff
07
03
fe
08
02
02
ff
f9
01
fd
f6
06
fa
fe
00
00
fe
fe
ff
01
fc
fc
ff
fc
fe
fe
02
f8
00
00
04
ff
fe
f8
fd
08
02
f9
ff
fd
01
00
f8
f2
fd
f5
ff
06
00
fa
03
06
fe
06
fd
05
fd
00
05
04
04
02
00
fb
02
f9
fa
00
fb
fd
03
07
03
fb
fb
fd
fd
04
fc
02
08
01
ff
00
01
fd
0a
07
ff
09
07
fe
02
fe
03
f9
fe
07
ff
02
0c
fe
01
07
00
00
fc
04
fc
fc
fa
f9
02
f7
fd
01
03
fd
00
ff
fc
00
f9
05
09
04
04
00
01
fa
fb
ff
01
05
ff
06
fc
fd
fc
00
00
02
04
02
fa
fb
fe
03
ff
f9
fc
03
02
fd
ff
01
fa
fa
fa
01
fc
f8
fb
02
03
01
06
fe
00
03
08
ff
00
08
f8
00
08
03
00
01
05
05
00
00
09
06
fb
0a
07
fb
01
fc
fd
00
05
fb
f6
03
ff
ef
00
f8
f8
00
04
00
03
04
fa
fd
fb
02
f7
fc
f8
01
fb
fc
05
ff
ff
00
08
03
fa
06
03
06
fc
04
00
ff
f8
04
03
04
fa
03
04
f9
f8
fc
06
fa
04
fc
fd
03
01
04
f9
03
ff
05
fe
00
04
f8
ff
f9
fa
04
02
fb
ff
02
fa
fd
fe
03
fb
fb
f9
fa
fc
f5
01
01
02
fb
00
03
04
06
00
fd
00
fd
ff
03
fd
ff
02
fa
04
fa
02
06
fe
fd
03
fa
03
00
ff
f9
fe
f9
fe
fc
f9
fb
07
fa
fe
ff
fe
05
02
05
05
f7
fb
ff
fb
09
00
03
fe
02
f8
fb
05
01
02
ff
fb
00
02
07
06
05
fc
05
f7
01
ff
fe
fe
fc
fa
09
fe
fd
ff
01
fa
01
00
00
ff
00
01
fb
fd
fd
00
f7
06
00
f8
05
00
fc
00
00
07
fc
08
ff
fe
0a
fe
01
f7
00
fd
f8
08
04
fd
fa
07
fc
fa
f9
00
f9
00
00
02
03
06
f9
f9
03
00
05
07
00
ff
04
f5
fe
fe
f9
04
ff
00
05
08
fa
05
09
fc
fa
fb
02
fb
03
07
06
ff
0d
0b
fb
00
00
04
0d
03
07
0b
05
0d
02
fb
05
05
fc
00
03
00
00
04
03
05
fc
fb
08
f7
fa
07
00
08
ff
ff
fd
04
01
fb
fa
f8
f7
fb
fd
fb
fa
fb
f8
00
05
05
fb
00
fe
01
fa
06
05
06
fa
fa
04
09
07
fa
00
00
06
ff
03
ff
00
02
ff
00
fa
ff
00
fe
fc
06
07
fa
fc
ff
03
fd
00
05
fe
02
06
09
fd
02
fa
f7
f5
f2
fc
01
f8
f5
fe
fd
00
fe
02
00
05
02
00
04
04
04
fb
00
09
fd
f8
00
08
05
fc
f9
ff
fd
fe
00
fe
f8
fb
01
fb
05
01
06
00
fe
00
00
01
01
06
ff
fc
fa
f6
fb
00
fb
00
00
07
00
00
01
08
06
08
fd
06
fa
fb
07
03
05
04
fd
f8
fc
fe
04
f8
fc
ff
00
f8
fa
f4
03
01
00
ff
02
fd
06
00
fb
05
05
ff
03
fd
01
04
04
fe
00
06
fd
03
fd
fc
ff
f2
00
fc
fd
f6
ff
02
00
f6
fc
03
fd
00
03
fe
06
ff
00
03
03
fb
ff
fd
01
f6
fb
06
06
fb
fc
03
03
06
00
0a
01
f9
ff
fc
fa
00
fd
fa
f9
f8
fd
fa
f9
fe
02
00
00
fc
02
00
01
04
00
00
07
01
ff
02
fd
05
02
00
05
01
0f
04
fe
f4
00
fe
fc
0b
03
08
08
02
00
fc
fc
fa
03
07
03
fb
f9
05
0e
fc
fd
0e
00
f6
fb
f5
fa
fa
fa
02
fa
00
ff
02
f7
0a
04
ff
04
07
fa
04
08
03
f7
fd
f6
fc
03
00
00
00
00
f9
00
02
f7
02
06
f8
ff
fa
07
fa
02
fe
f9
05
fa
00
ff
fd
f3
fa
f9
fa
ff
fa
fa
fe
05
fc
03
01
02
0e
02
09
04
07
fd
ff
f5
fc
fe
fd
ff
fe
f8
00
03
fc
02
f8
f6
fe
fa
fe
fe
ff
ff
f8
05
fd
fe
ff
fd
01
06
fd
00
f7
02
ff
fb
f9
fc
02
02
03
fc
00
03
fd
04
00
fe
ff
f9
02
fc
06
04
fa
00
fd
fe
08
06
fe
fc
fb
fc
04
00
ff
f8
02
fb
01
fb
01
00
ff
01
03
fc
00
ff
fd
f9
ff
fb
00
fe
03
00
00
00
f7
04
01
f6
fa
00
f8
04
01
01
0d
f9
ff
00
fc
fc
fc
fb
07
06
fc
f8
06
f9
00
06
04
fd
03
00
06
fb
ff
03
00
01
fe
00
fb
f9
fb
fa
ff
fc
02
fb
06
08
00
04
04
ff
fc
fc
00
02
fa
fe
fc
f8
07
09
ff
fc
06
04
06
00
fd
fb
04
00
fb
03
01
01
03
00
01
fe
ff
00
05
01
ff
01
fd
01
03
00
02
ff
fd
ff
02
05
f8
03
05
fc
04
f9
00
03
01
fa
fd
11
08
05
13
00
ff
04
06
00
fa
fc
f7
07
ff
ff
00
01
fd
00
00
01
fb
00
f9
02
01
05
00
fc
fd
f5
f6
fc
08
06
fe
fe
04
fb
06
04
fb
04
03
01
fb
f8
f9
02
01
03
02
04
fa
06
01
03
07
fd
fb
0c
fd
fc
fc
fe
fd
00
00
03
01
fe
ff
00
fd
0a
fa
01
f9
fe
00
00
fc
fb
fd
fc
f6
f5
f8
00
f6
fd
fe
fd
ff
ff
fe
03
fd
06
05
f8
ff
09
05
01
05
fb
fc
fb
06
f9
05
fd
fc
ff
05
fe
fe
05
fc
01
ff
06
03
fa
04
fe
06
ff
fb
00
00
00
00
fb
fc
ff
ff
00
01
ff
01
00
02
08
05
01
fe
08
01
00
ff
04
03
fe
08
00
00
06
00
00
00
04
fb
06
02
f9
fc
00
02
05
04
00
fe
01
fe
04
04
01
04
fc
fd
ff
05
02
00
03
fc
04
ff
00
fd
00
fc
ff
00
fb
02
04
00
00
01
fd
02
04
01
f9
07
03
04
00
ff
03
f9
ff
02
ff
00
05
fc
fe
04
06
0b
00
fd
00
f9
f8
ff
02
00
fb
fe
fd
02
02
f9
fc
fe
fb
00
fd
04
ff
06
02
00
00
01
03
01
fb
00
fe
fb
f9
02
00
fc
f9
ff
03
fa
00
f5
f7
03
fc
01
fc
fd
ff
fe
fd
fa
00
00
03
05
04
fb
fe
fb
03
00
fd
fc
fd
05
ff
fd
00
fd
fe
fd
fe
fe
fa
02
ff
00
fe
03
04
03
f8
f9
f9
00
fd
05
02
00
05
00
04
fb
00
00
fc
fb
00
00
00
07
fd
04
ff
fe
05
05
07
03
00
01
01
01
fe
02
07
00
00
02
06
ff
00
fd
02
fd
01
04
ff
fd
ff
fd
fa
01
fb
ff
01
04
fc
09
03
01
02
07
04
00
01
02
09
09
ff
0a
00
04
f8
00
f8
fd
fe
fe
01
fd
fc
06
fb
fe
ff
fc
02
00
fa
fc
02
00
fb
02
05
00
fe
03
fc
03
04
01
00
02
fc
ff
ff
03
fd
fb
fb
fd
f9
fd
02
ff
01
02
07
06
08
08
04
02
ff
ff
fd
04
06
fa
fb
fe
ff
00
fa
05
04
05
01
07
03
00
02
02
02
00
fb
fe
05
05
04
00
03
fb
01
f9
f8
00
02
fb
00
01
04
03
00
04
fa
07
ff
04
02
fd
fe
fe
01
f8
f4
01
fe
f8
05
00
02
03
00
fc
05
01
02
02
00
ff
f9
fc
f8
fd
fe
00
fe
ff
04
ff
fd
ff
fd
fa
00
fe
fa
04
fc
f8
fd
fa
01
05
fa
02
03
ff
fc
ff
01
00
06
fb
fe
fe
07
01
00
06
fe
03
f9
03
01
fd
fd
02
00
04
03
08
0b
05
05
01
01
fc
fc
04
09
05
ff
03
03
ff
07
01
02
fe
fe
fc
04
fe
05
01
03
fc
03
ff
05
01
fc
02
fd
03
fb
00
fc
fc
fb
06
03
00
00
00
03
fe
07
00
02
ff
02
02
03
00
03
03
fd
fc
fb
ff
04
ff
01
07
ff
00
ff
00
02
fd
fd
00
01
04
03
fb
04
00
00
fe
09
08
fe
01
0b
01
f8
ff
ff
02
ff
05
00
ff
fc
fd
fe
fc
fe
00
fd
01
f8
00
ff
02
fa
03
06
fa
f9
fd
fd
fc
fd
fe
fc
fc
fc
fa
f9
ff
02
fd
fd
02
fd
fe
06
04
06
fb
00
fa
fc
fc
04
fd
00
ff
fd
02
05
04
05
fe
06
01
05
02
05
fc
fe
ff
fd
01
f8
fe
fd
05
ff
05
f9
05
fa
fa
fc
03
fd
02
fa
00
fb
f8
ff
f9
ff
ff
03
fa
02
00
f9
f9
fb
fc
01
fd
0a
0e
06
0f
0e
06
0c
0b
05
03
ff
ff
ff
05
fb
fa
fc
fe
fd
fd
fe
fb
fe
fa
04
00
fd
f8
02
fa
fc
fa
03
00
f9
00
fd
01
03
fe
ff
01
04
03
ff
f8
00
f7
fe
fb
01
01
fc
fb
04
06
02
06
05
00
01
fe
ff
00
ff
00
fd
fe
01
fc
03
03
ff
01
ff
02
03
fd
fe
fa
fc
02
02
fd
02
ff
fc
fc
fd
fc
fd
fb
01
01
03
04
fe
fe
fd
fa
00
06
09
08
03
fb
ff
00
fa
00
03
01
ff
01
08
fd
07
fc
fd
fe
04
03
01
07
f9
fd
02
fd
00
04
fd
05
05
fa
03
03
00
00
fe
05
08
fb
00
00
03
00
00
fe
fb
00
02
01
06
fb
00
05
fc
fd
fd
00
fd
00
02
fd
06
ff
02
07
01
f9
01
fe
f8
f7
02
02
fe
fb
fe
03
02
f9
fe
02
fa
fa
03
fd
00
06
02
fe
00
fe
ff
09
02
04
04
fa
04
fe
ff
f9
00
fe
03
fd
00
ff
07
fb
ff
fd
00
00
02
ff
04
00
f8
fc
fc
03
01
f8
00
fe
ff
fb
fb
02
fd
07
07
06
01
06
09
fe
00
07
03
fc
f7
fc
00
fc
03
00
fc
fc
01
fd
f9
00
02
05
04
01
00
fb
fd
01
fb
fd
00
00
fd
ff
00
fd
fd
03
04
ff
fc
03
fb
f5
f9
fb
fd
fd
fa
00
f7
02
ff
04
ff
03
fa
02
ff
fb
fa
05
03
fb
fe
fc
ff
02
fb
00
f7
f8
fc
f9
fc
00
ff
03
fc
00
fe
ff
fd
00
fc
00
00
fd
00
fb
fe
00
fa
fb
01
fb
fc
f9
00
ff
fb
fc
00
00
00
f8
09
04
fe
fb
fc
01
fe
ff
00
fe
fa
fb
04
04
fe
00
01
ff
fd
01
fb
02
fb
fd
fc
02
fb
01
03
00
04
02
03
05
00
02
00
fa
fe
00
00
fe
04
03
fe
09
fe
02
04
0b
06
03
02
04
04
02
fd
fd
00
fc
ff
00
fd
f7
00
03
06
fc
03
07
03
00
fe
01
fd
fc
fe
fe
02
01
fd
01
fe
07
fe
fc
05
04
fd
00
fb
fe
fa
fb
fa
00
fd
fb
00
ff
ff
01
fa
02
fd
00
fc
04
03
fa
00
f8
ff
00
fb
05
03
00
05
04
04
06
fd
00
fa
01
00
fe
fb
fd
00
fc
04
00
05
fa
f9
f9
f8
f8
fc
fc
fc
f8
fc
00
03
07
01
fd
03
fb
03
f6
00
f7
04
fe
fe
09
05
fe
fa
ff
f9
fb
02
fa
fa
01
fc
fd
fd
ff
00
04
ff
ff
01
05
07
02
00
05
02
ff
05
03
04
f8
fd
fd
fe
00
04
00
02
03
01
fa
00
fc
01
fe
04
ff
06
ff
08
02
fe
03
fd
fe
fd
04
01
ff
ff
05
fe
03
fd
04
fe
fc
fd
02
07
fa
04
04
f9
00
05
fa
06
02
fb
00
03
00
00
01
04
02
fe
ff
03
00
ff
fd
fe
00
f9
ff
01
fb
ff
01
fc
fd
ff
02
00
f9
ff
01
fd
04
03
04
fe
fd
fe
fd
fa
00
00
07
fd
fb
00
01
02
00
06
ff
02
fe
fe
fb
fe
04
00
fd
00
fd
06
00
07
02
0b
00
02
00
06
05
fc
00
03
01
fc
01
06
03
fb
08
fe
02
fe
00
06
02
00
05
09
00
02
03
02
01
fe
01
03
02
04
fe
fe
06
00
03
fe
03
00
fd
02
02
fc
fc
00
01
05
fe
fd
fc
01
03
00
fd
00
03
05
fa
fa
ff
fb
fd
02
fd
05
fd
05
fd
06
00
00
03
fc
04
fc
02
fe
06
fb
00
fc
09
00
09
fd
ff
fd
01
02
f9
fc
05
fb
00
f9
fc
00
f8
fe
05
00
fa
00
02
03
01
ff
fc
02
04
fd
02
00
00
00
ff
fb
01
f8
f8
01
fd
04
04
fc
fc
fe
fc
fd
01
07
02
00
01
00
fd
02
fb
fe
06
fe
08
05
05
ff
fa
fb
ff
00
fd
00
fd
01
00
fb
02
01
ff
05
04
fa
05
04
fd
01
fc
00
00
00
02
02
02
fe
fe
01
03
00
03
00
fb
fb
fa
03
02
00
07
01
fc
00
fd
f9
00
f6
ff
f4
ff
06
09
00
fc
fe
fd
fb
04
01
02
02
fb
fe
fa
fd
fe
f9
02
fb
00
02
05
04
fb
fb
03
01
fd
02
04
0a
fd
01
02
fe
f9
ff
01
08
00
04
ff
fe
f8
01
00
01
fb
04
02
ff
fe
fa
03
00
00
01
fc
f9
fc
01
04
07
02
04
01
ff
f9
01
fe
fd
fe
fd
f9
01
fd
03
08
fd
fb
04
fc
fe
00
fd
04
fe
06
07
fc
fd
03
fa
f8
fd
00
00
01
05
00
fd
fe
00
fe
fe
fb
01
fd
fe
fc
fe
fd
00
00
00
00
fd
00
fd
fc
00
03
f9
f8
03
fb
02
03
06
04
ff
09
0c
01
00
fe
00
fa
ff
01
f7
ff
00
02
00
00
05
fd
00
ff
00
00
fb
02
00
09
fc
00
02
00
04
02
ff
02
04
fc
f9
fc
fc
fd
03
ff
03
ff
02
05
fd
00
fe
fc
fb
fb
fb
fa
fc
03
f8
fd
00
05
07
00
01
04
ff
02
08
fe
04
ff
fe
fd
ff
fd
01
fe
fd
fe
fd
00
01
00
01
02
03
02
02
fc
06
ff
fa
02
00
01
ff
04
ff
fd
fd
fe
ff
00
00
07
fd
ff
00
fe
03
02
05
00
fc
02
ff
fa
fd
fb
fd
fd
ff
fe
04
fb
f4
fd
fb
fc
04
ff
fe
09
00
01
05
fd
01
ff
02
fc
04
00
02
04
08
fc
08
01
fe
ff
02
00
fe
ff
01
fd
01
01
01
05
09
00
07
08
fc
00
fc
00
02
00
fc
05
00
01
ff
00
00
fb
ff
05
00
03
fc
04
fd
f9
fe
05
02
04
05
01
fb
02
02
ff
05
00
fa
ff
f9
fa
f9
07
03
fe
01
fe
00
fe
fe
fd
07
02
05
fa
08
f8
00
02
03
00
fe
05
04
04
fe
03
ff
fe
fe
00
f9
f6
fc
fa
04
fe
02
04
fe
fc
04
fb
00
03
fd
00
00
fd
00
01
02
00
fe
00
ff
00
fd
03
fd
02
01
07
00
05
07
08
fd
f9
fc
f9
fd
fa
00
fe
00
fd
fb
fa
fb
fd
ff
f9
f6
fe
04
ff
00
fd
fb
01
07
fe
05
fb
06
fc
f7
03
fb
01
00
04
04
07
00
fa
f9
fb
ff
00
00
02
00
01
05
fd
fa
fb
fe
fa
00
ff
fe
f9
fe
f7
00
01
05
f6
fc
fa
f6
05
fa
fc
05
fb
fe
fd
fe
f6
00
03
01
00
fd
00
03
05
ff
f9
fb
fb
fd
01
fe
f8
f9
fc
fb
fa
fd
fa
02
01
fe
01
02
02
f9
fc
04
02
06
ff
00
fc
fd
fd
03
ff
03
08
03
07
02
06
06
00
fc
06
07
02
fc
01
fa
ff
fc
02
fe
fc
03
fb
07
07
03
00
fb
fd
fc
04
00
fe
fc
f7
00
fd
08
fe
00
fc
fc
fd
03
fe
04
04
06
fd
04
fe
ff
01
00
fe
00
ff
00
ff
01
fa
fd
fd
04
fb
01
00
fe
fd
01
07
fd
03
fd
04
fd
00
03
fc
01
01
00
04
fd
fb
ff
00
fd
03
06
02
03
fc
fb
02
fd
fc
f9
01
ff
00
fe
fd
01
fe
f7
03
fa
fa
fa
03
ff
00
fd
ff
00
00
fc
fb
02
ff
03
03
02
06
01
08
ff
ff
fe
ff
fb
03
03
01
01
06
01
03
fc
02
01
04
ff
ff
02
fb
00
fd
fd
fb
01
fb
00
fb
fa
04
06
f9
fc
fc
ff
fc
05
f8
00
00
f8
f8
fe
ff
f9
fc
fd
02
02
05
01
05
fb
04
fc
05
08
03
06
08
00
02
fa
00
06
00
05
05
02
00
02
05
05
0a
0c
0c
05
fc
00
00
fa
fa
02
fd
fb
02
08
fe
fe
05
fe
fd
fe
fb
fa
fe
02
04
ff
ff
00
01
05
fe
00
04
fe
00
fa
00
05
fe
01
fc
fe
07
03
fa
f7
04
03
fc
01
fb
00
04
00
00
ff
ff
fc
05
fa
07
ff
03
05
fc
04
06
02
01
ff
00
fc
00
00
05
00
00
03
fe
02
ff
fd
04
fc
00
00
00
00
01
00
ff
ff
01
fd
fe
f6
fc
00
01
f8
ff
fd
fc
fa
05
fe
02
00
fc
05
fc
00
fe
fb
00
fa
00
fe
00
00
fa
fd
fe
03
01
04
05
04
ff
03
fb
fb
fb
fe
fa
f8
00
00
01
01
ff
04
fb
01
fe
02
0a
fc
02
fd
04
05
00
04
fd
f5
08
00
03
05
fa
f9
02
ff
fb
ff
01
03
03
03
fe
fe
00
00
fb
fc
fd
fa
fb
f9
0a
05
0a
13
04
04
03
07
fc
fa
fb
00
fb
fc
03
ff
00
fe
ff
ff
ff
f8
01
00
00
fb
03
01
fb
fd
01
ff
ff
00
00
02
fe
fe
01
fd
fd
04
05
00
ff
03
fa
08
03
00
04
fc
03
ff
01
fa
f8
ff
f7
fa
03
f8
f9
fe
01
04
fa
05
04
01
f9
ff
02
ff
03
04
05
01
04
03
04
09
04
08
00
07
05
05
02
03
fd
f8
03
01
fe
02
fd
ff
00
00
02
00
ff
ff
00
fa
fc
00
fc
00
05
03
00
04
02
03
03
fe
02
03
08
fc
fc
05
05
05
00
fe
00
ff
00
fc
02
00
00
00
ff
f8
fe
f7
f0
fb
ff
fc
04
fc
fe
fb
fc
f7
f9
fe
fb
f6
f6
fa
f5
f8
01
00
fc
ff
04
fc
02
fd
fc
fd
02
fd
04
07
00
fc
04
ff
00
fd
ff
05
00
01
02
fe
01
04
03
05
03
00
fd
02
02
f9
fe
03
00
f9
07
fe
02
0b
02
00
0c
07
fe
04
00
00
00
fd
f7
0a
00
01
02
fc
02
fd
ff
02
f9
fc
fa
00
0a
0a
ff
09
04
05
07
06
01
fd
02
08
f7
fe
05
fb
fa
00
ff
00
fd
fe
02
00
f4
fc
ff
fd
06
03
00
06
04
02
02
fe
01
02
02
00
00
00
ff
fc
fe
fe
fc
01
f9
f4
ff
01
fb
fd
fb
fb
02
fe
fd
01
04
00
01
00
04
00
03
05
00
fb
fb
01
f2
06
fb
f7
06
f8
f2
08
00
ff
00
f5
f9
fa
f4
f1
f7
01
fc
02
fa
02
fa
01
fd
05
f9
fe
03
04
08
02
00
fb
fc
07
01
03
02
03
05
00
f6
f9
fc
04
04
f7
01
f9
f6
fc
06
f5
f5
fd
f7
fe
00
00
f7
fd
fb
00
07
03
00
08
07
00
00
04
00
fa
06
f6
02
05
00
00
05
05
04
06
03
03
fc
03
fd
fd
ff
00
fb
06
06
03
fa
fb
06
fa
01
00
fd
fc
01
ff
02
00
fd
00
00
fa
fd
fe
04
fd
05
f8
fb
02
fe
fe
fb
02
fa
02
ff
fc
f9
ff
fd
03
fe
fc
f9
f4
fe
f6
fd
fc
00
00
fb
05
05
10
00
02
02
01
ff
05
f6
fd
05
fc
01
06
fc
00
00
00
fe
04
00
00
fa
fd
05
03
f9
fc
00
f5
00
0e
fd
fe
fe
00
07
02
00
ff
04
03
f8
fa
fc
00
00
fb
04
08
f5
fd
00
fd
fc
09
fa
fd
fe
ff
f5
f7
ff
03
01
04
00
00
05
00
01
00
fb
fb
02
fe
ff
fa
fd
00
00
01
fc
ff
fa
fb
fe
ff
02
04
04
0d
f6
f5
06
01
f4
01
ff
01
fb
fc
fb
fe
fe
fd
fb
00
fc
00
01
05
05
02
fc
f8
fc
ff
00
f9
fe
fd
03
00
ff
09
07
0a
07
0a
05
02
05
00
00
f8
06
fa
fc
ff
01
fd
05
fb
00
fa
fa
02
01
01
04
00
f5
fd
02
f9
f9
07
fe
ff
fa
fb
03
fb
04
05
f9
07
05
f7
f4
00
00
f5
f9
00
fb
fa
fc
07
03
01
fd
fb
05
01
fc
0b
fe
00
00
00
03
00
02
00
05
fe
01
00
fe
01
00
fb
01
00
00
04
03
fb
02
01
00
fe
fb
fc
fb
fc
fa
00
fa
04
ff
fb
fe
00
06
ff
03
01
0a
fa
01
fb
f9
f7
f4
f8
01
fb
f5
fb
06
07
04
05
fe
06
05
fe
03
f8
f9
fc
f9
fc
01
05
00
01
00
02
05
03
fd
fa
fc
00
fe
fd
01
00
fb
ff
00
00
00
fe
00
03
ff
fc
01
fd
ff
03
01
f5
00
00
fb
02
ff
ff
fc
ff
01
00
03
01
00
fa
fe
fd
02
fd
02
fb
fd
ff
fc
03
05
00
fd
fb
f9
fa
fa
02
02
f9
ff
00
fe
ff
01
f8
fc
02
05
fc
03
f8
f9
fa
f8
f5
00
f7
ff
01
f9
01
03
ff
00
06
fd
fe
fa
fa
ff
f5
f3
fb
04
00
00
fe
04
01
fd
02
ff
fd
00
fe
00
fa
02
f9
00
01
00
fb
ff
00
f9
07
fc
ff
02
00
fe
04
05
08
06
00
fe
02
05
00
fd
ff
f9
fa
fc
fe
fc
fa
ff
fd
04
00
07
f9
09
05
fe
fb
fb
fb
02
fa
02
00
fa
01
fc
ff
00
f9
08
00
fc
02
06
07
06
00
02
0b
fe
fc
00
fe
03
02
f9
fa
04
f8
fe
03
fd
f9
01
08
0a
06
00
02
05
05
0b
04
fd
00
ff
fc
fb
00
fd
fe
07
fa
ff
fd
02
03
01
04
fb
08
01
00
f4
03
f9
01
00
fe
fc
02
fd
fa
fc
fd
03
04
fd
06
fc
05
fe
03
fd
04
fc
04
01
02
f9
00
00
00
0a
00
f6
fc
01
01
fc
05
fc
02
0a
fa
ff
02
fe
00
02
03
fe
f9
f9
fb
fd
06
01
fc
02
03
00
f7
f6
fe
fb
ff
01
04
ff
01
ff
fe
00
fa
fc
00
f6
02
00
02
00
fb
fa
02
f9
fd
02
02
ff
fe
ff
01
00
ff
02
ff
05
fd
fc
05
fc
ff
fc
ff
00
09
00
01
01
fc
02
03
00
02
0d
01
fa
00
fe
03
00
ff
ff
