27
ea
f3
7a
dd
ab
2e
fc
d6
22
e7
f5
60
e4
bf
16
f7
f9
21
e0
01
63
de
c2
0d
fd
f5
19
e1
de
0b
0a
db
0c
04
dd
d9
e0
e9
a7
fb
e4
c6
d1
d3
22
27
35
f4
7d
58
17
48
4f
06
0d
1d
ef
03
2a
0a
d3
13
10
12
22
20
0d
1c
29
06
29
00
b6
cc
ee
b0
c9
0e
ae
dd
30
23
19
16
2f
30
f7
13
fe
28
f9
f0
f8
ef
00
e7
f8
f8
2b
e5
de
f7
e1
ec
fa
ec
da
eb
fb
08
ed
f0
ee
10
01
14
fe
e6
f7
f8
f9
ed
2f
0f
0d
e4
ef
ee
00
ed
ee
17
10
09
33
ec
2c
f2
c0
13
f3
d5
f0
eb
d9
12
e0
c4
06
09
f7
03
0d
f8
03
fc
fd
02
f7
03
ea
80
b9
e8
5f
39
00
60
20
08
91
e9
1a
3d
22
f3
15
ed
06
80
c2
16
30
2c
ef
3d
09
f7
f0
04
1e
ca
f5
40
c9
21
12
d6
07
21
bb
03
45
cc
1d
10
d6
00
15
ba
06
3a
c9
2e
0f
d6
cc
cd
87
80
bf
b3
80
c8
0d
30
0d
fd
00
24
10
f6
23
25
60
ff
6c
7f
31
3a
6e
28
f0
08
10
19
0b
11
09
24
1b
ff
fe
d5
08
00
0c
fd
e1
f8
f0
0e
0a
d4
1b
de
2c
0a
23
80
2b
a6
b5
dc
43
3b
2e
64
00
7f
0c
ce
a3
27
f6
9a
0a
73
7f
e6
2b
9a
f1
1f
85
a2
6b
3b
3c
33
f5
fd
83
8f
ee
4c
0d
01
38
ea
f9
ba
b4
fb
0b
03
f3
27
08
e3
e9
f0
0e
0d
6a
35
2e
7f
5c
ee
3e
16
d9
ab
c6
ec
b7
cf
08
fb
f5
11
d4
f9
dd
a5
e9
1a
fa
f6
28
5a
ea
f2
bf
ce
08
c8
dd
36
76
13
22
12
33
31
1d
2a
af
1c
fc
c4
95
f4
ce
ce
fd
0f
80
15
ec
0a
06
03
d4
05
19
a2
0a
0c
37
2f
10
ec
01
15
be
09
1a
49
22
ff
0c
0c
f0
ee
dc
ff
04
fb
0c
1a
00
04
06
25
27
04
32
fa
0d
11
14
06
36
e1
ef
1b
ea
c5
da
