03ca
fe28
2ad9
2327
161d
1156
277a
fa2a
0509
0e6f
eb9d
24d7
1626
1cac
1d2a
2a07
15ab
004c
19cc
f429
249d
16e0
f091
1845
197a
f679
0db3
fca9
38cd
d2dd
1653
15f7
2ca4
0267
0c14
fe4a
f6b9
441e
0358
25a9
1794
2746
199a
0b65
f762
2c37
126e
1448
0c34
26f8
414f
1b9a
d8f9
1d9b
f77b
1f91
01f6
1611
1597
ee0c
118d
3571
0fc6
182c
ff4d
266c
20b1
407e
0c71
4d6e
1548
dab4
3013
0d1f
f56d
2564
f72f
3c15
d71e
0849
ff0e
21c7
00a9
146d
1af2
0b4f
d4e1
2b62
2842
f1a8
22ab
292f
f1a3
3054
1e3a
fc12
e8b6
2643
04bf
0a45
059b
24f4
fbf4
0ea8
404b
14a2
3bde
3cb5
1fc9
211c
04c9
1aaf
140f
fff4
242c
49a5
ff63
e71d
355e
0d91
0153
0ada
ef0b
1668
1b7b
1b62
001a
211e
3390
2afe
f4a5
16b6
191e
f5a8
0991
53bf
3153
2275
2845
e631
26a2
22b5
0e54
204e
f4c2
2f2b
2fa7
4e05
18da
1b69
05d0
1d34
34e1
3a77
4ce3
0a52
e272
f618
1b4b
1714
dabb
1583
25dc
1d51
2be7
0ba9
04b5
fba6
f0f5
e0f3
deae
2537
198a
13a2
3076
125c
36eb
0fb0
f6b0
13b9
f16e
f5f4
ff9c
34fe
428c
1585
188b
0a27
2907
156c
5937
3c7f
0abc
1263
0bed
1e74
2f2d
06d8
f80d
0f73
18d2
01dc
2c1a
009a
f8cf
5cbb
24bf
36e9
1065
268c
1409
253f
10b8
18af
339e
f42a
ece0
fcb5
ea02
26d9
0ee4
3423
0736
38ff
08ca
25e4
2495
1702
2877
12ce
023c
2957
08e5
1c55
070f
ea41
e367
27fd
2aa7
0230
0a08
e541
0457
019c
2c80
fa41
0965
fea0
1e2e
2b37
fc68
017f
14bc
07a2
26ad
1d6a
