1ec5
4e5a
3a19
2868
5ea1
7fff
7fff
e53d
3e4f
7fff
09c7
7fff
295e
37ea
2da8
73df
b874
2e41
6871
10c3
3260
f99e
8000
0f31
1baa
3019
3954
d170
1a20
4bf0
50b3
12f3
6388
8be4
e8e7
7fff
a225
3398
db7d
2e5c
463f
609f
6206
23b7
8fc8
355a
4f9c
1796
117f
7d57
7fff
2a71
23de
102b
01c7
225a
2c09
7fff
1db4
246d
f21e
5f6b
f950
0567
4603
06dc
e0ba
3473
1793
5002
2474
498e
34b5
5b6d
4106
1285
093d
0fec
0c70
c725
059d
fb8e
8ad6
c32d
3be4
e41d
31fa
224b
1b16
299f
e80d
1f00
d776
f7b3
513b
cef9
55a9
0756
5143
eae8
2c6b
8cd5
4bfc
fe0b
f8fe
eb47
0c8a
7662
02a6
1a35
0e73
c61c
3ebc
0184
f88f
7fff
e871
0d70
86fd
7fff
f66d
6d0c
5f13
d4ed
27bf
6503
eddd
0a9b
