fa76
0049
14e5
06e7
e419
4546
21c5
0c90
1dff
149a
2807
32a5
38f7
073a
0c9e
4143
2ca2
283d
1777
2ba6
f084
356c
1047
39ba
1395
0f47
f891
1c92
161a
2a42
2dd0
1e2d
1f03
078c
1b47
01e7
1389
14be
1faf
05b6
2855
0f1f
29bb
43a8
300e
1384
277a
06d2
f784
27e8
0f51
2aa6
1d54
2b4c
3554
20ab
18b7
2a8a
3a70
177c
2e52
2571
2ad4
24d9
185f
20c5
3b2c
276e
0135
3cab
193c
2c14
0281
1996
fc14
0da5
0263
f926
0f1b
0006
2c6e
0121
413c
1a7c
122d
1db3
2be6
f5a3
102c
0e4d
11ad
6407
03ba
250c
190c
2602
efd2
2d07
0577
3305
2a74
0b3b
e0c8
0576
2aa5
40ce
1dff
2535
09a0
24da
2a43
35f7
113f
132d
0a6a
3179
066f
1a71
3b56
0e54
f602
0659
0bb2
13a1
254b
0764
1b99
176f
