003a
042c
0023
093f
d8b7
fe2e
fbcc
fb67
fbf2
fd10
fed0
fe0f
fecb
01b7
faff
fd47
fe57
febf
fdfb
fcdb
fb02
fddc
fe1a
feac
ff3d
fde6
fb8b
fe9f
fc74
fc4b
ff41
ffec
fbb4
020e
fe88
fc06
fe7d
fc7d
fd5c
fdba
fe9a
ff26
fe3c
fe59
ffc3
fb81
fcd8
fdf0
fce2
fdd5
fde0
fd2d
ff10
fd48
fd5c
fccc
007f
fa98
fd58
fe4f
0008
fc32
0003
fc6b
fb77
01c7
ff70
f792
fe90
dfec
fe62
fba9
fbdc
fc63
fc56
fd30
fe2b
fe54
fe89
fc4d
fd6b
fea6
ff0b
fdb1
fc40
fb7c
fc8d
fdd0
fd59
ff63
fbfc
faec
fd63
fd16
fc2f
ff69
fd0d
fc25
ff3e
fc72
fcc0
fe32
fc17
fbfa
fd1c
fd0d
fdaf
fdea
fdc6
fdd4
fc51
fd59
fd61
fb9f
fc83
fe69
fccc
fdb3
fe28
fce9
fc34
fe14
fb20
fcac
fd76
fddd
fbff
fd03
fcf9
fbad
ff66
ff61
fe82
ff2c
e3f4
fe8c
fe5b
fe28
fe6a
fded
fe0f
fe0b
fe56
fe32
fdd5
fe71
fe91
fe82
fdd2
fdc9
fdf8
fde4
fe73
fe56
fee7
fe44
fd97
fdc1
fe47
fe1e
fdce
fe36
fe33
fdfe
fe1a
fe46
fe06
fdf7
fdca
fe6d
fe26
fd9d
fdbb
fe52
fe96
fe22
fe3f
fda8
fe28
fe29
fe4c
fe47
fe09
fdf5
fe59
fd7c
fe86
fe3b
fed4
ff17
fe32
fe43
fd97
fe3f
fddd
