02000200
fffafe06
ff00fffa
0000fbfd
f60000ff
fefafe01
0400fafe
ff01fb01
01010200
03fffefd
0002031c
00fafeff
fd000402
040300fd
ffff0202
0403fe00
01030000
00fc00ff
fffdffff
050200fc
0300ff03
fe000402
00040102
000c0000
fb020704
0000fefd
0003ff03
02ffff00
fc00f800
0305fc02
00030a03
fe000101
06fc0500
030003fd
0204ff06
01fe0200
00000104
fefd0200
010003fe
0102fd01
ff020000
00fd0200
000000ff
ff020200
0002ff01
00fdfffe
fefefe00
00fe0002
fe02fe00
fb02fefe
fdfcfefd
00fffe01
fbfe0100
fffa01ff
02ff00fd
03020404
03040001
00050301
0000ff00
fffafd03
0100fdfe
f9fffef7
03000100
000000fe
0c0100fe
01020002
00030003
fd02fffe
00000000
03fffe01
fcff0100
02ff0101
faff01fb
fffa00fd
02fe04ff
fc0304fe
0001fe07
ff000500
00000201
000002ff
00000106
fd02faff
f3fd00f9
00ff0202
fffffbff
020401f9
fefdff00
00030302
fc03fd01
01040200
00fe0501
000000f6
fbfdff00
01fdfe00
fffc00fe
fefd01ff
0100fb00
03fe0004
01000001
fb01fc04
fdfe00ee
fcfc00ff
fb050200
ff00feff
ffff00ff
fb000202
00fb0202
00020001
02feff02
04ff0103
00fe0003
0101ff03
fe00f901
01050900
ff00fa05
fffe00ff
00000000
fe02fdfe
000001f9
fe02fa01
0000fffd
fcfd01fe
00fa00fe
faff0102
0707fafe
05030100
fefe0000
ff000007
02020100
04000201
01000508
00fefd02
fffeff01
0a000405
fd02fe00
04010100
00010203
00fc0102
01040104
02ffff00
04050101
fb030202
0200ffff
ff00ff01
ff0609fc
02ff0006
fefb0200
01fbf500
0002fffd
00fc0004
fffffe00
fdfd0000
fffdfc01
00030201
03030200
0002fd04
01010001
fbff0105
fffdff00
0002fe00
0300fc00
ff030001
01fe00f9
010601fd
010100fd
00010001
fe0201fd
fcfb00ff
00fe0403
ff00fe00
00000301
fe030001
fd000200
fef90300
02fcf2fa
ff020300
fffcfc00
02fdff00
f9ffffff
fe0002fd
020101fd
00000509
0000fe00
0003fd00
02020000
04080002
0002fe00
fefd00ff
f8f9fc01
fefdfd00
02fffefe
01000000
01010608
0000ff00
0300ff00
00020602
fe00fdff
fdfcfe03
ff00f600
ff00fff0
00040400
00000001
00fdfe01
0000fb02
fdfbf8fd
0203ffff
fefdfc00
0200ffff
00feffff
fcfefcfe
ffff0900
00fdfffc
fffe0000
00feff00
f80001fc
00fd02ff
00fe03fe
0104000b
0002fe02
03000005
01fffffc
ffff0000
03060503
0105fe03
fdfd0000
000303ff
fe02fb02
01fd01fe
00ff0100
0302fd01
fefcfe02
fdfe0504
fafafbfe
00f90001
05ff01fd
0401000a
010002fe
fbfefffe
faff00ff
fefb00fc
fc02ffff
05fafffe
fd00fe00
00fd0002
fe00fefd
0000fe02
ff020406
fc000000
01000000
00020600
fd01fffe
02060101
030200fc
02fd0500
00fc00fe
05000003
0107ff02
fff5fd05
feff0002
f7fa01f7
00040100
0000fb00
ff0100fa
02000201
00050200
f9fdfffe
f9fa02ff
0000fd03
07030104
0106ff05
fcfe0302
01fcff05
000000fe
0000fc00
fdfd0000
fcf9f8fd
f500f800
06fbfefa
fe04fe04
02fdfc01
ff0000fe
ff0300ff
01fdff00
00fefffd
03010103
02010200
03010201
0006fb01
fd000000
ff0401fd
00ff0400
03fefc03
00000203
050c0702
06ff0201
f60005fb
fafcfdfe
00030202
00fd0002
01fb0000
03fffbfd
070001fe
02040200
03030500
ff040104
fffd0000
fefefcff
fbfd00fe
ff010200
fdfcfbfe
fcfffcff
fdfd0101
fc000301
f9fbfdfc
fffcfefd
05ff01fb
02000307
010100fe
fe00fcfb
030300f9
040efe04
fd0006ff
020101fd
0005fe00
030103ff
04020201
ff00fe00
fbfdfefd
01000000
ff000500
00010303
fefe0003
00020202
05020207
04fdfffe
00010101
04050005
00000507
000300fe
00000401
fffe0201
fcfdfeff
030202fb
010100fd
00f90afe
0000f0fd
fefe02f8
02fe02ff
00000003
00010301
00fc0100
06ff0101
0403fe00
ffff0700
fdfe0002
ff0500fc
00fefe00
0001fe05
fb01ff00
000000fe
fe0200ff
070001ff
ff010100
0301ff04
00000206
01ff0100
06ff0400
07040101
0000fc06
0100ff01
fffe01fe
000201fe
0002fe01
faf702fd
0105fffe
00ff00fe
f9010001
00ff0100
0502fa05
fffffffc
020400fc
0100fa00
fb0203fe
03040002
ff0303fe
08fe00ff
00000000
02010002
0000fe01
02fd01fd
0000fc01
01ff01fe
00020503
0602fe03
04ff00fe
01010101
00fc00fe
ff06fc05
00030002
00ffffff
fd000000
0200fe00
00070500
fc0000fe
fefa0000
0201fe00
02000000
fdfc0002
0203fe00
fcfd0001
fcfffffd
0900fe04
01010206
fc000004
00fbfefe
fefc0101
fdfffefd
04fefd00
01020103
03030501
00020302
10fe0304
fe01fb04
fffdfe03
000000fc
00fefa00
fd03fbfd
f902fffc
fdecfb01
0004fc00
01ff0001
fdfc0000
ff000400
01fffffe
020704ff
0001ff00
fe0101fe
fffc0202
000302fd
05fc0409
fe02fc01
fc00fafe
00f9ff00
fffd04fc
fc04fd03
0400fffa
02030401
00fe02fc
01030002
02050203
fd0002fd
0100ff04
00fc0202
fdfe0000
0405fe00
fe030300
01000106
02010102
02fd0202
01020005
0001fffe
fffa0101
fb02faff
0502fdf6
02fdff01
fefefcfa
0200ff06
00060200
0101fffe
05fd00fe
fd00ff00
00fefc00
01ff0200
fd0301fe
fefd0001
fe00ff00
ffff0000
00020703
fafb00ff
02fb00fe
0000fefc
01fc0000
00fcff00
000100fe
00fe0000
0000feff
fbff00fd
fbfefcfd
ff0000ff
00faf9fd
01020002
fef5fffd
00fffbfd
02fc0405
0000ff00
0300ff00
04ff0000
fe03feff
fe0004fe
fffc0001
0405ff00
fd020200
fa070005
03030302
05050405
fbff00fb
fdf9fa00
feff00fd
f9010001
00fdfe02
03020b03
04020001
01020101
fefffcff
00000001
00fe0000
03fd00ff
fdf70000
051201fe
feff0eff
fcfb00fe
03000201
00030603
fe0001ff
ff0000ff
00fe0000
00000100
000000fd
fe050100
0e0101fe
fc000603
0100fd01
fbfcff04
00000000
02ff0408
0000fffe
fdf7fc00
0002f4fe
fefdfffc
fffffe00
0001fffe
fcfdfe00
0003fc02
0004100a
00fe01ff
fe000002
01fdfdfd
00fffe00
ff0002fe
040405ff
01000103
0204fe00
04ff0102
f80102fe
00fa0100
01ff0000
fc010200
00090400
fff900f7
fdfbfe04
0000fc00
00020500
02fdfffe
040a0503
fc00fffc
0d070100
ff03fe05
00000203
fefffdfc
fcf900ff
ff00fe04
ff04ff02
ff000302
00000205
06010000
030801fe
04ff0106
00ff0106
0103fcfe
fe00ff00
020100ff
fd0003fc
03fd0307
fbfc0001
01fffcfe
09fd0901
0102ff0e
fb020300
fa000001
f9fb0104
fefefffe
03fffeff
0000ff00
0100f900
08fd0000
00090002
00fd0201
02000103
fdfe0000
fefdfbfe
00fefc00
ff010100
fe01fe02
00fe0003
0000fe04
000401fc
0305fd00
02000103
fd060400
01fdff04
02fa0300
0100fe02
01000501
02020303
fe000200
0100fefe
000002ff
01fcff00
0101ff00
00fa0200
01fefb00
00000302
01020101
00fe0704
f9fe0404
0102fdff
0202ff05
fb000005
fafcfefb
fe000100
fe000102
fe0104ff
fcfafe01
00fcfaff
fefefffe
fffefd00
11000201
00050205
fdfe0001
fefd0104
01fe00ff
fd0102fe
00ff0200
0001ff06
fe040200
fe0302ff
000000fe
04fc0100
0100fdfc
030000fe
01fc02ff
00ff00fe
050001fc
00010200
02fe0103
fdfeffff
00fefdff
fd00ff03
000402fd
fefd0000
fe000101
0002fc00
03000300
08ff01fd
0005ff03
00000100
0002fdfb
040000fe
ff020101
00030007
01000100
fc00fdff
00fd00ff
fafafdf6
00030000
02010109
03020208
00fe00fe
fefffefc
ff020700
ff02ff00
ff00fbfc
02fc00ff
00010400
ffff00fd
ff020201
0304ff00
00010100
fefa0100
fcfbfdfb
00030103
01ff01ff
02fcfffe
fc000203
fcfdfd00
0401fe00
020002fa
00fc0101
0401fffd
fe00fef8
fcfe0202
01feffff
0602ff01
01030202
01010403
00ff0000
f8fb0005
fffcfffa
fc000001
faf8fdf8
ff00fcff
01f9fc00
ff0000fa
fe0200ff
fefefc02
f900ff00
ff00ff00
0600fefb
fd00fdfd
00020600
fffdfefc
fbfbfcfc
fbf7f700
fcfff8fb
fafdfcfd
fff9fcfb
fe01f8fd
01fe00fe
fe00feff
00fc00fd
02010004
01040003
02ff00ff
02030001
03050102
01ffff00
010400ff
fe0002fe
fe000000
00000201
01040102
01ff0200
ff00fd03
02020300
06000000
02fd0200
fe01fd03
000201ff
02050200
ff03ff02
020001ff
00fa0000
0000ff01
feff050a
010006ff
fdfcf802
fc0200fc
030202fd
0001ff03
fe000002
fbfdfefc
00fffaff
ff000200
00fd00ff
fc020100
02fe00fd
fd00ff01
0004ffff
06000807
00fe0409
ff030100
fb010201
0201fdfa
010503fd
00fffe01
00ff03fe
fefbfeff
ff00ff00
f8fdff00
fefffb00
01fc00ff
00fd0406
0000fd00
000503f9
00000302
ff0600ff
fbff00fb
0400feff
02050302
01000003
00ff0000
00ff0003
fd04fffa
fffd0004
0200fc00
0001feff
00050100
00060703
03ff0102
ff000003
ff0003ff
fafdfcfc
00fefefe
ff00fd00
06fffbfc
000200ff
0201fe01
08030000
0108ff05
ff0503ff
0b020300
00000006
fafcfc05
01fa0000
00fe00fd
00030401
01000500
0203fc00
010000fe
00000000
ffff03fd
0503fe02
fe000400
00010100
fd000101
03000102
04040302
fe00f906
fffe00ff
0502fe03
00fdfefd
00fdff00
030c0103
0000fefc
0105fcfe
0207fdfd
000102fd
fd000300
00fbfefd
0300fefa
f904ff02
fdf6feff
0201fd02
fb0000ff
fdfc00f9
01fcf9ff
00fd02fe
ff01fefc
010201ff
00010102
fdfbfb01
fcfefe00
f90000ff
02fdff00
ffff00fc
05fc0105
0002fd01
00fd00fb
00ff0001
00000100
fb0201fa
06010200
fe00ff04
00ffff00
fdfffe00
03030300
fefe0004
0002ffff
070b00fd
ff0002fd
fbfdfbfc
00ff0001
0102ff00
04010301
01020202
fef90401
09fefbff
00fc0002
0000fc00
fe000400
0100fd00
03ff0004
000200fb
00fefffb
01fdfb00
fe0002ff
fe000200
02fefafb
03000201
00060000
020105ff
ff0302fc
02fd0405
fcfafc02
03fdfd05
01fe00ff
fd02fefd
00fe00ff
fe000300
ff02fc00
05010207
01010100
fefbfbff
ff000200
fcfeffff
00ff0000
ff00fe05
010300fe
01030502
fe020400
00fc02ff
00000002
01000004
ff03fe00
000102ff
05fffeff
01000505
01fe0001
ff000202
0002fe00
00ff0503
07fffe01
fffe0205
03010003
01fe0200
00000000
0203ff01
0001fdff
000200f9
00ff03fc
0100fa00
fdfdfd00
00000000
04fffef9
04040204
fd0000fd
00fcfc00
000501fd
ff000302
fe01fffe
0001fd01
fd0004ff
fb000205
fefeffff
01040001
03ff00fe
fd000100
02fb0000
00fe0000
030401fe
fc0004fd
fefd0807
fefff9f9
fffe02ff
0300fc00
050102ff
03030304
00fffe02
faf90000
0300fa01
fafd0500
0201ffff
fcfffd00
ff00ff00
01fd0301
00000202
0100ff02
fdfffb00
020101ff
fd0401fc
fcfa02fc
02fbfd04
00fb0000
fefbfe03
020000fa
000001fd
000100ff
04000005
02030005
02fe0201
fdfe0004
01000401
ffff0000
ff000000
ff010002
ff010200
02000002
fe000200
0100fe01
0100fa01
ff030203
01000302
00fefe03
00fefefd
00020000
04010000
050302fe
0100ff00
01ff0000
05fe0002
02fe0002
02fe0004
fffffd03
00ff0101
ff0104fe
fffdfc00
ff000002
fd00ff00
ff0300fd
01000102
ff010000
010003ff
fe000004
00000200
fa0001fe
fc00fffd
00fe00fe
0500fe00
000a0003
fefd0400
fffbf5fe
0202fe02
04000001
fb010603
020001fd
050000fb
0000feff
04feff00
01fd00fe
fc00fe00
00020200
03ff0602
fb0200fe
000403ff
01020202
fd02ff00
01fdff01
0003fc00
060100ff
ff020202
00000200
ff040100
00ffff00
ff06ff00
ff000101
03fd0201
03060100
00020401
0004fffe
02000103
08010202
00000002
00000000
ff00ff00
fffefefe
fcfd00fd
00feff03
000600fe
0404fe01
ff0500fb
00fcfefe
0301fe00
03000004
01fc0000
02020102
00000000
fefe0000
fefcf801
00000100
fa00fef9
fffa0000
fdfefcfe
02feff00
ff0200fe
00fd01fc
000001ff
00000300
09fc00f9
0702fe0a
04020000
0300fffa
fe0000fd
ff0004fd
00fd0100
fe00feff
fc000000
fd02fe09
ff0100f9
01010000
0101fffd
ff070400
00fcfb00
00fe01f9
03040001
ff010001
ff050406
01020301
01fdfe02
00fafffa
0203fffe
05010000
ff000000
0000ff02
ff010000
040200fd
fefd0204
fa0001fe
fbfffffa
fc0203fc
01ffff01
fffdff01
fafa0000
0302fb00
fd04ff00
04010402
00000601
fffe0405
fd0004fe
fb0000fe
00fe0500
fefa0006
0001ff03
00020101
ff000000
0000fd00
0000fdfc
fcfdff02
000202ff
00060303
fdfd0505
0000fdff
fdfffdfe
00fcfcff
fdfa01fd
00ff00ff
0401fdff
000002ff
01010200
fefd01ff
ff00fffc
f4fd0404
fff6fefb
fefffffb
07fd0207
fd00ff01
fcfcfcff
0000fffd
020a00ff
00fc0400
06fe00ff
01fdff00
fe00fc00
fb01fe03
00ff01fa
fe02ff00
02fe01fe
01fffd01
0000ff03
fe03fd00
0002ff00
fffd0202
0200fdff
ff020309
fe04fe02
fe000600
030300fb
01fe0200
fffffdff
00fc01fc
fefb0100
00000203
02020001
ff000001
04010304
ff03ff03
fdfb0303
0203fc00
00ff0004
04010001
00ff0104
fd010005
02fbfeff
fcff07fd
020000fd
00fefe00
04fd0305
000401ff
ff000001
fefdfcfb
fefffe00
fffe0100
00fdfefd
00fd0201
040effff
fe00fefd
fd00fefc
05ff0002
f90001ff
03fc0203
03ff01fc
02030007
fafc0100
fcf90201
000100fe
000006fc
00010203
0300fa01
0100fe00
fc000000
fefbfefd
fafd0000
0200fffe
fc000000
01fefdfd
ff00feff
0400fe00
ff01ff03
0004fe02
00fcfffe
00fcfe01
00000100
fd000001
feff0003
02fc0400
04ffff04
0500ff03
03030000
fffdfeff
02fe0000
0001fe02
03fe0304
ff02ff00
fffe0000
ff01ff00
01000100
fffe0000
0002fe00
00fe0101
00fcfd00
01fd0000
0006fffc
00ffff00
fd01f8f8
fffefff5
00000001
05010004
000000fe
00000000
ff030501
00020401
fd01fe00
0101fe00
fd0100fe
fefa01ff
00050203
00fd00fb
02ff0000
04010303
03030000
03fe01fe
01000200
02020002
0100ff01
fcfe01fd
feff0002
00000100
fc01fb00
fcff00fd
ff00fe00
ffff00ff
0402fdfe
fffe0304
fffffefe
01010104
00fcfe00
010000fc
0304fe00
01010203
fe04fcfb
fe000000
fdfaff00
fefd0201
fd02fcfe
fd000102
f9010200
fcfafe00
fcff00f9
04fdfcfd
03fe0200
02fbff00
02010401
fefb01ff
fffcff01
fd030100
fb000101
fc000003
04fdffff
0300010c
05fd0000
0402ff00
00ff0200
05fdff05
03010000
00060304
03040600
00000100
0800ff00
00000301
0000fdfe
fdfe0002
00fefe01
0200feff
fd01ff00
01060301
fdfffdfe
000202fc
0000fcff
ff0200ff
fc000000
fdfefcfc
fefe02ff
fdfc0004
00ff02fb
04010004
00fb03fe
00fffefe
ff02fffb
01fb02fe
fffdfffd
fe00fdfb
05000505
01030002
00fbfbfd
fffefdff
00ff04ff
fc00ff02
02010000
00fefe00
ffff03fd
0202fffe
00000100
01fefcfd
02ff01fa
00000300
fdfdfbff
fcfffefc
fd02fd01
0200ff00
00fdff01
00000000
fffcff00
fd020204
fefdff00
0000fffd
fd010202
01000004
02fcff00
04000204
00fe02ff
04fd00fb
04030004
0106ff00
01010704
000003fe
040101fe
fe00fffe
fe010100
0002ff00
00fffe01
ff00fefe
000300ff
fdfe06ff
fdfa00fe
00fcff00
fd020302
020001fe
02fdfefe
06fd0001
0000fe00
02000300
0000fb04
04fffefe
fe0000ff
fffffe02
05ff0601
fe05fc03
0601fdff
fffe01fe
04030800
00000101
fffd00ff
00fffeff
fffd0302
fffb04fd
fffffc01
0001fe00
ffffff03
fbfdfcff
fd030901
ff020000
fcfcfffe
fe03fd00
fefd00fd
ff020200
00ffff04
fdffff00
04fe0001
fb020300
fefd0102
fdfdfa00
0500fdfe
02040000
02050001
fffef7fe
00010004
0002fbfc
0401ff01
f9faff02
00fdfcfb
06fefdfe
02070001
02020204
fdfc0100
fffbfe00
fdfe05ff
00ff0307
00fd0403
ff0000fd
fefffc00
00fc0200
fefdfeff
030000fe
fc0002fa
0101fe02
0000fd05
fafb0000
fe03fd02
fe010604
03ff0300
fcfdfe02
00020301
05020100
fdfc0100
01fffe00
01000100
ff0cfe02
00020000
04000400
fe00fc02
03ff0305
0105ffff
03f90001
00020001
02060002
fdf80002
fe000100
fdfd03fd
0101fd00
0001fefd
ff00fefc
ff000000
00040302
fd02fc00
ff0001fb
fcff02fe
ff0000f6
0001ff00
fdfe0101
00020201
05ff0101
04000606
04040003
00fffc00
fd000000
01fc0101
ff0505fe
0900fc00
00000203
02010501
fc00fafa
0006ff01
04010801
fdfcfc04
0100fe03
ff0300ff
0100ffff
fd00fe00
02ff0000
000000ff
fefd0000
00ffff00
01040106
ffff01ff
0100ff03
00000001
fd01fffd
00ff0002
0201fc03
fd02fffd
000004fd
00fd00ff
fffd0301
ff000102
06010000
00040003
00fa0001
03fefc00
fe020000
00fffe00
00fffb00
ff01fdff
feff0000
fc00fffc
0101fffc
02fffe03
01fdfbf9
0003ff00
00ff05fd
00fffdff
ff0100fd
0000fdff
fe0000ff
0000fe00
00fd0000
00010000
00030000
fffe02ff
0300fefd
fdff02ff
01000300
f802fefd
ff0101fe
000200fc
ff0003ff
0301ff02
fd01fc00
fc00ff00
07fffe01
fe00fdfe
fdffffff
fafe04fc
03040000
fd04fc02
01fe00ff
000204fe
0401fffe
01010200
00fe0302
0300ff04
fd010200
00fefd02
03feff00
fafd0000
0100fc00
fdfcfffe
00000001
ff00fb01
fd02ff00
fcfe02fc
04050000
00000004
ff000201
0004fc02
0100fd00
00fefd05
00000000
03000001
020200fd
fffd03fd
00fefdfe
00fcfefb
0302fefe
00030002
05ff0302
00fcfb01
fe00fd02
00fd01fe
00ff01fd
fefafd02
fb010100
fef9fe00
f9f9ffff
0504fcfd
01040300
00fd0000
0302feff
fe020000
fc0001fd
ff0200ff
00fffe02
04fe0000
0302fe00
0001ff00
fa0002ff
00fefeff
00fdfc00
03fbfafa
faff0202
ff00ffff
fffdfd00
0d0500fe
ff02ff00
020000fe
00010008
fff9fd00
fffd0002
01020001
01ff0300
fc0001fe
fcfdfefb
0004ff01
fc000002
0100fffd
00fe00fe
fffffc00
ff02ff00
fdffff02
fd000501
f8f800fb
010400fe
0001fdff
fdfefcfb
000100ff
000400f9
00fd0106
010100ff
ffff00ff
fdfb0102
0100fc04
00fdfdff
06fe0000
ff010300
fe0000fe
070002ff
07000301
fb02fe00
02000202
fefe0000
03fdfe00
ff00ff03
010300fe
000303ff
fffc0000
010201ff
00fffdfe
fb0003f7
fe0300ff
feff0003
020000fe
fc00f700
fe020d01
00000101
fe060200
fdff0002
00fb01fb
00fafdfc
ff0101ff
02040606
ff0101fd
fdfd00f9
00fc0004
00fc00fe
0501ff02
fc0000f9
000002fc
01000202
030200fd
fe000004
0000fdfb
01ffff00
03070000
fdfdfdfb
fe0004ff
0201fc02
fd00fefd
fbfe00fd
0204fe00
01ff00ff
ff000301
0302fd01
00000000
0200fafa
fefc0000
fb0105fa
fd0000fb
00000201
fe01f8fd
00020102
00000501
fe020000
03030000
ff000002
fbfcf6fc
fefd00fd
fefefe00
ffff07fe
fbfc02ff
fe00fdfc
00fafcff
000002fc
00010402
06000204
01010301
00fc0101
0500f8fe
f9fcfefd
fefb02ff
00010504
03fdfefc
010005ff
0002fd00
0000fe00
01f9fdfe
fe00fcfc
0101fffc
00060303
0100fbfd
0500fe00
fcfd0004
03fefa02
00ff0401
0d080300
00fffa01
fb00fffb
0104ff01
fc00fbfe
03000005
fb01fe02
0503fefc
000500ff
fe0000fd
fdfc00fd
fefbfc02
0001fffd
ff010b06
02fc0003
fef9fd02
fffdff00
fe00fefd
fd000000
fcfffd02
0002ffff
fffeff04
f8fffeff
0100fff7
01090100
03000101
fffe0004
0100fffe
00010003
01000200
010300ff
0602fbfa
feff0100
fd0100fe
ff010301
02ff0002
00000101
0001fcff
01040502
ffff0201
010000f9
fdff0002
fdfcfe00
0003ffff
00fefd00
0000fc00
fd00fffa
000300ff
01ff0205
05000000
02000004
01010101
feff00fe
0000fdff
ffffff01
01020101
020003fd
fefcfc02
0000fc03
fdfefe00
fdfe0200
03fffaff
01020103
000102fe
03fefe00
00000000
0000ffff
0001fefc
fa00ffff
0400fe02
02fc0004
fc000000
fd03fcfc
01fd0000
00020001
01010002
00feff00
00fffc04
01fc00ff
00000202
fcfbff00
010002fc
ff0000fd
02030400
00fe0400
00020000
fc000000
fffefb00
0100f5fb
00010300
f9fd0003
03ff0300
00fdff03
fc00ffff
02fe0000
0001fe03
010100ff
06060403
03ff0104
fcfbfd01
0100fd01
ff000002
fffefe00
05ff0001
02010202
ff000100
00000004
030600fc
ff000504
01010000
feff0000
00000203
00010100
fffe0001
00ff0200
fefcfdfd
0002fefe
020000ff
0800fb00
ff00fd01
02000000
0000fe02
fffd0401
0100fd01
fb000806
00000000
ffff0000
030105fe
0001ff08
00fbfdfe
00060001
0400ff00
00020000
02020000
ff010001
fef9fc01
fefffbfc
00020001
fffe0000
fb000102
fefcfef9
010101fe
ff020001
fd0200fd
00040400
fdfc0000
fefb00fe
fd00fcfe
00000000
03fffe00
020304ff
0003fe04
000300fc
00000204
0200fe00
00030405
fdfefeff
02ff0301
01030405
0103ff02
000100fe
00fe00fe
00000200
01fffe00
fefb0108
fc000101
fefe0004
fd0100ff
000100fe
05030002
07020402
ff000103
00ff0000
00040000
fe00ffff
0200fe00
fbfd0300
fc00fd00
00fe0403
fffafffe
00fd00fd
ff00fcfe
fcfe0000
fe0001fe
ff000001
02fd0000
0301ff01
0003f7f9
fffb0600
fd06fbfe
02fe00fc
02fdfcff
00ff0004
00fe00ff
fd05feff
fd050600
fe0100ff
faf901fe
02fdfb00
06040301
01030104
0000fd02
fdfffffc
f9fafbfc
000000fc
fe000301
000202fe
040602fd
020200ff
fdff0000
000100fc
08020002
00010807
fffe0001
fbfcfd00
fffefefe
fdfeffff
fe000003
fd00fe01
01fdfffd
f8fefc00
fcfc00fd
fffc0100
fefe0004
ff0000fd
01040201
0301ff00
fcfffc00
01fe01ff
0000f9fe
00020000
ffff0000
fd000103
fefc02fb
0003ff04
ff01fefd
040300fe
01fdfd00
feffff00
f90001fd
00fb03fe
fc02ffff
000302fe
fd0000fe
fc000000
000000fe
01000200
fc040600
f9fefbf8
00060200
0202fd02
fd00ff00
00000302
fc00fcfa
0407fefc
fd020500
fd030000
080502fd
fe02ff03
fc0000fe
00fd0000
03050001
fdfefdff
00fffffb
03fe0104
00030206
fb01fc01
010604ff
00fe00ff
fe05fefe
fe020601
0200fefc
f9fbff00
fdff0000
05ff00ff
fdf80203
03000103
0002ff00
fb02fefa
fcfcff00
fcfefcff
f7fe0101
00fd0101
fdff0002
010000ff
01020202
fffffcfb
fd0400fd
00fe00ff
020000ff
fbfbff00
fffe00fd
00050202
fafc0100
02050102
01030007
03030101
fefffd00
00000000
05040003
fe00fd01
04fc0104
fefe0104
010300ff
00020402
0101feff
00fb02fe
00010004
06000103
0005fffe
04fc00fd
fefe0702
02070801
0000f3fa
0600fd00
01ffff00
00ff03fd
01fffd03
fdff0000
0002fb00
01020302
05000001
04ff0101
fafc0003
00fefffa
030400ff
02000203
00fbfa00
0700fbfd
05050100
02020104
02000200
ff02ff00
02000000
fb01fffd
fcfefffb
02fdff00
00040202
00000005
ff00fffe
fcfcfcfb
010100ff
fefffffd
fb00fffe
0806ffff
ff010004
ff020104
02000001
00020100
02040000
03020301
fd010200
000201fe
000006ff
0001fefe
fffe0000
fefe02ff
0002ff01
00010303
01050102
fe000100
01fffd00
f80000fd
ff0102ff
000009ff
fd00fefe
010000ff
fbfefffe
f7fcfcfc
fefefc00
01ff0000
0203fe00
fc0100fe
00fe00fd
01020001
00f8ff00
00fd0000
00030000
02ff0100
fd00fe00
fd0100fe
010200fd
01ff0002
fcfd00fe
00000103
00030301
000000fe
00f9fd00
00020000
05030000
fe00fe00
00fbfeff
00fdfd02
fc050100
fa00fe01
000000fb
03ff05fe
00010107
fe05ff04
00fdfe00
02fdfefe
02020001
00020000
03030101
fc000103
fe010200
00ff0203
00fd0002
0000ffff
fffefbfb
fbfb00ff
00fe00fe
fefc0001
fffefcfd
03040502
00feff00
fafefbfd
04000000
000200fb
01ff0001
01020000
04fe04fd
fe000000
ff010602
00fffbff
04030000
01020002
04020200
fdff0000
02fdfa02
fe010000
fe00feff
fd01fdff
000200fb
f9f9ff02
020000fd
ff030a07
06040101
00030500
fe00fe02
00ff00fc
00fbfa03
03020001
fcfe0002
fe0001ff
ff0000fe
01000102
ffff0100
00fcfefb
040400fe
01010104
0000fdfd
ff07ff00
03fa0003
0002ff00
fdfaffff
02fefd00
ffffff00
00fe0001
00010101
fcfc0001
fdfefd00
00fe0000
01fe00ff
00000100
0002fefc
ff040504
fffefe00
fdf9fafe
09000504
0101030d
00010102
ff000002
000003ff
00010001
fc00feff
fbfcfdfd
ff0000fd
03fa0000
020000ff
01000002
00ffff03
020300ff
0401ff01
ff0001fd
03fd0000
0003fdff
fefcfaf8
fdfdfeff
00fdfe00
05fd00fe
01040202
00010300
00fd0001
00000000
00000000
fefd00ff
0304fe00
00fdfd05
ff010303
fdff0000
00030302
00000100
ffff0000
02fb00ff
020000ff
02000205
000404ff
fffe0000
fe00fcfa
030105fd
fffbfffd
0101fefd
00010101
0700ff00
ff000202
00fefd00
0202fcfb
fffffd00
fe00fdff
fe000603
fefffdfd
01000001
fc00fffc
00fa0206
020002fd
000000ff
01000201
ff020100
00070702
00000000
03080102
01010603
0100ff03
01fe0002
fe000000
00fefdfe
00000001
fd00fcfe
000400f7
fefafa03
05fe05ff
00ff0004
03000003
ff000401
fe000001
020201fd
fe00fffb
ff000000
00fcfd00
0000ffff
0103fd02
fcfd0200
00fd0004
feff0200
fffffefd
fd010409
03040200
03010201
01fefefc
0002ff02
fe01fbff
ff01fff8
01fdfe00
00000400
00ff0201
fcfbfdfc
fcf4fbff
ffff01fc
fefd0200
fc00fbff
ff010101
fdfcfdfe
03fffe01
01020904
000000ff
02000300
fe000000
0100fffb
00fffc00
010000fe
0000fffd
000201fe
00000405
020603fd
fb00ff01
01fffefe
02010201
fdfdfeff
02fefffb
00fe0000
00fefa00
fffdfcfe
0200fefb
01fdff01
01040200
fe0003ff
00fffb07
fc0000fd
fafd03f7
00010001
fb020500
01fefcfe
0200fb04
01000501
00fd0101
00fcf801
0300fdfb
fdfd0000
fffd0501
fe05ffff
000001fc
00010201
0402f701
00040401
02fffefc
ff0302ff
0000fc00
01030400
fefd00ff
fdfffd00
ff030300
ffff01ff
020000fc
00feff00
0b06fd03
fc00fb00
03ff00fe
fe0101fe
fdfafbfd
000103fe
02000001
0000fefd
fe0002fe
0702ff00
ff01f800
01fdfb00
06040000
fc030002
0203ff01
fafdffff
03fdfdfc
fe0200fc
fefe00fe
010000fc
05040100
07000108
ff000102
fdfe0002
02fffefb
feff00ff
ff010200
fe00fe01
fefd00fa
000500fb
03fcfa00
ff0000f8
01fe0004
fb04fefc
000002fe
fbfb00fc
00fdfffc
00010004
fefffdf8
fe04fbfc
01ff03fd
00050102
fffd0509
fffd01fd
0002fd02
030100fe
0400ff09
fffd0301
01000103
02ff0000
0200fb00
fc0002fd
01000301
fffffe04
010002fd
01fdfffd
fffeff00
00fe05ff
ff0102ff
fd000103
fe02fe06
00ff0500
00010000
020200ff
0001fa00
fffe00f7
fe02fe00
050101fe
f7000702
00000100
fd030305
01ff00fe
0103fffd
00ff02ff
0500fc02
01000400
0100fe02
050001fc
fd03fb01
02fafefc
0200fd02
03030002
05050104
00010102
00fffd00
0201fdfe
0101fefd
fb03fffc
fe0200ff
00ff0201
fd010000
fefa06fb
02040307
06fffc00
fe02fcfb
03fbff01
0205fa01
fffe08ff
fdff06fa
02ff0003
fe030000
fc020100
00ff01ff
fcfffdfe
00fe00fc
02030000
fdf70004
0000fd01
ff000000
020400fe
02060300
fd02fe02
01050402
00faff04
05060204
04f800ff
06000104
fc010306
fcfd0100
01010001
0800fc01
0001fffe
feff0300
ff02fffd
000200ff
02020303
02000003
fe01fd02
0002ff01
fdff03fe
00fef9fe
0402faff
00fdff00
050303ff
fcff00fd
01fffbfe
03050105
01020201
fe0000fc
05fd00fc
0003fcff
fefe04fe
0000fb04
00fe0002
ff02fcfb
fc010200
04feff02
ff050000
fcff03fb
05010006
fd00ffff
04fdfffe
fe0103fd
fefcfb00
fdff03fd
00000102
00ff0001
000005fc
00030404
01ff0102
01ff01fd
0100ff05
fdfefc00
fcfefe01
02010004
fefffffe
01fd02ff
fffefffe
ff04fcfe
fffefe00
04000001
fc05ff00
fbf9fe00
fd01fdfe
fb000400
0305fbff
03fbfffd
06fffd04
05040306
ff0402fe
000100fe
fc00ff01
0202fc00
fcff01fc
0304ffff
fe03ff00
000000ff
02020103
03fffe05
fa0104ff
fe0000fd
0004ff03
ff00ff02
01fe0100
03fd00ff
02fdfefd
fe020200
fcff0001
00ffff04
f8fdfff7
00fd0201
00020005
0304fe02
fb04fe04
fe04fffe
030005fa
00fdff00
0501fffd
fe070100
03000201
fefe0c02
fefffe04
01fefe06
fc07fcfd
fdf50002
00fef5fe
0204fefc
00fb0200
04020001
03fe01ff
fafbfafe
fa00fdfd
00fcfafd
02040100
05020000
feff0501
0303fdff
00fffe00
00020300
00ff01fd
fd000303
fffdfefe
0300fcfd
0101fffd
00030201
0003fffc
f9fa01fe
fc0200fd
fefc0200
09020200
fd0100fd
fefafcfe
02fdfa06
0102fdfc
00ff0001
00030000
fe0505fb
0104ff01
000003fe
02fe00fe
fd040501
fd00fefd
00000604
f9ff0102
00040108
ff00fe02
fffefffc
02fa0201
0800faff
01fc0201
0200fcfe
06fe0301
00000003
00fffefc
fb00ffff
fe0201fe
01000100
02fe0102
0003fe03
00000000
0503fffd
0509fe07
fcfcfef9
fbfcfffb
ff010101
07fcfd07
fd00faf7
000200ff
0000ff00
fafefd02
feff0600
04000000
ff020403
f9fb06ff
00ff0000
fefefffb
03fd09fe
fffffefd
0103fcfe
02020100
03030000
fd00f9fb
fc0002f9
ff0202ff
fefffd03
040006fe
0003ffff
ff030001
00fbff08
fbfefcff
fe0604fc
feff00ff
fffbfb02
fa0000fc
fd0100ff
fcfafd03
fffcfaff
fffeff00
0400fa02
f701fcfe
00f7fd00
fe0000fe
02fbfe00
f9fd0002
fcf90002
0000ff04
00ff0000
ff03fe00
0100fbff
fb00fffa
0202ff02
fd03ff02
050400fb
f9020404
fb0000ff
fefffffe
00faff01
ff01fffd
000000fe
03040000
00ff00fd
0104ff00
00fb0103
0200fefe
000402fe
00000105
f7fe0301
ff01fd00
ff0201ff
02010604
01010100
fefd01fb
fdfefafc
fafbfbfd
fa0000fc
01feff01
00030100
01fefd03
fe01fefa
03fe00fe
06050100
fb05fe01
fdfbffff
00000100
000001fe
04ff03ff
fe000102
00fd0001
010002fe
00fbfd00
ff000003
feff01ff
00fffffe
ff0001fe
01000201
030705ff
ff020501
02030408
030000fe
01010202
fefe00ff
0005fdfd
02ff0506
0000fd02
fa010002
fefefd01
0204ff00
03040000
fb01ff03
0300ffff
fafffffd
fd00fcfe
00fb0200
0002fd04
000400fd
00fa0004
02fdff07
01000005
ff0405fe
00ff02fe
00fe0004
0102fc00
010100fe
00ff00fe
03000004
fe090604
00fd0003
ff0200fc
ff0405fb
fd00fe00
00fd01fe
fefefd00
00fefe00
0508ffff
01fefd00
020400fe
fdfb0201
03ffffff
0001fd02
03010202
fc010201
00010206
02fdff00
0704ff04
00020402
0002fa01
040101ff
fe000508
00040000
0000fd00
ff04fd02
0304fff9
03030100
04000205
fd000202
040105fc
fc02fe01
fe000000
fc010501
01f900fc
0002feff
01ff0100
00ff0000
02fefd02
000400ff
050201ff
02ff0500
ff010101
01fdff01
0002feff
fffe0000
020002fc
0200fdff
03030500
0200fc05
ffff0001
00000201
fc060000
00ff00ff
ff0002ff
08000501
02fe0302
01060402
00fffafd
ff00ffff
00fd0303
0202fc03
fb0000fb
00000401
fe020504
fb0002ff
00fbfcfa
f7fe00fb
fafe00ff
0106fe02
0204fffd
fffffbfe
03fe0000
fefefdfd
fcfffe00
03fd0201
fffcff02
030201fc
00fffd03
01fe00fe
faff01ff
00f9fb00
02020000
02000006
02040100
fefe0201
00fefd00
ff050204
0000feff
ffff0100
fd00fd00
fefffe02
00020500
0b030103
fe00fc00
00ff0000
05010000
020806fe
ff050000
fffe01fe
fffefafc
fd0200fc
02000400
ff000000
fdfcfefc
fffe0200
0200feff
fdfdfffd
02010000
ff040302
02000100
00fffb02
fffc0003
0000fd00
02ff0000
000101fe
ff05fe01
ffff03fd
02fff7fa
fb00fdfd
00fbfffe
05000206
0004fd02
ffffff03
fbfcfffd
0201fff9
0400ff07
0101fcfd
00fe0101
01fdff00
00fe0207
0105fe05
fdfffa02
fe000300
06fe0302
04000005
01000000
fefafb01
01fefe01
06030008
06030004
0103fdfd
ff0004ff
0002ff04
00ff0100
f900ff02
01fcff06
fefe00ff
fcff00fd
fdfe02fb
f9f7fc00
fcfef9fa
fd0000fa
0000ffff
fd0000fd
fc000103
fdff0402
fc0100fd
fffa0002
030305ff
ff03fe00
fbfc03fb
fffdfcff
fdff00fd
fcfc00fd
0001ffff
0001ff02
01000200
fffdfe00
0000fcff
00fcfefe
0200fd02
00ffff02
ff05fdfd
020100fe
000001ff
020000ff
00000003
010101fe
0707fe00
01000000
fe02fe00
00fd04fe
000401ff
00000000
ff0002ff
04000000
00030003
fcf803fe
0102fd00
fa000402
0101fdf9
01000101
fc0100fe
000305fc
fc03ff02
00fffd00
fb00fe00
00ff0000
0702ff02
ff010006
000406fb
fafefdfe
fcfbfdfa
fffef800
ff00fffc
000001fe
00ff01ff
00010102
fbfcfd00
0000fafe
05fffd05
0005fc01
04fffc00
0005fdfb
03fc0001
ff01fd02
04fe0000
fffd0100
fe00fffe
0103060b
fc00ff00
000401ff
00000502
01fefd02
0001fd00
030005ff
01000000
fa04fd00
09fe0000
03060109
01000300
03020103
ff010100
fefc00fd
fffcfdff
fe0001fd
00000102
060100fd
00010104
01fd00fd
ff03fc01
fffefffe
000200fd
f7000201
0300fefd
0402ff00
03ff0000
fd01fdfd
fef9f900
02000405
f5f30003
02fbfdfc
0003f9fd
ff00fffb
01ff0200
fd01ff01
fefd00fe
0000fc01
fa01fefd
0102fafe
00fe00fe
f900fbfd
04ff04fd
01ff0106
fb0001ff
fb0000f7
fdf5f800
f800f9f4
fc0203fa
010100fe
03000102
fffcfe00
00fdffff
fd01fffc
fffafe01
02fefcff
0501fb01
ffff0401
fdff0000
0800fffe
0208fe05
fffe0000
fe0200fb
fd00ff00
fafaf901
fffafdff
02fdfe00
fd00fefd
00020000
fefd00fc
fdfe01fc
fd0400fe
00fefb00
fe00fbfd
08000300
0b0e0006
00fd0101
01000102
fd01ff01
ff0003fd
0000fff6
fcff0000
fffd0001
fd00fdfe
fbff01fd
fd00fd01
03fe0202
fcfc0002
00000000
fefd0100
00000002
fb010001
fc00fcf8
060300fc
03ffff00
fd020000
fdfdff00
02fd0103
02fffaf9
ff020100
00030004
fc0201fd
fcfd0000
ff00fd04
fe01fc00
fd0000fb
00fe0302
0100faff
000000fc
00fcf8fd
fdfdfefd
fdfcfefd
fffdfc00
fafe00fd
fefffdfa
ff01fefd
fd000703
fcfa0001
0201fa01
fdff00fd
0101fb02
fffffe01
fefefc00
fffefefa
fffd0003
fcfc00ff
fffffefe
00fdfc00
f900fcf7
fbfcfefa
02feffff
00fffcff
0000ff01
00fd0300
ff030200
fbfe02fd
020001ff
0000ff00
030504fe
00020001
01000300
00ff00fe
0302ff02
08fffe00
0200fb03
fc01fd01
07fc0608
ffffff04
0000fefe
03000302
fc050607
000607fd
0903f9ff
010301fe
fffaf901
fb000000
ff0001fd
ff00feff
00fdfeff
0202f7fd
fd0100fb
00ff00ff
f900feff
02fffcfc
02010001
00fe0205
02010204
0300fe01
fbfc0300
00ff0000
03fdfc03
000000ff
fffbfc00
0000fdff
02030002
01fefc01
00000203
02050002
ff0501fd
00fffdfe
f600fffa
0003ff00
ffff0000
03f9fe00
00fd0000
fd00fffe
fdfc01fe
02fbff06
0001fdfd
02010000
00f90204
ff00fe04
f2ee00ff
02f9f5ff
0704fcf9
0003fe01
fdfb00fc
00ff00fa
030101ff
0100ff02
03010105
06070205
fd000401
0bff0506
00050010
00060701
fefb00f9
0402ff03
0001feff
fd0003fd
0305ff01
01060300
01fe0507
fcfc00fd
00040001
0004fffe
01ff01ff
01fbfc00
fe0100fc
fdfc01fe
00f8fe06
0000ff00
030400fa
fe0500fe
fe0605ff
00010300
fe02fc00
00fe00ff
fd000000
01fe00ff
fb00fbff
05020200
00000000
f8060000
fcfc04f7
01000302
03fffffd
0609ff01
00fe0400
0001fe00
fdff00ff
00ff00fd
0000fe00
010500ff
0001ff01
040100fd
fd0001ff
000406f9
fe010003
000000fa
04030201
fd00ffff
02ffff01
01fff900
0000fefa
00fc0000
ff0000ff
fd00ff03
00fffefe
0201fe01
0400fcff
000402ff
fcfcfa04
02020301
ff00ffff
00ff0001
fd0103ff
050300fd
04ff00ff
050005fe
fc0100ff
020802fd
01fe06ff
0500fd02
00f9ff00
ff000000
000000fe
0300fe00
0300fe00
fe0300fd
01f60103
0300f8fb
f6f50000
01fafa05
fb03fd00
03fdfffd
00fd0000
00fffdfc
00010101
fefbfd02
fbff02ff
fdffff00
00fcfa02
f8fffcf9
fdfafdf9
000202fd
0000fdfd
03fe0001
fdfffc01
fc0100fc
02020000
01ff03ff
0600fb00
ff00fd00
00fafaff
f9020001
01fe00ff
00000501
ff0100ff
0000fdfd
01000004
00030102
02fffd00
00000202
01ffff01
ffff0001
0000fffe
02fffcfe
02fbff00
0000f9ff
fd010002
000100ff
00ff0100
000101fd
0403ff03
030102fc
0403fd00
0f090402
00fefaff
0303fffe
04050201
03fdfc00
000002fc
0205ff00
fa00fa02
fdffff00
01fffe00
02fdfb02
00060000
01fd01fe
fcfd01fc
03fffcfe
01020002
01fe0401
0500fe05
09040003
fbfffa02
060002ff
00ff0303
00ff0002
00fffcfa
00020101
fffafb00
010000fd
02050204
fe0007ff
00ff0001
0402fffd
0400ff00
ff02fdff
000602ff
01000304
fa02fefa
070801fe
05ff0105
00fffd03
00000000
01ff0400
0300fefe
03050002
06000101
0003ff01
fdfdfe01
00fcffff
0301fc00
fefd02fd
00fb0002
000000fc
ff0000ff
000502fe
03fffe01
fcff0004
fffd0000
0bfd0000
0201fe03
030402fd
feff00ff
030400ff
0403feff
020201fe
fdfe0001
00fafffc
0100fdfe
00000002
02ff0001
01030000
fe01ff00
00ff0201
00fd0201
04feff00
01030001
fb040001
fffcfefe
03030200
0100faf9
06050107
fffdfe01
04020000
fdf70600
03050301
01000401
f9000300
fe000102
fbff00ff
fffefcff
010209fd
0400fb02
02ff01ff
04ff0000
fa03fdfb
fefdfffb
00f9fbfe
fe00fc02
fd02fffd
fffdfefb
0002fbfa
fe0403fe
010409fd
02000208
fd0400fb
00ff04fe
ffff0302
0200ff04
fa06ffff
fefd00fc
fafcfd01
0401ff00
00000101
01ff0001
fcffff00
fd0000fe
000001fc
00ff0000
0000fe00
0a03fffd
010201fd
03030000
0300fd02
fc01fc00
000000fa
03fefc06
000508fd
00010000
fefe0000
fd020000
fd0003ff
00020501
0000fe04
03010b00
ff040104
fbfafb01
fbfdfafb
01fffffa
fe02ff01
ff020402
000000fa
00030001
05fe0101
0402fe01
feffff02
0000fefe
04000000
02010004
f7030303
f6fb01f8
fbfbfaff
06fffc03
000102ff
00040200
fdfe0000
0007ffff
03ff0100
00040000
0603ff08
fc0302fe
fdfff9f9
000301ff
fdfffeff
fd00fffe
fb0300fd
00ffff00
fbfdff02
fc0202f9
03ff0000
fd00f9fd
fefc00fd
ff05fc00
fc000000
0400fdff
ff0904ff
fcfd0202
fe000101
00fb00fe
f9050700
fcfd0300
fe0205ff
01ff0003
f6fd0000
00ff01ff
ff000203
fffeff00
fbfefbfe
0101fa00
0400fe00
03fd0402
03040402
05030402
0300feff
fd000300
0001fc01
fd0001ff
fdfd0000
fbff00ff
060c02fe
fe0600fd
f5fc0102
ff01fffd
ff020300
fd0101fc
fdff0000
04000400
00010600
00fdff01
06010002
0c090203
fdf9fb00
03fe0000
fcfe02f8
03fffcff
000501fd
ff0004fd
0202ff03
0103ff04
00fcfe00
02030301
00ff0103
ff000201
0004fc00
01fd0407
0302fbfa
fbfbfb00
fcfd0000
0000fcfe
03030400
fe020300
00fd0004
000200fd
01fe00fd
030200fe
fcfefdfe
fdfdfcfa
060002ff
03030103
fe000201
00fd02fd
0300fdfd
02000507
01010000
00010502
01fd0003
fbf5ff01
0100fc01
f8010100
fdfcfcfb
fffeff01
f8fafefd
00fcfb02
000003fe
0700fb01
00000204
fefd0102
fc00fafc
ff0000fd
fd000100
00020007
ff02fefc
02fd0000
fe000100
0200ff00
02000000
05010001
fe000304
00010002
06fd0000
fdfd03ff
ff000001
06fffe04
fffbfe05
fefcfffe
00000000
0200fe06
fe0001fe
02fe04fd
01fffefe
fdf900fe
fd000400
fdfdff00
00000001
00fe0301
020203fd
00040102
02fffdff
fbfd01fe
060602fd
0204fdf9
f9ff04fd
fc0000fb
00020000
fe0300fe
f9fcfffd
04ff0007
0705fd03
fefcff00
02fcfaf9
00fcfd02
fdfffdfd
04fc00fc
0400fd09
030b08fc
0001ff01
06030102
fffe0301
02ffff02
00010402
03010401
00ff0005
00ff0003
fc0000fb
03fbf7f9
fbfe0003
fd0302fe
fa0100ff
fcfffef8
00fe08fb
02000105
fc0205fd
01010505
fe00fffe
fefbfbfe
04090000
00ff03fe
0104ff00
00fcfe00
ff00fc00
000300fd
fefcfdfb
00050701
fefc01fc
01ff0501
07fefe06
fe010303
ffff00fb
02fcfdff
0000ff00
02010001
03010202
02040100
00000604
fffffffe
05010200
ff040200
ff0000fd
fe00fdfe
000001fe
fc0100ff
fffd0002
fcfaf7fd
03000000
00000000
020502fe
02010200
0404fb04
fdff02fd
0000fbff
fa00feff
03ff00fe
03050000
ffffff00
fe0006fe
f8010000
fbfcfaf4
0100fc00
00000602
f8fdfffd
0000fdfa
00000500
0100ff02
00000000
04030102
00fdfd00
0102ff00
0201feff
fafffeff
f6fbfbfa
00f7fffc
fd00fe00
0001fefd
fdff0200
0100ff04
01fe00ff
ffff0709
030101fd
040206fe
0100fa01
fefc0202
03000001
fe030002
fdfe00ff
02010000
000004fd
07020007
0001fb01
05040201
05030303
01000100
f1000004
fcfdf7f3
fefffef4
fb03fdfc
fdfe0002
fdfefdff
fefafaff
fd02fdff
00fb0005
0601fe00
fa00f9fd
ff0203fe
000604fc
fafd02fc
01000002
02010000
000000fb
ff030000
0000ff00
fdfb0102
fdfffc04
000203f9
02fe00fc
fc030600
00ff0301
01ff02fa
fd0601ff
00fd0006
faff0704
03fd0203
ff0601fc
00fd0304
00fcff00
0503ff00
06030305
fb0300ff
f7fd02ff
00fffcf7
03020100
ff0503fd
000004ff
00fe0004
0000ffff
fefb01ff
01fcfd03
03fd0300
fffbff00
fe0000ff
02fc0000
fffffe02
020100ff
00fb0100
ff000000
f90400f6
fd000307
00fbfafc
fffbfefe
fe07ff06
fdff02f8
03fd0002
00000200
00fe0002
fa00f7f7
00ff00fe
fdfe0200
00fbfd00
ff000303
04040203
fe050cff
00ff0100
0002fe04
fdfcfdfc
ffff00fc
03fc00fd
05030105
00070c00
000006fd
00020400
fdffff00
040100ff
fffbfb00
ff02fbfa
0001fffb
fb0505ff
ffff04fe
010001fa
01fd0300
00fef8fd
040000ff
01000300
fd030201
00fc0005
ffff00fe
fb0600ff
00000603
03020901
07020005
02fd0500
00000100
02000001
fd010403
01ff0402
03ff0502
fe03ffff
00fafcfd
0201fa00
04fd00ff
00000103
03ffff03
000003fe
fe00fe01
0000ff01
fe00fefe
00fafe00
fcfdfcfe
0203f9ff
fdf9fcfe
0003fb01
01fe0408
02000200
0003f8ff
fe040200
00fbfdff
0202fefd
04010000
030002ff
01fe0400
0000fffd
fffb03fd
02fcfd00
fbfdfefd
01000300
00ff03fb
05030003
0606ff01
01000401
00ff00ff
ff040801
0003fefe
000100ff
fd02fc00
04fd00ff
0003fffe
03030301
fd000100
fbfefffc
01030500
00fd0100
00fdfe00
04faff02
fd00f900
f6fb0200
04fa0000
ff0000ff
01fcff02
010004fc
fe00fffa
00fc01f7
00010000
05000105
01000301
fa01fffe
01fe0302
00fffc03
00fffdfe
0001f8fb
fe0100fe
00fe0200
02030000
05010005
05010002
00030003
0000fe01
00fe00fd
000002fe
ff0100fe
0200fc00
fffe00ff
fd0200fd
fffc02fb
fe030204
fef90005
fcfe01fc
fcfffef9
fefa00fc
0000fb00
fd09fd00
040005fe
00000004
f40002fd
fdfaf9f5
f80200f9
03ff0004
0202fc03
ff0101fc
01ff00ff
01fefb00
fb00f9fe
00fcfffe
00fffc00
fafcfe00
030000ff
fdff00fe
0000fe00
ff02feff
fafd0000
03fe0503
00030004
00010101
0603ff02
fe010100
010003ff
fcfd0001
0100f9f8
0a04fd01
05010007
fd030000
fd00fefe
ffff01fe
00ff00fe
00ff0403
ff000301
fe000100
fd00fdfd
ff0005fe
0000fe00
000100fb
05060105
0404ffff
ff000600
fe00ff04
ff0101fb
ff03fcff
ff000002
00020000
00fa0707
0004fa01
fe000003
ff020200
0401ff00
fc0800fe
01060400
00000100
04000002
ff00070a
02010208
07070000
03050301
0405fe01
fe040400
01fc00fe
00000001
fdfefa00
00fefe02
0000fdfa
00010204
fdfdfffa
ffff00fd
fd0000fe
0808fcfe
fffeff00
03fffd00
0001000a
01060300
fe000101
020102fc
ff060600
01fc02ff
01ff0002
fffffdfd
01fc00fc
0504f9fb
00000300
00fdfbfd
fdf8ff00
000402fb
01fd0000
f9fbfb00
ff00fdff
ff00fffc
0002ff01
010100fe
fbfd02fd
00fefd02
0000fdfe
fc00fef8
0004fd00
040200fa
00fffbfe
fe0207fb
00fffd00
000405fe
fb03fffb
020305fb
0505ff07
04010300
0100fd06
01fdfbf9
00fc0303
0201fe01
00f4fefc
0302ff00
fdfafafe
00fcfffd
fcfe00ff
03fcffff
ff030103
ff0205fb
06030206
0702faff
000403fb
fefffe01
01fefdfe
0400ff00
02ff0404
0102ff03
000000fd
02000001
04020002
00030502
fefd0005
01fffd00
f9fd00fe
000203fd
00fefe00
03fe0004
fcfd0000
00010202
fe0203fd
0003f904
fb0501fb
00000903
000501fe
00fdfc00
0007fcfd
ff000302
ff00fdff
0200fe03
00020502
00fefafd
02fe00fc
0000fe00
00ff0001
02fdfe00
00fffb00
fe00ff01
02000000
0100ff00
ff000500
fb0201ff
00f90000
00fffc04
04010004
00fd0004
000002ff
01010000
010004fe
0000fc01
fe04fefe
01ff0101
0100ff00
fb020100
01fb00fd
00fefbfe
020602fd
03000001
00fcffff
040b00ff
02fe070b
01070105
00fe00fd
0000ff00
fd0000fe
0000fd01
02fffdff
0300fffc
fd0001ff
02fb0002
0100ff00
fe00ffff
fffd01fe
00010300
00ff0000
00fdfe00
fd00fefd
020000fd
fd040600
00ff0100
0100feff
01000102
fe0000ff
03fe0201
fdfc0302
02fff6fe
020200ff
01fe01fc
fd00fefb
00fcfe02
03000300
02020100
0003fefe
00fefd01
02ff0000
fe00fefe
0000ffff
fdff00ff
0300fafe
ffff0001
ff00fefb
00fb0501
00ff02fd
0200fdff
030202fd
0202ff01
070003ff
0105ff01
fd020100
0003ffff
fffd00fe
01000000
fb00fbfe
0601fefd
000301fd
02000200
ff0000fd
ffff0003
020001fe
02000200
00030803
00ff0001
01010300
fe00ff00
00ff0201
ff01ff02
ffff0001
00030209
0000ffff
fffb00ff
0202fc05
fe0100fe
0000ff00
02020100
fe000502
fd000202
06040202
05010304
02010400
fe000104
fe000200
fefe00fe
0000fd00
0200fe00
02000400
0301ff02
ff01fffe
ff01fa02
feff02ff
ff020000
fcfb00ff
00fffdfe
0102feff
0102fe00
02010505
02010105
020001fe
00000003
01050000
ff040200
08010301
04050403
02fd0202
00030104
00fdfe00
ff030201
fe01fe00
fdff02fe
fffe0001
f7ff0001
fdfbfff9
01fffd02
fffc00fd
0200fefe
010100fd
00feff02
fb0000fd
ff010000
fd010100
0600fd01
01000103
01fdfeff
02040000
0005fffc
04031100
00070006
01fd0000
02020005
00000401
ff00fefc
00fdfffc
02fffffe
03fd0000
00010404
fcfd0005
fdfcfe01
00fd0402
000400fd
00fd0004
00010000
00010101
02fc0100
00fefdfd
010300fe
01fe0001
fe0000fe
0300fefe
fefe00fe
00ff0101
010100ff
fa00fefe
fefdfdff
01fe0001
ff050200
fdff0003
fdfcfcfc
fefcfcfd
02020401
00ffff00
01000303
03010000
fe010200
fe0000fb
02fdfe01
0300ff04
00020400
0002fffe
02ff00fe
02030300
0200fd00
020200ff
ff060100
fb010301
fdfdfd00
02feff04
000100fc
03000100
03040200
fefeff03
fc00fd00
fef9fe00
fcfdff03
ff0200fe
ff0101ff
000407fe
00030401
fe00fb00
fc0000f5
00fe0100
03fffcff
ff040200
02fa0002
ff030001
0500040c
04040000
02030502
02000204
ff020001
03010000
02020001
0002ff02
01010002
04000307
05070000
01000300
000600fd
00fe0600
00fd0000
04fefcfe
0203fcff
ff040000
02000201
fc01fffd
0000fdfb
ff000000
06020102
0000ff00
fffe0602
fd0100fa
ff00fe00
0202fb00
fc0200fd
fd000106
00010500
ff000000
00000101
00feff03
fe0003f8
02000200
01010101
0000fe03
00ff04fc
030000fe
00000100
ff010000
01fe0002
fe0000fa
00ff04fe
fffb00fe
02000201
00030100
000100fd
feff0500
fffafd01
030200ff
0002ff04
02050003
fdfffc01
0103fd01
00fbffff
0400fd00
fffdfdff
feff0101
02ffffff
02060003
000302ff
ff000001
fd0301fe
000001ff
ff02fbfd
fbfbfdfd
fe04fffd
fdfe0200
01fe00fc
ff03ff00
01050805
02020202
02ff0000
0000ff00
040700fd
010102ff
03000001
06070301
00010203
fdff0406
ff0400fe
fdfdfb00
fefc01fe
0103fe00
03010300
01030003
0200fe02
ff04ffff
0100fd01
ff00fefc
010001fe
020300ff
01ff0000
0103fe00
02040400
fb030001
fffe01ff
02030405
ff00fdff
00fcfb01
0101fafd
0203fe00
0000ff04
06fefcfc
01040000
02fe0500
05fd0009
00040001
020200fe
fffffd04
0000fefe
fffe0200
03000006
00fe0406
ff020001
03feffff
fbfefe01
00fcfdfb
010001ff
09070300
ff000700
ff010201
fcfe0200
02fc0000
03000404
fe010002
05fe0100
01050003
ff000001
0002fd00
fe010200
030300fc
00010001
ff020101
02fe02fb
00ffff04
000101fe
0201fe00
fdfd03fe
0200fe01
01010100
0000ff00
00fffc00
0004fffb
fffd00fe
000001fe
fe00ff00
00fffffd
00010000
05010008
ff00fb00
fd000100
01fe03fe
ff000003
fe010203
fc050005
01f80002
00ff00ff
0705fc00
fc020601
fe00fefe
00fffe03
fe00fb02
00000101
000000fe
01000004
05ff01ff
0104ff04
000000fd
01030005
ff0203fe
04000203
000000fe
fd020200
04fb0300
0700ff02
fe010003
ff0000fc
fc04fdff
fefd01f7
00fd0007
0200ff00
00040100
fefefffb
fc0201fe
04ff01ff
ff01ff00
00000000
fefcfd04
ff000100
00ff0300
faf900ff
ff01fdfd
ffff0000
02ffff00
0303fffd
fe01ff01
0300fd00
fe02ffff
fd000502
02000003
00000000
0b0000ff
ff02ff01
03010201
fe000001
ff000101
000000fe
010100ff
fa0000ff
fefe00fd
0400ff03
fe0200fe
000304ff
fe030201
01000102
0000ff01
fffe01fc
0000fcff
fdfe0000
04fb0002
ff000001
01020102
04040003
00040500
fffe0002
fd000101
0000fffd
fffeff00
0701fe00
fc0400ff
03030500
0100fe06
0000fc00
0201fffe
00000000
fd010000
00fb00fe
00000004
0001fcfe
fe00fd00
00010100
0001fefc
fe00fefb
00010602
01000200
0400fe02
05fe0100
f9010000
00020200
fc0100fa
feff01fd
0003feff
fffb0200
0105ff05
00ff01ff
ff00feff
fffc00fd
00020001
0601fc00
000103fc
00ff0103
01ff0203
ff03ff00
03010201
ff0301ff
0100ff01
fe04fffe
04030204
00fffdff
01000101
ff020001
fefb00fe
0301fffe
fe000501
fbfd00fb
0300fffc
fffe00fc
00000000
ff000001
0000fd03
01090000
000004ff
01030303
0801fe03
ff0301fe
0400fd01
fdff03fc
ff010500
fd000700
ff00fe00
01010603
00000302
fcfe00ff
00ff0001
fffe0701
00010001
02fffe00
030002ff
fdf90200
03fefdfe
00fffbfd
fdfffe04
01000000
0000fc01
00000002
00000100
fe030002
00000200
04000004
06ff04fe
fc010600
05ff0000
fefd0000
01ff0006
00feffff
0102fa04
0304fffe
fbff0200
000002fe
fb0300fe
0000ffff
00000302
03030200
ff00fefb
00fe00fc
fe00fd02
0103feff
02000300
00000402
00ff0000
02010305
ff0102fe
0001fe02
fe0103ff
010002fc
ff020100
0903fe04
fe040200
03020001
fdfcfefd
fdfefcf8
fbfcfcfb
00020200
ff0400ff
fffc0700
feff0000
fffe02ff
00fcfdff
00000002
01fffdfd
03010501
fd02fbfc
000503fd
fe000300
00ffffff
fdfa0300
03030100
01fe01fd
fd01fe02
fe03fe00
0201fd00
fd0001fd
03050401
010206ff
fd01ff04
000100fe
fa040300
030200fe
05000200
0002ffff
fdfd0001
01fefefc
fe0003fd
03fcfefe
00060007
fb0300fd
fcfd0200
02f9fa01
0106fd00
fdfd02ff
fefbf6fc
fffdfcf7
01ff0000
00fffeff
04ff00ff
fdff0000
fe0200ff
02fd00fd
00000200
00fffcff
05000000
0103fc06
0104feff
00000001
02ff0002
03040000
00000100
040303ff
0004ff00
07000200
09fcff07
fffffe00
00fdff01
0105ff02
000203ff
fe070908
02060500
0005fffb
ff040101
fbfa0201
ff02fd00
08fe0506
00fa0305
ffff02fa
010000ff
00fd0303
000401ff
07fefe00
ff000106
010101fe
04010503
fcfd0103
02fbfdfe
fbfd0001
000000fb
01000203
0500ff00
07ff0201
0000ff09
00010000
02000300
fef6f802
fc02fffc
ff04ffff
ffff00fb
0002fefc
fc0100ff
feff01fd
0006fdfd
00fe00fe
020202ff
0404fe03
02fd0504
fffdfe00
01fcff03
00000203
ff02fe03
0303fe00
07040002
01fe02fd
0500ff00
0403fd03
02fdff03
fb0000ff
fcfdffff
fcfdfdfe
fe000000
01000201
020000fe
00000306
ff030002
ff0005fe
ff000203
feff0000
000302fe
01010306
0002fefe
fb030303
02fefa04
fffc0000
fc070602
00ff00fa
fcfe0000
04ffffff
fb00ff00
fd01fffc
04fffcff
04fefbfa
fffd0000
fdfbff00
05fdf6fd
fcff0000
feff00fa
f8040100
fbfa00f5
0200fe03
04000200
fd01fd01
00fcfbfc
f7fffcfe
fffb00fb
fef7fc00
090101ff
fdfe020b
0100fefe
03050305
fafe0001
04fc00fe
00000304
010204fe
ff0206ff
0502fc02
090500fa
0203fe04
fd00fdfd
ffff0504
0400fefe
00fefbfa
fdfe00fc
02000000
0005fd00
fefe0002
03000401
fc010002
01f90603
02fe0004
fc02fdff
fefdffff
000404ff
0401fcfd
00fdff04
ff00fcff
03ff060a
fb00fe00
05ff0000
01ff0000
01000104
01ff0501
fb010402
0700fd05
fffbfa02
0500fdfd
fd000106
03080600
00030706
0100fbfe
ff040000
fd00fc01
01ff00fa
ff00fbfe
020201f9
ff000203
00fcfffe
00010102
070402ff
06050204
ffffff03
00000002
02fefdff
01050303
0000fe01
fd0000ff
fefe0005
f80004fe
fefc0401
07000404
0100fe0c
02040003
fbfffffe
03fdfcff
02ff0004
02040005
00010002
0202fe03
fffffd00
030103fd
0004fd01
fefd0b07
fdfffbfa
fe000000
02ff0203
fffcfd02
02fcff00
03f9fdfc
03ff0003
00030101
fefefb00
03000200
00020402
03030400
ff030400
fe000200
fa000002
fdff05fa
00fe0003
0001f9fb
fdff0501
00000300
fd030203
ff0201fd
01020101
fd030200
060302f8
fcfcfe00
fdfb0000
fe00fe04
01fd00ff
0000fe00
ff0001fd
03000208
07fdff05
0100fe00
00f9fb00
fd050001
0100ff02
ff0504fe
fffe00fc
04050000
fffbfcfb
fb0005ff
08010105
00fdfd07
ff0003ff
0004fc00
fe000300
04fd0600
fd04fe00
fffcfcfc
0000ff00
ff0000fc
fefc03fe
01000002
0206feff
fc030501
000402fe
fefc00ff
02fffdfd
ff02ff01
00010202
0300f904
04fdfafd
000500fe
00000101
000203fe
fcfd0300
ff01ff02
fa000100
fefd00fc
fe00fdff
010003fc
fe01feff
00020005
fe010003
020000fa
03000205
fc030101
ffff03fd
02000001
0401ff00
010105fe
07010100
fb02fd02
0000fdfb
01fd00ff
fbfe0000
0002fefa
fafdfb00
fdff01fb
fcfafd03
fe0301fd
0301fff7
0a030401
000200ff
fefdfcff
00fcff00
fefe00ff
000000ff
fb01fdff
00fbfd00
0900ff00
05080404
04090203
fb04fd00
0003fff6
fb010000
fc020505
f4f4fef8
fcf4fa01
fefffcff
0301fffb
04fcfc00
0100fefc
ff00fafd
fffefe01
06fffd01
03040205
00000202
00030002
fcff02fd
fd00ffff
ff010401
fc000000
03000101
00fdff02
090afd02
fc0300fc
010000fc
0200ff00
020400ff
00030607
03010000
fafc0602
fefffd00
ff000100
00f90105
02ff00fe
01000100
000502ff
0002fbfe
fcfe0004
01fdff03
0401fafd
fcff0607
fffc0000
02fdff02
fefd0002
0001fd01
ff03ff00
0201fffd
00fffefe
fc000103
0200fefe
fefbf901
0400fcf8
0303fd06
05040401
09030001
00020105
feff0000
00f900fe
0204fe01
02fdfd03
0d02ff03
0207fc07
0101fffc
ff04fefe
0304ff00
fefd00fd
fefd0300
fffb0201
0200fffe
0002fbf9
fe060400
03030100
00fe00f9
00000107
fe0300fc
fcfb0000
0003fc00
02030200
fe000101
00ff0100
01fff900
04010006
f9f6ff04
fefbfbfe
00020000
fdfe0000
fef9fcff
ff020301
fbffffff
020304fc
f7fffbfa
fc0000f6
ff03fffd
01000000
fafdff00
04030003
01000505
fdfdf804
000200fb
04fd0202
0101fd01
000105fe
0200fc01
03fe0200
fc0000fd
02000305
02fffd00
0303fefc
fdfeff00
fe030000
ff0101fe
00010305
fafa0004
fe0004fc
01fdf5fc
070901fc
01fdfc01
fffd0401
0200ff01
0302ffff
02fe0303
ff02fe01
0100fd00
02020002
04fffc00
fffdf700
fafef5fa
f9fa03fc
fdfdfcff
0403fcfa
fdfefe02
fd0002fc
fcfffe00
fd0000fc
00fd00ff
00fe0400
fe020401
00fc0100
0100ff02
03000002
00fd0401
00000001
0400fd00
fc010103
fcf9fe00
fefefafd
030101ff
00000004
fe0000ff
00000501
fe000207
00ff0201
05000100
0200fffe
fd00ff01
fffc00ff
00fdfffe
fd00ffff
00020001
00fb0004
00fa00ff
040000fe
060100fa
030500ff
00000004
02fd00fd
fdff0304
00fdf800
03fe0200
fdff05fd
03fcff04
02030003
00feffff
00fffe00
fdfefbfb
fffefdfa
fffefcff
02fe0102
070afd00
00010000
02ff0104
ff010000
fdfcfb01
ff00f5fb
fd0100fa
00fb00ff
00fe00f9
fefc05ff
00000201
fefffe02
02fa0003
04030203
f8030506
fe01fd01
00fefb03
0001ff01
fe01fe00
fe010401
0000fdfe
010201fc
fffefe02
000000fd
040200fe
070201fd
000303fe
00fe0000
03010002
fcfd0602
fbfe03ff
ff0202ff
02fffd00
fa0001fe
00ff0100
0301fe00
0302fd02
00f5fe02
000000ff
fcfb00f9
09fffc02
010200ff
0000fffe
00000101
00fe0201
f8ff0400
fafdfc00
01010901
fcfd03fd
03010403
00000303
fd00fffd
040102ff
00ff0001
00ff0300
03050400
fd00fdfd
04ff0000
0002fd04
fffcfbf9
fbfa0200
fff9f8ff
feff0402
03000100
02fefd02
06050503
03030209
00fe0201
fdfd0305
fcfafd00
fffdfa02
00fbfe00
fcfdfffd
03fa0000
04fd0605
0002fe00
01020002
00020301
04ffff00
fffe0302
ff01fe00
0c0bfe00
fafbff00
01fe0105
02020102
0000fc05
0000ff00
fdfd0204
0000fffb
0002fcfa
030000fd
0201ff01
03ff03fa
fefa0206
fdfdfe00
fb000103
0007fefb
fdfe0100
00fcfefe
01000400
00000300
000000ff
02020204
fffcfc01
00000100
00fcffff
0100fb03
0300ff00
ff01ff00
ffff01ff
f9fffcf8
fefefff6
00fcfc03
ff010a00
02ff0001
030603ff
01000203
07030401
03060004
02000705
02fefe02
ff02fffd
fefe0000
01ff00ff
00fbff04
0302ffff
00fe0102
00ffff00
0001ff00
fc00fe00
fdf8ff00
fb0103fe
fefc0200
fd00fefc
00000300
fcfd0000
fe00fd01
fe040402
00fb0300
fd02ff01
00030301
02020003
00000200
ff000005
0102ff02
fffafdfe
03fe0002
fe000304
03fefeff
fd0506fd
fd000100
000005fe
fffd0000
06fe0100
fdfeff00
05000101
fb0302fd
fe00fb01
0301fcff
00fa01fc
0001fd02
fffffe01
00fd00ff
fe000000
00faf9fe
00fd00fd
fdfa00fe
ff010003
0704ff06
fd000400
07fffd00
0002fd01
00050600
00fdf7fc
fcfe00fe
02010100
02010303
0009fe06
05010304
fafd0304
faf9fefc
ff0001fe
fcff0101
fdfdfbfb
0002fffe
000002ff
f9010300
00fc01fe
00ff0400
fcfb0003
fe0303fe
ff0101ff
03fc0001
02010300
fd0100fe
02050002
00ff01fe
02fd03ff
02fdfdfe
00ffff00
03f7ff00
01ff00fe
00fefd00
fffdf9fa
feff04ff
0100fbfc
fc03fefe
000001fe
0005fe00
00fefe00
fbff00fe
0200fafb
fc000200
01ff00fb
000305fd
ff000402
fbff00fe
01fc0503
0303fbff
01030300
fe000302
06fdff01
fbfffefd
fe0005fc
fe000000
0005faf7
fdfd0000
02fdf6f7
04020000
00000200
0102fdfe
ff00fd06
03010001
fe03fe00
fd0002fd
00fdfcfc
00010207
fd0001ff
0200ff03
00fdfcff
f9fe01fb
01fdfff9
000001fd
03feff02
0203ffff
01000000
ff010604
01fbfe00
06000005
00000300
ff020300
04010400
00ff0209
00010002
00010301
04fd0108
00fe0200
000302ff
f9fd0002
fd0c03fd
01000401
fefeffff
fe00fffe
00fdfffe
0000fffe
0000fe00
02020000
0101fd01
00fbfd02
fc0400fe
06010000
00000006
000000fd
ff01fe00
fef7f7ff
fbfdf7f9
0201fcfc
0000fffd
fd0100fd
f8ff00ff
fffe0100
05000001
ff00ff03
03000000
030302fe
fe020202
0000fdff
00fdfffe
fcff0302
fefdfd02
fcfdfcf8
fdf60000
fcfffd01
00fffa06
fe01fef8
010006fe
02000301
0509fc03
fe0000fd
08000700
0401ff05
02ff0200
00ff0002
03fe0105
00080200
06ff0501
01020002
ff040002
fcfffd00
00010000
000006fd
0400fe01
ff000301
02000501
02000106
fe00fcff
fdfd00fc
ff03f8ff
fc02ff00
01fff9fd
fffdfafb
0205ffff
0000ff02
00010002
fc00fdfd
fdff00f9
00fe0102
09060406
0100fdfd
fc030aff
05ff03fd
fd02fe01
03040401
04040100
ff000101
01fffdfe
ff00ff00
00fffbff
000009fe
00060102
f9fcfdfd
fdfefdfb
ff00f9f9
010200ff
f9fb03fa
fdfe00fe
00000101
0300fc00
fbf70000
05030800
ff020300
fd01fef9
fefcff03
07fa0101
04010106
000103ff
02000707
fbfdff02
01fcfeff
fb00fd00
00fdfe01
fffc0001
030101ff
02010201
000605fc
03000200
01fb0000
00060000
00010000
fdfefd02
fefefffd
fc040101
000003ff
00020103
0203ff00
02fffdff
ff0305fc
fe0403fe
ff01fc00
03000100
02000700
0202fffe
02fafefe
0bfef900
03000202
00030001
0a03f9ff
01010402
02040303
00fd0102
0202fd03
01010600
02fb0000
fafbfcff
03010100
00feff02
09fe0003
0102fe01
fdff00fd
fbfe0002
02fa00fe
0000fd02
fd00fe00
00030102
ffff0104
fdfaff00
00fffa02
fe020100
03fb0003
04000302
00fbfdfd
00fffbfb
fbfeffff
02fdff04
02050503
00030500
00ff0500
fb01ff05
fdfdfc00
fefbfbfb
0304fffb
00fcf603
0001fcfa
0005ff00
02010000
fe050700
01000005
00feff00
0500f9fb
00060000
fffe0101
01fcf9fa
01000400
ff00ff00
00030000
06000400
00000206
01020102
ff00fe00
ff020300
00fc00fe
00000000
000103fe
ff0000ff
00020001
04080700
01fe00fb
0100fbfe
00020005
ff0001ff
fffdfd04
05000003
ff01ff01
00fe01fe
00fbff02
0100fdfc
020401ff
00020001
ff00f8fc
fffcff00
05000000
fffdfcfb
fd01fefe
03000000
fa030504
0404feff
01010002
fc020100
040102fe
fefeffff
ff00fffc
01ff06fb
fffbff04
0000fdfb
feffff03
05010302
0106fe01
fe02fdfb
fd03ff01
fefff900
010100fe
fe050300
00010100
00ff0103
00040000
fd0200fd
0000ffff
fe000100
00ff0001
fdfb0103
fd000201
00030006
04fb04fb
02080303
00fefffb
00f90104
04fbfa01
fcfbfffe
fe000101
fe02fe04
fd0104fe
02010400
030100fd
fe0300ff
0205fcfd
00000100
ff000406
ff0000fc
00fdfbff
00fefdff
fafe0000
0100fdff
00040000
060100fe
ff0000ff
0000fdff
00050000
01020002
04000103
0000fdfd
01000600
fffffffb
00ff06fe
04feff01
00040201
0001ff02
0100fd01
010300ff
050304fe
02fe0000
ff00fffe
0400fffb
fefe0300
02ff0000
03000605
0300f9fe
ff050501
00000300
00ff0300
fdfffe03
fffb00fd
0900fd04
0204fe00
fdfffe00
02fefe00
fffd01f8
0102fcfe
ff010004
090401fe
ff040507
05ffff00
02fc0101
fc010002
faff0001
fe0004ff
000101fc
fefd0400
0000ff00
00fefc00
02000201
0102fe01
00ff0503
fffffd03
06040502
04090303
ff020201
03fd0102
fc0000ff
04fdfafd
01000000
00ff0105
fffe0501
0000ff03
fdfeff00
fdfafd00
01000200
05030404
04ff0004
ffff00fd
fd010003
03ff0101
01000105
0203fffe
000500ff
fe0201ff
00fd0306
00fd00ff
030000fa
0501fe07
000000fd
00fffcfb
00fe02fc
020102fc
00fd0001
000305fe
000203ff
00040003
000002fe
fdfd0101
fe00fffe
04000303
ff04ff01
00fcfaf9
0501ff00
00020003
0003fe00
fe000201
01fffc07
0600ff05
00060601
ff0201fc
fe000202
fe02ff04
fef8ff02
fe0003fd
03fffc02
02fe00fe
000000ff
0402ff03
0105feff
00fe0002
030400fd
fd000002
ff010000
02ff0400
02080000
fd00ff02
fffa00fe
02020000
ff03feff
01040001
00020100
00fffe00
fbfefffd
00020100
050304fe
feff0606
0100fffb
00fe0501
0101ff00
01fef9ff
01fe00fd
03020002
fffdfaff
fc0000fb
fffd02fe
0001fd01
ff000100
06010003
0400ff00
ff030000
07060306
fffc0002
ff00fcfd
fe0400fe
01fe0502
00ff0200
00ff00ff
0200fc05
03000004
ff02fcfd
fd01fd03
02fe0100
fbfe00ff
fd0708ff
fffcfe04
03ff0304
ff01feff
00020002
ff030100
00fefbff
03fffd00
03000100
000104fe
02ff0200
09020307
01fe0000
fd00fd00
fe0000fe
010002ff
05020005
0000fb03
000205fe
00000100
fefe00fb
fdfcfe01
fd03ff03
0000fffa
02030401
0504ffff
02000005
fdfe0305
0300fbfe
0200ff00
02000201
fffffffe
03fcfe00
0001fe00
fffd01ff
fcfffc00
ffff0100
fafeffff
fcff00fa
0000fe01
0100fc02
00000001
00fd0503
02010205
fffcf9ff
ff000100
fcfe0300
fffffbfe
00fffe01
fe000301
00ff0002
fefdfbff
01fe00fe
fdff0003
fefcfeff
00000102
fcfb02fe
00040403
fa020007
fd0000fd
fffffdfe
f8fffefa
0403fdfb
000000ff
fb0000ff
fffefc00
fe0001fe
ff020001
030101fd
01fdff01
02010107
00fe0101
030002ff
fe00fffe
0000fcff
00000200
0400ff01
fafe01fa
feff0000
fb0103fe
ff010000
0000fd01
00fe0000
04050300
00000201
ffff0103
fd00fefb
00040001
040003fd
fe000204
0103fe00
04fe0403
00f90302
fefefd03
fe010000
fffefff9
fffcfe01
010002fb
01080206
03ff0102
fe000002
00000000
01050101
02fe05fc
05040002
06fd0600
0000fe01
fdfc0201
000406fe
03000502
05010301
ff020302
fe03fe03
fe0001fc
02050202
0001fc00
fe000001
00fdfe00
fe040300
fd03fffd
01fffd00
01020100
0001fffc
00fefb00
ff030005
fe020300
020000ff
fdff0002
fe01feff
000101fe
02ff0000
ff050205
010300ff
000001fe
050101ff
01060000
06060204
fafa0503
02000204
fc07fd02
00ff01f7
0000fa05
00fffcfd
0100fffb
fc02fefb
02ff0302
05010001
0101fc01
fbffff00
f9f901fb
0000feff
fdfdfdff
0002fefe
00fb05ff
020302fe
00fffd01
010003fe
fa00fe08
fcfc00fd
00fd02ff
fe0300fc
0002ff00
01ff0003
0102fe00
ff00fe04
fc00fdfd
ffff02fd
01000000
ff0300ff
01010005
03fd00ff
0006ff00
04010100
0703ff04
01060700
0504fd01
01040200
00ff0203
ffffff01
05ffff00
00020001
01fd0202
0100fffd
00fffc01
02040100
06fffd04
fffef902
fefdfefb
00030000
02fffe00
fe010201
fefdfdfb
fffbfcfe
fffffd01
01fcfbff
01fefefd
01fd0100
00fffc00
fdfc01fe
090100fb
04010403
000601ff
010203fe
0301ff00
0000fc00
fefd04fd
04feff00
fd00faff
fefdfefe
ff060400
fd000502
ff00fb00
fefd00fe
040100fe
fe030000
ff010201
01000001
00030104
00000000
ff0300fd
fffffdfd
040001ff
02fbfd01
03ff0405
0003fd01
000301ff
fe010000
fbfd00fd
02ff00ff
ff030100
0003ff00
00ff00fe
00ff0002
0200fffe
fffeff05
ff0000fe
0400fafc
00010200
fdfefe00
0000fffc
fdfefe01
fdfc00fb
fefb00fc
ff0000ff
06fe00fc
f9ff0000
040000ff
fdfffefe
fffd00fe
ffff00fe
0000fffa
ff07feff
00000600
01000000
ff0003fd
000203ff
03020101
00ff0104
fd030000
fc000000
02fffeff
00000103
fdff0100
0102ffff
04010100
fd0102ff
01ff0101
00000005
0001ff00
fe000204
fffbfc00
fe000500
00ff00fe
020102fc
fffe00fe
fefb0000
01000001
0300fffe
fdfe00fc
f9fdfffc
fdfdff01
ff0100fc
010406ff
0301ffff
fd000200
00000001
fffe0202
fcfc0003
fdfe0300
00000001
00020000
0300fc02
fefcfffe
fdfcff00
02fefefb
0001fbfa
020100fa
000000fd
0205fe02
fefcfdfe
0000fd01
01fefc00
ff00feff
ff0002fe
00fdfffe
000001fc
00ff0002
02010101
fd020000
00030300
030000fd
01000001
04030204
00030200
00fafe03
0000fd02
01020405
fdff03fd
000300ff
0000fcfe
01fcfffb
fd0200fe
00000202
ff020205
03020003
07030404
fe020301
03fefe06
0000fefd
0200fe04
0000ff00
f903fffd
fefdfe00
0001fd01
ffff00fe
040400ff
ff0003fe
00fffd02
01030002
00fcff02
fd01fcfb
010104ff
fe01fffe
00fd0100
ff02feff
ff01fcff
040300fc
fe000100
00fafefd
00fdfdfe
01ff00fd
fe010000
00010000
0300fd01
fc00fffb
00fcf9fa
0106fffd
fd00fffd
00ff01fe
01fd0100
0001fc00
01fd0000
00000100
04040006
05000003
fefe0400
0100fe01
01000000
fdfafc00
04fefdfd
fb0601ff
fef8fff8
040000ff
fefe0004
00ff00ff
01fe02fb
0300fc00
fc000003
05fc0005
fdff0404
01040500
02000000
fdfcfdff
fffefbfb
fef9fafd
fcfffefa
0400ffff
00000201
fa0000fe
0106fefb
000608fe
0103ff02
01ff0001
010300fd
05010104
fdfc0007
fefefe00
03020307
0403fe00
ff000100
ff000000
fe0000fc
00030300
fd03fdff
000000fe
fbfef903
fc050603
00fb01ff
fffffd01
00010003
feff0005
00fb00fe
fc0003fd
fd000000
0300feff
fdff0002
fffefffa
fdff00fd
fcffff00
fe01fe05
00030000
fc0202fe
fd030104
fdfdfffe
0000fe00
fb000100
01fcff01
ff000403
03030102
00040202
03ff0300
fe000300
ff010100
00000304
feff0102
fdfbfd00
0601f8ff
04010101
fe0000fe
0100ff00
fc02fe01
fffe0000
00fe0505
ff04fdfe
000001ff
fd0206fe
05040000
020203ff
00030002
0500fe03
fe0100fa
00fe00fa
01fcfe00
ffff00fa
05fefe02
fe01fcfd
02fefd02
00010000
0202ff00
01040200
03000003
0000fe02
040105fe
fd0100ff
fefd0001
00000500
04030101
01020401
05000204
00010203
0203ff00
000001ff
08010501
03ff0304
00ff0402
00fb0000
fe02fcfe
01feff04
ff030302
fd00fdfb
fdffff00
ff01fafb
06feffff
fb000105
00fbfe02
0004fd01
000000fd
00000301
fd010000
00ff0000
fe02ff00
fefffcfe
0002fe00
fefe03ff
00000001
0001feff
ff0104fe
00fcfefe
0201ff00
0000fefc
fefb00ff
fe040100
01000205
fffcfcff
00010200
03000001
030401fe
05010004
00000000
020300ff
03fd0003
fdfefe05
fafbfffd
0201feff
04010202
07000001
0102fffc
fffb01ff
01feff00
04040600
ff070303
01020200
00ff0300
01010200
02020000
fffe0002
03fcfcff
0603ff00
00000001
01fd0505
03050002
00fffe00
00000204
0001fe01
010004ff
fe0200fb
010106fe
00fe0002
fa000200
0105fdfc
0302fdfe
00000000
fffefffe
ffff00fd
fd00ffff
03000200
fffd02ff
000101fa
000402fc
04fefe01
00020103
fffffdfc
00fe00ff
0300fd00
03010000
00fdfa01
02000101
ffff0000
00030a00
f8030300
0001fefd
02010000
fffd0000
fd0100fc
0000fefb
fbfffcf9
0302fffb
02050001
fbfe03fe
fcfd01f9
ff00fe02
02030002
03010102
fd00ff00
fdfb0200
0402fe02
02020100
0004fe02
04fe0302
ff030002
00f90400
00fffa07
fdfdfb01
000300fe
fefefdfe
01fdfe00
ff020101
020000f8
010104fe
0101fb00
010206fb
01000100
03ff0304
fe00000a
fc0902fb
00fc03fe
010200ff
fc00ff01
0101fc00
ff010400
fe040206
01000507
030001ff
01040000
fffcfafd
f70002f8
02ff0000
fffffefd
fbfc00ff
010002fe
0500fb00
000200fe
fdfcff01
01000200
fcffff00
00fffb05
fd020000
00ff0202
00030201
00000200
0000ff00
05fdfc00
f800fdff
00f900fd
ff000101
fef80603
fffdfd06
030000fd
0200fdfd
fe00faff
000000ff
03fdff00
fdfc00ff
02fdf902
00020002
fefc00ff
fcfdfc02
00fe00ff
f9fefd00
fdfcfeff
00fffdfd
02fd0207
04fefa03
0300f500
000203fa
fc000100
01040805
01fe0200
fe0201ff
00000004
fe03fe02
00fdfc01
ff030002
020107fc
00020502
02fffcfc
fdfe0002
fefcfdff
02fffefe
00050004
03fe0000
f804fc00
f9ff00f8
00fc00fe
02fffe00
02020202
04fc0403
01060002
0506ff01
fe010201
01000604
04050504
00fdfb01
fdfb0800
0001fdff
00000103
01000102
05040004
020301ff
00fdf901
0004fbff
00000501
04fcffff
01fcfcfe
fa0b05f9
00000300
fe0006fb
02030505
05060703
03000002
010801fe
0100ffff
030002fe
fe010000
00fdfffc
fefc03fe
fdfcfd00
ff0102ff
01000005
03fcf900
0405f9fe
fcf8fdfd
05020006
f80200fe
ffff01fe
fbfc0001
0502faff
02020101
04ff0000
0402ff03
fafe0503
00fa02fc
fe00fb01
fbfc01f6
fd050100
0001f8fa
050706ff
0702fe00
01070400
fd0505ff
02f90806
0203f902
fa010201
06000602
00ff00ff
fffe0001
00080700
ff010200
00fcfe00
0afefa09
ff000003
fd0004fb
00010100
ff06fbfd
02ff01fe
01000000
fdfb00fd
0000fa00
02fd00ff
00fcff01
0103fc00
010001ff
00010103
0200ff01
01fdfa00
fc0afc00
fcfe05fa
fb0100ff
00fe03fe
fe0002fb
010400ff
00030201
00030101
01010003
ff020504
fc0101ff
00fcff00
fefd0003
0000fb00
0100fcfe
ff01fc00
000004f6
08000201
0203fd00
02030000
fd03fe00
f8fc0000
02000200
00fd0402
0001fdfe
00040503
fdffff02
fdff00ff
00fefbfd
03000004
04feff01
ff020203
020403fe
fb03ff04
000303fc
fd040002
fbfa0302
fdfffffa
fdfd00fe
03ff0104
0000fe00
0101fb02
fffd0808
05ffff04
ff050303
fffffcff
02ffff00
03ffff01
08000002
fe010208
00fd0002
ff010000
000200fa
00fe00fe
01000500
01030102
01fd0002
0602fcfe
0504fa06
ff0000fb
fffd05ff
0004fffa
fe060102
00020407
00000101
03fdfd02
f7000400
f9fb0000
00fdfd01
01ffffff
02fdfe05
0103fb00
fd000700
fc01fe02
fcff01fd
0000fd02
fd000106
fefdff03
ffff00fc
00000105
03010501
ff000300
000201fd
000100fa
ff0002fc
ff0002ff
01fe00fb
0500ff00
ffff00fd
fdfe0300
02000202
00ff0203
fc0304ff
00fd0300
000103fe
0002fffe
0202feff
02000504
fefdf904
ffff00fd
010100fd
02040503
fa000008
fefdfdff
00fcfbfe
0000ff05
fcff02ff
00fd0100
fbfdfcfd
0209fbfd
fe0203fe
fcfe01ff
f6fa02f9
fffffc02
0405fbfe
010402ff
04fc0000
000000ff
00010100
05020103
0203fffe
05060002
00000102
ff000200
000403ff
fff7ff00
fefdfdfa
08000501
fb0101fa
ff00ffff
fcff01fb
fe00fffd
00fe02fd
0000fd00
0000fd00
00fffdfc
fb0000fe
00ff04fe
02000007
0006fef9
02fd00fc
fefefe01
fafcffff
fd00fffd
05fffe00
fffef904
fe050202
03fd0001
02030203
00050104
f8010001
fefb0000
0201ff01
070002fe
02020205
fb0207ff
fdff0104
00000300
00030103
00fdfdfd
fffe0000
04ff0100
0000f7ff
fc00fe00
00f8fd00
ff050002
01000200
0102fd00
02010402
fcfdff00
00fcfb04
0b000705
ff000305
04fcfe03
ff03fe00
00fcfffe
0001ff00
06fe0004
0704fd04
00feffff
0104f5fb
01040200
fefe00fe
0303fc00
fafd0100
fffefc01
ff02ff01
ff0404f6
00030000
00fd0004
0100fffe
000001fa
ff01fcfb
0303fe00
fb0002ff
0000fe00
fe000202
fe020400
010000ff
01fc02fe
00fdfe00
00010305
fd0302ff
05040006
fb00fbff
fffe01fe
fd01fdff
fcfd0000
010300ff
01fe0100
0002fffd
0002fcfd
fff9fb00
0008f8fa
fe0703fe
fe0001ff
fffeffff
0002fffe
03fc03fc
fcfd0208
02fdfefc
fefdfbfe
0401ff00
00000006
01020100
ff02fc00
ff000200
00fefd02
fcf90000
0002fefd
ff0300fe
f5fffdfe
fefafff7
01010004
ffff04fe
f6fefeff
08010001
0102fdff
ff000005
fffd0001
0201fd04
010000fd
ffff0400
01fd0403
0005fc00
020106fe
04fd0002
0101fd03
04fefa00
fa01fffd
fcfe01fd
00010700
fffcff04
eff2fdfd
08f7fc03
fb010004
fdfc00fe
030303ff
05feff00
0006fefd
02fefe01
0003fefc
00010200
0100ff00
feff01fb
00ffff02
0004ff00
00fffffc
01000308
03fefdfe
0203f5fc
02fc0400
fd0101fd
03ff0300
020001fb
faff0000
fffe0500
00fffd04
00fcfffc
0301fc01
fe030002
00fc0301
02000003
030000ff
fd0201fd
000100ff
060300fd
fefefe01
ffff0504
01fe01fd
0002ff01
f800ff00
ffff01fb
fd00feff
fe010000
040400fd
00fdfbff
000001fc
fcff0001
00ff0302
03020402
fd00ff03
010002ff
0500fefe
0005fefb
0000fcfe
0000fdfc
fd000101
fffafa00
00ff00ff
07010000
0003fd00
05fef8ff
fd000102
0101fd01
01fdfffb
00020301
06ff0001
08010005
0503040b
fd01fffd
fd00ff01
000400fe
00fbfd02
fffdfffd
f9fc0000
01010004
fa0000ff
fafa00f9
00ffff00
03000000
00ff0606
fe060106
f9ff0402
f8fff9f8
06ff01ff
0200fefd
0205ff08
01010100
00fefa00
ff00fd01
fb00fb00
01fe03fd
000102ff
000a03fe
fcfdfcfe
00fb03fd
02fffd01
ff0100fc
00fe00fe
08fe00fe
0107fc00
fe050602
01fd08fc
0400fd00
0701f90d
fc00fbfd
fdfd0302
00fb00ff
02fb00ff
fc080000
0405f9fc
fd0403ff
000000fd
f80005fc
01000101
ff03fd03
00030200
f9060000
fcfd0504
fdfbfafc
0105fd01
ff010100
fefd02fc
fe000100
00040100
05060001
ff00fd01
fafbfefb
0000fafd
fb0301ff
06010000
fd030205
ff020100
fd02fefe
fd000000
fe010000
fdfb0300
0101fbfe
0302fd04
05fe00fd
f801ff00
fe010103
00fc0902
fd00fdff
04040002
0203fe00
fd030301
fdff03ff
01000006
0e03fc06
fd04fdfb
000000fe
000700fb
05fc0000
fd0200fd
050300fd
fdf6f905
02fd00fe
ff00fc00
ffff01fc
fe02ff00
030300fe
fefd0004
fc000001
000901fb
02020001
0101fd00
fdff0003
000000ff
fdfdfcff
0002fefb
02010203
07000303
00000405
feff0001
00fd0001
fefffe00
fb00ff00
0200fb00
01ff0106
00fe0500
0001fc03
000500fd
0400ff04
ff01ff00
fffd0001
03fd0001
ff020204
01fd0202
010102ff
02060703
0a030503
04fefc02
01fffeff
fffefdfe
00fffffe
fefc0103
00ff0000
01020500
06000503
fcfa0209
fffffeff
00fdfe00
ffff0100
fefbfd05
01fd0202
0105fe00
00feffff
f8f9fbf9
0302fbfb
02030400
04ff02fd
03fd0104
fcfe00fd
fdfe0001
fc000000
0100fc00
fcfff7f8
fe00fefd
02fe0602
fc00ff01
0301fffe
02000304
0100fe01
00fb04fd
02000200
000004ff
00fb0201
ff00fefd
02000100
0000ff05
ff01fe00
fc000706
fefafefd
00fdff02
04fd02ff
0301fcfe
03030100
ff000000
00fe01ff
fdff0002
030202ff
050503fd
00000006
00000205
0001ffff
00fbfd00
fefdfe00
000000ff
000401fe
00020301
fbff0201
01fc00fc
0000fa00
fafc0102
fe0000fa
01fffe00
ff04f900
00ff00fc
feff01ff
03fe0005
fcff0205
01fe0303
ff000504
010004fd
fafe0401
000000fe
00000000
fe000300
fe000001
050401fd
fd0000fd
fcfd0200
fdfff802
fdfdfcfb
0001fffa
01060400
0201ff02
000401fd
03030201
f9ffff00
0002fdfc
fefefd00
04fd0405
f6fb0400
fdfafef9
02ff0103
01ffff05
03fe0400
01000102
ff000302
04fcfefd
010002fe
fdfc0000
00fcfd04
0001feff
010101fc
fdfd0001
04fdfe01
00fd0000
0100f900
fd0300ff
fe02fff9
02020002
03fd0100
fcfa0102
ff0005fd
020001fc
0103ff00
01ff00fd
0301fe00
05fdfd00
0000fbfd
04fe00fd
00000300
fdf90001
0001fdfb
010001fe
00ff0000
020100fe
00fefe05
00fdfe00
01010400
05010300
04010100
fa000100
020000fb
fe00fc01
02fd0000
000200fe
00040001
fbfb0003
fdff01ff
fefdfa01
000000ff
fd0001ff
00000002
ff000001
fd000000
fffdfbff
02ff0100
fffdff05
0004fb00
fd00fbfa
0205fcfb
ff0101fd
0000fffd
01020005
fdfcff00
00fe0705
00010501
00030100
03ffff01
fdfefdfd
0000fdfe
03050300
04000301
fd020002
01fe0203
00ff0102
00030603
fbfd0000
0100fcfd
01050603
00fffcff
0002fa02
00fffdff
ff030403
0103ff01
00040a00
03010000
fcff0207
00ff00fe
0300fefa
00000000
0000ff00
fe000000
00fe0100
fcfdfbff
05fd0001
fe000303
01010200
05ffff02
0001ff04
fefeff00
f9fbfffc
fe0000fa
020104ff
fdff0000
010100fe
fe00fefe
0200feff
fcf80400
fbf8fbfd
05000000
000802ff
01020102
0404fafb
fdfa0500
04040000
00fd0000
01010000
fffdfeff
01fd03ff
0202feff
00040001
ff000805
0200fefb
01000003
ff000201
000100fe
0003ff06
05010400
00fefefb
fc0003fe
f8fdfbff
ff01fcf9
05fd0101
01020000
fafe02ff
fdfbfd00
00fe0000
05fffd00
02ff00fe
fd02fffe
05fffd00
02fefb01
00fdfcfa
fdfa02fe
fffcffff
fc000104
fe00fdfd
01ff0100
010000fe
fe00ffff
02f9fc04
00f9f5fb
fdfa00ff
020000ff
fd02fbfa
feff00fb
00fafeff
05000302
070a0206
fd010002
00000101
00fe0003
fffefcfd
0104ff02
02000200
00060200
0201fefe
02000000
04fefc00
fa0000fd
00fd00fa
ff0203fe
00050201
fffe0305
03fafe01
05030304
02040508
ff0201ff
fa0001ff
fbfd05fd
03ff0005
fc03f9fa
ff00fd00
01050400
fa000601
01fdfdff
00020100
01000303
03ff0405
f8f8f403
fe01ff00
0100feff
04fe0700
0207000a
fa020204
02fe04fb
05000306
ff0100fd
00050500
fe01ff04
03000103
fffe0002
06040204
00040200
010000fc
00fffdfd
fefd00fb
030000ff
fbfefeff
00fe00fe
fffffdff
0000fefd
fc060001
040100fc
fe0003ff
fcff0001
fdfafdff
fbff0202
fdfffbfa
ffff00fb
fa000300
fdfcfefe
00fcfbff
fe00fbff
00010100
02030701
fcff00fe
fbfc00fa
ff010201
02040100
fb000305
02fa00fd
040000ff
05080402
00010000
02020200
0001feff
00ff0100
0000ffff
faff01fd
fbf9fbfd
fc00fffc
fff70303
fd0003ff
00fb0603
fdfffe00
020300fd
05020304
03000304
00fffefe
00fdfe00
f9fa00ff
fcfcfefd
01000101
00fe0200
00000001
01010200
00000102
fefe08ff
09ff0206
fd040100
ff020204
03fd0001
0c0f0300
0100ff07
0000fe01
02ff01fd
00000401
fe02fe01
0002ff01
00020100
0101fffc
fafcff00
fdff02fe
05010104
fd000104
01000303
fe01fb00
fefa0101
00fafcfe
00ff03ff
fcfb0201
fdfffffd
00faf803
0000ff00
fe0100ff
01000102
02000005
fafbfa00
0c010005
00fe020a
000006fe
f8faf8fc
0202fdfb
fe000001
00fdfd02
00fc0100
fe00fe00
ffffff00
00fb0003
fa0000ff
fdfe0203
fffdfffe
040103fd
00000004
00000000
01000100
f50402fd
fffdffff
0003fffe
fcfafdfc
0504fcfc
00fafefc
04fcfc01
fefeff03
06030600
01feff00
0306feff
000401fe
fb010000
fc03fefb
fcfbff01
fe000503
ff010103
fb0200fe
fd0200fe
020501fe
ff040401
03fe0402
030000ff
000101ff
0600fffe
fbfc0000
fe00ff00
0300feff
fdfcff01
fa00fbfb
000300fc
fd030803
03010107
fefdfefb
fcfd0000
080003fe
03010105
fb00fcfc
fa03fefc
01f9fcff
00fffcfd
05030500
fe010206
00fe0002
0201ff02
fa0000fc
fcfc02fe
00fb01fd
09020104
07000602
00fefe05
0300fefd
feff0703
fb010100
fd010100
0000ffff
010408ff
0000fcfb
0102fffe
00040301
050000fe
fcfc0004
fef6f7ff
04ff0000
fbf60105
ff0903fd
fefd01ff
0001fbfc
01fcfcff
fd0701fe
fe01fefb
00fc0000
00ffff00
ffff0003
00ff01fc
fdfefaff
fbf6fffd
fd0100fd
0100f9fa
00010100
03000303
fffdfaff
fffd00fe
000000fe
00fbfe00
00fe00fd
000000fe
fd020203
ff02ffff
010300fd
fe000100
fdfb00fd
0401fffe
0000fefc
f9fefdfe
00fffe04
01040404
fc030400
02020603
fffffefd
02fe0000
000c0105
fcfffbfb
fffdfafe
03fffd00
ff00fb00
ff030001
01050301
03040002
00060504
fefd0002
0100fd03
0003fffe
01050804
fe010001
fffffdff
fffcf900
00000706
0003fc00
fffbfc02
fe00fbfa
01ff04ff
fffdfe00
00fe0000
ff02ff02
01030200
0106fffe
090cfefe
00000803
0800ff01
ff090506
feff00fd
fffe0100
01000001
00fcfefd
02fefdfc
010100fd
0001fe00
ffffffff
fe000200
02fe00ff
01060000
04000301
010302fb
fffdf8fe
0100fffe
02feff00
fd0600fe
fe0100ff
02fd0104
fc0000ff
03feff02
faff0000
ffff03ff
0002fdfc
fefe0204
ffff0000
00fb00fd
fe0402fb
00fe00fe
fffe00ff
020200ff
0500fffe
01fe0400
0100fc01
000301ff
0300feff
02ff0102
fe040203
0000ff00
01000000
ff00fdfd
0201feff
00fdfefc
01fcff01
ff00ff02
0402ff01
ff0000ff
fdfcfffc
0600fc01
00feffff
ff030000
fffe00ff
000000fe
fd00fe02
020202ff
0004fd00
00f900fe
07fdff02
fc00fdfd
000200fc
fb00fdfe
ff0202fe
00030604
00030202
ff000100
f9fffffa
03fe0302
00030006
fffe0001
04020000
fe00ffff
02010504
0000fe00
01020201
000600ff
01feff03
03010002
03010300
00fffefe
fd000000
0100feff
fb030002
fffe03ff
ff02ff00
02fe00fd
00fffefc
fe0307ff
00fefe00
000004fd
fffdfdfe
010000fd
ff0301fe
00ff04fb
00010103
00020804
01000206
00fe0100
0100fd00
feff0200
0102ff02
fefdfffe
fafd02fe
00fd00ff
fc0301ff
fafbff01
02fffe00
010300fb
fc010301
fdff0101
00fefdff
01fd0100
020401fd
ff0000ff
fe020100
fd020001
fe01fd00
00000100
ff0a0000
00fd03ff
00ff0003
02010101
fcfefdfe
00fefffe
fffd0001
0002fefc
fefdfffd
fcfbfdfc
fbfefbfa
00fe0202
02fefeff
ff0202fe
ff0300fd
060401ff
0208fe01
0001fffd
02010004
ff020300
fdfdfcfd
000400fd
04030102
00030003
00fe0001
02040505
fefb01fe
fd00fbff
01fbfdfe
050405fc
01000404
fe000800
fefffa02
000404f9
fc060600
fd01ff08
fcf7fdff
00fdfbfc
fefdff00
fffffffe
ff000000
fc0003ff
fffcfd02
00070000
fc000500
00fdfe03
feffff00
fe0300ff
0100ffff
fe05ff02
00fe0202
01040001
02fe0000
01ffff02
ffff0101
01000200
0200fffd
fd00feff
0200fffe
01ff0000
01fdff00
00040303
fefffd03
fd00fffd
00fcfd04
0201ff00
fc0000fe
0303fe00
020002fd
000000fd
00fa0402
fd0200fe
00fe0200
02fd00ff
0401fe00
000200fe
fffe0303
fc05fd00
0103ff02
03000204
02fffd03
fe020104
fa000202
01fd0306
0401ffff
fefe02ff
01030302
02fefb02
000100fe
00fe0100
fcfeffff
000000ff
06060000
00000203
02000003
0100fdfe
fffffdfd
fb020300
00ff0405
ff020500
ff00fffe
fe01faf9
fdfdfff8
00fc00fe
ff01fd03
fdff00fb
020101fe
0000ff03
ff020002
00010001
04ff0000
02000003
fdfffefa
fcff0000
fb00fcfd
01000100
ff0502fa
000105fe
faff01fe
fffefffd
00ff0002
000100fe
feff0000
010200ff
fc010201
01fe0501
fefd0202
00000300
fbfbfd00
f8f8fcfd
ff000300
00feff04
0400fbfc
020301fc
02fdfe00
01040002
030204fc
00feff00
fd0300ff
00010200
ff00ff00
00000204
00fefe00
fdff03ff
fd0300ff
ff00fcff
fefdff01
02040100
00010201
00fffc00
00fbfb01
02fffffb
fffe00ff
0000fcfa
00000002
00010101
000100ff
fbfe00fc
03fcff01
ff000002
fe0001fb
0600fe02
0000ff01
ffff0c02
02000001
00ff0000
00fd00ff
00fefc00
00fcfcfe
030001ff
0000ff02
fcfd01fe
00ff0001
ff0000ff
fdfaff04
020300fd
02fd0103
00020000
0003ff05
010001fc
00fbfb04
0000fcfc
00fd0200
00030002
040100fc
0003ff00
fdfdfe00
fefdfc00
01fbfdfb
00000104
00070303
01000103
0402ff00
0201fdfb
03000000
fd060401
000002fe
fffdfd01
0700fe02
f900fc01
fc00fdf9
00fafe00
ffff0003
fd030301
fd03fc05
03ff0201
00fefd04
fffe00fb
00fd0103
00fffefe
0401ff00
00050303
fdfefeff
fd0200fb
00fbfbff
fe00fafb
fe000003
00fe0102
00030000
00fe02ff
fd0203fc
02fc0001
040200fe
00010001
00ff0501
01000100
03fc00fd
01060000
fc0102fc
00ff0200
0002fc00
fd01feff
00020700
fcfc0105
fd000002
fd0202fe
ff0200fc
000300ff
02fb0200
0000ff01
00fd0001
fe010100
0201fefd
0406fd02
01fc00fd
000000fd
000100fe
04000200
f80002ff
fefe0203
00ff0003
02020103
00fd0000
000400fd
05010102
02050304
04010103
04010408
02ff0000
00000100
03feff00
00fdfa06
0000fe02
0700fe01
fe06fd00
010000fb
ff040000
00000001
02fc0202
00000100
03fe0002
030501fc
0102fffe
03060402
0103fdfd
050106fe
00070204
00040400
0002fe07
fefd0100
00fefd02
fefc00fd
0005feff
fffdfbfc
fd01ff01
fd0002fd
00fdfeff
0101fe03
ff000200
04ffff01
000000fd
01010000
03030302
f901fffe
0200fcff
ff04fffe
fd040202
fd00ffff
000001ff
ff0003fe
00000403
fdff0404
00fffc01
0203fb01
fdfb0101
00ff0300
00ff01fe
fb010004
fdfe0400
01fdfd00
fefe0100
fb0000fc
03fc00ff
0000fd00
03fefe05
050107fc
fefb0300
ff0300fd
02ff0101
fd020500
04fc0405
fcfe01fe
fcfdff01
0000fdfd
fd00fb04
fdff0004
fc02fe00
fefc00fe
05fc0003
0503fdfb
0202ff03
03feff00
f9fdfc01
fdfefd02
04000002
ff000000
ff0501ff
fd0200fe
ff000107
000100ff
ff00ff00
000100ff
fe010302
00ff0301
05fefe00
02fe00fe
fffeff02
ffff00fc
0004fefc
000300ff
05000100
ff050301
fefe0002
fd0500f9
fe000700
fc01ff02
fd00fefe
02fe0104
fdff00ff
0403fefd
010505ff
fbfd0102
fefe02ff
0200ff00
0401fe02
000200fd
000201fd
0300fd00
02000000
ff000200
00000000
00fffcfe
fe00fdff
fe0000fe
fcfefcfc
000100fd
fefffe02
fefcfffb
fefc0000
fefdfe00
fd01fffb
fdff0000
04000300
00ffff06
00fc0401
00fefd05
0203fe02
00030100
000100ff
000004fe
01ffff07
02010600
fffd0007
0000fe02
ff050101
ff030203
fe00fefd
03fffc01
06020003
feff05ff
000000fe
0000ff00
040300ff
000203fd
fffe0600
0000fa00
fefef8fd
000000fd
ffff0201
fcff00fb
fd02fdff
01070000
01010502
0100fe01
010003ff
feff00ff
fafd00fe
01f700fe
fdfc03fd
01fb0101
fe0204fe
03ff0405
f9fcfe01
03fdff01
ff020303
01fe04fe
0200ff00
fe0000ff
0303fc03
fffd0000
000000fe
00ff0200
fd00ffff
fe0200ff
01040001
0002ff01
ff000100
00fdfeff
05fe0200
00000201
fbff0300
00f90003
0204fd00
fcfffe00
04fcfefc
fffefdff
01fd00fe
ff00feff
fdfdfefe
0101feff
06050100
01010102
fffe0105
fe0201fc
00fdfefe
0000ffff
01010000
0003fcfd
010203fd
00000003
0000ffff
fd000400
02fefe01
01030200
00fd0100
ff010000
0203fbff
fefffeff
fb03fcfe
01fe0200
fd040003
00010700
fd020201
020000fe
fb00ff00
01010500
00030008
00fd0300
00000100
03010300
01ff0205
00020207
00fb02ff
ff000301
fe010001
fbfe0300
fef5fbfe
0501f6fe
0003fe00
05040000
fe02fffe
0a02ff02
ff000203
0000ff01
0100fffd
00000002
04000701
0201fd01
0000fc00
fd00fbff
0000fffc
000001fe
fe01ff00
04010000
05030202
000100ff
000200ff
03030304
ffff0000
ff00fdfe
00fffcff
00010102
00ff0103
000500fe
fefe0003
fe000005
00fdf902
feff08fe
00000103
03fefbff
02020301
f7fc0002
fffafefe
01020000
00fc0205
00010100
00ff0500
0703fffd
fcfdfb07
030000fc
0103fe06
00fd0203
fcfdff04
04fdfdfb
fffefd00
03000401
fdff0000
ffff01fe
00000305
01020404
fffd01fb
00fafe01
f804fefe
00000400
0003ff00
000201fd
00fffc06
fc0100fb
ffffff00
00fb01ff
ff0000ff
fc000203
0001f900
f503f700
f7fcfeee
00fdfefe
ff01fdfd
05020000
fdfa0002
0000fbff
020000ff
0100fe03
02020200
f90201fd
0002ff00
fefefb00
0301fefa
0000ff00
00fffd00
02020206
ff000300
00020402
00fe02fe
02000000
01fefc00
fa000003
00fefe02
03000302
000002ff
00fc00ff
000500fc
02000300
02fafb02
0203fbfd
01fe0400
06030101
00000100
02010000
fdfc0100
fefefe00
f9fcfbfa
01fbfdfd
fb01f9fd
070101f8
ffff0000
00fcfeff
06fe0109
00000001
fffef9fb
000200fa
0000fc03
ff01feff
0102fffe
fefa0204
00fcf802
00000000
fefdf901
0404fd06
fc0301f8
0300feff
03010906
fdfb0309
0600fbfd
ff0200fd
ff040100
00ff02ff
ff000300
ffff00fe
fbfefa04
fdff02fd
0400ff04
fdff0200
00010103
fd01feff
ff000400
01000903
02000200
fdfd0100
ff020504
ff030102
00000500
ff010102
ff0000ff
01000000
000101ff
010005fc
04020100
0500fafb
fc0104f6
01feff02
05fefcfe
02070105
03ff0302
000000fe
f6fe02fe
0103fd00
fe05fe02
fc0007fb
00030204
fefcfe01
fe0201fc
000100fe
02fcfd01
fdfefffb
fff3fffe
00fceefa
000300fb
fefcff00
08010500
fb000305
fefafffe
ff0001fb
02fd0004
fd00fd00
ff000002
04020302
00fe0101
05fffc00
ff04fe04
fdfb0000
0003ffff
fe020000
ff050000
03fe0604
0000000f
01fafd02
ff00f6fb
f600fffd
01fafeff
0302fd01
fd010006
0105fe00
00020004
ff00fffd
fffb0100
ff0000ff
000100fd
0200ff02
0100fe00
f6f900ff
000405fb
fffe0000
00fffbfb
fdfb0402
ff02fe04
02fd02fb
fd0000fc
fb04fdff
faff02f4
01010000
fdfe00fd
00fe0100
00fefe00
fcfffe00
00fe00fd
000000fc
07000401
fd08fd00
00fefdfe
fe02fdfd
02000300
01000400
fd000101
f203fdfb
070109fe
00ff0202
00010400
01ff0000
fb00fdfe
020200fb
fef800ff
0200f4fe
ff01ff00
fd02fefd
000000fe
fd0303fd
fff8fe01
00fe0004
fb02fefc
00f3fe02
0101f900
fa080100
01f90000
fefffefb
01000000
00010303
01fefe07
0401fefe
06000603
ff00fe06
f7fe00ff
04fb0000
ff0000fb
01fd02fc
01040002
fe0103fc
fff90000
00020000
040203fe
02050107
fe03ffff
000003fa
00fe000d
020300fc
fefe0100
020302fc
fd01fd00
fc00fafc
0100f9fc
00040400
00020003
fc00fefa
030402fc
01060201
02030200
fdfdfe00
0300ffff
0202ff0a
fd00faff
ff00fe00
fe0100fc
feff01ff
0400fe00
06fc00fd
fd0800fc
03fe0101
fd000403
01fc0004
fc0000fd
00fb00fc
f7fbf9fd
0c090b0b
03fe0516
06020300
0000f9fc
fd0300fd
0004ff00
02fcfcfc
ff00fffb
00fcfefe
0200f6fd
010101fe
000001ff
04030600
fe0100fe
00fb0200
ff01fdfd
00fd0103
02030200
fffe0001
fa00ff05
0102feff
0500fd00
feff0101
03fe0004
fe0000fd
fd000004
0000fdfe
fd010300
020301fb
04faff00
0501fefe
ff0001ff
010103fe
02fdfbf8
08fdfe00
fe01ff00
fd00fe01
ff0101fd
fd00fffd
00fdfb00
00fd0100
0100fe03
fefd0000
01fcfffe
01050201
0101fe00
0100ff00
02fd0100
ff00fcff
00fefc00
00000000
fefdfe01
fe0100f7
01000000
fd00fcfe
00000200
00fcff01
fe01fb01
1204fc00
000cff02
fdfcfdfb
0501fffb
01000401
01020401
07fa0300
fdff01fc
0001fffc
080001ff
0005fc02
fffe0000
00ff0005
00fc0003
00010400
01f90208
03000005
00080104
030000fc
01000303
01fe0600
fd000101
00ff00fd
03fe0200
02000205
fffcfe03
ff00fafd
fd04ff00
fe000503
ff02fa00
fe0000fa
00010000
0200ff00
03030100
feff0002
fe000008
01000001
ff010001
02030403
000102fc
fb000000
0400fc00
fcfe0000
01ff0102
fe010000
03fffefb
ff00fe00
ff01ff03
000103f8
00ff0000
0700fb07
00f70204
001802ff
00fc0500
0300fd00
00010000
03fffd00
fe02fefc
0002fc00
fdfefffc
03070000
ff00ff01
fffefd00
00fffd03
00fffa00
fb00fcfc
00f60000
03050200
ff00f9fb
ffff02fb
fefcfe00
02010200
00020202
030904ff
00fffd01
fa01ff00
00f7fd00
0200f7fc
00000000
01fa0002
ff04fe02
00fcff01
01010101
00000203
fdfc0000
00ff0000
01050901
fdfd0105
00fffefe
04fd02f9
fafe00fc
fcf8fdfe
fdfd00fc
00fdff00
fd000401
01fdffff
0000fd00
02ff0000
0600fd00
fd010300
fc00fefc
02010000
0000fefe
fc000200
fefefffd
0101fafe
01030200
00020000
0000fe00
fefefffe
03ff0101
0201fe04
fefdfd00
0001fe00
030301fc
02000101
fe05ff04
01ff0102
00030300
01000003
feff01fb
0001fe02
fcfd08ff
0200fd02
05050200
010001fd
fd030103
fef9fd02
0500fefe
0304fe01
0101fdff
fe000000
03fefffd
02fbfd02
0200fe01
01ff0000
02010100
ff00fd01
01000000
fa0203fd
00ff00ff
02020000
01fe0102
0300fb05
fd02fd01
020101fd
0000fdfd
000002fc
fffa0003
00fff903
0400fcfe
0100fd03
f60002ff
00fdfaf7
ff0101fe
fb000000
fdf9ff00
000300ff
ffff00ff
00000000
01000103
0601fffe
01080202
feff0102
fd040600
fafb04fe
00fefdfc
fb03fffc
0100fe00
0201fd00
010100fe
fe0401ff
03030301
fa01fbfa
06fdffff
010804fe
fa0003fe
0105fef9
01fa0402
ff000006
fd000200
000300fd
04010002
00030002
fd0004fd
00010304
00fdff05
030300ff
00fdfcfb
0e07000b
ff020002
020303ff
05010008
02000102
0200fc00
020001fe
02010301
fc010100
04fffe03
fc070003
ff00ff01
00fc0101
00feffff
0000fffb
00000301
fdfafa01
f8fdf8f7
fe0000fd
fd0002fe
0300fffe
05030508
00020001
03fe00ff
0200fd05
fffefe03
fb010200
fefcfe01
0300ff00
0001fdfd
fbfc00fd
03ff04ff
00010003
070500fe
02060704
fc01fe02
050000fe
00fffc03
000007ff
0000fe02
00010001
02020000
ff010000
03000000
0100fcff
ff010400
00000002
fefdfffe
00fdffff
fe00ff00
ff01fffd
03040100
ff00fc01
fc000000
0000fffe
02000000
fefc00fb
02fffd00
00fbfcfd
0200fbfd
02000002
05ff0100
0002fe00
00fe0003
fd00fefd
02010708
ff020001
0100fb00
ff000204
fdfdfeff
000004ff
fb010200
03fefffd
00000101
08040104
fc000806
0300fd04
ff02fcfe
02050200
00000000
040000fe
0002ff02
fdfefd00
02feff00
ff000003
03030601
fd00080c
fcfc01fd
fcfd00ff
00ff0000
fefffdfa
fc00fffc
ff01fd01
0301fefe
02050000
01fefe01
feff0000
010001ff
fa040102
00fc00fc
00020200
fe0300f8
020400fa
01ff00fa
fb01fffc
fdfaff00
02fef8ff
fb020000
0201ffff
fdfefefd
fc0000ff
0400fc00
03fdfc00
04fefdfc
fe000001
01fffdfe
00040001
05fd00fd
0101fefe
fefffdfe
00fd00fd
00ff0200
fffe00fb
05010301
0000fe04
00feff01
feffff00
ff00ff00
fe02fefe
01010202
fcfcfe04
02000400
0400fd03
fd00fd04
03f8fdfe
02010500
0100ff05
03fd00ff
0000fe05
02000100
03000200
01ff0004
020200fe
00fe0202
fbfb0002
fe000000
01020402
000200ff
00fffe00
03020305
fd010100
04020400
faff02fe
0101fffd
00040301
020500fa
04050204
ff060102
fefffd00
0000fa00
fdff0400
fe050502
02000202
00010103
fefb0001
fdfe0102
ff000000
ff060100
060702ff
fd00fe02
00fe0400
00000000
000000ff
02fd0001
0200ff02
00fe0000
00ff00fd
fffd0101
00ff00fe
00010100
02fc0000
0000ff02
fffefdfe
0200fcfd
00020300
ff0300ff
05010004
fe0202fe
01040205
fbfdfb03
fdfcfe00
fcfefbff
01fefefe
02fa0003
02000000
00fcfd04
0000fafc
010102fe
08060601
00fefd02
ff00ffff
fefafcfe
03fdfa00
0103fdfb
00fd0202
01fffeff
fc000105
03000305
fd0002ff
00fc01ff
00fd0002
fcfdfc00
fe0103ff
00feff01
00fffffd
03ffff01
ff000103
02020000
000100fc
fefb0203
0301fdfe
fd000403
01fffb03
00fefa03
05010000
02fc00ff
0002fa02
fe0302fc
00ff04f9
01060401
00010001
fcfd0000
fffdfffc
00000001
fffffe00
010003ff
0100fefd
020400fe
fffcfa00
01fd02fe
0000fd01
03010102
ff000201
fefd00fe
01fffe00
0106ff00
00000300
ff0302fe
fd000100
020000fc
00fdff01
0601fd00
ff020403
fef8fc00
fc0200fa
02fefffb
ff00fc00
00ff0102
fefefe00
00fb02ff
01000100
0001fd03
000505ff
0001fefb
0100fd00
000000fd
ff000704
0203ff01
fefdffff
00ff0003
00fc00fe
fdfbfeff
0201f9fe
04ff01f9
00fc00fe
00020000
ffff0001
fcfa00ff
ffff0102
fffc00fe
000902ff
00fefdfe
01fffffd
0000ff01
0201fd01
0603fe00
fefbfe00
03fdf8fb
fc00ff00
fffcfd03
fc02fe00
00f80300
ff010000
fc03fd00
fe000100
0100fffe
f900fa00
fdfcfefd
01020402
feffff02
03000000
00fefdfe
000100fe
fefc02ff
04fb0002
0101fdfd
0000fe04
00fa00fe
00fe00fd
03000000
fc0400fe
ffff0302
fbfe0200
01fffefc
fc010400
0300ffff
fefcf9ff
ffff0305
00fefe00
01020300
020100ff
fffd00ff
01020500
05ff0302
0002fd00
fff5fbfe
0300fd00
0000fc05
000408ff
fd01fe02
fcfcfe00
0403fd02
ff0300fe
03000100
04020000
02ff0702
01000001
02030304
00010002
ff000200
ff030000
fe010301
00fe0100
ff0002ff
0200fefe
01fd0202
00fe0000
02fdffff
03ff05fe
00ff00fd
ff00fb01
fffd0100
0003f802
feff0705
ff00fd00
00fffdff
fffe0001
fffe0001
00fffb01
00000400
00ffff01
fe00feff
03fef9ff
03fffd01
ff040600
01fe01ff
04000101
03f80002
fbfff7fe
fefdfffc
00ff0000
0202fdfd
fffcff00
03030100
0000fdfd
fc0000fd
00000002
fefdfefe
fefbff02
010202fd
fd01ff01
ff0000fb
fffff8ff
00fefefb
fcfdfd00
0300ff03
03fe0001
fefd0306
00fcfd02
fbfff9f7
010100fd
03040500
00000001
fa00fe01
02000200
0000fe00
0100fd03
00fffe01
03000501
fc000000
0006fe01
ff030001
00fe00ff
01050104
03000501
01030005
fcfcfd01
07ff0201
02040005
00010000
fe040000
fcf900fc
fffefdff
00020203
000204ff
fd000000
fffbfefd
0301fcfe
ff00ff03
020100fc
120e0109
01000501
fc00fb03
000200fd
00030100
00040102
00000001
ff01fb00
05fcfd00
fcfd00fb
00fdfd00
ff010101
03020202
05020002
fcfefffb
ff0001fa
00fffe00
00fdfcfb
ffff0001
fef8f9fe
05fffefe
01000103
02feff01
00fffefe
0200fefa
020103fd
00fefdfe
030101fe
030101ff
fd01fcff
000004fd
fe030000
fefdff01
fef800fe
00fb0401
00000005
00000008
ff030002
ff010405
02020001
02fe00ff
fefe0afa
000100ff
ff0000fb
ff020605
fefbfeff
fefffc01
fc00ffff
fdfb02ff
00000302
fe00ff01
020202fe
01030100
fe000000
fdfcfd00
00020001
fe010001
0201fd02
00020201
0000ff00
fbfc0000
ff01fd00
ff0000fb
0000fe00
0002fe01
02ff0202
fe01ff00
0100fffe
00070401
fffe0104
fe01fc02
fd0301fd
ffff0002
00fe0000
ff030000
01030100
fffb01fe
00000305
00010101
00ff0000
0000ff00
fffd0100
01000000
05020303
fefa0304
fefffd01
000000fe
fcfe0201
00040800
f904fe03
fefc00fb
fffffd03
02000201
00fffffe
020305ff
020401fc
00fe0301
00040004
fe02ff00
fbfeff01
00f90100
0002fffa
00ff0100
00ff0200
fb00fdf9
010101fc
ff03f701
0002fff6
050300ff
0201fe04
ff0100fe
fe02ff01
000000fe
fe04fe01
01fd0005
fffdfdff
fdfd01fd
fc05fc03
03fe00fe
fbfd01fc
010303fa
00010202
ff00fcfd
03ff00fd
01020001
fd0300ff
fd04ffff
ff010300
ff00fefe
03010000
00fffa01
fefbfa00
fcfb00fb
03060400
fe020000
00ff00fe
ff030203
ffff0200
01010000
02030403
01ff00fe
fb000001
ff00fd00
00fffbfa
02fe00ff
000003ff
fffe0200
030002fe
fffcfa00
fe00fbf9
fe0200fd
fe00faff
fffdfffe
0705fefd
fef9ff02
fc03ff02
fefffffc
fd000201
02ff0200
00020000
00020200
02000103
03fc0005
fe00fb02
fdfd0002
0302feff
00020101
fcfcfc04
ff0001fe
01010101
01000202
040400fe
01030004
010100fe
00fe0201
fd00fcfe
0200faff
0103ff02
fcfafffe
00feff02
0406fc00
ff000102
fdfcfc00
00fc0103
00fdfdff
0000ff00
00fd02ff
010406fe
05050002
03060200
00ff02ff
fbfbfbfa
02fefc00
00ffffff
0003fe01
fcfa00f9
fefefe00
0001fefd
0405ff00
03060201
fd000302
0001fefd
fffffdfc
ff0102fe
00fffe04
feff00fe
000102fe
050300fe
fe030201
0100fe00
fafe0001
fcfcfcfc
00000005
fe000002
00ff00fe
ff02fafb
fc0103fe
03000105
0201fdff
0302fc03
02fc00fd
fa0000fb
fffb00fe
00fe00fe
fd00fbfc
fffc02ff
ff000100
fa01ffff
fdfc00f8
04fe0001
fefdfcfb
fdfeff02
fdfbfbfe
0000ffff
fffe0102
04040202
00060403
00fefcff
fbff03fc
020000fd
0100fe05
040000fa
02020302
0a040003
0402ff07
fc010100
fdfe0100
fcfe0000
0000fe00
ff0200ff
00fcfc00
fc000103
0100fefd
02000101
03020000
00040100
fefc0000
f800fc02
01fefcf8
fe02fcfd
fd00fffc
0105fffc
01040502
0300ff01
010301fe
fe0002ff
fb000103
fffe00fb
030001fd
fd02ffff
fe0001fe
020300fe
fd0300ff
020000fe
ff000200
00000100
00ff01ff
00fefdff
02feffff
00fffd00
00010304
05fcfeff
01000000
f6fcfcfa
feff0403
010401fd
02020000
0101fdfd
03010000
0003ff01
01030104
fafb02fe
08020005
ff000401
0c080107
ff000208
f8fdfcfe
fefdfbfe
feff00ff
fd010000
01fffeff
fc0102ff
02fd0302
fc0000ff
010100fe
07020105
02020003
fe010303
fd050602
fffdffff
fefe01fd
ff00fbfb
00060000
01000103
fe01faf8
04030000
00020300
01030000
0804fd04
fa0400fd
fd00fffd
fd000001
000201fc
00fefefd
fdfefcfd
02fcfb03
00030500
fe00fc00
00fbfdfd
0000ff01
0000fe00
fbfdfe04
000000ff
fe030802
02fd0305
ffff0100
fe00fe00
ff00fcfe
fc0200fe
ffff02ff
ff000300
feff00fd
fefefc00
fe03fef9
fffffffa
01020300
09040503
fffefefe
ff010201
ff0003ff
02ff0004
0002fefd
06050204
ff000006
ff00ff02
00040100
05000202
ff020102
00010001
04000500
00fc0003
0000fa03
ff03fefe
02010100
01000201
fb0000fd
000102fd
05050001
fc000200
00ffff00
04000001
0001fdfe
0300ffff
00040000
05000101
fcfcfb00
fbf8f9fa
0000fcff
0102fd00
fffeff00
01ffff00
ff01fd00
fcfefefe
00000000
f9fc0000
000401fe
03060402
ffff0306
02000005
04040601
0000ffff
fefd01fd
03000200
01010102
fdfef900
01000000
fe000204
01ff0301
01ff0303
00fe0303
fc000002
fffdfe02
000100fc
fffefc01
faff0200
0000f6fd
feff0200
00fc0202
03fffd00
0000fd01
0000fe00
fdfc0000
000200ff
00010404
00010202
02040101
04fefe00
01000300
040501fd
fffc0001
00000001
00000103
01000401
fdfe01ff
00000000
fdfffbfc
00ff0000
fe00fc01
000300ff
fcfe0000
fe0301ff
040004ff
fc000402
0300fffd
0001fd08
02010100
07030507
fffe00fc
01000000
0100ff00
030002fe
0202fbfd
01020103
02ff0000
00fc0201
05070601
fffd0002
fefdfffe
010002fe
fdff0001
0201fcfd
00080200
fe010200
00000100
000002ff
00fd0603
03000001
01010000
fd0002fe
fffe00fe
00fefffe
ff000000
000600ff
01020000
03000302
02010102
fa000001
fcffffff
0005fcfc
00000002
00000100
fcfd0001
fefbfefc
fc000601
000001ff
02020203
03030103
00010003
03ff0004
fffffd00
fffd00ff
07ffff02
03000200
03000104
fc03fe00
fcfefe00
0303fefd
00060400
01030503
000000fd
fffeff02
01010000
fdff0000
02090703
05050806
fcfa0705
01fdfc01
02fc0100
06fffd01
00040400
00fe00fc
00fbff00
02fffffc
0001fd00
fdfc0804
01fbfd00
0100f8fd
ffffff02
010200ff
0000fe01
00fd00fd
0101fd02
ff01f7fa
030200ff
03060704
0200fe04
0100ff00
03fd00ff
00020303
fdfb00fd
0000fe00
fc010301
ff00fd00
fe01fc04
ff0103fe
03040400
04000300
fcfefdff
02ff02fc
01000001
0002ff02
fefd0001
04000001
ff050003
01060100
0000ff01
02060206
030103ff
03fe0200
fb050000
00ff03fd
000404ff
ff000703
0003ffff
00feff00
000000fe
00ff01ff
0101ff00
00010201
fd00ff02
01020200
000101ff
000200fd
fdfcfcfc
00000100
08070005
fefbff00
06050002
0302050d
05000004
05020000
03030402
00030100
0401fe02
05040101
00fffc01
01010102
fdfdfcfe
03020000
fe000202
02fc0101
02ffff00
fe020000
fe000100
04030100
0203ff03
01fd0301
02ff03ff
00080a09
fffcfdff
ff000202
00020200
ff000100
03fdff01
0101fefd
0405fc01
06010202
01020203
00020402
00fefc03
00ff0002
00000002
00030302
00010002
00ff01fd
fffefd02
fffbfefc
00fefe00
ff00fe01
ff040000
02010002
f8fd0002
fdf9fefd
0002ffff
ffff00fc
fcf9fd01
00feffff
0100ff00
fd0102fe
ff000005
00000000
fc02fdfe
feffff00
00ff0000
fd000001
0103fdff
02fdfb02
00ff0000
0300fc01
0100fdfc
0000ff02
00050001
03010300
00010204
01000200
01000101
ff030305
03000000
ff040000
00000000
fdfd0401
fe0000ff
01feff00
00040102
040002ff
01fb0000
fbfe00ff
ff0704fe
04010105
ffff0307
fefeffff
01fe00fe
00000200
000500fd
09040102
060b0103
ff000302
fafa00ff
0304fdff
04040300
fd090505
02fffefd
02010100
fcfdfc00
fbfbfeff
00fe0501
1309050a
0203190e
000004fe
00050506
0000fe00
00ffff01
000201fc
00000000
fefcfbff
fffeff00
ff0300ff
00020502
ff050403
05fffd01
fd0300fd
fffd0000
fdfbfdff
000201fb
00fffd00
ff000000
fefe0200
fc03fcfe
00fefb00
fe00fffd
00fe0000
02040003
05fefefe
fcfe00fd
0000fdfb
000101ff
04fefb00
0203ff08
fe0003fc
08010205
ff01ff02
ff0603fd
fe0204ff
01000005
fe01fffb
00030100
fafcfbfe
07000001
00fc0100
040101ff
fc01ff00
04fd0300
0104fd05
ff030101
03000001
ff020000
fc0000fe
00ff04fe
faf9ff01
fe000100
fffe0001
0401fbfb
010701ff
00020302
00040000
050200ff
07020402
06030003
00fffffd
fffd0000
fe00ff00
fdfdfefe
00fdfcfa
fdfcfdfe
fdf9feff
00f8f9fc
0200fcfe
02ff00fb
fc03fffd
fbfffffb
01fc0100
0000fcfb
fbfd01ff
faf9fafe
00fdfaf9
fd0308fe
fc000104
0200fdfc
02fe0500
010100fd
fd000002
fcfefdfe
03fefc00
ff0401fd
0300ff06
00ff0000
00fefe00
ff00ff00
00010100
01000102
03060003
030202fe
02feff01
0102fe02
fefe0002
010106fe
0101ff02
00030402
01fe0302
0903fcfc
020701fe
01ff01ff
080101fd
0000fd03
00ffff00
04060002
00fe0003
ff00ff03
fd00fefd
02070100
0002fe05
00fffd00
07000202
02000000
00fe0002
00fd02ff
01000000
fdffff01
02fe00fd
00000002
feffffff
feff00fe
0100ffff
0405fffd
fffdfe05
fe020303
fd0000fd
02000203
0001fefe
fa00fffd
fffeff02
010000ff
fbff0200
0000fffd
ff020000
000000fd
fefdffff
01000200
00010508
fefdff02
00fffeff
fe020103
01feff00
fefefefe
fb0101fa
00fd0202
fdfbfdfb
0000fff3
02ff00ff
fffdfdff
fefe0003
fbfffe00
00fd00ff
f7fd00fd
02fb0204
fdfefdf9
f7f8fff9
fefffdfa
00000206
ff00fbff
fefd0000
0001fc00
fc0000ff
00010200
fefffefe
01ff02fe
fefbfd00
fa02fffb
00fffbfe
00fe00ff
00fffd00
00fe0303
02fe0300
0000ff00
ff00fffb
fe000000
00fefe00
06ff02fe
00000001
00fefe02
0505ff00
ff000100
03010006
04010100
04040006
02010400
0402ff00
0000fe07
01010000
ffff0203
00000002
00fe0000
02040001
00fefdff
ff03fbfc
fd020302
ff0601fd
ff0000ff
000200ff
ff010401
02030102
fe0304ff
0005fffe
01000200
fd0100ff
fffb00ff
00020402
fefffffb
020403ff
00000600
00ff0001
00fffeff
01fffffb
010300fe
02feff03
fb010102
03fbfafa
ff00faff
00fcffff
fe0000fa
00030002
01fffa00
fe00fdf9
fdfe0202
fb010603
0300ff00
01070001
000201fe
06fa0100
fffc0101
00fe02fe
00020403
fefc0000
0100fe04
feff0204
fbf7fe00
01fefeff
ff0303fd
00080601
ff02fc02
01000300
0400fefd
0001fdff
ff00ffff
02000300
01010305
0001ffff
ff00ff01
00fafafe
fd00fe03
03fd0000
0400fa00
fb00fdfe
020201ff
fefffc02
fc0000fd
00fd0102
fffdfffc
0300fdf8
00fd0000
00feff00
fb0002ff
03000400
01fe0100
00fe0204
01030000
ff000500
fffffe01
03000003
0600fc00
00030001
00fe0302
05000001
fa01fffb
030405fe
0101fe00
00000001
fffd0200
fb000202
00fefefd
010101fe
fdff0402
04000000
02000002
ff00fcfe
ffffffff
ff00fb00
030002fe
fc01fb04
fdfe0000
00000201
fd0104fd
fc010200
fffe0000
0100ffff
00fe0101
fe020003
fbfffdfd
fffa0003
00000400
fd0301fd
01000001
00010003
fffe0000
0000ff00
06ff00fe
00040003
00ff02ff
fefefafe
fb00ff00
0000ff00
ff0102fc
02000001
ffff0000
00fdfffe
fd00ff01
fdfe0000
0001fffd
01ffff02
020201ff
00ff00fd
03020300
06010100
fa02ff00
00fdf9fc
fd02fefa
02ff0300
fd030000
02fe00fd
0000f6fe
030100fd
ff040205
02010202
f903ff06
03fa04fe
ff0100fc
020502ff
01ff00fe
ff0100ff
fcfffff8
01ffff00
fe020003
00fd00fd
00fefe00
01fffefe
0300ff00
02010102
03fffe03
fc00fd00
00fd00fe
02ffffff
01000301
020203fd
ff00fe01
ff020101
010000ff
0300fffd
00020200
fcfefcff
0200fc00
fafc0401
01fdff00
fffd0001
04fcfd00
fd0100fc
fb0002ff
fdfcfd02
fffffffe
010102fe
fe00fffb
0000fe00
0200fe01
00000203
fe00ff00
00ff0400
fd0300fe
01000000
04fefa00
03020000
00050500
01ffff00
ff000000
01fc0101
02020002
ffff02fc
ffff0200
fefffa03
0201fe02
01030000
ff010400
0001ff02
0000fe00
fe000300
0400fffe
fcfb0000
fc01fd02
fefffcfe
fffffdfd
00fc03ff
fb03fefe
01ff0000
04fffe04
04030100
00030400
0000ff02
0003fe01
000102ff
fd010102
0200ffff
ff0001ff
03fbf9fc
0600fff7
00010004
00fe0001
00040201
fffd0000
03fe0000
0600fbfe
0100fffd
fcfefafd
0000faf9
02020003
fc00feff
0200fffe
fe01fffd
00010304
03010100
050204ff
ff010200
03fd01fd
00fd0200
00fffa00
fd0002ff
00fe0000
0402fdfe
05020201
00fe0000
01fffcfd
000000fd
0303feff
0004fffe
03020000
ff010000
01fdfdfd
0001ff01
ff00ff00
06fefe03
0000fdfb
ff03fffd
fffefffc
050404fe
01000202
fe0000fc
01030100
0000fe00
01fffd00
fdfe0200
0000ff00
00000100
000200fd
00020301
0000fcfd
ff00fefd
02fdfdff
0000fb00
00fd00fb
0000ff02
03ff0000
00000104
0100fd00
00000002
01040100
010407fd
03fd0601
fdfd0301
03010100
ff00fd03
020105fe
fd010200
fe000600
00fefe04
000002ff
00fcff00
fefb0001
000101fc
fefef8fc
ff02fe00
00fd0000
01000000
020101ff
feff0101
02fffd00
03010000
fefbfefd
00fcf800
00020300
00010100
00ff00fe
fc00ffff
04020100
05010202
03000100
00fe0002
060000ff
02000403
fffcff04
00ff0000
000400ff
ff0200ff
0200fd00
01fffd02
0106ff00
00000202
0101ff00
00ff0100
00fffc00
ff000000
fe01fc01
fd01fdfd
00fe0000
00fcfefc
00fdffff
fcffff02
fffd0000
0100fffe
03ffff00
02ff01ff
ff00fd00
0207fdfa
00fcfe04
fd000401
fffe00ff
0302ffff
00020201
fc00fdfd
fffd00fe
fffff8fd
0203fefd
00000202
0000ff08
fd000600
0100fe00
0002fefd
fe000401
fa00fdfd
fefc0400
fefefd03
ffff0001
000000ff
01fafe00
0100fd00
ff00fefc
fdfe01fd
02fe02fd
fcfff8fd
040102f8
fe000102
04fffeff
00010101
00fa0002
05fd00ff
fd03fcff
0200fefb
ff02fe00
02ff0001
fe0101fc
fdfeff00
0300fc00
0102fe02
fc02fefe
fd030000
00fd00ff
0300ffff
ff000002
fff900fe
fcfbfafe
00fcfef6
00ffff00
fcfd00fe
fcfffcf9
f902faff
fef9fdfd
0100fb03
00040200
00000101
0000fe00
000500ff
01000000
0300fe00
000400fe
0000fd01
00ff0201
02fe0102
fd000300
ff00ff05
fe04fcff
000100fd
00060003
0302fd00
0000ff00
01030301
00020005
03010200
fd010000
01fe0000
00060002
00fe00fc
00fd0200
02fffc01
fdfc00ff
03000003
ffff0000
01ff0001
fef900fb
fcfeffff
00fe0000
fb01fdff
00ff0600
ff00fe06
02fd0003
fdfffc00
0004fe00
fdfeff00
fdfbfffd
02fe0100
00fdff04
01fe01ff
ffff0002
fefc0002
02fdf9fd
fcff0301
fffe00ff
03000102
00000200
03000202
00fe03fe
ff000201
fefaffff
03fefd01
fd020001
ff000100
fffcfefb
fe00fc01
fefefc00
020000fa
00fd0406
0000fe01
000005fe
06000000
000a0201
0101fc02
fcfffffd
03000203
0000ff00
000000fb
ff000203
ff010202
00000001
01070200
fd0201fc
02000000
0200fd01
ff01fffc
00fe0100
fefcf9fa
0000faf9
ff00ff04
fe020300
0003fbfb
000003f9
00fd0400
04010002
f9ff0300
01ff0001
0103ff00
ff00fffe
00fcfffe
fd0102ff
010100fd
00fefeff
00010104
050700fe
fd0905fc
fe00fefe
01000101
fe0503fe
06fdff02
fcfe0001
00fafbfc
0001fefd
ff00fdfc
ff030402
ff02feff
fc0102fd
fdfbff00
04030002
00010303
00030203
0200ff07
fe03ff02
01ff02fc
01020000
fbfeff00
0501ff03
fd0101fe
fe01fe04
00050bff
00010801
fdfaff04
03fcfd03
0000fafe
0305fffe
01010305
00fb0401
03020003
fe000000
fffcfcfa
f9fefdfe
fffeffff
0c000003
0705000b
0001fe01
ff030300
0202ff00
01fbfa00
fdfaf8f7
0302fe02
ff000100
0100fc02
ff0601ff
ffffffff
0202ff00
00020700
0200fd00
ff00fdfc
01fffdff
000000fa
01000100
00040100
01020100
03000106
fa020100
0100fa03
05ff0000
05020207
fdfd0002
fe0001ff
02fdfd03
fc010000
f4fefaf9
fe0000f3
fd000003
00010003
fd000100
00fe0601
08020000
fcff0602
02fe0005
02fb0300
0000ff01
fefcfd00
03000405
02030505
fe0002ff
fc030001
ffff0000
02020500
ff02fdff
00fe0300
020201ff
03000004
ff01fd02
020106fd
ff00fe05
fe010103
ffff0504
fcfffb02
fffffefa
00fd0100
05000001
fcfffc00
fcf9fd00
01fdfe03
fffd01fe
0200fefd
ff01fdff
fe0002ff
fafe0300
01fa0304
fcfbff04
fefbf5fc
f8fffcfe
f8fcfcf7
ffffffff
13050604
0103010c
01fe00fd
02030003
0001fd00
00fdf903
fd02fd01
0000fb04
00fe01fe
f903fdfb
f9fb02fd
fdfb0300
fe00fc00
fdfe0000
fff8f300
01fffcfd
fd01fc00
05000300
04020001
fafe0000
0008fefe
fe020000
fb000201
02fefe02
fe0201ff
00fcfe03
fcfefdfe
fb00fd00
060201fc
fd000003
00000001
fefa0000
00fd0000
01feff01
0001fe02
fc0300fd
000400fe
03000500
fe000004
ff00fffe
07fdfffe
fdfffcff
0000fefd
01000100
0303ff00
fefdfcf9
00fbffff
00010004
00040001
010502fe
00fd01ff
fd01fc01
0201feff
0003fe00
fffdfd00
fe000000
fafafcfe
fbfa0004
0400fefe
ff02fe00
fefffcfe
fdfd00ff
fef8fcfc
fffbf6fa
fe0500fa
020802fd
00fd00fe
fffff800
ff040400
09010007
00040100
01010401
03fd05ff
fc00fe00
00fbfffe
0003f6fb
000101ff
04050100
03ff0002
ff01fd01
010201fc
01fffbfd
ff00fefe
02000900
fe02fb00
fdf90201
00feff00
04010006
06010202
0304fd03
ff02fefd
01ff00ff
feffff04
00010000
02010301
0100ff01
02020102
0800000a
fe0002fe
fc02fcf9
f9fb00fb
00fefbfe
03010508
04ffff01
fffe00fe
fe01fc00
fffc0200
0000fe02
fe00fc00
03030000
00fffd01
fefe0401
fcfd0001
00fa00fe
f8000100
fbfc00fc
00000002
fc0204fb
00fe0500
fefc0005
04fe0300
0705fbff
00090200
fffc0403
ff000000
0200fd00
fe0001fd
00ff0100
fd020000
01ffff04
07060200
00030602
0100ff01
f70102fd
04fd01fe
00000100
00ffff01
ff020001
00020100
fbfbfd03
00faff01
f700fcff
00fdfcfa
ff000001
00000105
00ff01fc
fc030501
00000002
fdfcfffd
fefffffd
fcfbfefb
fafa02fd
00000201
fc03fe00
020200fb
0000fd00
000003ff
11000000
0204fdff
fd00ffff
0304fdfe
f8feff00
fe000000
fdff0000
00111002
01030c0e
00010002
050202fc
fe0403ff
fcfa00fa
01010202
ff030100
fd0000fc
00fd0000
00fffe03
03000102
00fcf903
fb000300
00fd0200
0400fc03
fd020002
06030200
fb0b0401
06fe1214
fafefb06
04010100
fc040300
0400fefd
000400ff
00fdf5fb
000201fb
05000302
0403fe02
fdfc04fc
0101fd03
fc01fcfe
fc0001fc
01010302
00ff0603
00fe0101
04feff03
0000fbfe
fdfe02ff
01ff0000
04010400
00010205
00000005
fefd00fc
01fe0201
fcf9f901
fbfffcfa
fc0002fb
01fcfb00
0005fffe
fefafdff
fdfffefe
00000000
04040004
00000202
01ff0304
ff0000fe
0000fe00
01fdfbfd
00ffff01
0400fe00
03020100
01060002
fffc0201
03000004
fbf70202
0100f902
fd0502ff
00fffefe
02010000
03000003
00010004
fefdfd04
00000000
0302fffe
01000400
0502ff03
0003fc07
ff01fffe
00020205
020000fe
ff000400
01fc01ff
00fbfeff
00faf700
fbfc0001
f8fa01fb
02fffdff
020301fc
0305fe04
fb000200
fafe0303
fe00ff02
04000a03
fd020105
f9f902fc
fffff9fe
02000601
01000703
050002ff
fe00fcff
000000fd
fe01fefe
02fe0000
02ff00ff
020200ff
f800fefc
fcf800f8
ff0000fc
fc030402
04010000
02ffff08
fd000205
fffdfdfa
00010000
fc010000
00010000
fd010001
00ff0000
00fe0300
04000204
00020003
0affff05
00fbfe00
00000200
00010001
01fd0001
0002fc01
02ff0101
000505ff
fdff0002
ff00fdfb
000204fe
00060300
02fe0302
fffefd02
ff000003
0400fdff
00fafe00
0100fdff
04010604
00020203
02fffffc
fcff0007
fb0c0900
05fc0605
0100ff07
00030001
00000104
050703fe
00ff0600
02ff0200
fdfb0003
02fefe01
00fdfffe
0002fdfe
00fe0100
fffe01fe
08020001
00000301
000302fc
010101fb
fcfffd00
fbff0700
04050100
000704ff
fb050301
fcf8fafc
ff010000
0100fe02
ff03fc00
02fd01ff
02030100
fe0001fd
0400ffff
04000001
fefa000c
03030001
03010104
fafe0100
fe0200ff
04fd0101
fd01fdff
00020000
0402fc00
fcfd0309
fefff902
fa02fbf7
fc0001f9
fffd0100
fffdfbfc
0102fdf9
fdfd04fe
07020205
070afb01
01000602
00ffff03
0003fd02
00fefd02
01fc0200
ff00ff02
ffff0003
fb000001
fdf7fe01
fffafaff
fcfc0000
fff9fefb
00120aff
00ff0303
fbfb0003
ffff01fe
fdfffd04
0000fffc
01010000
fe00ffff
02fe00fe
fb00fafd
fbfdfafd
fefc00ff
02fcfd00
0300fe00
00ff0400
0101ff00
f9fc00fe
fffc00f7
01020301
00010100
07030400
04040003
fe000200
ff0001fe
fd020000
f7fefef6
fffdfcfc
0100fffe
fe010000
fffd0000
00fdf901
06030001
fb040100
fffeff00
f701fffd
fdfa01fc
00fdfc06
ff01fcfa
fefbff00
0000fe01
0400fffe
000200ff
00040404
0000fbf7
fc020105
00ff0504
01fdfd00
09fd00fd
04040001
01010003
ff00ff00
01000001
02000303
00020104
00fcfd03
030101fe
fdfb0601
fe0000fb
ff00ffff
0002fffd
ff0300fe
0101ff02
0403fc00
00090500
ff00fcff
ff070700
00010500
fdfefffd
ff0002fe
02fefc03
0100fe09
00fefffa
fffe0000
0102fbff
f1faff02
fefb00fa
00fdfb02
0205fcfd
01fffefe
0000f9fd
ff02fff9
ff020004
fe040401
fe000105
fdfe0201
fe00fc03
fcfcfd00
00faff02
00ff0001
010002f9
04000200
02fffa02
ff0503fd
020a0301
00fe0300
02020104
00ff0000
0000fbfc
fe00ff09
02fafe01
0005fefa
02030002
00ff0000
04fff900
0e040006
02010000
02040601
0000fffe
01000400
02020001
08ff02fd
0000fd04
f6ff0000
0200fff3
ff00fd00
01fdff00
06fe0000
010108ff
03060005
fcfc0002
ff0302fb
fb0003fb
fefef7fa
fbff0001
00fa0402
01000000
fe00ff01
020100ff
04030003
02feff04
010100fd
fdff0303
fe02ff02
00fe02fb
fa000005
00f9fbff
fc0002fe
04fffd00
01ff0004
fdfc0001
04fffffd
fe02ff00
00fefcf8
00030102
fffcfe04
01fefffb
0201fefe
fd010301
00fffd02
00000000
00fffb01
ff00fafd
02020000
fb0000fd
0200feff
02000200
01000002
0200fdfb
fe0302fc
02000004
01fefefb
0400fa09
00010104
0300fd01
fcfe0101
00fe00fd
00fffcfd
f8fd05fc
fdff01ff
fd0106ff
f9fdfd03
02000400
feff0606
02040000
00000300
03000001
02010004
00000201
fd00fe00
fdfe00fa
05faff01
00fcfe00
fd010100
02000500
03000004
ff01fdfd
00010500
04040607
fd0001fe
00000000
fd0000fe
0bfffafb
fa01ff00
fffefcfa
08fefffe
00feff00
0300ff07
09040603
00fd0002
fcfe0901
07fffaf8
fc0000ff
00010200
fcfcfbfc
01fdfbff
01fe01fc
00000202
030202fe
0200fa00
fcfefd00
fdfe01fc
05fafefe
0200fd00
fefb00fc
fdf8f8fa
0100ff08
fe01fe02
01ff0a00
00fb0303
0101ffff
fefdfbfc
fd03feff
03000001
04fd01ff
03030204
04070202
01ff0403
fd0000ff
00fa0000
03fefbfd
010100fd
00000200
01010805
ff0003ff
03fd0003
fd02fdff
fffffcfd
