7af3ea27
fc2eabdd
f5e722d6
16bfe460
e021f9f7
c2de6301
00f5fd0d
0bdee119
040cdb0a
e9e0d9dd
c6e4fba7
2722d3d1
587df435
004f4817
ef1d0d06
d30a2a03
22121013
291c0d20
b6002906
c9b0eecc
00ddae0e
16192330
13f7302f
f0f928fe
e700eff8
e52bf8f8
ece1f7de
00daecfa
ed08fbeb
0110eef0
f7e6fe14
2fedf9f8
efe40d0f
eeed00ee
00091017
f22cec33
d5f313c0
12d9ebf0
0906c4e0
f80d03f7
02fdfc03
00ea03f7
5fe8b980
20600039
1ae99108
15f3223d
c28006ed
ef2c3016
00f7093d
ca1e04f0
21c940f5
2107d612
cc4503bb
00d6101d
3a06ba15
000f2ec9
87cdccd6
80b3bf80
0d300dc8
102400fd
602523f6
317f6cff
00286e3a
191008f0
2409110b
d5feff1b
fd0c0008
0ef0f8e1
de1bd40a
00230a2c
b5a62b80
2e3b43dc
0c7f0064
f627a3ce
7f730a9a
f19a2be6
00a2851f
333c3b6b
8f83fdf5
010d4cee
baf9ea38
030bfbb4
e30827f3
000ef0e9
2e356a0d
3eee5c7f
c6abd916
08cfb7ec
d411f5fb
e9a5ddf9
00f6fa1a
f2ea5a28
c808cebf
137636dd
31331222
1caf2a1d
f495c4fc
00fdcece
ec15800f
d403060a
0aa21905
102f370c
be1501ec
22491a09
000c0cff
ffdceef0
1a0cfb04
25060400
fa320427
0614110d
1befe136
00dac5ea
