5394
11d2
45a0
5344
2a54
2116
0d29
11dc
26f2
f8cb
e631
02de
246d
e95f
d957
2059
0f10
249b
171a
28c6
3e54
2e8a
6622
2186
0d17
07a2
43b9
fb04
479d
4536
1a4a
2b8a
4672
0ff9
4345
125c
12cf
1cc3
2378
2e21
26a2
1e28
2749
410d
e409
14e7
11de
4d29
2643
0e0d
1b57
0aa8
11d8
01f2
21bf
4876
fcf4
0241
1eef
1719
1a77
1ef0
3d97
f860
