fafd0604
00faf804
fff209ff
140ff800
f1080601
0deaee0a
0010ecf4
f4f70608
17fa04fe
f703fe00
06f702f4
000502fd
faf502f4
24030709
f511f501
f8f5f300
fff8f703
fd06040c
e5f1d7d1
ebedecdf
00fbf8fa
00f7fdf3
150ef908
102c1df8
0a001607
0a00fe04
04f70a17
0300170a
fc01020f
ff000600
00fc0407
05fffb04
081b150d
15ff1505
00090ff6
0a000f0b
f8f7f8fe
00fd0008
fbed00fe
02f6f402
fdfa0100
02080004
0003f90b
000ae7fb
fbfa0cf8
070efb1a
fd0500fc
0706f005
ed06ffff
f5f2f5e5
09fcfffb
f70707fe
feff0700
0607fd01
ec08f003
def9ffca
f6fbf900
f6fbfef9
02f9f906
f702faf7
ee02f9fc
0bffff0b
000705f6
fcfefcff
010904f3
0217fafa
fafef803
effe08fe
f2ec00fd
f203fafa
eaf1f4de
f3edfeed
08fe0007
f5ebf900
0ef7fbec
ff03f3f9
06030cf6
04000106
02f0fff5
f9f7ffff
f9f80702
07ff0001
0cf1fd19
f6fe04eb
00f70105
0f010517
fdf5f703
00fe00f9
faf602fd
f5f408fb
12fb0df2
0700173d
f8eaf100
11f6f108
0b030bfd
f9120502
06f800ff
0908110e
1d210c0c
0b0b1814
0d01ff17
0d1609fe
fbfcfdf3
f40300ea
f4f3fafa
f800f700
02070305
fbf8ec04
020902f6
08070b0b
f800f909
070b020a
01010d0c
f8f3fc05
f7fbf000
11fdf808
fd00fa06
13081f1f
010a0d0f
fde900fb
fd00ebf6
090d07ff
fe00fb04
f31b080d
f6fcfd00
f9f9fcfa
110607fc
0c060a22
0cf90001
0b01fb03
291dfb06
051a0c08
f80d0611
ff1600f0
0df6f907
01040107
fbfb04fe
07f1f602
0409060b
fe030307
fa00f803
130b0702
0818f80d
fefa0aff
070902fa
f805f8f6
00fef8f9
fa02f4ea
fbfa0a0d
0605f3fc
030afcfb
090006fa
0c08080a
f30508fc
f3ecf610
000200f8
f5080809
091c08f6
eef1ef07
f6f6f5fa
110a00f6
fce9010b
0105011d
fa02f7f9
f50205f8
fc01ff03
fc030c13
fb04fffe
0b03fdfb
fe080b03
fefc0a0b
fcfbfaf9
0b01fbfa
02020100
03fff9f5
0113fb06
fdfe060a
0e0802fc
e2fffdfe
08f60beb
0102fbfb
f2fe02f5
07f10709
0cf702f5
07fdfbfd
08fef904
0bff09fb
fafc00fb
eefe0000
f9f9f4fa
f4f6fcf2
080bfaf9
fd091202
06030cfc
fdfe00fb
1104fb04
1211080d
04fbf70e
06f5fcfb
08f50113
f4fbfd00
0109fff6
f105f904
fbfd0003
000dfefb
f5f50e00
090800f6
03f80b02
fb01070a
07f5fbf5
fffffc02
100805f8
f60c0efb
fdf3ee00
0bfcf300
02f703f6
ffff03ff
f70602fc
0800fa05
fa01fe09
05fd00f5
06030507
00fe0206
f7fc00fc
070104ff
1316f600
10071712
06020e07
fd0d000b
0cf4fe07
000c0b0a
f000fef3
ef03feef
00ec0801
f9070111
070cfcf0
fe05000c
00000d08
1012ff03
020b0206
ff02f8fd
130d0b11
07f3fe05
09fd1f19
f2fff20a
f7f0f1fe
02ece0ff
fdfcf6ed
05fcfff9
02fc0900
fcf0f6fd
0405fcf0
0b151b1d
fcfe0111
f6f3eb05
f4f5f5ed
06f9f9f6
f40304f3
05020505
1c08fa09
f2fb0203
12fd06fb
000c00fc
ff01fafa
fbfaf7f3
f92300f1
fdde090e
0108f10b
050503f8
0000f805
07fffe00
140e0915
f6f3f818
04f5fe00
18ecf5ff
fa2112fa
0a0a0208
04fe0306
f6f80203
0500ea00
f7fdfef6
00f5f60c
04fff605
000b05f6
02ff0004
f5fb00fd
f2f9f9ee
02050905
01fe0afd
f9f60506
fd0901f5
f7f4f7f3
ebecf7fa
f2e2e8f1
05f0e4f2
efef17f5
09f8010e
05000201
fdf1ffff
00060af5
00eefef9
04f7fa02
0c260700
fffb00f8
09fd06f7
fbebfffd
f600f6ed
fe03fdf5
ef010bfc
00f70af7
ff00f3f3
fb0002f7
f3f202fa
02fc0906
070900fc
fc031309
0509fd15
02280000
040e320a
1702fe0d
0e140808
f900f9fe
0306fb04
0bf30504
fe0603fe
fe05080b
ff020a0d
0207f107
02040d09
f9fafdf7
f80afc02
fcfa05f2
03f60404
f608ff0e
f201f1eb
f2dedff6
fef4f1f1
fe030507
0d080309
0dfff804
fe010a05
0800fc05
10fafef5
00f1f807
01fbee09
fefb0000
f504f5fb
fbfcfcf9
fdf9f2f5
030101f3
090005ff
fd07000a
f302f4f0
12fbfff9
f7f4efeb
0a0000fe
f80a0004
0200fef8
0b000700
faf70a0c
12f6faf2
f503fb10
fef90c03
fef3fb03
0002f306
f707f707
12eef300
fd02fdfa
0cfc0efc
090c0600
02f2f709
09f2fa0c
fb00effb
ea010706
f0f5f105
fef8f8fc
15f80011
fd07f9ff
fc07fd05
fd0e030d
0306110b
000402fe
f1f906fa
06040a06
f909040c
0b0cf0eb
06f50002
09fd07f9
070802ff
0df50406
03f40606
15fc0c07
fbfe00fd
060b0007
fb0e0200
0300ff02
01ebf5fa
f5f0fe11
030203e8
f2ff00f6
000209fa
f40d00fb
0dedf5ea
0a0aff09
fb100aff
f801fb06
020005fe
fa04f8fa
fa0100f8
f9f5050a
f6f3f7f9
f7f7f3fc
07ff00f6
fcfc0406
02fe00f7
fdfdf8f6
09ee1afc
0d0ae9ff
020efffc
fbfe000b
00010002
ff0100fc
03f5faff
0005f6fc
f7feeefc
fef0f7fb
f7f1e0e4
e5fc010d
06f0ef18
f704fd0c
02f7feeb
fefdf006
02f9f6f5
0a00fe00
03f10fff
0205f707
fd0b050b
0108fb00
0302f700
f7fe04f5
fe070505
00f8fb0d
0a0301fe
0a0d0afd
04000a0b
e10cf90c
f3fefc01
00031110
00fd01f6
00ff0c11
fd0400fa
07f9fef8
04e50606
04fdfafe
0cfe0e06
f91e00fe
02030a04
f4fa0209
000200ee
fdf802fe
ff0800f2
02f2f7ff
030df104
f700fdf9
0402f810
fb0df7fc
fef5ff00
fb0400fc
0e080f11
1208161f
f9160a04
050a260d
13070412
04040c0f
04fa01fa
140700f9
f40af6f4
f109d5eb
ef00f7d3
10fff700
08070002
0a12fafd
06010a09
fc080014
07fd0700
12f10201
fe100005
fafd0ef6
e8f00c04
07fb03f7
feff01fa
faf6f8f8
1b00f408
151000fe
0c151317
000a02eb
f9f50c00
f90415f7
ffec01ff
090806f0
01020807
0d090c0c
03fefeff
ff07020e
02fe08f8
09f9fa03
14001300
0d04fc07
ff04ff0a
f6fc00f3
09fa0001
fa09f8f6
fdedeefa
fbfffc02
08fdfa0b
04130af9
0e051311
1a0dfe0e
13001110
19fcf3f7
ed0010fb
140d0c0b
fefbfef8
0402fbf2
faf9090b
000b06f6
0002f701
00f805fc
f7010dfc
07000901
0c051201
f1f3fbe4
fef6010c
00fcf4f0
f9f708f7
05110000
090a0408
12f70102
03fa1213
000806ff
fcfaf106
f200f4dd
00f5f7fa
f2f7f706
fb06fdfc
0f00f901
0b06060a
0b0f0514
080a0d03
f2000203
0304fc0b
f700f400
fafefd02
1a030200
0d010910
f70005fa
fdfefcf1
0704fef5
fb030204
02000105
fe05f4f8
fbfaefee
0e0cfa04
eb060b12
02060d07
f6f71210
fd061000
fff900ff
05f9f904
fdf6ffff
ef040cf6
f4f6fa04
fcfbf5fc
fd0604f4
2301fb0a
010902ff
00060409
fb05fafd
060407fa
0b00fb0a
fc0a0000
02f803fa
0600fa02
06fd0209
fcfcfcf8
05fe0109
fd0102f6
ff0000fd
0706ff07
fff607fb
fa02f8f9
01fc04fa
01fcfdff
02f908fd
fb000706
03020003
050709fa
0608fbfc
fc000001
0406f7fc
f9fb04fc
05edff04
fb0100fc
f7fd07f9
0b0107ff
000902fd
fa000bf7
030100fe
0001fb02
04fa00f7
fefdfbfc
fe0402f5
02fd0002
0007fdfb
fffe0201
fb050706
00ecfcfe
f800fa0d
1500fd05
0703ff0f
0705fc02
17dcc336
da13efd9
040305eb
fb03fafc
090000f6
03fb0604
fe0304f9
ffff0008
06fa0005
04fb02fd
f4f9ff06
03f80509
030500fa
02050802
04ff0601
04fc0206
fd01f8f8
02fafff7
02f90005
fc00fff9
07fff2f9
0a0209fe
fff90800
fc020dfe
07fd050c
fb0507ff
000501fa
02fef700
020c0700
01010f05
fc010300
0101fffa
060b0b00
03100c13
fe0501fd
0300fe00
04ff00f8
00fefef3
010400fc
0101fafd
00ef0600
fafb06fb
fd05f801
040aff03
0802fb03
0afafe20
fe02fef8
080106ff
08fc0102
f2180306
07faf9fe
05feff0f
fafefbfe
fcfef007
f600fc05
03070000
fcf40102
ff0206ef
0000f600
fcfeff01
e7010800
04ebfafd
00f8e204
fafaf508
04fc00fc
030003ff
00fcfa06
0b03feff
0801f80b
0001fbf8
fc0104fb
fc070602
fff7fd18
050c0003
faf4f702
01f9fdff
f1000506
03fdffff
0b05070f
f408fffb
00faff00
ff04fa04
0a08fbfb
00fdfb00
fc0401fd
fefbf908
06fbfc0f
ff0600f9
fd090103
f9050001
f90101ff
fbfcf901
06090108
ff000601
fefa0904
faff0402
ee00fc01
06fcff09
0e00fdfc
02fefe05
fefefb04
08fffe06
fb090101
f0000000
f8fb08f9
0007fe03
faff06fd
0703ff0a
fff80205
fdff020a
fb030000
08fa0200
f8fe07ff
fcf7f4ff
36fefefe
f106eded
05f50cfa
0200f4ff
f6fe0e02
06fb0201
fffcfcff
0306f3fd
0202f9fb
fd03fef5
07fd03fa
fafc0104
fc000002
00f9fefb
01fa0006
02fb0601
fb0605f9
f501fc02
03fbf5ee
04f90302
02ff00ff
fbfc04fe
0300f9fb
fefc02f9
fc01fbfd
fe00fbff
05faf8fe
130402fb
fe040502
000308fe
00ff07fd
05060100
fe01ff05
f804fc00
0d1efd06
0401f600
00fafd08
fe010007
08030100
f30400fa
00f90609
fc00fe0e
fd070001
fe070003
00fafffd
09030005
fb01f800
feff08fd
0dfaf9ef
fcfefef6
f3f20bfe
f802f706
06f8f4f3
fe0007fd
f1050a00
00f8f6f3
0603fe04
00fd06f8
0404f6fb
fbfd0400
fffaff05
0f0c02fe
fefc0608
f908ffff
01f801ff
01fe0000
f803f6f5
05fe02f8
00fafcfa
f700fbf9
fdfcfff6
f3f5f5fd
fe000004
06f9f805
01090400
0501fdfd
ff080609
f4f6f600
00f90404
04060006
04fafdf0
f5fcfc00
fd0001f7
06fe09f6
04f2000c
fa0000fb
fe020d03
02f8f8ff
0307000b
00050700
18020900
f30c0208
f8fb0706
0000ff0b
fbf60202
06020406
fe00fdfc
000509f7
03fd0009
f9fc08fd
02fffd0a
fb0006ff
fffbfbfe
fa000a07
08050500
fb0e0600
000900fd
05f713f5
02fdf505
01fc00fa
fef7fefd
01fffb01
04f50ff8
08020000
fd03f9fd
f7f4fe01
0005fafa
f4fff7f5
00030005
030908f5
f30004fd
f8f90200
05060a07
04fd0b03
0606070b
ff000004
fc0008f8
0300ff03
08fb04f9
00090306
04fb03ff
f8030006
fcf901fc
ff06fdf8
ff0002fc
ff0904fc
01f80000
06f3ee04
0300ffff
0406fc02
02030f08
0000fdfd
04fef901
ff05f803
1a040108
fd07f9f2
fefa09f3
fc0006fc
05fefd03
f6040c00
fa0608fc
02020706
07fffb05
05fd0303
05070405
f8ff00f9
00f6f9f7
0e070200
fd092004
0003f705
04fe05fd
00080800
03fd040a
0106fcfe
fa00f902
0701f60b
f505f9ed
050705fb
fffdfc00
0304fcfc
0600fb00
fe010002
fa00f800
0007fd00
07070d06
03010005
fe00f002
07fb0a01
f708fbfe
0500fcfe
07f9f7fa
0507f4ff
02000206
d70100dd
fdfb060a
06f803f9
fef9fe0b
f7080305
fdff0301
fa06f801
f800feff
fcfc00f9
00fa00f7
0601fe06
0900f3fb
f9fe00f8
fcfb0c00
fdfb0406
0003fafe
000305f9
00fdfd01
07fef9ff
f901ffec
05fc0401
04fa0403
fa05fe02
0002fe00
02fafcfd
f70901ff
0d0c0203
f6f3e703
f50205f1
ff0112fc
0b05f5f9
ee24ff02
faed10fa
fcf7f511
fdfa0507
020600fc
fa030100
0500fe01
06010603
030106fa
f9ff0602
0b0104f8
f6fa0002
fdfafdf1
0701fcfb
fcfff80a
ef0000ff
effff7ff
00f701fa
faf600fc
fd00f9fe
020608fb
00ffff02
fe0306fe
f1020808
0cf9f900
f6f11002
fc0000ff
fefd0703
fcfa0606
fff401fc
00ff0508
02fe06fb
fffe04fa
fb060005
04fef4ff
020300f7
04020801
f8fb05fa
0cfd0300
000cfbfb
01fc0107
0606fefe
03fffb01
fb060901
02000006
00ff0200
0000ff03
04000408
000000f9
0101ff03
fafdf7fb
fdff0300
00081e03
0b080012
f40400f8
f6fc0603
fa01f6fa
0700fc00
0207f200
04fdf708
050705f8
06fe0000
0500f704
ff03ff06
02000105
07ff080e
00fefd00
01fc0500
fc01f903
00000403
03040706
ff0afeff
02290106
10f3ff08
04fe07fc
f0f7f8fd
0701fff7
fafefffb
010500fd
01fc3609
0a00f209
f60500f6
0dfe0005
fcfc0002
fef80009
fcfbfe08
fe070700
fefc0002
00f6f808
010afaf3
03090203
06ff09f9
00f9fbfe
fc03fbfd
040602ff
05fc080c
03fffafe
07fefcfc
00faf7fd
f1e6f909
f906fafe
f20000f4
faf0fff1
0800f601
03080203
06ff02f7
f9fcf9ff
0001f804
fb03fffd
f900f600
f70708fe
0903f0f7
fe000b0a
f708ff07
f8fa01f9
fa060507
00000003
fe070109
07080308
16fe0104
f701f4fc
01f40101
ff03f7f4
f5fdfdfb
fff51ff3
00f7f500
00feff02
00fa00fe
060206f8
fb05fa07
01fb0400
fd0305fc
06f8fa06
eef30afc
0700fd05
fe0402fc
fcfa0101
dffe0403
07fa03fc
040d0008
fe01f907
fb03fef9
fb00f405
020100fa
fef50207
f5020100
00040207
f3fa03f5
f9000001
06fe0107
07fe0704
fd040700
ff06f703
06020304
f8fcff02
fefefbfc
fefdfc04
0a050300
000602fd
01fa000a
0009fb01
00080106
f7120908
08fb04f7
f8050006
09f801fc
000400fb
03fa0106
0e170002
0b06fb0d
f60606ff
f11cfb06
09ec0d04
0afcec07
0105fafe
00fdf902
05fffffb
0907fcf9
ff05fef8
00060503
f3fe0a01
0000fdfa
fb07fff9
030307fa
fe0102fd
00f9faff
0300fa04
0305fffa
fef90000
050dff03
09fe14f5
fbfcfa10
00f70500
0307fd07
03fe0201
05ff0006
0208fbf5
fc00fb03
fafa01fc
fefcfdfb
00040103
03030500
06fe03f8
000305fe
02fe00fd
ff030301
02fdfbfd
fe00fffd
ff0400fe
03ff0205
010500fc
fffeffff
fffe0202
fafe0000
fffefcfb
0101fa00
fc04fffe
04f9ff04
fb040203
fffffffe
ff0004fe
00000003
fd000402
0402f902
fb03faf4
000401fe
01fc0003
0102ff00
01010705
fffd0006
fe00fffd
0100fc00
0401fe00
00fb0206
0408fbfe
04f90008
0003fafe
01fb0104
06fbff07
010202ff
0000ff01
fdfe0202
0102fc03
fff6ff02
fc010001
f9fbfcfd
0002f9f5
00fd0000
f904fe04
fc010bfe
00fa0007
00fe0001
ff0100ff
020003fe
fdfffdfb
ff01fe01
fdfcfdff
0508ff04
ff0000fe
01000101
0204fc03
000300fb
00ff0204
04fcfcff
f40400fb
01fc0504
00feff05
00fc02fc
0101fffd
fe02fdff
0d0a0604
fe0203fc
0000fd03
04000300
f8fcfc05
04070208
fe020505
00030301
ff01fdfe
0100fc01
feff0200
fefc0001
fdff02fe
fffffeff
01010807
ff0005fd
05fe0404
ff0409fe
0703fc00
fe05fb00
000102f6
0102fe02
ff00fdfe
faff0904
fbfc0602
07fdfe00
0002fa01
f703fafb
06f9fc00
fd01fa03
01fb0108
0200fd06
00020001
04fc0708
fffaf8fc
0303fff9
03070002
04fd0206
06ff01ff
05030205
ff06fc03
fffa00fe
02000000
0302fffa
0001fd00
fdfd01fd
00fdfefb
01fb0202
00020000
040404fd
000af9fe
fffe00ff
05f8f702
0402fd02
030000fa
050200ff
0200fdfa
f9fd0200
fdfa0202
f20703fc
fb000400
fd00fafb
04fe0001
fdfe02ff
08faf706
fb02fafa
fcfd0004
fffc0503
fefdfbfd
00fffcfd
03ffff02
02fc0002
000201fb
fe00ff00
04000102
05fa0006
fa0300f7
0102fa02
fd00fefc
fffe00fc
020104fa
fcfffcff
000103fb
0400fc03
00000001
0004feff
fb010200
f9000201
02fbfbff
ff01fdfc
04fc02fe
00fdfb01
fe00fcff
ffff0008
05000108
fefdfef7
01fdfffe
04070100
0205040c
00040302
01fefcff
fd0100fc
fc0301ff
02fefbfd
03ff00fe
fe01fe00
02fb0000
01fefafd
0405fd00
000a0701
f5ff03ff
02f80200
02030400
02fdfd05
0601fd04
010003fd
0000fbfb
fffd00fe
ff000000
060000fe
f8ff0004
03fe0200
fc01fc02
03fcff02
07030100
ff01fefa
01fefe00
fefe0206
0200fc03
0001fd00
000400fc
03fb03ff
010200ff
fe00fe07
fbff00fd
0000fbfe
08010401
0d000504
0500fe0d
fdf7ff04
ff01f7fc
0307fffa
02feff03
02040200
05050000
03fd0400
f0030100
fcfefdf0
01fd0001
0103fb00
04fffdff
0200fe01
0000fbff
fefe0002
02fe0102
020000ff
fe00fbfc
00fbfefb
ff06fcfc
ff0500fb
ff050000
fffeff03
0004ffff
07010004
00030100
00fcfef9
00000201
00000300
fc040303
02070bf9
fe040401
01000503
0204feff
fefc0103
fc00fc00
0200fc00
fe010105
00fd0102
02010204
ff00f2f6
fb02fbfb
00040b01
fa010104
fefdfa01
05fe0201
02000606
ff000004
0502fefd
fbfdfcf9
ffff00fa
00000101
fdfcff01
01fc04fd
04fe0402
fcfefd01
000301fd
fffc00fe
00020004
fe08fcfe
00fc0300
fefffe00
00fafdfd
0201fdff
f9010a04
fb010700
fd010000
00010601
02010404
0400fb04
060602ff
0505ffff
000401fb
0002fafe
010900f8
040300fe
0200fdfe
06ff05fd
00000002
0300fbfb
0402ff01
02000200
03010405
05030101
0103fc02
00020d02
fffe0305
00010401
0cfcfb00
0200020b
03000304
ff01fe02
0004fefe
0006ffff
0000f900
04090100
06fbfc08
fefffefc
ffff03fc
fff8ffff
00ff0200
01fbfe03
fcfc02ff
0004fbff
fefdfffe
03000002
0304ff01
fefbfdff
000201fd
fa050502
01000500
fe02fc04
0005fafc
04fffffb
03000300
fdfdfdfe
fd0003ff
00fffb01
00040105
fb000200
fdfafefe
0405f900
fffeffff
fa00ffff
fdff00ff
fc020200
ff000100
05000304
00030309
02ff0102
01f90602
fe0400fe
fb00fdfe
03fe00fa
ff07fe04
fd0102fd
f8030000
03000701
00020100
fa040000
01fd0000
0bfffc04
fc0a0302
00ff00fd
0301fffe
04fafd00
0300fcfc
07040705
fffe09fb
fffefeff
ff01fc00
fcfe0001
ff01fcfd
05010001
00040606
03040700
00fe0004
02fd0000
ff02fefe
fb000401
fdfbfe02
f6fe04fb
fff90000
f6050401
01fd0500
ff050802
ff00faff
0700fc00
0400fa05
0400fd00
fd000104
fe010200
fd0103ff
0002ff00
fcfafd00
00f800ff
fd00fe00
fcfcfdfe
f701fc02
fdfc0102
02faff05
00fdff05
030501ff
01070b01
ff050308
fefd0101
0002fc00
0000fd02
0403fffe
0401fcfd
fc01f903
fe01fff6
fcfcff02
03fafffd
05020502
fc030200
0500f901
0202fafe
fdff00fc
02fc0006
0203fe04
fefefc05
fffefefd
0506fafd
000907ff
fffe0001
fdfbfd01
fffbfd00
fc0203ff
fefb00fc
feff0300
0200f7fb
fc02feff
fd02fefe
00000100
000000fc
0201ff00
00f901fd
01fdfe00
02fef300
0400fbff
0b08fc00
fe0003fc
020000fd
00020200
00000301
fdfc0000
fd00ffff
0304ff00
fe0004ff
040503ff
00fefa03
0200fa02
00fcfcfd
fd00fb02
ff000003
fe020003
04000000
0200fbfe
080304fe
05fbfb03
0400fa00
020202fd
0000fcfb
ff0100fb
00fefdfc
01fc00fe
020400ff
0004ff00
0201fefc
ff0100fa
010204ff
04030004
00fdf901
00000207
0104f800
fd0900f3
120c0304
fbf60102
02010200
ffffffff
01010001
ff010104
00020100
0601faff
00010000
050d01fe
ff060202
01010002
f9f8fd06
04fdfd02
fdfe0401
0001fffa
02050004
010000fb
03040002
fffeff00
0a040000
00f9fd09
fefafffe
0100ff02
fffefdfc
fefc0201
0000fafb
040400ff
fffc00fe
06fdfd01
0000050c
02f90304
00070600
ff05fd04
fe02fcfe
0807f9fc
00ff0801
0103fd00
fdff0004
0001feff
020000fc
0201fc01
fbfc00fe
fb0109fd
fe020100
000202ff
0000fdfe
00fdfffe
0bfd0003
fcfffe03
ffff01fd
00feffff
070302fb
fe0305fe
08fefe00
fe04fa00
05000200
fbfb0600
ff000105
00fb00ff
fefefb03
0100fffe
fcff0000
0202fb01
0301fc01
05fcfdfd
fdf80606
ff01fa01
0302fcfb
070101f9
fe0200fd
00fd0000
0602fc02
000201ff
030100fc
01fffd04
040501ff
000001ff
f5fc00fb
0203fb00
000000fd
fe00fffb
00fff903
0100fa00
fd050102
02fcfefe
fdfdffff
fd020400
00ff04fe
ff0302fd
feff0200
02fc0302
0103ff00
030101fe
04fe01fc
02fefc00
0000fd00
03fdfdfe
0200fd01
06050402
ff040000
fcfcf8ff
01fd00fb
fc000100
ff0201fc
ff0201fd
fcfbfffd
02fcffff
fc04fc02
00000500
03fffcfc
00030206
05010002
fbfb00fb
0000fb07
fff8fc04
0002f700
fffa00f7
06070106
f80501ff
0404fe02
05fcfb06
07fcfefe
06000108
0408f907
fefefa01
0308fe00
ff020303
03fc0006
06ff0104
04020006
fcff0500
03fd0007
04010000
02fdf701
fefbfff9
0afcfffb
fb0b00fa
ff0afe04
01f6fdff
07030101
f904fcfc
010601fa
0508ff05
fbff09fc
03fefc01
fb0cfe01
00ff0305
00fe01fa
00f808fb
04fb01fc
fe050af2
0002ff09
0803fc05
0103fa07
ff03fcf9
04fd0706
fbfd0002
fb01f300
f0fc14f1
04070002
fcfcfe00
01000100
f702fafd
0a070408
0800fc00
0801ff02
f7f8fcf9
000401f9
fefc0cf7
ff07030b
fdf70303
00fb06fc
02fe00fd
09000101
0704020d
05000103
fdfd0000
f7fbfd01
0300fefe
01fb0700
0501fbf6
fa01f9f5
0300fef9
fd000903
00080500
ff00ff08
ff070401
06050402
0003fefb
fa00fcfd
02f00400
fefcfc05
fa01fafc
f700fbfe
01f7fa05
00fd05ff
00f1f5fa
fcf4faf3
f9fdf604
07fbf200
01fcfefc
fd0201fe
fa04fe03
fb0001ff
00f6020a
0600f1f9
eef0fbfc
fdf0fef2
ff01f4f5
0200fe05
0b030100
070100fa
fdfb03fe
fb08fb01
000200f8
05fa0504
fbfafafc
fe060504
1403020e
0c160708
fcfa0101
fd00f9fc
0505fdf9
fe0006fa
fd0003fc
f801fb00
fd020500
fefcfd04
05fefd02
fe0303f9
f4f903f7
ff000bfe
0000fe04
fc02ff01
01feff07
f706fefe
07f8ff03
fffefb0d
fcfc00fe
f9ff00fc
0008ff05
090000fa
00030305
fdfffe04
fd08ff00
f700fb01
f7f90401
ff0307f5
fd0502fa
03fafef9
00f800fa
ff060003
040101fb
fe050401
0404fefe
f8fcfeff
05ff0504
fa040008
070306fa
01f60700
f90004fe
02ffff07
0808f500
09fefdfe
02040307
fd00fdfb
0afefe00
0200fe04
0602fbfc
f8faf801
fef4f8fc
fcf8fbff
fef9fdf7
01fd0504
fffe04f9
fefc070a
04fb05f9
fff903fd
03010206
fef805f8
0004f903
fbf9fb08
02feff06
000602ff
02fef900
fa040000
ff08fcfb
0c07fbfb
0101ff02
00fd0003
f8fc0504
f501fd00
0203fafd
0405fe02
01fa04fd
fb010505
fd0106ff
f90503fa
f5fbfa01
03fbfbfc
05fe08ff
050102fc
fdff01ff
090708ff
fe070b08
f5fa0304
fbfc02ff
05080105
010500fe
fc0000f8
f9020202
ff050901
ff000304
050003fc
04f404fc
ff0102fd
fef7ff03
0004fe03
00fa0004
f4fef9f7
ff01f5f2
07f9ffff
fe0800fd
04fb05fe
fbfafe00
0809fc07
f3060204
fffa00fb
fe030103
fdfdfb01
fdf8fa04
fefcff05
01020205
00f5fc07
05020508
fafc0400
04fd06fe
f5080200
fbfdfb00
f905fffe
fd0600fe
00000a05
f9fcfb03
00010009
0ffe0106
0807fb03
00f9f9f8
0009fdfd
fef7fbf9
fa0504fd
f900fdf6
fffd06f4
0702ff00
01fefb02
f9f9fefe
01f8f6f9
0703fb00
fbf3fe03
05faf801
0600fff6
00010a06
02000602
00f7fcfa
f7f7fa00
00fb0700
fd01fe04
fbf9fd03
06fa01f6
08000406
01050500
f7060700
f9f706fa
f9effd01
00010002
fe0404fa
f9fa0703
03fc0200
fef80bff
0c06f701
080500f7
01fcff04
fc060308
0af2fffc
0509fb02
03fb0405
ff000104
fb00fdfe
fdf90403
fd02fefe
fdff05f9
02fc00fd
f80103fd
00f80603
07ff06fe
fffe0500
fd0b0304
000105fe
00060808
06fe02fd
020a0904
fcfcf703
05f804fc
01faff01
0001f7fa
0405faf6
02f9ff00
00feff06
00fc0000
0a000105
fd000802
000600fe
00fb0600
04020800
00fb0603
02f70201
02fdfdfe
040001f8
0905f905
02000506
06fb0002
f10000fc
05fe0500
0103f400
f6ff0705
00fe0503
06000308
06060501
01fe05fe
0203f8fc
fafefb04
fe0bff01
0503fff4
f9fa00f7
ff02fcfa
05fd0003
05fa06ff
0402f9f9
fefc01ff
fc06ff09
04f6faff
fc08f8f3
fa0101ff
ff06050a
04fd0804
fc040800
fdfff8ff
0300f9f9
08050003
06f802fe
f9000203
fd010000
ff0a0802
f6fe0102
f4fa0700
fbf906f7
0ff80501
0004fc03
f8050502
f6f8fcfe
02f8f502
020dfb02
06060003
050705ff
07010600
0201fd06
fafff107
faf908f9
04f8ffff
03fd04fb
fffe04fa
0308fcff
f70101fb
fd05f800
070400ff
f8fafc01
04f8fd03
0001fcfb
fd0407fa
fafa03fa
eff900f9
f9fe0300
fdf3f9f3
05fb0109
09fcf810
fd00f8fd
f5f8fb04
04f8ff07
0105f7f9
fdf80206
fdfffa00
00000502
05fcfbfb
f7fd04fd
04f20005
000bf8f9
03fd0003
0003fdfd
01fe0003
07f8ff06
f804f903
03010404
01ff0501
fa04fd00
04080a00
fef804fb
03fe0206
0701fdfc
00050003
fdfbff08
fc070306
fcfe020f
0607ff05
070207f9
06fe0506
0701f608
03fb0003
0408ff04
00070700
0505fb00
fc060300
00f2f101
fffa00fe
05f802fe
fd00fcfe
05010202
fefafffb
08fd0603
f900f9ff
03ff03fa
08fefe03
040101fe
0607f901
01040400
04070709
fd03fe06
00fe09ff
00fd0504
00eff700
f902f9fd
f900fffd
f600fcfb
05fcf7f7
04fcfb00
04fb02f9
02fcfffd
0200fc03
0000fc07
0bfc0204
0302f604
fe030002
021002fd
fe00f8fd
f7f900fc
01040101
03010703
fdfafb02
fd000701
fffcff00
06fcfefb
fb13eefc
f0fe00f9
fc02fe00
fefffc05
070400ff
03f2f400
fd06fefc
010602f7
06090201
fdf5f500
f8fbfafc
03fe05fc
02fdfdfe
0903fdfc
fef9fbfe
fb070901
05f30303
00fffa0b
02fbfffa
05fd07fe
0302f8ff
04fc0502
fcfaffff
f9fbf901
0301fb04
06f606fe
000701fe
fdfd0c02
fdf906ff
02fbf808
f8fe0104
fafb03fb
fe01fb0c
fff70008
00fc00f9
00f70200
fdfef900
fc0503fd
03f6f303
01030003
ff050101
f805fc00
01faf8f7
fef8fb03
fc05fa06
fcfc0205
fcf6ffff
ff010005
ff020403
0cfd040f
fcf90106
fd01fdfd
030800fd
0507fdfc
00fb0605
f906f702
fcf90400
01040103
08fafdff
01fd0106
06fcfc00
02070902
fefafc03
07ff06fb
fb000100
0308fffa
fe000303
fdf50803
f7fdfc08
01fff907
02f905fe
fdffff08
f902fffc
0000fcf9
fdfdfdf2
07ff0209
03070403
fbff0206
0602fffe
05fbf904
01fa01fb
f9000407
ff010302
f700fafd
0103fc01
fd070b08
fa07fe00
0007f900
01f7f901
06050006
fb020302
02fafa06
000a0400
0608fe01
f10405fe
f90a0a06
0702090e
fef800fc
090100fc
000002f2
fafbf9ff
00fa0100
fa01f8ff
06fe00fb
f6050507
fd03fc0b
fc0302fd
0005fa04
fa020800
f9020000
06fbfd03
fc0902fc
01fc0304
07080506
06fb03fd
f4050908
fbf2ff00
fa00fcfb
f3f9fc02
00fbfdff
00010204
0a000007
060304fa
fdf90201
0000fefb
fb0304fc
fafe06fb
04030c0a
f9fafb01
f6f50703
f9080704
00fdf300
f4fb08f5
e7f40f02
fbeff9fc
01f4ec03
f2eaf2f6
0f08fdf2
fc05f7ff
fb0bf9f9
04f705fe
f804f600
0e0a05fa
fc02fc16
f400f208
f704fbf7
fa010501
eb04eafd
d303f0d0
fa03f9f8
140413fb
17060111
060d1907
07f50212
fa030b10
110a0607
0300ff08
fdfbf504
fcfe09f9
fc05fa04
102cf8f6
09031a13
fc020411
dceff3ec
02faf7fb
fffdf1fc
0705f7f9
0400fc0b
000200fa
f6fbf9fe
faf1f304
ff010303
0200000d
ff0b0602
0ffa000f
0a030afc
05ff0508
07e7efe5
090603f2
fb09f800
08ff02fe
01f7fa05
fbf5fbfa
e605e700
eaf0f0e4
effb0e00
00fdf90b
0df5fff7
f6f5fefd
03fff4fe
0a0705fc
f706fdf8
00faf9f5
fbf9f605
fae8f4f8
01fafc07
0105050c
fcfdfe07
1505fafc
1a08090d
fe11140c
0408f7fc
0e040704
1008120d
fcfdea05
f7f203f9
fcf306fc
fd04f1f6
fc05fcfb
010003ff
01fd0004
05fc0018
f5fdfb00
f7f30602
1805f2ef
f2000807
00edee00
faf8fe04
feff0100
f2f0edf0
edfaf1db
ff0df3fb
fb0f2307
eaf20003
0a03fafb
13f9fdf5
f702110d
06f60303
10050a18
060b03fb
0d0516ff
f9080809
00ff00ff
fef500fd
f00d040c
00e504f1
00eefc00
07ff130f
02070810
090f090a
08fafbfd
f6000402
07060005
0a05fb05
0af9080e
f9fcfd00
08ff150f
03ff0218
f600fc01
f2f7f2fd
f00000f3
f5fdfbf0
fcf2fdf2
0f02eb12
f1ebf5ee
fe00f6f5
0d08fdeb
1527180a
0ffb0010
1e120107
03fc0a13
10f70311
f5031309
0b02f80e
fd050003
fcfb0c06
040004fa
fa06f8fd
0001fa02
040708f7
010106fa
020bfaf9
fb0a020d
03f6f502
f8030005
fb0cff00
0e05f7fd
03000f12
0100f807
00090003
f9f6fd00
fcfbfbfd
f9f7efe7
0007fe06
04fd06fe
fa05f503
fd0e03fc
f9f50307
fffa0901
fd06fd0d
06f803fa
03001606
00f31212
fd0d05f8
020003f7
fd0dff07
06fb04fb
00090f0d
03f20008
040401fe
0e020209
ff0001fd
fdfe0a00
ff02fdf9
fc070800
fe0f00fc
fd09fdff
0902f806
f6fef4fc
090008fe
0100f70d
07fe0109
fd08f600
08020100
000afb00
07f501fe
e6f100fc
f9ecf302
0807f8fc
ff07fc08
fcf900fe
ff070304
f4f30000
fd00f305
190208fa
030b0d1c
01070301
f302f9f5
00f8fbed
f1fbf007
f9fb16ff
fd060100
feeaf5fa
000a0b0d
02f30002
081408fa
f7190406
f3020af2
0902021e
fff2f5f8
0209fef9
1a241c03
0af91203
080607ff
f20100fd
faf90d00
01fdfd08
03f5fcff
03080000
f6f20409
000af2f8
fb01fd02
06fef4f6
07fd00f6
fd11f803
0602fd01
020b0dff
fa030f0b
230c0207
06151b00
0111fb0e
fe000313
f4fd0402
0100f3eb
08faf0f1
14070807
0209fdf6
03030304
f01107fe
ebff0cf6
edecf1e3
fcf200ea
0bfb11ff
02090b0e
f9ebf009
f8eceefc
030102fd
fffd03fe
0200f1fd
090b0407
fdff03fc
161c1c12
1807122e
0a030efb
0914150e
08fd0407
fef10000
fd03ff01
0400fc01
fdeefef6
06030602
fc03fb05
fb04fbf8
e1f20503
1912fded
09211005
07030f0e
fd0cfaff
07f803fa
1c060800
fdf9081a
ec0cf3f8
f6f01501
fd09f202
fef5fffe
0c080000
00040001
fdfdfff6
f812071d
021001f1
fa00f70e
f100f3f9
05fe00fd
fcf8030c
ff050102
fd0405f6
0404090a
f9f80703
f5fd0308
fbf601ef
fcfd0d02
0a0402f8
010002fc
f9fc0e00
fa07f002
03fefa00
fdfa00fb
0506fef9
f801fa02
fe060206
0c0a0307
0a04fd03
0504fefb
10020300
08060313
fbfd01ef
05050005
02f40005
fb04fbfd
fc010907
02f50009
1a10fdf8
350f1e39
0f140e17
fbfb0505
000001fb
f9eeec07
f906eef1
0f0ff4f2
ff100e07
fa0b040a
0107f7f9
0909ff05
00f1f600
05f603f1
e7f7e6fa
f8ecf6fa
fdfbed02
0303fe00
f9fc0402
01f6fa02
fffdfef4
00fd0403
0b020601
0e09f307
010b02f7
00ff1107
fa0806fb
ed040af3
0b04f605
00f7fb07
0ef5f7ff
fefcf000
f0eefcfc
00f70011
030afb04
e3ececf4
f4fff5f4
f8f4f9fd
fe0800f8
fef70007
0605fafe
0c1510fa
fc0b1a0c
f5faf8fd
f2f5f7fc
06f5fbfa
f8fe00fd
fdfbfe03
fce5ecef
0800e6dc
02fd0b00
f9fcfc07
0006ebfa
fbfbf80b
06f9fcff
0804f400
fd0300f5
00fa06fc
0afe0a06
feecf6ff
fff6e6f5
f7edf902
001d0af0
f7ebfbed
0000030d
05070502
08ff0204
05fb0008
ff0a0303
f70d1704
0604fd0b
02f90709
ecfa0a02
f2ff03ed
0103f4fa
f403fa02
0b04ff07
0c051207
fc030109
060a0204
000e0404
0102fe00
fbfafe04
f9fb0400
ed000503
f0ffebe6
04fdfd00
050cfcfe
0004010b
fbf7fc03
f000f0fb
01fc02f3
f902f9f8
edf3ecf4
f8eaeee3
f7f705ff
04fefbf5
0e03ffff
f90200fb
f401effb
09010b0e
00fcff07
fa05f400
03020004
09030c01
fc0b01fd
00000710
f3fcf3f6
fc0dfffb
0b0607ff
04fa0b06
040706f5
f2f4fefb
f5f7fbfb
0102001a
fdf90410
01fcf6ff
000e0c1d
f3fdffff
06f3fcf4
06f8fcfc
fd07fd00
12f601fd
ff09f10a
f7eb0900
010606ee
09fb00f3
0f0e09fe
fffa0afe
00030afd
ff0306ff
0c100203
0c000012
fc0c050e
09140e07
eff31702
f1dff6f4
f6f3e9ec
05f3f4fd
f902f3f8
0f061ff5
f90f2008
2df80317
11451ced
0dff170b
fe03f8fa
fc0006f4
f0fdfdfa
03f0fef5
0f080cfd
12ffff0c
00050003
10fc0304
02040908
fd080605
0900f90e
0cfd1e05
15fa0c1a
f5fd0002
f7051d08
faf610f9
00fbfeff
0105f808
ee00f905
e6fbea02
f416f002
ff11fef7
f1e6ea0b
0208ff04
f7f7ff13
fbe9ee06
0106edfe
fd00fffc
faffe701
00000cfc
09000c08
f40802fe
07020005
faf90109
07ff0aff
04020802
e4fa0800
04ee00f8
180c0917
0a06020e
e7e9ebf9
12090400
ff031010
0003fb02
0afe0302
020d0512
0d0b0d05
fe06fffc
feff0004
08180cfe
0b041d18
00080a18
faf7faff
e0fd0800
1703f00a
f6060300
0efc0303
f5010411
01100df5
09051611
2a12faff
05110512
edfeff07
00fd04f2
061607fd
f8f7feef
f601fafa
02f6fdfe
08fef8f9
08f8ff01
070f0104
15000911
f5f71600
080d0e01
faf90403
e9fa0015
0af9fbfd
06f9fb01
040200f9
02090300
07011203
eff31100
0e0b0b03
efebdfe6
ebf4f3ef
09f200f8
09fe0003
f8e8090e
f6fde802
05fdf6ed
050c0c06
01080afc
fc01f2f5
13fa0803
f7f2000b
fff100fd
0def0407
fb0007f7
05f202fb
09fe0809
0802fe10
fafdf2f1
fa040000
020ef400
f0fd0aff
25fcfb00
0415f905
fa0713f6
0a0c0913
fa0b0b08
fb060b03
fefcfc07
f50500f9
03fc05f6
f40401f8
f9f505fa
fcfc0600
e3f6fb02
05f5fe04
09000303
05ff0004
fafb00ff
fff9f9fc
0902fdf8
0204fd01
fb0308fc
fc02fcfe
fefd0504
0007ff09
04000002
fdfe0204
02fc02fe
0306fe02
0003fffc
fc00fffd
fe0003fd
00ffff04
fffb00ff
060400ff
03ff000b
fafdf4fc
fc020000
fe000105
f90403fe
0001f8fa
fe020aff
07060605
ff020a05
01fefd01
03000502
00fe0500
0000fa00
fd040301
fb0001fa
0004ff02
fcfefdfb
fa0500fd
04030300
fe000002
050dfd05
070b0a02
fe03fc01
0c0403ff
0704ff01
03000101
0300fcfd
00000300
fe0300fa
00fcfefb
010103ff
030300fc
02ff0107
000005fe
03faf9f8
feff02fb
00000401
00fa01fd
05fc00ff
fdfe0400
fe050000
00fdfdfd
04fe0001
010100fd
fe05fefd
04060804
04000301
fdfb0304
00f8f6fc
00fafcfd
fdfdfdfe
04feffff
fefb07fe
ff000206
ff0100fe
01000007
fb040405
0104fc04
fbfffb01
0002fbfe
fb0304fb
fdff0001
0204f900
fe00fb02
fffaf2ff
fafffdfa
fafdff00
02020600
ff030002
010100fb
f7fcfafd
fc00fef7
03fd02fe
050504fe
04fdfeff
0000f604
0200ff00
fe000000
fbfe0002
fb0002fb
010601fd
fffa00fc
07fd0200
fb0004fd
fd01fd02
fcfffbfa
000003ff
fef80b01
fc07ff05
0000fe05
000001fc
fc00fcfe
04000002
00fbfb02
03000005
fd05fe00
ffff0300
02030400
06000100
fa00fe04
0600080d
fe040204
00fdfd02
00000702
00fcfbfc
00fdfcfb
f6010101
0909f8fa
00ff0406
f8040000
fbfb0301
faf5f801
fe00fcfb
03fc02fb
01fa00f9
0203070a
0102fb01
fc0602ff
fcfefcff
03fdfe02
00fd03fe
ffffff00
f6ff00f7
f800feff
020401fd
020204fe
04030506
0402fe00
fefdfb05
03040000
000700fd
03010001
ff000008
fe0104ff
06080002
00ff0003
fd050100
f80004fe
fffdfafb
ff000a01
ff01fffc
fd0103fe
fbfefbfc
fe0103f8
000103fd
fd03fbfd
fcfdfbfb
02030000
01fe01fa
030503ff
fd05fffe
020205fe
fdfeff00
00fbfd04
fb02fe01
fb050104
000404fb
01fdffff
00fffc01
040505fd
fcfbfcfe
0500fb00
fe03fdfe
06ff0104
ff000601
00fe0401
fb0300fd
faf3fefa
0706fdfc
010200fd
fe040001
03f9f8fc
05fafbf9
04ff02ff
060c09ff
0502ff02
ff03fbfd
fa04fc00
05000504
fc030405
04050800
0102fd02
fffc01fa
02fcfb01
03fffdfe
f9ffff02
f8fbf7f9
fbfafa04
00f901f8
fdff0202
f903fefc
01f805fe
fcfaf903
0401fafe
0a0df900
fe0709ff
0404fe06
fe05fe04
fafeff01
fc04fffc
f9ff0003
00f9fb04
00fdfe00
03f904fa
03020305
00f9fcf5
0100fd00
04000500
fffc02fe
040100fe
fefdff00
04fefd00
ff00ff02
04070002
ff00fa01
07ff0001
fe00fb01
fef7f7f1
02fefff7
fcf7fffb
00faff03
fff702f9
fc0102fa
02fef9fe
00fefdfe
02f9fe03
0503ff00
04000108
fd010105
01fafffb
040303fe
fc02fb03
0302fcfc
ff0006fb
fcfcfefe
06fa0101
02040001
00ff02fc
fb00feff
fffdfefd
0703fc00
ff0100fc
fc0205fe
00040304
fe01fefb
0101feff
0400fc00
0303fc00
fe000100
fe01fcfc
00fefd01
f902fcf5
ff00ff05
fdfe0101
00fb0403
fffb02fc
000000fb
0401fd03
0202fe00
0003fe01
f80200fb
0003fffd
fa060306
0100fc00
07060b07
0202fffe
04feff00
0200fe00
fb00fd04
fffcfcfe
0000fb01
fafbfffc
0001fbf8
02fffc00
00020100
fcfbf900
0300fcfc
01000603
fc020406
fdfbf700
03f8fafb
00fffefe
01fcf9fa
01030103
ff02fd07
fefafbfd
00ff0504
fe030104
01fa0002
fc0700fb
04050000
00040003
0104ff03
ffff03fb
01070604
0100f8fa
030401ff
f900fbfe
01060202
fc010504
fcfc0004
03fbfefe
02000001
0001ff01
00fe00fe
fb02fefb
fffc01fd
0000f9fb
02fd0305
0000fd02
01fefb02
03040501
0102fd00
fd0302ff
0100f7f9
03fb00ff
03010007
fa05ff02
02fffcfe
fd0100fd
04fbfefe
fffe0105
fefd0603
010efd00
04030003
04050102
03000104
f7fef901
fb00fdf9
00fe05fa
fd020005
04fd0300
050104fc
0001fd00
fd00fbf9
00fb0500
fc0205fa
0304fe05
fc0402fb
ff01fcff
fe020204
fd00fd03
02fffafd
03fdff02
00050600
ff0301ff
010001fd
05070202
02fc0403
fd0606fd
0302fbff
00fafd04
0503f9fd
08fa0304
fc0801fd
fd0600ff
fd0206ff
03fa0005
fa0004fd
05ff01f9
00fc0205
04ff0100
020304fd
02020300
03fb0001
0504fd00
000d0e05
00070206
040702fe
fdfdfb00
0600f8f9
05fc0108
070bff01
fc070301
070003fd
fdfffd06
fe040001
04fdfbfe
00000401
0104ff00
010102ff
fcf7fd04
fcfefbf9
01010605
07fe01ff
fc01fc03
0306fef9
00020007
00fdfcfd
0400ff02
fc050200
02fd01f8
01fc0200
00fa0301
01fd04fc
fefdfffb
0002fe01
040806fe
02050401
04fbfd02
0000f9ff
ff05fefe
00fe0507
02070306
06010407
02fefb01
020202fb
ff010505
00fbfb02
00f8f8fb
0303fffe
fdfa0000
fffafffb
fbff0203
fb03fafe
fd000000
03fe04f7
02fcfdff
00010503
fc000100
05fe04f8
03fb0001
fd030400
fe00fe00
02fbfbfe
fdf7fd04
fdf2fcf9
000002fd
00ff0307
040207fc
0205faff
00fd02fd
fcf9f704
00f7fcfb
02f70002
03fcfcfd
fcff0206
fe0003fd
05000400
fefefffe
f8010203
02fc00fe
020000fb
00fafb08
00f8f500
040705fd
03030600
f9fafdff
fefe0507
faf700fd
030500f9
0300fe01
fe000306
0301fa00
f90201fd
00fdfefe
030601fd
fb0002f8
01fc0001
fcf50005
08000101
01010104
01f6f5fb
00fcfdfc
f6fcfdfe
07010003
00ff0003
00fbfcfb
01fc0303
04fffa02
080404fd
0005fc00
fb0303fd
00fefbfc
faff03fe
0002fd01
f7f8fffd
000602fe
feff00fc
0305fe00
fbfc02fa
030405fd
0003fc00
03fd0200
00fc0107
fd050406
fd01ff00
fefcfdff
fc04fefa
01fa0203
00fe0403
fdf90000
03040202
02fb04fd
fd040200
fd0306fb
05fcfef7
faff00ff
060004ff
fd010806
fafc00f9
0001fafd
04050404
04060503
0502ff01
fcfdfe02
ff0502fc
00010002
fc030204
fc030101
fefe04fe
fb04fc00
00070000
0500fe03
ffffff04
00010503
fc01feff
ff0100f9
fa00fcff
00ff0100
fefbf800
ff0102fd
ff0303ff
fe060206
fcff0706
00050000
fe03ff02
03000605
000004fd
fd00f600
0100ff03
0200fe04
0505fefd
00000205
0301fa04
fd01fb03
fc02fefe
feff00ff
04050705
ff0002fe
fe0000fc
03040204
04010405
f800fc02
fffafc00
fc00feff
00fd04fa
03fa0200
fd0400fd
fe03fffe
04fb0105
fd030504
fc0405fd
02020400
fdfd0902
0202fe04
fa08f900
03fc0605
170000fd
0500f1f4
f5fd0a00
f6f1ff00
0af7fd00
f20801fd
f7f9f7ff
0a020503
fc0b00fc
05010705
0402f504
0103fefd
010005fc
0603fe0a
fffc05f6
fffd08fd
f703fdf9
fff9fb0b
02fef8ff
0af5f7f5
e4f202fa
f6ececfa
f402edfe
2210f10f
f001f000
faf8fb03
fafb00fd
ffff00f9
02030206
1d0bfcff
09250c0f
1410140c
09f700f5
05f1fdfc
f8fbfc08
f7fbfcfd
04fb0402
0301ff00
09100206
fcf00005
00f7f4f3
f0f3f5f7
fffffc01
fcf90500
0a05f700
fc05ee08
f700100e
ff030103
00000505
f80d05fe
03f9f507
f7fdfc04
0308210e
05000d01
00fbf600
fe13f806
040406fc
0a010afe
f80506f6
070708fa
05000f03
04fafbff
f80003fd
07f5ee0b
00f5f7fe
0a0dfffd
09070b0f
00fb0005
ebee00fc
edecf7fc
f9fcfcf7
f50bfb01
faebf1ff
11ffe4f7
f4001305
fc02f4fe
fc050b04
fd00fcfb
f8ff0505
ee02f5fb
e305fce3
020000f9
f902effe
00fb0002
05edef0d
03eee7fa
020a0601
fb03fafd
f6f0fcee
dde6f82b
fdeaf4ef
fbf0dcf1
0c06fa03
09f2fc09
e413ff14
e4eaffee
01f50105
f909eb00
fd08f6f8
0017ee0b
00feff02
0703ff0b
0506000a
01090c10
ef07f5ff
f9fafb00
01fcfffe
fe00faf2
03040200
03f5f907
f4fe03fe
fcf20b09
010300f9
f4f50200
050606fd
fdfa05fa
05100ffa
f50bf704
13071307
f7f6100f
fc15fefa
fcf8eef1
fe00fe04
f70303f6
05fcfbfb
07f60bff
05060201
ff060f16
18f801ff
061613f1
f60105f9
1402f0fd
f50c02f0
01030104
031101fe
03fbfb10
f4f8fdf2
040700fb
0300fafc
0303f601
190ff717
020e0c02
0100faf7
04fe0700
f803fb05
fb030606
0205fff3
fa080100
06000602
f9fa03fc
00020309
f107e7fe
f91002d8
fefe0907
fa04fa00
00080208
0e12130a
fe090700
21fff919
fc00f50b
fcf6fb10
0601f906
0000f500
fdfe04ff
fdfff808
0c03edf7
04fd0100
f30800fd
faf7fff8
f80400fd
f903fbff
0300fdf8
05030200
0c00fa0a
00070302
00080601
0c05040d
0107060a
f5ff08f6
090a08fb
fefe0000
02fa0400
03fb0401
1007f8f8
03fd0af9
0f01010d
0f050005
f5f70000
040100f5
01100002
0e0c0b18
fe000d05
0107fb03
f80600fc
0511ffea
0008fb01
fd00080a
f5fe0200
00f501fc
fb00f6fe
090100fe
07070c00
000d1513
18fef3e6
f5fb0008
010e0107
090f09f0
02110603
01110d04
ed07fefa
ead2f5fd
04f8edff
fbf80211
00f6fffd
02f8f605
f506fa00
050503fe
fdfef807
f3f500f7
000802fb
01fe0500
f6f701fa
0505fb06
0c0024f6
0b0d1312
f603f705
fb000402
010705f7
f6fbff09
fffbff03
080702fa
fb000000
f700fb03
f7f8f2ec
fafff104
07ef0e03
f2060303
fcf1ec00
0d140005
ecfa0006
eef5edf6
f503f5f6
050105ee
fe0f03ff
0106110c
f900060a
09fe04fa
fbfcfc00
04f9f8f9
05fd000c
04fff7f8
120af9fa
0a0f0906
0af702f9
00070203
fe000802
f8000e06
02000104
f0f8fc09
0b02f9fc
03080afa
fcee04fe
fcfbecf8
fb110902
fbfb0813
02ff0b05
fafc00fb
fbfbfcf9
ecf8ecec
eb02f7e3
04fdf806
f605fafa
0e08f2fd
04030c00
fef4eff3
0d0ffdfd
00000206
fd09000b
0302fbf6
fdff04fa
fd07f7fe
f208fcff
00040d05
f700fc05
ff050202
fa06fa03
ff02f7fd
ee03fdeb
0000080b
fcfdf9fd
1111f805
02210afc
0807220b
0b00fcfe
ff010301
eefef4f5
f7fbfdf2
02f5fdf9
f4020a01
001100ff
faf604fd
0a01f8fe
ef09fbec
0c060d03
f8060003
0208f903
fafd00ff
0409f2fc
ff0d0500
f7020200
ebf4fffc
00fdf1f2
fbfaf1f8
ff00faf9
0708fdf7
f00705fa
ff1010fd
03fdfb00
ff03ff00
000a1007
fffc03f9
fdf905f9
0a110e12
01fafcff
f6f0f1fe
faf7ecf5
f8fef3f3
fffffcfe
fcfb08f8
fd010102
fefefff8
0c03f5fb
1509fc09
0d09090b
08feeef7
fefb00fb
00020305
080a0007
f8f3f5e7
fdfbfd00
f7fe1e06
00fdf6ff
070bff05
f60f02f8
f70e07f8
00040f02
05f70504
0203ff05
fffdfd06
f3fbe7f3
f9fd00e3
0bfbfc01
0600eaf2
03fc0712
fd00f902
03f8f800
f8f90000
fdfffcf9
0304f615
f305f4d5
0308f400
0300fc06
f5f90d04
00f5fff6
0103f4f6
f60505f3
15051907
faee0cf3
1008f212
03fbf903
fd142907
fafe04fa
f5dfecfa
08100013
f1050a0c
08f70f09
fbf50005
fafd06fb
ff0e07ff
fafa0813
ff03fe0d
f5fbff05
12fafaf8
f9f60f05
fd01f6fd
fffcf207
fa08faf2
fbfe0500
0b000dfb
fdfc0809
fdf2fcf8
0b0000fc
0000070e
fdfe08ff
01f4fdfc
0904ff0e
fbfeff0a
faf6fe03
f3030606
130a0209
0c0b0605
0c060a0f
08f6060d
fdfc00f5
f8f80102
fa02fef3
03fceffa
fe000200
05feff00
0000fdf9
f3fff90b
04f601ef
0401fffe
f2020108
fc06fcfa
0e050c05
01080916
08020410
fb00fcf3
02f9f9f3
02040400
ff04fbf6
f6050301
10240cf9
12f70e08
f406fc02
fcfdf804
f7fafdf9
060604ff
f4fa0202
f4f5f2f5
fd06f5f7
f9fa0903
f2fafcf9
0d00f2f8
03fd00f4
0101f30a
000502fd
06000802
f9f70100
f7fc0000
02f60201
020003f6
fdfc07fb
f516f7f7
fbfcf702
fd120109
070908fc
fa02fb03
fd09040b
f2f3fa06
f2f7eaeb
fff1fd07
f815ffe8
fbf9fdfe
0004f9f6
0205f501
f5f70501
f800fdf9
f51208fd
05011718
f5000404
060806fb
f109100c
0304ff04
030d0ff6
f5fcea01
fe06f3e7
fef200fb
00fdedfe
0002fd01
00f5f50e
fefd0104
060dfd03
f8f8fd00
0d0a1a0c
02f9ff14
0009fd0f
090707fc
f5fe0302
f8c7f608
06fcdf00
000009fe
fbf00501
060afb06
080704fe
0600fbff
000afdfc
0e120a02
140b1307
f5ff0308
e4e8f9f6
06e9f4f0
ea08eee3
04fd02ec
f9f501ff
03f2ebfb
f9ff03f9
f2f5fefd
02fe00fc
f70009f2
f403fbfa
03030206
fcf5faf8
fdf4f200
fa00f201
07fd09fd
fd0405fb
f0010000
09f609fb
fe071205
060902fe
ff01fb01
f3f6f200
03edeef3
fefe08f7
07110c0c
050a08fd
0a010210
f0fc0201
fb09fa01
09fbfffe
0004faf7
0201f5f8
fd0eff07
f00505ff
ff05fafd
f6f10bee
1207ff0a
f4fef7f9
1700f8d5
03000110
00fbfff8
fa00fcfe
f9f9fdfa
fbfb0209
19100916
fdf4ef02
f9010af8
fd07070a
f5f5eef8
faf5f8fd
1311fefd
00f1f90b
fefef9ff
fcf9f6fc
fafef802
f6030405
07ff0604
03fd05f3
0a01ff04
faf300f8
02fe04f6
f4061408
f8f6fe00
04060cf2
feff0000
f4fc04fc
03f809f7
04fcf8fd
fa14020b
fef90bfc
00fbf4f7
ecf80303
00020406
00f90202
fdf6ffff
04fc0306
f8ff0602
02fff5fd
f8f60400
ecfdfcf7
ebdffffd
f7eef6f1
fd060500
02070609
f6f3ff06
05f5f503
0303fb09
03040500
03020906
f7fb03fe
06fb01fb
0902080a
0b000903
05fdfd08
ff020202
fe0300fe
030000fc
ff0201fc
00fffe02
01fc0300
fefbf6fd
00000300
04050401
000200fa
fb0000ff
f7f8fef8
ff00040f
f7f5f800
03ff00fd
06ff0800
fd050605
090a0103
ff030605
02fb05ff
01faf8fa
fe05fffb
0afefb00
020906fd
0405fb00
fcff0200
fa0205fa
fffd0704
f9060300
fcfb04f6
fcfb03f9
fa04fdff
fffc04fe
010400fe
fe01ff03
fefd02ff
f8fbfbf9
fa04fff5
fffd0602
0101f901
fe040206
00030400
f5f70100
ff03fbf8
0500fe01
0004fefa
0504f9fd
05090a06
03070404
ff0700ff
fa010304
fd0005fe
fafcfcfc
05060002
09050504
fd02090b
fdfffcf8
f9f3f7f9
02f9fdfe
f8050106
0402fe06
06050502
01fdfa06
08fb0006
04fe0007
fd0100fc
fef7f600
ff00fb01
02fafbfd
f9f90300
fbf7fff1
030300ff
f800f9fa
01fcfdf7
fcf4fb02
fbf70000
f901fcfc
fd0205fb
00fdfefe
fb000400
f9070200
f8fc07fe
05ffff00
05050004
fc02fc09
0902fcfa
fd070504
0402fcf8
05000900
fb040203
fcfffe05
06fcfc06
00fc06fd
fafcfeff
f9f700fd
fafaf601
030806ff
f8fa01fb
04000003
04010000
04fe04fe
08f900ff
fe05fffd
04010002
fe0200fc
05f500f9
f403faf8
030803fa
0200fdfd
02fd0100
01f8f8fa
04000202
f9fb00fc
01fa02fd
fc04feff
030003fa
01fd0005
fd00f8fe
f9ff00f9
fff2f4fb
f8f8f8f8
fa00fff8
01f901ff
00fd0301
fefbf902
fff7fdfb
ff02fcf9
fbf903ff
fafcfafc
0202fc00
fd03f5f4
03ff04f7
fcffff03
05020004
fefc0104
0601fd07
feff03fb
fff80600
00fd05fe
09000808
ff080100
05fc080c
04050109
fd010007
00fd02fd
00000003
fc04fbfb
f802f805
f600fef9
f7ff00f9
06f800fa
000005fc
03000200
fa02faf4
ffff00fc
fb01f903
f9fefa01
05fbfa02
0004fd05
fbf8fefd
fc05fc05
fbffff01
0201f8fa
fc0200fc
0301f700
010300fb
03f6fa00
02faf7fe
ff060601
02fe0000
01fbf8ff
fb03f8ff
fa00fbf9
fef8f907
f7fffd00
f600faff
f8f9fdf6
fe040005
f906fb00
fcfe00fb
00fb0502
0001fd07
0a000002
00fffe03
0103ff01
00030106
fc000607
00fd0001
fafffefe
fbfb0200
04f9fffc
fafcf7fe
fb0400ff
ff0003fb
f6f7fc06
f708ff02
fff90100
0300fe01
fc03ff01
fffdff00
fa05fdf6
00ef00fa
00fcf9fe
ff040800
f9010500
fb05fafd
02fe02ff
00fff904
00feff02
0203fb08
fafd01ff
fe000303
05fffd01
0004fd01
01fcfbf4
050600fb
02050501
01f907fc
fff5f502
0ff8fff9
00070815
08090c06
010602fb
0202fd05
f5fdff09
0302fffc
00050403
fffd0101
fe02fdfe
fcfa02fb
0500fbfa
000402fd
ff02fefb
01fcfb08
030405f9
00fdf900
fc06fdfb
fd00f903
02fcfcfc
0606fc08
00fbfdfe
fefaff00
fbfa0203
000502fb
00ff060a
000206fb
00fa05fc
f80000f4
0000f9f8
fd0001fe
00000401
0d0905fe
fd04fdfc
000701fc
02000aff
fd040907
fb05ff05
05fffefa
fd0306fa
fefcfcfb
05fa04ff
00fbfafa
f905fcfb
fefc02fc
f801fc0a
fe0202fe
fa020000
0702fbfe
01090708
04120100
08070e06
04020711
fe07ff07
000207fa
0004ffff
fefe01ff
09fcfa03
0e08fcfd
02000104
0200fefb
04fbfdfe
040206ff
fd00010b
fa01ffff
f8fa00f6
fdfefaff
05030002
f800fc02
0002f506
05fef9fd
fffc0203
fcff00fd
0202fef9
f50003fe
010000f8
0104fe03
00f900ff
fc07f701
03fd09ff
05fd0403
fd0002fe
0007fbfc
01000403
0301f909
00020101
01020304
02000102
fe0a0004
fffd00ff
fd01fd01
03f90403
00fe0104
fb02fafd
0202fdfe
03fef8fc
05f8fdfc
02fafdff
05f90306
0004fb02
faf9ff03
04fe04ff
0102fe00
00fffefb
020503f9
fcfe03fb
fbfbfdfe
fe010500
020103fd
fa000301
fc04fdf7
f8fdfc07
f4fef9fe
fefc0604
0500fdfe
fdf6fefe
fef40002
fefdfa01
fdf6fb00
fe00fdff
fafafdfe
0403fdfc
06050001
f7fe05fd
faf901fe
020102fa
02fd03fa
05fbfd00
03ff00ff
0201fbfb
0304fdfb
fefcfeff
04fcfb03
fa02fbf8
fd03fd03
fdfa01fa
010204fe
fe020608
f003f9fa
fafdfbfb
00f70202
fd080606
0002fc02
fe030303
00fffc08
fd0600fa
f9ff0603
f9ff0300
f7fefcfd
050107f9
fc0708ff
01fbfd06
00fd0100
0002faff
0100fa02
fc040505
ff00fffc
f9fe06fa
03fdfd00
05fffdff
fffb00f9
0008fcff
0dfa01fd
03050501
05020604
fb050efe
fb01f803
fffd04fe
f7fa00fe
02fd0300
0204fefb
fb0402fa
0105fd00
f7fa02fb
ff00fa05
0b08070d
f6fef603
fcf305f4
000300ff
fbfffd02
04fffd00
fa0300fe
0100fc00
fff900f9
0301fd01
020202fd
01fd0101
01ff030a
fefe05fb
0001fa00
0009fe00
0206fb04
04fe0200
0000fbfe
0500fe02
000006fd
fe000709
01040106
fb0400ff
fd020603
000604ff
ff04f901
00fcffff
fa03fb00
fd01fdf5
01010101
0900fdfe
05fe03fd
05ff0705
030cfdfe
fafbfa01
02ff0300
00ffff05
00020300
0400fcff
040601fa
fffbf5fd
01f6fefc
0306fdfd
f904fbfa
00fc04fb
f9010202
f6f50500
01000000
03f80200
fd00fa03
0202fd01
0100fe00
00fc0500
ffffff03
00fdfbfd
04fff5ef
f80202fb
fef8fcf7
04fafefe
05fefb00
00fa0004
f4f9fa00
050200fe
0005fffa
01fe03fc
fcf8fd04
04f9fbfd
0106fffe
ff010001
f5fcfffb
f301faf7
fefdfcfb
fcfa0200
01fbfdff
f7fafd00
0100fcf6
ff000000
fd03faf8
01f901f7
050403fb
00fffbfe
01faf901
0305fc00
07080705
02120409
0009120b
fcff07fd
fbf7f904
04fffa00
fe0101fe
fdfb00fe
07ff01fd
0206f7fa
06000104
fcfa0801
fffffcfb
fdfdfd01
04fffffe
fdfc00fa
fffbfeff
fdfcfb03
f9f8fd00
03fdf9ff
ff0104fc
000301fb
fc0101fb
fe0303f8
0505fafd
03f8f5fc
f703f2f6
060afef9
04fe0002
00fef9fb
fbfcf5fa
f9fafd00
fdfb05fa
03fafcf9
0204fa00
01fc0200
020000fa
00fe0404
08070006
03020609
fbfcf605
fefdf3f8
f900fffb
06050501
faffffff
02ff0107
fcfdfb04
04ff02fe
fa06fc00
ff060404
fafc00fe
f9fcfe00
030207ff
0503020a
0100fe01
fb000501
fefdffff
fa03ff00
03fffffa
f903ffff
01ff0706
f7ff02ff
0202f9f8
fbfd0204
02ff01fa
07f9f906
060400fd
fd0702fc
0303fffe
fe05fffe
04000800
0202fe00
00fffb01
000203fe
fef7fbfe
01fe0301
05fefafe
fa00f8ff
faff0003
ff04fe03
fe0300fe
0300ff06
fdf90300
fb00fb03
010304fd
0004fb02
fc03fb02
020000fe
0009fe03
f8fb0102
f8fdfdfc
02fb07ff
00fefa00
fcf9fb00
06ff0400
0700f8fc
f7ff00fe
02fb05fb
030501fb
fb00f900
050107fe
000700f8
01fffffe
05000800
000206ff
03f90501
f704faff
fcfafafa
f6f602f5
00ff06fa
01faf7fc
fcff0003
00f9fc01
0500fffc
0106fa00
fe09fafd
fa000b07
fb02f909
f7f706f7
fbff0001
f7020204
01f7faf8
01fb07fe
0508f9f7
fa08fefa
ffff04fe
ff01ff03
080309f8
03fa0002
f8fefb01
fc0302fb
08fa0503
0009fbfc
ff07fc04
0104fe03
0904fff9
040608f7
0006fafb
01020105
fdff04fc
0102fe05
00fb0102
0000f9f9
02fffd01
fefefbfb
fb05faff
f704fe02
fafffbfb
0005fc04
fcfcfaf9
060305fd
fa00fbf8
050005fe
07f8fdf8
fa090507
04fbfbf9
00fff8fe
fe0204fa
01fd0002
f7020603
0205fb01
00000701
fa030005
010b0708
f8fc0108
070008fd
fa000300
f8fafafe
f803f8ff
070300f6
0809fdf8
f6ff08f8
04f801fe
f901ff00
04fbf8fd
0507fefd
fef601fc
fbfe01f9
fbfe00f8
01fa03fc
f6fbfcfd
f9f80506
fb04fb07
f7f80101
00fdf7fd
05050404
fcf7f7f8
fa05f903
fdfafc00
f9fffdfc
fcfffb00
fefc0006
02060503
04000502
03f90106
ff07f906
0307faff
f906ff00
fffdfe01
02040107
f8fb04ff
ff050500
fcf906ff
fd000405
ff07fff8
fafb0302
f90000f9
0102fffd
0102f6f8
fbf90003
fe00f900
fa03f9f8
00020302
0601fa02
fd07fb07
07fb0402
02020905
f7040301
04fff903
f8f8f9fe
00fc0206
03fe0705
07f9fefa
0906fcfb
050200fc
0605fff9
f804fa02
fef907ff
0007ff02
01fafeff
0500fd03
0705fe02
03fffb05
fc02fd00
fafe0101
fb000000
fb01ff06
fd040303
00f9fcf7
fefe0801
07fa08fd
fbff08fe
fafd0501
fafd05fd
06fe05fa
02fdfa00
fcfbff01
0300fffe
08010000
f9f80700
f8fcfc04
fafd02f9
06fc03fc
fdfd0106
010200fa
00fcfa0a
fdfe0705
0200fe06
04030403
02f807fd
0101fc02
06f70906
fffe00ff
04060003
ff09fa01
faf9feff
ff0805f9
fcf90703
fa0703fb
fbf9f803
02020205
08fd03fe
fefffa07
010400fe
f9f902fe
07fffc02
02f8fe08
f904faff
f7030003
05f607f7
01fefff8
fffcf908
0100fe05
02000602
01fd01fc
ff03f905
01000000
000000ff
06f80608
05fcfd07
fbfe0302
010406ff
06fbf7fd
02fefafb
08fa0502
fb0000fd
00fa00ff
00fbff06
040400fa
000003fc
fa0008f6
010506f8
f802f904
fcfcf903
0001fe03
08f90605
05050800
03fefc02
fcf8f7fc
03060608
00030006
fc020702
f704fbfc
00f603f8
01fe0505
fe0006f9
09010009
fc0200ff
0406fdf9
01fa00fc
0803f805
050005f5
06010504
00fdfa01
fe00f703
0205fb00
07030501
ff000901
f8fcfcf9
08f706fb
03080305
06faf909
05fd04fb
0301fdf8
0503fefc
fdfafafd
02ff0000
fafffffe
fc0600fb
05fafa04
fa00fff8
fa06fb03
f9f80102
fd00fb05
fa070704
00fffdfd
0203f906
fe0009fd
0000fa02
f902ff00
03f901f9
06fb0206
f908f703
ff03faff
04fa00ff
faf90201
fd010003
f901fdf7
f90605fb
fb06f801
01fd03f6
fdf8f706
fcfafb02
0400fb07
08fbfa05
02f603ff
fb030501
f70000f8
fc0005fb
01020206
06050607
f802fbfb
010703fb
f8fb07ff
06fb0506
03f704ff
02f80102
fcfb05fd
06f8f901
000502fd
05f903fe
0304ff05
0300f8fd
02000207
03fe02fd
fbf904fe
fa08fa05
fb000404
fcf70200
fbf70607
fb0904fb
05060000
0000fcfa
04020007
fe060001
060200fd
fbfb05f9
08fffc05
faf9fc05
f8070807
fa00fefb
fc04f903
06030100
fc0300f8
fbfd07fe
05f903f8
07fafcf7
ff07f8fa
fe010000
ff060003
00fe06fc
0603fb00
fbf9fafa
05f8fa06
0608fafe
08fd06ff
f9fd08ff
0300fbff
fffa0608
fafa03f6
04fcfd07
fb04ff00
f8070202
09f9fb00
00f9fefa
fffb0000
ff05fdfe
f800f9f9
f70605fe
faf902fe
f9fff9fe
fff8fffd
f705fa04
02fff9fe
fffafbfc
060004ff
fa06fe03
fffcf6f6
fe0001f8
0203fff7
fa0503fe
fef90007
ff06fe07
06fdfefa
0507fc04
fefcfbfc
04040504
f6ff00fd
fffffffe
04050007
07fa0105
0304ff08
05000201
00fa0203
07fd0700
040304fe
fbfef9fa
0007f802
01fe0801
05faf8fe
fe010102
050503fd
f802fc01
fff703fa
0101fd06
f8f700ff
0301fdfe
080206fe
09fcfd01
0407fcf9
02060200
fcfa03fc
fe0603f7
00ff06fa
00fdf8fb
00fd0407
fd0001fa
fffafe06
fffb07f8
0303fe03
fafa0007
010202fe
03f8f503
fcfb00f6
fc0608fb
ff0306fe
fd010603
fafafdfb
fefefe06
04f80909
0900fa09
f6fc0200
05faf600
00fb0704
0806f805
fdf908ff
fc03fdfc
ff0500fa
01fefe08
030102f9
00020502
01080704
fc000507
07010104
fffafef8
0805f9f9
0100f9ff
00fcfb05
060906f8
02000704
0108f905
04fe0005
f7fb0007
fefaf902
f90601fd
0300f703
04000107
fbfff800
0604fdf9
0804fd07
04f6f709
fef6f5f9
ffff0600
08fb0608
060103fe
08fb0804
fd0707fe
fbfc02fb
0508fc03
06fbf8fd
07fd0408
f804ff03
f7f6fffa
0308fbff
faf504f6
f8fef9fe
04090100
0203fc02
00000607
0202feff
fc020204
f80a0106
06fe07fd
01f702f9
06fe06fb
09fff8f8
ff0007fb
04f6f8fb
06f80002
0204fafc
ff00fafa
fffa00f7
02fe0200
06020505
f8fffb05
fbf7fffe
fdf6faf9
00f704fd
fb0600f7
0302f8fa
fffe0803
fffb0b03
fefe00fa
f9fffdf8
f800ff00
00feffff
fc03fdf9
f706fbfd
02fefcf7
fdfb01fc
fe0305fe
0700fefc
0009f8f8
03f90001
fcf60307
07fdf908
000105fe
04f605ff
04fa0301
fe0403fb
fd040204
f90906fa
fdfff802
fffe05f7
f8080801
fe050705
09fef903
00fcfa05
fd06f907
01ff0608
05070705
fcfbfc03
f9fdf9fb
0500fcf9
070503fc
04fff805
f607fcfa
02fefbf5
0300fdf8
09f80604
0607fe09
0002fbfe
05fe00f6
05030500
f90600f8
0a08fe04
01050109
fd0004fe
ffff01f8
f908fb08
ff08ff05
fefb01fc
0700f9fa
fd0600ff
01f702fa
fff800fe
f904fdfa
faf80600
ff0107fa
04070701
ff040008
fb050209
040505fd
fefb04fe
00fdf6f9
f603fd02
080000fe
fb01fefe
0404fd04
fd0600f7
02f601fb
ff0afbfe
07f9fffa
fdf7f806
f8fc0002
03fe0608
ff01fafb
0702ff03
000004f9
fbfb0007
03f9fc06
03f7f7fb
0004fd00
02fcfcfd
fbf90800
02fa0500
fefa0101
0600fbf7
020100ff
fc000301
fc03fcf7
f908f801
fffd0906
fcf9ff04
f903fc09
07f8fb00
fe010504
0000f900
0904fcfe
fbf903fd
fd02fe00
04000404
0002fb01
fe000401
fa080700
f9040003
02fef8ed
fd08ff02
fffffcfd
f6fe01fb
0001fc01
0300fd07
020003fb
f8faf901
fc01fefc
03020002
fef5fef9
f802f1fd
fef9feff
0005fefe
fd00ff02
00ff0300
010b01fd
fb04f7fd
02fd02f7
050503fd
fdfcf8f8
f802fbfc
ff040202
00f6f8fb
0303f600
fc02f903
fbfe07fe
0507ff03
0a000807
0500fffb
0e010709
03ee0000
ff0304fd
fb00fe07
02fd04fc
07fffbfe
fafe0200
fa0302fe
fe010001
0205f9f4
fdf5f9ff
fd0700ff
f8fdfe09
00f803f9
07020000
00fcff06
070900ff
02060702
00fe0200
0100ff00
02010804
f90408fe
05000003
00feff05
01030603
04fffc02
02040000
f7fffe0d
fcecf1ff
ff000102
04020200
fefcfafe
ff030203
0d0b0000
080d0602
fc00fffc
00fdfd00
feffffff
05030001
00fb0600
f9040105
fa000801
fdfa01f6
0105feff
fc010105
ff03fef9
050102fb
08000601
f7030302
04fe0004
03000006
f5fdfdfb
fb0c00fe
fdfe0af6
fcffff02
02fc0305
02000002
fefe0310
00f90500
02fefa00
fffe010b
0005f707
0407f6fa
0d00fe06
ffff0504
01ff00fc
0000030b
0305fd00
fe0100fa
000500fe
03ff0708
02000205
04fdfe05
07060202
0202fdfe
fbfcfe03
07000002
0500fe03
02fc09fc
fcfdfc02
01fb02ff
fbfd0208
01fcfb01
ff050100
03050200
f5f6f3fd
fe02050d
00f6feee
000100f6
01fe0405
0000000b
00010205
f3060100
0005faee
03000300
00fd0100
0605ff03
02fefd03
00000002
fefe0206
f9fafe01
fd020204
07050003
0200fe06
fbfa0001
010402fc
fff9ff04
fe0200fe
08030103
00fd0002
00010200
05fffbfa
0400fa04
08000400
02fc0307
fcfd03fd
fafbff00
fd02f8f7
fb000601
00000002
feff0000
fffb0303
03fafe00
0200fdfe
f7f8f9fb
ff0106fd
0300fffd
050605fd
0800f6f7
0000fffc
02010100
04010603
fd010107
000000fe
04040300
0100fd04
fe00fcff
01fc06fc
03fe01ff
fefe02ff
0200fafc
fa020601
fafff900
03000302
f5fb04ec
fc06fe06
ff01fa00
0007fb04
fc03fb00
fcfd00f9
ff030402
00fefcff
05000207
f503fd00
06f809fe
00ff01fb
0303fe02
060901fb
00fdf9fe
ff0003fd
f8fb0101
04faf703
03fe0000
000302ff
07fa0305
00fff905
000a0003
00060005
fdfffdfe
fbf900ff
02fef6fc
210c0705
03ff0004
f60a0903
fefe0200
fbfbfd02
fdfe00fc
06fc0404
0103fcfd
f5fefa02
f6f4fbf3
02010403
f9000102
06fffefb
fef90004
fefbfafe
f3fefefd
00fdfbfe
00020806
fbfd0000
fefefffa
fbff0d05
ebfffff2
060607f7
04fdfefe
07030401
00070903
05020000
f5010407
f6f7f400
fd000204
fefe0500
000c0a01
00060601
0102fff9
ff0d01fb
02fc01fb
0300fd05
02fc00fe
fcfc00fe
fdfa03fb
06050000
09f9fb01
00fa0200
fd0000fd
00070906
01f800f7
08050702
02050a08
030000fa
00070707
fdfdfdfd
000303f5
fafdff03
04020201
fef8fdfd
fd0301fc
fffcff05
08020104
04010208
fb07fd03
0409fcf8
010802ff
03ff0600
fbf8fcff
fafefbff
02fe00ff
f9fd0301
fc0002ff
03070605
02fe0103
fbf9ff03
fc00f3f9
fe00ff01
f8030000
08000304
fcff0000
fc000100
00000104
eff901fc
00fe0100
fb000107
000100fa
040605ff
ffff00fe
fd000207
03000403
0403ff01
0207fe0d
00040404
08080400
0e070801
00000103
ff00fef9
fd0107fe
fc04fc03
fc010200
070503f6
fd04ff04
fffaf100
0a04ff10
fceff901
fffd02fc
010103fc
07040003
f905fffe
f7fe06ff
010201f9
fc050506
fd00fe07
fefafe00
00040806
00ff0500
000a0500
fffe05fe
0602fef9
07ff0008
02ff0005
fbfc0002
fefbfd00
0500fdff
fffefe00
09090504
fe03fa00
03fffdf4
0301fef9
00fdfc05
0002fffe
0201fcff
fcfcfffd
00090403
fdfefd08
fb010408
01000302
0000fffc
07fefefe
03000401
00050002
fd0204ff
000102f8
01010107
fdff0000
f9fb0101
fcfbff01
05050000
0a00fe03
fefd0505
00030302
00fdff00
06000005
fefb0203
01fe0000
020004fe
fdfefffd
fa00ff00
fe01fcfc
01070402
f2f9020f
0200fff8
0000ffff
fc030303
fd00ff00
00fbfb03
04fe0805
04faf9fc
05ff00f9
fa0202fe
05030600
00fcf3f3
fc04ff03
060a0101
fc00ff03
0f080501
fdfefd05
00020f0b
fafa0200
fc0204fa
000100fd
fcfb0000
0302fffe
f00403ff
fcf8fcf4
01ff0300
00fdfffd
000001fa
02fbfeff
f702ff01
f2f7fffe
fd0001fc
04fe04fe
00ff00ff
06000402
fe050000
ff03fff9
ff040108
0000fbff
fefdff00
03030100
06021209
05010305
00fff9ff
fdfd0001
f9fd0000
fbf7fbfc
fbf8fe02
f10201fd
070902ff
fe060d0c
fa00fe00
fef700f9
00fcfefe
fffbff01
0104fd02
00030100
02050202
050a0407
04030306
02ff00fc
0300ff03
00faf7fb
03fffe04
feeefe00
04fe0100
00ff0701
ff0f00f7
ff040602
03fefffe
05010303
01010305
02fe0004
00000800
fbfcfd01
fe03faf8
03060400
fa090301
0003fa01
02050000
ff00f803
0502fa04
00070500
040002fe
fbff0503
fd01fafe
fafc04ff
ff0002f6
00f0f7fb
f9fc01fa
01ff04fd
f6f8f704
00ff0efe
00080304
fe060104
02fefb01
f6fffef8
fd000200
fc050203
110c04fb
0100fc0a
0205fc06
1710fe07
ffff0906
05f6e6f5
03030400
00fbffff
040105fc
01fcfd08
050b08fe
fdf7f8f8
fffb0003
04000300
0000fc06
0e02fe11
fee5f201
05fe0200
f3f90906
fe070103
f9f9ff02
0503fff6
fc09fd01
00fff8fc
1108ff00
f0d1e307
fa02fffe
0402fa03
fc000400
01fbfe00
01020200
fcf8fdfe
05fe0304
0d00020c
0500fd01
0600fefa
fafeff00
00180b03
f9fd0400
f6fcfde5
0004fffb
fe03fefc
03050401
00040304
03000200
fc0500ff
04fdfd00
01f80603
00fa0502
020004ff
f90101ff
0801faf9
fcfbf8fc
fdfaff03
08030102
05020503
0409fffe
ff020700
f9f8fbff
01fd00f9
f90007ff
f9f6fa07
00020202
030700f8
04030305
04fefdff
00ff04ff
fafb0104
02fcfe00
03030508
fdfffffb
00fdfdf8
fdf901f9
03ff04f4
03000303
01040304
0209fcfd
00ffff02
ff050104
ff04fffd
f9fcf8f9
0105fff9
ff00fc05
faf803fa
08040005
0000ff04
020400f6
fd0201fd
04000502
f9fd0005
070300f8
0404fd01
fb000003
00000103
fcf6fdfe
03ff0405
02000405
fffe01fe
fe03f9ff
fcfc04fd
04ff0300
02fff6fa
fa020503
030ff902
fa000004
03fe01fd
ff00ff07
fffefbfb
00fdff00
080102ff
00fcfb01
fafd03fd
fffc0305
00fe01ff
0701ff04
fc010005
05fdfbf7
04050907
fcf707fe
fdf9f90a
000207ff
050701fe
00fdfefe
02fe0306
00030aff
0802000b
0afc000b
ff000102
fd000507
0003fdfd
fc0e0105
fef3fd04
05ff01fa
02040202
fc050f01
07fbfe00
060304fd
05fbe3f5
fbfa0121
fe04f901
02000800
f4f80408
fa1b00f3
020001fe
fc030303
00fd0005
00fb0008
00fa0203
f5f4fc00
00000300
0d010005
fa10fafd
fb01f8fc
0002fffd
060705fc
00000301
03060401
00070205
09faf8f7
1310faf6
fa04f902
02fafe01
01f4f600
040704ee
02040404
01030100
00fe0503
070100fd
00060806
03fd0001
03fd07ff
f9f20018
fdfd06fd
f901faff
f9ff0200
00ffff04
02fd0400
0bfbfafe
fdfdfe04
01fef909
030804f8
05fefd08
00040aff
01fa0000
fff3f500
fcfffafd
0202fdf9
ff1401ff
fffd0500
ef000200
fe0300f8
fff901fb
03050704
fd070000
0104fb07
fdfe03fb
fcff0001
ff000a09
1106eff8
05030505
f5f9ef00
fbf7faf6
0b0308fb
00ffee01
04000105
07020303
f9fffc00
1b05fce4
fffffe03
09010001
0101060c
020dfcfa
fd0110f7
fb00fcff
070cfb04
f700ff00
1707fff1
fcf60300
020000fc
0105fa00
01fdfd07
00fbffff
f8fb08fc
00ff0b07
fcf904fe
0000fe03
fd0105fc
060101fd
03fffc06
05ff0004
02fcf700
fefaff03
09fefefe
01fd0000
fc0406ff
faeaf4fd
f6052206
fd03fd04
01f8fdff
01fc0902
f5fdfdff
f30005fd
fb01ff00
1a16f8f3
ff07fb0a
faf70602
fc03020b
fdf300fa
00031512
000001fb
0007ff00
f8ff0200
f8fc00fe
ff0101ff
00fe01fd
01ff0400
fbfcfeff
06020005
fffb0a09
05090b01
ff0200fc
0002fefc
02f602fd
04fbf5f6
fd02020e
fbfafffd
09fd0000
01050000
03040003
fd0504fc
0b0001fc
06040002
ff000106
00fd03fe
f6f0fd02
01031a02
00fdfe01
fc10f9fe
0bfbe907
f5fc0b13
020605fb
f20701fc
0502f5e9
f5fbfd06
0104120a
f40006fd
fcf8fd03
fd050106
010300fc
00030101
fe040501
fefe0600
0c040004
fefbe7f8
0507fefb
05f5fe07
00000407
fbfd09fd
fe010002
fd01fbfd
fc0300ff
fefa06ff
04fe00fd
fbfb02fe
0a0dfffc
fd0005fc
0100fdff
fffffcfd
0700fa00
fafaf807
000601fc
0e00fc03
000a0709
02f6fc07
06050002
0204fdfb
fbfe0002
02fdfd00
0000fc00
fffefc01
fefffefb
ea0005ff
f9fefbec
0cf5fa00
f4fa0618
05030200
fb00fd02
fa00fffd
f7fcfb03
02fc1508
0c07fcfc
0005000e
07010305
fb0603ff
04fe06ff
0004fa01
050701fe
eee4f205
ff0b1811
0005fe05
010004fc
00fbf2fb
fdf8060c
fbf9fffb
05fd03fa
03000200
fc040900
03010900
0200f8fd
fbfdfff8
fdfef7fc
12fdf6fb
0505fd03
f6f6fafe
0000f7f5
fbf702ff
fe020603
fb02010a
04000303
01fdf6fe
fe00fc00
020200fb
fff5fefe
0004040e
090500fc
fd02f0fd
f608f9ff
070c01fb
fd06fd04
07fdfff6
04fbf300
04ff0604
0505ff03
08fa02fe
02fe0306
ff09fafe
09020005
0300ffff
fc010500
05000001
fffd00fe
00fb01f9
fff5fbfe
01fe0603
fefd0706
fdf0f9fb
fa0300fa
0ffcfcfe
00f300fd
00fef700
0707fd01
000c0607
fffbfff6
02faf700
fcff05fc
f8f50607
01fafbfa
050a0203
fd02ff03
ff0503fe
010c06f7
01020106
05fefb06
0007fef9
00fd0002
03fdfbf4
060604ff
f9fdf300
0300f5e5
00020503
05fbfd00
f5f70206
fcfef8fd
fa04fd00
fdf90202
020505fe
0a00fa00
08040b0c
f8f3fd00
04061005
ff0200fd
0109fffe
04000802
05090002
07090502
fffd0104
0005fffd
020807ff
fc0202fe
06fc00ff
fe090004
00ff0105
0bf9fe00
fdfffb04
f7060002
fd00060d
010001fb
02000502
00fefe04
07050602
fd0302ff
0102fefc
010202ff
00faf500
02000618
00fdff00
03070205
fc000603
fd010003
ff030005
f800fdfa
fa0000f7
fc090809
03fef8f0
feff0802
fc010605
ff0304f9
070001fb
f5040608
09f90303
04fefdf4
0100fcfc
050706fb
fb0003ff
fb0002f6
fbf9fbf8
0802ff01
fcff0300
fffbfe00
03020200
0a02f5f4
03fcfb03
01fcfffd
0004fe04
08080700
08050000
04fcfd02
03fc01fd
03ff0afe
feff02fc
fe050003
fe00ff02
03fcfffe
fe01fe04
fa06f9f9
0102fd07
1108f0f4
0306fbf3
08f8e9f6
f9040005
f7f30001
04000c00
f4fdfe05
0002f703
000a0003
07fc01f5
00000003
fc000006
00fe02fd
0802fb01
05fefdff
fc090203
01030904
05070608
030102f8
010500fe
fdfef7f8
0c02f8fb
060d0a09
03fe0506
05fe02fc
fcf6fb04
f9fd0604
13fffafe
0200f8ff
f9fefcff
fbff01fa
00fbf600
ff0006f8
fe060309
05040006
0302fc05
0509fef4
08000009
0a070002
02010904
03fc0000
06fbe5f2
fe0402fb
fc01fcfa
ff020002
020104f9
050a0000
0400fcfd
04000514
020704fd
fdfffef8
00000103
fcfb0005
0802fd02
06030309
f8fa0006
f4010e05
04fdfbe4
000402fe
070000f9
f5030805
fe0300fd
02f9fcf9
04fd00fb
000000ff
04f2fbfa
02010004
f6f60200
00021d07
f8000000
06ff0402
0201ffff
fbfffe01
0403fdfd
ffff0003
09080202
f4dfff01
fe0722fc
00fd04fd
050d0400
00fb0300
03fe0404
040d0305
fdf9edff
06fefb05
f1f8f7ff
fffa18ff
00000303
05070306
060000fe
e3ecfefd
00f7f7f4
01020201
f003fc0a
f7e4eefa
fe0004fd
fcfcfefb
fbff0404
030200fc
0bfe04fa
060b0000
fd0404fe
06fc06ff
040500ff
00fbf9fd
f3f500fd
fe10fff9
fbfefc00
08f2fe03
fefcf9fb
f8fb0200
01fbf701
f8f2f8f8
00070602
e7f205fd
00ff0303
fffefd04
fa030400
fbfcfa06
fffeffff
03010402
06060001
05fd0507
f3f9fd00
040afdfa
030500f7
e7ef0b14
f8fafdf0
f7f9fbf7
00060006
ff000700
010304fc
03fc0300
fefcf801
fafefb09
ff010000
02020008
00fcf7f5
03040405
03fb0000
f7080009
f5fc01f9
01011003
fcfe03fd
fe03fd01
00faff01
0006f507
0508fe00
fdf70001
00040808
000101f8
01fdf800
06fe0000
fdfe01ff
03020800
00fd02fc
00050104
fdf5fcfe
00fa03fe
0907000c
001207fa
fe010700
0b00fe08
03fe0203
fd06fb06
fe060701
02fd0404
0201fd02
0000fe00
f80608fc
000a0802
14fcf6f8
0300f6fb
00fd00ff
01f6faff
fc05ff00
00f900f5
fc0104ff
02020000
f804fe04
0705fdf1
fdfffd04
02060300
05fdff03
f9fdfd05
080102fe
fefe0502
fa050105
06fcffff
00fd04fc
00fffd05
0400feff
fb060000
f9f60efa
0c050609
ff0a0107
06130403
02fcfb00
00ff01fd
010304ff
05fbff04
03000306
04fe06fc
fe04fcff
06fe0004
04050104
fcfafd0e
02010708
090501fa
fd000aef
f8fa0609
011201fd
fbf80e04
f3f201fa
08030300
fbfff1f7
0301f6f2
040803fe
02f6f901
13fd05fc
fdf6fb02
050200fe
0400fd01
02fc0901
f6ede5e3
e5e2f503
fd06f4ec
02faf3fe
e7f50a0b
f2fff9f4
f7fdf701
fef9f8f9
00fef90f
040004fc
f2fff5f1
05fbf2f8
010700f4
1e1904f9
1114211c
030d120e
03f9fb00
f0edeef2
02f7fa05
fbfb0200
03f2f502
01000202
fe050700
0502fef7
0404fd07
f40401ef
0000f701
fa0d1204
040400f1
e2eae900
fdf2e5f3
02040000
0803fc01
fd03feff
f70100fe
000003ff
0f160b1a
02090c00
00000201
05f4fef4
fafe0006
0702fffb
fa09fd07
fe0ef604
070701fa
f9fdfbf6
f5f7f505
04050504
f700f1f1
101bfdfd
08150b09
e4050b01
ecf2edd2
ebe5eeee
06fd0208
0bfff90b
08f8fe02
f5021403
050007fa
00fa0206
07f7fd01
fffb0003
060501f5
08fe10f9
04050d14
00f70606
f9fbfbff
000af1fa
0b010500
f5f5fb09
0007f808
070005f6
02090308
030309f8
fc08fd01
f70208fb
0304f3f4
fffdfa06
07fbf9fb
0e070009
070f0607
05170a15
071607fd
12121706
f800000c
0508fffd
fb0708fa
f1100208
fdf903f4
f8fefeff
f7f5fbfd
faf6fafd
00fffcf9
0df5fb05
00fb0a04
fcfdfc01
fe070309
0601040c
040302fe
09121713
fb0b0a06
f7051112
0afe030b
f5ed0409
fc1d15ef
04050501
14050607
07000908
120a0a0f
03f70c12
0dff1203
0d010003
2009050a
06210bf7
09011302
fe0f1508
0000ff0f
00090b05
fffa0004
0809f802
0000fe00
fefffefa
fa050502
f9050702
1309fffa
f402f910
06fffbfb
fa07fdff
f9000506
1108ecf8
f6f41314
f6f809f7
fb0806fb
fe00fd08
fdf90c07
00020c00
0604fe1f
f3f4f8fd
fffdf7fd
fc000509
fd0c0200
e9fb06ff
0000eef7
f40300fc
09f604fc
0605fd10
050f0c05
0a07faff
0204fc0e
010409fb
fc06fc05
fe000307
01fef800
0705fa08
00010203
0607f908
06ff01fb
f904fc01
fb050000
08f80509
fd03fe10
03fc0105
0909040b
14090507
0904fd00
f7f7fa02
fbf8f9fd
04010509
0000fb03
f003fa03
fff6fd00
0001f9fc
0501fdfc
00030500
00fefa0d
0bf80af6
080bff00
1700030c
00ff0e09
feeffdf5
f10407ff
ef01fefe
0608feff
fafe0afb
fb0afcfc
01e6f107
f702fdf3
f9f9080e
02f906f4
ff1d0604
0c050e00
0708080f
0000f701
14fbf800
01140700
0bf700f9
fdfa0000
fcf70304
01fafdfc
fbf90804
fe00f700
06fb04f8
01fbf8fd
0107fdfb
07faf8fa
f7fcf503
fa0200ff
ea0409f7
f7f8efff
031d1af6
13fc0517
f1ef060a
feeeebf2
09f7f9f4
fff203f7
02ff0100
fd0c02fd
00f408fd
090b08fb
060110ff
15faf800
01130400
08020a04
0c06fd05
0d050109
fff500fb
07f804f7
fbf7f50d
060802ff
fcfcfbf5
fefbfefa
04f9f80d
f3050003
00fc05fa
0a0c0b03
0f01150f
f6eeea05
f90300fd
ff0b0000
fa0af700
f4feff03
f9000506
f4f7e400
fd050809
fd0600fd
040f0fff
020408fe
f70ffff9
fcfcff09
0afd06fc
0cfaf506
fffafafa
18fc1c09
0a060a30
eff8effd
faee00ff
0608f5f8
fb0704ff
f6000606
fa00fdfb
f2f7f2f9
ff090503
120a0012
fdf9f805
050405f3
05fa0000
f603fc07
03f8fd07
040b0001
fe050005
f9050c0c
ff0500f4
0603ffff
03f2fef5
000cfcfb
0c1205fd
f902040c
f804f9fb
fff5fdff
04eaf900
010000f9
0308fafe
08051305
f9f5040f
0a060807
ee121911
01f7f9db
f6fd00fa
0502f7f8
ff03fefd
00ff06f8
040204fe
040704f9
f8f8fafb
0af8fdf0
ff08faf3
f8ff0402
04f20501
00f7f7ff
120f0000
00040cfd
1201f7f9
06090b02
000a0411
010600f9
f8fe0708
f300f6f1
04f30105
fcecf6fe
f0e9d9e2
fbfef8e2
f908fd09
0306080a
0504f800
ff070001
fff9f4fd
010301f6
06040200
0aff0f05
0609fd16
03050507
02010007
f402fc0a
faeff6fd
fdf80100
00f6fdf5
01fcfefb
03030106
1416fc0b
fe06fd08
07090a09
fe0c03ff
01040203
00060009
0f0afc0a
00f9f900
f1faefef
040300fe
fafcff01
0800f7f5
01000503
0005fb09
0df40202
f900f9f3
04fa06fe
fcfb0002
040bfff2
0b010901
00fef601
f40003fe
fafdfc07
06f9f8f9
070902f6
f9f5fb02
0e06fe08
00f800ff
0207fdf5
fd07fa03
fa000008
00060002
0802fe08
fcfe0701
0001f907
fe0c10fe
01f703f9
fdfdfbf6
f4fe0600
f9f6f9ec
fb080005
fa03f9fa
00fd02f6
16070307
020d1310
f5fe0708
020008f9
f20603fa
0301fef0
f0000707
f0ec00fd
fef7fafe
0f030efd
faf10005
f6f0f9f9
f7f80802
f501fe00
0e02fdf8
f5fcfd01
f6fbef06
fa0e07f1
00fa0609
fc050000
010101f9
f400e9ff
06f7f6f8
10060a11
080a0804
f5f700ff
fffefaf9
fbfcfafd
f7ff0106
fafe0001
f2f601fa
0201fb06
02fc000f
0000fc0c
f50007f9
faf700f7
fcf00c0b
fef6eb03
e8ef01f3
07ff01f3
ef0100fb
f3f9fefd
00ebfdfc
0807f9f9
06ff07fa
10030cfd
06ffff00
04fc0907
121d11fe
f60f1515
000505fb
f60300f3
0af8fd07
0f090801
ff090906
010bffff
f5e702fa
f8f8f8f8
f2f205fe
ecf4faf6
0306f9fb
ff070701
f9030605
000502f6
10ff0001
00000a0e
fefcfafe
0b10ff0c
f4050108
fa0106fb
f7f40aff
0301ff00
f705f103
fefdf8fd
0902fbf5
f900030c
08fef9fd
0309fdfb
08f3f6ff
f7fef5fa
f105fff8
f7070205
fe0605fe
0afb0007
f50c060a
0a01070b
0000090f
fb00fcfb
eefdd7f2
f9fffeda
03fcf6fc
00fdeb00
f205fff2
e7dff7f6
fcf7f1fb
0007fffa
05040300
00fe03fe
0afb00f8
000b0c00
030e05fe
000af6fc
05030604
ff03fd09
15f9fe00
f800f1fa
f104f007
f00305fa
0301fcff
0efef300
fa00fefc
03ffff03
05f604f4
02fbfe04
f700fdfb
f800fffd
090cfff8
ff101209
0df9fdff
fb020a09
ff060506
f7090a06
fafb05f6
02f60200
0501fffe
fafc0305
00f8fb02
fc0400f7
070ffd00
fcfcff03
fefefcf6
02000d09
ff010205
fdfbfaff
08fafef7
fffd07f6
f8fffaff
07010108
030505fd
15fcfefe
180a0414
130d110e
ecfcebe5
f901f8e4
fc050606
fd07f8fd
fffffd01
fd09030a
fb090103
f3eff9fd
0f0105fb
f5f7fe02
efeffbff
fcf2f6f7
f7fdf6ff
0603edfb
03fe0103
fa02f500
060afa03
090b01fc
fd03fbf8
f9fafdfa
eff4fdfb
f3f3ebf9
05f2fbef
f5fdeef1
01f6f2f7
02f8fb07
03f7faf9
0300f500
f604f9f5
000f01fd
fffe0706
0cf7fc06
0119000d
f6010e01
0600fcf9
07010006
02040a04
f7fa00fb
09fc05ff
f6f502f9
f504fcf9
0a07f7fa
10fcfcfb
000a0013
000900f9
fa07fe05
00fbfdfa
f2fff306
06f7fefd
f309fc03
faf7fe00
00000406
000a0104
02fc0404
07010509
02080a06
03fa0101
fb03f802
00fc06fd
fd00040b
f90000fd
050503fa
00fffaf9
fe03f70a
fe040701
00fffe06
f905f4fc
fd0208f6
faf9f9f8
04fcfc07
f8fa00fa
fd00f800
03060106
020502fc
07fbf903
07000605
fff70307
fbfdf903
04ff0302
02f90506
010009fd
00fdfb02
f9fdfefd
010b0105
0107fe07
fbfeff01
03010408
ff000303
fe02fc06
f8030302
fbfb0afe
f801fc00
040606fc
f5fafef9
070507f9
02fdfb03
08fc0406
000b0503
fb060805
f8f7fc03
fa0303fc
06040b02
0405020c
00fa0902
fdfefb02
040108f7
fe01ff02
fef104f7
00fcf802
04fb0306
03030bf8
00090409
0200fe07
0300faf5
fc02fefe
f5ff0bfe
08fef809
07050604
05fdfe0b
03fefa06
fc04f7f7
01fd06f9
03fbfafd
06f8f9fb
030506f9
04000106
fc0102fe
f9fa08fa
ff06fff7
0b0bfa07
00010c00
08faf00b
0703f9ff
0207ff05
fdff00fb
fb0603fb
02fe0207
0e04ff05
f90200fa
fdf40202
fdfc01fe
f9fcf8fa
fffb00fa
00f7fdff
00000504
00000bfd
00fa0301
0002f705
fcfafef7
ff050202
04fc0100
fffdff07
fcfefdf9
06fdf9ff
04fc02fa
fdff0707
050201fd
00fefffc
04fefc04
01030100
fd020007
fffb07ff
fef6f7fc
0000f9fb
04fff700
00fe00fe
fcfa0603
fb00f800
0002ffff
04f701fe
0000f909
fe06f603
04fffcf7
02fd0200
ff0800fd
11f90100
0508fa01
f802faf7
fdfbf900
0004fcfd
fe00fbff
fe080506
03ff05fe
000000fe
03fcfffe
05020100
02fafa01
fafb05fa
00ff0403
0000fe00
fdfc0506
fc020101
000302f7
07fe0200
0304ff00
fdfdfafc
fd06fd05
0004ff02
0703fdfd
fe0700fd
04f901ff
020400f9
00fc00f9
0802f309
fe0601fb
00fd0003
00fcfa0a
f003fdfa
01000703
ffff0301
030205fd
f7fc0006
02040204
0005ff07
030603fa
00050303
01fc07ff
08fd0002
0004fb00
0201f902
fdfdff03
05fcf901
020402f4
00f7f9fb
f8fef9fc
03fd05fb
05fcfafa
05ff03fb
04ff04fb
fc00fff9
0507fb00
fa01fe02
01fcf801
f900fff8
03050301
0502fd00
0002f7fb
0001f8f9
080201fb
fefcfeff
01fdff02
00020405
fcfa0104
fcfb02f8
00ff0506
fdfc0109
00fdfaf7
f907fd00
0301fe04
f7fc00fd
00fd03fc
f9ff0002
f8f6eef7
02ff00ff
05fd00ff
f9f800fb
07020505
0005f7ff
f5fcf900
fcf60d08
0200fd08
0200090a
07010405
0504fefb
020402fb
00ff0405
080000fc
fbfb0100
f802fff9
fbfff9fe
f5fa04fe
00f4fcff
07fd0505
06000104
0004feff
fdf5f709
f5fd01fe
08fd0507
fd0a0102
fd04f7fd
0400f602
0100fd06
fc00fef3
f6f90202
f9fafcf6
fd070206
fafa09ef
0604f908
fe00fcfa
fd05fdfd
09f8fcfc
01fff9fe
fe0602fc
ff0808fd
04090307
fa030005
fcfffff9
03fffa04
050101fd
fbf9f904
fc01fa04
020003fe
0900ffff
fefc0000
02ff0108
01fef502
00f8ff04
ff03fd00
0200fe00
08000709
0205f5fd
fe0207fb
020600fe
00fbfe03
f903fa02
000100fd
fdfe02fc
09ff0104
fa07ff01
fcfd00fc
00f4fa05
040bf904
ff060afc
04fdfeff
fdf901f4
fa00fefd
04000102
04fd0407
0bf8fd08
03fff805
fb070703
fc03fcfb
07030405
000600f8
0100fd05
03f9ff08
0a00f8ff
04fc00f9
fe0307ff
ff020208
f6fd01f9
00fefa06
fffefe00
fffcfc01
02fefefc
040000f8
fdf8feff
fff90208
f80001fd
fff5fdf2
03fa0006
fd06fe06
0500fd05
00020404
faf902fb
03fdfb00
fbfb0307
fc04fdfd
ff010802
0afd0100
0709ff07
03fe02fe
ff07fef9
01fe0c02
fc000007
fafcfc04
fdf702f9
00fd0301
f900fcff
04040905
fbfa0100
ff0501ff
fcfdfc06
04020000
fefbfa02
fcf9ff03
fffd0203
fafafa01
fbf8fc01
06010302
080300fe
f80800ff
00030800
00050501
fb060900
01fb070a
0500fdfc
ff03f6fb
f8f800ef
03000400
fbfdfa04
f8fcf702
05fcfb01
0800ffff
0306fa03
0004fc06
0304f8ff
0403fa04
06fcf8f9
fdfc04fa
f9040103
fe05ff03
fff80400
0204faf9
fa02fffb
fb03fefd
fcfaf9fb
020101f5
040300fb
00fd0006
fd03fffd
04fa02ff
fe0602fa
03fa03fd
fef9ff00
f9fcfef9
fefa07fb
0205feff
fbf70505
0009fbff
f802fe03
020105fb
0200fbff
fc050607
ff01f705
fafcfefe
fffdfe09
0001fa01
0100ff00
00fdfdfb
f80006f7
00fc0005
08fc0700
fe0afeff
fd00f701
fd0408f8
fafc07fa
00f900f9
06030200
0003f9f9
ff000705
fefef504
00ff04f9
05fa0805
fbfafc09
0703fb02
0b0dff06
040000fb
0b07030d
fb020d05
00fc0505
04000003
fbfc0503
07faf708
ffff0800
fb0104fd
fbf7f8fa
fbfafbfd
050500f8
01fe00fb
060506fa
0904fafa
0000fa07
ff03ff06
00ff0200
fe00fffa
fa0706fc
fd03fffc
02fe0500
02fd0906
f2f5f7fa
f5f801fc
fe00fdfe
02050002
04040400
fd0900fb
050800f8
fdfff9fc
f8fe00fe
05fb01fb
fe000601
01010000
fafcff06
fb00fbf6
00070000
06080100
fa06fd08
050307fb
fcf8fd04
fcf804fe
faf800ff
000103f4
06fd02ff
0505fb00
01fd03ff
00fe0404
fd03fd06
00f2fffc
fff6fdfc
fcf60002
0300fd03
00ff06fe
fffb0303
fbf601fd
fcfb0606
00060303
fff9010a
fd00fafc
fdf8f9fa
02fef9fa
02fc0000
00040100
ff010700
0205fd02
0f010500
00f4fe04
030bfcfe
00020808
03fafcfc
f9fb0307
fdfc0e05
fbf6000e
fafafaf5
ff00fa02
040af702
fa0704ff
f7030804
03fcf6fd
00000000
f70200f9
fff80602
02fa07fa
fa05f9fe
f3fdff00
fffaf9fa
05fefafa
020103fc
0409020e
f5fffd07
fffdfefc
0300f8fe
f6f802fc
fefefafe
05f8ffff
fdfffefd
00fd0601
fbff02f7
0202fcf9
0300fc03
fe0004fd
fc02f9ff
00fa0406
0608fefd
fcfbfcfe
f8ff0004
fb01fb02
01ff0001
ff00fc03
fbfff9fd
0003fe00
04f70000
00faf601
010104f8
00fff90d
fbfcfcfc
f8fc0607
0600f906
0003fd04
03fffb06
00fe0100
fafbf9fb
fb02fcff
04000806
fcfcff04
fefa0200
0907f8fc
0406fcff
fbfd0006
03fb0004
00030101
00fffe01
01ff0105
000301fd
fffdff02
03f80502
f904fc05
fa010300
050811fd
04ff0013
fcfa0006
ffff07f7
00fd0100
00fb0100
050102f9
f5fdfc00
0608fcf6
fb04fefe
04fb0406
f8fb0103
030102f9
06fa0402
fd070301
fcfd0cfb
00fdfefc
fe010300
0afd00ff
fef901fa
fbfc0000
f5f6fcfd
fdf600f8
fffffdfe
06fd03fe
09fff805
fb050105
f906fbfc
fffcfd05
05fefe05
06ff01fc
fe04fa03
00fbff06
fb000000
00fffffc
0001ff01
01050802
000108fe
fe0304ff
06000008
04000000
f90206fb
050200fc
01fe0004
010404fe
fffdfc04
03000205
00ff04fc
fffc00fd
0402fb00
fd010000
f9010402
00040307
fff903ff
0500ff02
0604fefc
00fd000b
02fff8f9
fdfefb00
fcf90202
fd00fbfe
0206ff04
03010000
fe00fb01
0002f9fb
03fff9fc
f7f500fa
fc01fc03
fdfefffd
030000fa
fefb0405
fd0003fb
ff05fdfc
fefd00fd
fafefefd
fe00ff02
f8030403
fd00f9f9
05000205
00fb0400
00fbfc00
fd070000
05feff04
00030705
fe010101
00000702
00ff0602
01fd02fd
fffdff04
fb01fafd
fc0401ff
02010309
01000407
ff090902
f804000a
fefdf800
fcfd01fe
fffefb06
fa0002fc
fb0002fc
fe000502
0403fc03
fc020001
fd03ffff
f9fdfbfb
01ff02fd
08060702
ff020408
0604fdff
fffefbfa
0405fa00
03070105
02020200
05fefb00
03000405
f8f901fb
00fb0200
00030401
ff07fa04
fefd0204
f4f801fe
05f8fe01
00030200
020105fc
f9ff0002
fefdf8fc
04fffe00
fdfffdff
fafe00fa
fdf8fc04
fa0501fa
fcff0302
060001ff
07fefefb
fe060001
0103f903
0002fdfd
0b080304
01010505
0904fcfc
0303ff05
020107ff
04fcfefe
030105fe
05ff03fc
fd02fc01
fc00fb03
0306fbfc
03000000
020007fe
030202ff
fd030300
04fffbfc
ff0701ff
0200ff00
0100fdfd
04fb0304
09fe0000
0b01fe08
fffff801
0005ff02
fefdfcff
fd00fefc
ff00f801
0603fa02
fdfdf9fa
fcfefdfc
f9fafcfc
fdfd02ff
06fefd02
00fb0604
04fcfcfa
fdff00fd
05040502
050106fe
fefc0502
f801fdff
ff05fdfe
fa05f905
fd03fcfa
fb00fa02
fff9fff8
02fa03ff
fbf9f900
0afd01fc
0e0f060e
050b0c06
ffffff03
fcfafb05
fefdfdfe
04fafefb
02f8fd00
03fafcfa
fd00f900
fffe0301
ff030401
fef700f8
fc0101fb
020604fb
01000506
ff00fffe
01fefd00
ff0303fc
0302ff01
fcfafefd
02fd0202
fdfcfcff
01fbfdfc
fe040301
00fafdfe
03080906
fa00fffb
ff010300
07fd0801
04fefdfc
f9070103
00fd02fd
0505fd04
000303fa
0805fe00
030000fb
fbfe0000
06010200
fc0500fb
fd00fdfd
06fd0200
010702ff
f8fe01f9
fe0202f7
0203fefb
fa02fef9
00fd03fa
00fe0206
0209fffe
04fa0404
00f9fffe
00fd03fe
fffb07ff
020000fd
f80004ff
0103fcfc
fffe00f8
fd02fbfb
01060707
00fe0906
f7fc0307
03fc00fc
01fcfc00
0200f9fd
00010405
fb01fdfb
fd0000fd
fdfd00ff
fcff0403
f9f5fb03
fafdfdfb
ff02f700
fa03ff04
fafbff02
fefb0305
fb02fffc
fcf8f700
ff00fcf9
fe00fc03
fc00fdff
00fd0000
fa00fefb
fcfb01fb
fbff00f9
000000fc
fe0409f8
fe01fcfb
fafe00ff
fe0404fb
fdff0100
fb02fb01
fb02fcfd
04000301
00050302
fefa0002
04fe0000
fe09fe03
060b0402
04040203
00fdfd02
fd00fffc
060300f7
030703fc
fd01fe00
02fefefc
fe01fd01
05fcfe07
fb00fd04
fafbfafe
00fbfd00
fa01ffff
fc00fd02
00fa0304
fb00fff8
05000305
fd060404
0001fa00
00fdfbfe
050004fc
f8f9f9fa
fcfcfcf8
0300fcf8
03fd0107
00f603fb
fefe04f7
fafe0509
02fbf9ff
fc01fafa
00fffdfd
01ffff04
00020705
05ff0205
fdf80403
0400fefd
01030200
01fc00fa
06ff04fe
fe0208ff
fdfefd03
ffff0104
fd03fe05
fdfcfe04
04fa0702
0500f904
fb0206fa
00000300
fe020401
ff0003ff
f900fefd
fffb01ff
fffdfc01
fff90002
0304fd01
fefdfe04
0000fafd
00fbfd07
06000201
fefe02ff
0004fefb
06fd00fd
0b020700
06000200
0300fc05
0601fc01
fe08fb03
0600fe02
09050002
02030200
0301fe01
fefe0402
fe030006
02fd0003
00fcfc02
fdfe0501
000301fc
050300fd
fbfffafa
05fd02fd
06fd05fd
fc030000
fe02fc04
fc00fb06
fd090009
0201fdff
fb05fcf9
00fcf900
0005fef8
030200fa
02fcff01
0002fd04
fbff0000
01f8f801
fc0404fd
fdfcfefc
00020701
02fd0001
fe06fefb
ff050508
00fffbfa
01fd00fd
0102fb00
fa0405ff
01fd0405
000000fc
fe020202
000301fe
fbfb0003
000203fa
00fc0107
f600f9fd
06fff4ff
fefc0009
0104fbfd
fefb0202
f9fefdfa
0200fb02
fbfb0405
02fd0103
01fd0a04
fff9fe02
04000801
01f8feff
04fb0100
fafeff02
01000003
01fcf9fc
04020704
01f9ff01
fdfefdfe
03fd01f9
04fbfd08
fd00fefc
0706fe04
fa03fdfc
0000fdf8
fd000501
fefe00fe
fefd01fb
00fdfefc
fd000000
00fcfd00
03f8f903
060302fb
0c09ff04
00fe0001
f701fffa
000200ff
00fd0500
fb0000ff
fc090002
04000200
0402ff02
fcfcf9fc
03ff03fd
fd0502ff
fbfcfe00
fcfafbfb
00fdf803
01000705
0802ff04
feff04fe
01fdfffd
fdfefdfe
01000100
02020302
faff06fc
ff010002
fdfdff04
0000fffe
00fffd07
050203fe
ff02fc00
fdfbfdfa
04fefffd
fbfdf4fb
feff04fc
05010009
02ff01fd
020004fc
08fc0804
02fffe01
01fffe00
010101fd
07000905
fc00fc08
fc000200
ff010005
fffb0000
fc030005
fef9fd04
05040205
0202fb01
fa0005ff
f9faf9ff
01fe0307
fefe00fe
050207fd
00f808fa
fe000302
fe040405
fefeff03
fcf6f900
02fe04fa
04fcfe04
fd0300fb
00fd0000
fe000201
fd00ff00
0102fd03
07050007
fcf9fd08
00fafdf9
fbfd00fe
fffdfbfa
04fef6f9
fbfd00ff
05fe0701
f7fc06fb
0001fb03
00070404
fffbf9fa
00020000
fafd0501
00fafefb
fef9feff
050100f7
f6fafcf6
05fcfa05
fefdfefb
010300f6
0300fd00
fbf9ff05
fe01fdfb
fbfcf9f8
02fafdfa
0201fe01
04fcf902
00ff0602
03fdfdfc
030803ff
06060207
0706fc00
fa01fc02
fe02fcff
07fb03fc
fb000307
0004fcfd
00f7fcfe
00fe08fd
03fdfcfc
060404fe
fffe04fd
00fe0001
01ff00ff
04fdfdfa
fe0001fb
fd0701fd
fd04fd03
01fc0300
fd040001
fd00fffb
03020603
fd02fbfc
ff01f9fc
01fdfe00
fa03f7fe
ff03fafa
00fffd00
02fbfc00
020303ff
ff080106
fbfffeff
01010303
fc030106
ff040102
00fb02ff
01fbfdfd
fafb00fb
fcf90604
05fcfffc
f80000f8
f9fffef8
0202fdfc
fb050105
0805fc04
00080603
0600fa02
02050500
05050200
050c0c0a
fa0000fc
fbfd02fa
fefe0802
fefdfe05
02fefafb
00ffff04
00fe0501
fa00fe04
01fe0500
0307fefc
0304f7fa
00fb01fc
ff000004
fa05fcff
0503ff07
020604fc
fc00ff01
00050000
02fe0300
fc04fdff
00000000
ffff0001
f6fefd01
f80100fc
fafcfdff
0002fe05
00fc05fc
fa00fbfe
0000fe00
03fefdfa
04050401
fbfb03ff
f8fafefb
01010000
01fb04ff
fc0a02fe
0504fd02
f5fd0400
05030008
ff02f9fa
0301fffb
fefe0303
fcfb0000
f9fbfafd
130a050a
07030404
00fbfafc
ff03fcfb
fffffe00
0001f8ff
0103fb00
ff01fdfb
020000ff
fd01fefe
000504fd
08fa03ff
fc040003
fa01ff03
faf7fff8
fef9f803
05fa0401
fff90104
0403ff02
03040105
08040904
05050700
f8fd0302
02fe0103
0000fffd
ffff0002
00fcfa00
030500fc
03020400
0302fe03
05fcfc08
fe000505
fc00ff00
00000002
f7fef8ff
fcfffbf0
fbfefc04
fef9f7fc
faf6f6fb
0001f8f5
fc04fffc
fdfcfd02
0704fd02
ff04fc00
05fffd00
fe020100
05030401
02fd0003
03fef902
fe07f900
00020b02
04fe070c
fd000000
01000af7
fd02fc02
fcf902ff
0a0a00fa
050409ff
fd010607
fef70802
00fafb05
fefd00ff
fcf40002
0306fdff
02040600
0201fe02
00000002
fefefcff
f4f901fc
fdfb01ff
fe02fbfb
000401fd
00040001
fb000503
06f201fb
f806f7fb
ff0008f2
faf9f500
01f7f1f4
02fa02fc
05fd01fa
0403fef9
fb000208
030107fc
00050302
04fcf9f6
f901f704
f506fcf6
fef7fdf5
fdf70000
030700fb
00070800
fa000400
0502f606
05050000
03030604
fdfd03fc
06fb00ff
fbfa0306
0001fa06
ff01fcfd
00fd0002
fefdfa00
f805fd04
fefe02fb
02fa02fb
fff9fcff
fcfe03fd
f6fef4f9
0000fcfd
100505fb
01020200
fdf605ff
0601fc05
000000fc
000004fe
0305fdfa
f500fcf9
fefd0e00
020700fe
0304ff00
00fcfaf8
0804fb00
fd00fdf5
fdfa09fc
f7f5fffe
040103ff
00050000
fbfb0001
fafffe02
010000fd
fbfafffc
0402fffe
f5f60d04
01f40106
fcfb01ff
fdfefefb
00fc00fb
02050501
fffcf8fc
fdfef900
09ff0003
0a070a07
00050205
fa06f800
fd01fffc
fa00fb05
010102fa
fdf50004
07f9f902
fbfafffe
0504fb03
f70507f9
f50000f4
fafb00f9
010307fc
0105fbfd
00fe0bfc
00030000
fe050002
01fe0001
0001fb00
fb030400
fe000102
fcfbfcfb
04fa00fa
00fefbff
0103ff06
fb01fa0a
f8f4f7f9
fbf5fb01
05040706
fe0506fe
fcf9f803
0501fcf9
02000100
fafd0305
fdfe00fc
fffb0001
fe000000
fcff0300
03fffd01
0000f501
ffff02fb
0001fffc
fa000103
fd02fdfe
fffdfb02
000503fc
faf9fbfd
f90202fa
fffe00ff
02fcf801
f803fc05
f5f8faf9
01fff700
ff0301f9
fefd0600
f5fffafa
0004fbf3
0104fe00
fdff02fd
fa00fe00
0100f902
00fffb00
fffc07f9
04fe0002
00060805
000502fe
faf9fffd
fafcfefc
0004fdff
0509f907
fbfbfbfe
0002fa02
fffc01fa
0008f900
070602fc
0b020006
fe00fcfe
faf90203
03fef804
0801f9fd
0200060a
040b0505
fcff00fd
fefd00fb
fdfffa07
04010302
000108fb
01f903f4
02fcfe00
fdfcfafd
06fd0403
03fe05fc
04fc04fd
00f90201
000a0000
0101fcf6
02fc05fc
02fffa0a
030200fe
fbf9f9fe
fc0106fd
f7000302
fffbfef6
01ff0401
fa00feff
02f600fc
fb000200
fdf902fa
feff0202
ff0001ff
fd05ff02
fffc05fc
0900fffc
fc010100
02000302
00fa010d
ff0003fe
fffcfbff
04060004
f9fdfbfb
00030002
02ffff05
0405fb02
fefbf9fb
03fc0007
fe03faff
fb000f00
fa00fe02
03fbff00
070b0307
02020403
01000302
01090606
00fc0604
01050102
fef90bff
00f8fb01
fffbfdfb
fc060100
000102f7
fbf9f900
fcfffbff
fdfaf903
0001fd05
ff0002ff
00fb0400
0202faff
01f9fd04
0805fd01
06fefefe
02f9fc06
ff00fbfd
fffbfc04
fefffdf7
fcfcf9ff
0302ff02
fd020002
fbfc0001
fd00fe05
0004fb02
fc01fa00
fafe00f7
fcfff8fd
0100ff08
fd07fcf8
02020607
fff601fb
0100faf7
fdfdfaff
fa04fdff
fe000301
01fbfbff
fd00f800
f8fef800
0400fe03
010507fc
00050104
03ff04fc
fc01fd01
000301fe
00040100
05020008
f708fc01
01fe01f5
0203f903
fc00fffa
fa00f801
fa04ff00
f1f7fdf7
f9fe06fb
0501f403
fa0306f2
fbfe0103
07fffefe
00f5fcfe
03fbfdfe
fd050004
fa0000fb
0300fa05
01fd0009
ff00fdfa
03fff800
09000100
0401f6fa
fcfe01fd
fbfefafd
f802fff9
ff000406
f8060201
fe01faff
fffe02f9
04ff0102
ff0003fe
01ff0800
0002fd00
0000fefb
fa03fc02
fd00fefe
fbf1f9fb
fd0004f7
0004020b
f9f8f8fc
fa02faf8
fdf3f8ff
05020002
000100ff
02000507
fafbfeff
04f90202
fffd0004
0604f401
02fa0204
01fc02ff
04fb0dfe
00fefc04
0004ff05
fe01fdfc
0a02f904
fb0400fd
fcfa0003
08fdf902
07020100
0805fffe
04051201
05000104
fa0001f8
fa00ff03
00fd0003
00f90307
03fdf6fe
0a0200fc
040b0303
fa0009f8
000700fd
04f80609
f9f6feff
000301f8
00020200
00fdf9fe
fffbfaf8
fdfd07fd
06fbf8fe
fe0000fe
ff0001fb
00f3fbfc
fdfdf903
fa04faf6
01fcfc00
02fafffe
fa00fe00
f901f901
00010200
00ffff01
ff01ffff
fefc0001
fe040101
f4f600fe
fffb0009
00fdfe03
fcfe0400
020300fe
fbfd00fb
fefcf800
000800fb
fb00fbfe
fef1f603
0502f9fa
04fbfefe
0900fb09
fcfc0303
02020003
03fc00fc
0001f8ff
000006fe
06000006
06faf6ff
02020a08
02030306
fefefeff
00fa0103
00f7ff04
0f000004
0200fcfd
fefbfbfd
05fa02fb
f7000c00
f9f50003
f903fffc
fe0001f9
fefbf304
00f8f9f6
fdfc00fb
f8f8fa00
00f7f8ff
f9000004
fffafffa
ff02f800
000700f8
0200feff
0106f701
03030100
01000800
ff04080e
f9020b02
00000701
02fdf9fb
fafdfd00
fffff8fc
ff02faf8
fe04fbff
fafcfd06
fe00f8fb
fefff8fb
faf904f7
04fbfa00
000403fc
fc07ff00
010601ff
0f0903fc
09080e04
00020701
ff00fbff
fa0005f5
06fefdff
0606fcf6
ff00f909
03f7fffd
02020001
05fefc00
000204fe
fff900fb
04fffefc
f9fe00ff
fdf9faff
01fc02f9
07010503
fbfff501
fb00fe03
ff0301f8
ff07fffa
00000403
fd0602fd
00fefeff
07fd0204
fbfefff3
fbfd04fb
08fef806
f400f8f9
fcfb00f7
01f9fefe
0300fd05
fe0202fb
fcfd0201
fa01fffe
00010000
00fa0400
fa000201
fef601ff
f7f3fb03
f4fcf5f6
fbfb00fc
fc00fcff
0006fc00
fffdfd03
fe00fff8
fdf801fa
010002fc
00030006
fbfef5f7
f6fd02fb
02000600
02fa0001
00fa04fc
fdfdfbfc
00fcfe03
00fffd01
02fb02ff
fb060100
000005ff
010005fe
03fafdff
02010205
0303fefa
0302ff05
00030604
03ff0100
010200ff
ff00f9f9
fffb0000
fe00fef6
fbfa0005
f7f9f3fc
fef8fbf8
fcff07f4
04f80008
0600ff01
000003fd
03fb0301
fd06ff04
fefbfb01
fafbff01
020101fa
fe0f08fe
00ff0300
060004fb
03030103
fbf80304
05f4f301
01fcf8fc
fd00f902
00f802fc
0201fffe
020000fe
0401fd07
01000006
0005fd02
fe010005
00000001
04040202
00fefffa
00000401
03050407
02090004
fd080702
00ecfffd
fe09f200
00fd04f8
0afff104
ff02fc00
000000f9
0300fb13
fef903fb
0603f70a
080007fa
00050202
f7040500
12fc0502
00060300
f8ff0102
00fa0806
04fc0400
0103fcfe
040801f9
04080800
0dfefd04
04f90005
00010203
f804f900
fe0607ec
f400e000
e9f80fd4
0007ff07
0af702fe
0101fb02
f80408ff
00fdff00
03070400
050005ff
0104fa03
04fc02f8
05060001
fcfbfb06
00fb02fd
fd00fdfa
0004ff06
00fa00fa
00f903f8
08000003
03050007
f6fdfdfc
0506fa08
f7fc04fe
06ff00fb
0201f9fe
00fffdfa
0000fe03
0900ff00
01fffb00
fe0000fa
01060402
0504fd00
f20100fb
04f7fb02
fd020301
ff06fc00
0a00fa03
fc010400
00fcfe00
fdf3f3ff
fdf803f8
f9000010
0600fcfb
08080002
04040302
0003f101
fa061804
00f80106
0202f700
eafe00fc
0bf200fe
0401fc00
0bfdfa03
0905f908
fffffe06
fe0203ff
fe04f806
ff0b0df9
ff0000fc
01060407
fcfffe04
1a0aff11
04120000
07fd03fc
fffc04fe
fb010afb
00ff0500
ff060003
fc000802
05020007
000301ff
fffc02fe
fe11f8fe
fcfa03f5
0efdfefe
ff06f6f8
00ff08ff
00fcf800
f301fefe
ff0107ff
00fb040b
f607f5f6
edf50afa
040102ff
04ff0001
05f8fd02
0e07fd0f
030700fd
ff0306fe
01fa0307
05050304
fe03fc01
00060501
00fe0605
0002fc00
fe000104
ff0500fd
03ff0204
f9fbfdfb
0604fe09
03ff0205
0306fa00
fefd0300
0001fbff
00fc02fe
07f90500
0a060509
00020006
00fe00ff
03000900
00000204
05fffffd
ff01fe02
06f70002
fe03f509
f7f207f1
00fdfd0a
01ff00f8
0000fffa
05fcff00
06ff0005
04fd030a
060004fa
02040400
06030103
fd00fbfd
fc0003fb
04020208
06010009
fc050204
ff07ff00
01fe0303
fcfb0000
04ff0907
00010500
fb0600fc
fd07fe01
00000100
03fdfe03
03fe0104
fe050301
fd06ff03
06010202
08f600fe
05070803
03050004
fc010500
fb0406fe
f5010300
01fe0400
fb010600
fc0700ff
fd0706fb
02030107
02fe0801
06fdfb02
01ff0303
fbfafffc
f8fafd06
0300fefd
000302fe
fb020001
08fffbf7
fd08f2f6
06000000
04fe0300
fe05fe02
fbf6f9fc
fd0cfffa
fdf80a05
020102fc
04040006
0803040b
ff040402
fa070400
01fdfd05
00fe0000
fe000700
01070502
fdfd01fe
010605fb
f9fefcfd
f900fcfa
ff0704fb
fdfbfdfc
0904fdff
fd0601fa
0500f8fb
030100ff
faff05fb
faff08fb
fb02feff
0202ffff
fbfc0100
0600f9fa
05000001
0200f704
fdfbf8fa
faff0201
0102fbfb
faf3fff6
fd00fe04
fe03fdfa
03ff0900
06fefbff
f901fe02
fffa0000
02fd0003
0200fb06
030000f8
000c03f7
0100ff02
0704fd00
06040502
f2020601
fdf303f9
0304fc01
0001ff01
fbfc0005
02030206
f7030306
0afe0300
05ff0b04
ff060100
07ff0506
f70005fb
fcfd120b
fcfb0000
02010503
050001fe
fefd000a
fe010000
0007fb04
060306fd
fb080000
0306fefc
fc0001fa
f9000900
03020503
0504fe05
05060009
0105f801
fb000409
fc0102fb
0200f9fe
fc07fefb
00f8f8ff
0005fefb
06f400fb
ffffff05
feff0200
fcfcfd06
04030000
00070100
000301fd
00fa0500
f706fffd
05ff0708
fe00fe05
06fe00f9
04050003
01fe04fd
03fb02ff
f5000100
04f10806
01fef307
f7050100
04f8ff00
03010403
02f60004
fa03fd02
00030700
01f8fa01
fd04f7fc
fa0001fe
060300f7
0500fffe
fd040101
fffefd03
0301fffd
03fffcf6
02fb0b00
fe0a0004
010100f8
04000600
0504fe00
00ff04ff
fcfdfa05
04020000
0200f2fb
0208fe01
00f309f7
05fa0108
ff080105
fe000a00
f8fefd06
f1ff01fd
f404f9f2
f8f70a0d
f80002fd
fd000700
fc030803
04f3ff06
fa04fa03
040005fd
0006ff05
fcfe0002
fefe0809
fd00fb01
f60419f3
03f9f600
fe040406
ff05fa00
030104fc
060807ff
0400f805
fe0008fb
060602fe
04070505
05060407
05070505
01010100
ff01fffc
03fe0403
f00bf3ef
00f9270f
fbfe0505
04020803
f501fcff
19f5fa00
f604f800
fc02fc01
ff05ff01
00030506
01060100
f6f90aff
fff9f706
fe020002
050100fb
fa050002
00fd0503
01030202
00fefe08
030406fd
0002ff00
fc000909
04010103
00020007
06fafbfd
00000a09
010201fe
fe0200f9
02000e00
fefb0102
060bfffe
fb010403
fff30300
08faf8fb
000103fd
00020102
00fd00fd
02fbfc05
f6020404
04f7f608
fffffbf6
fcfbfd00
ff010504
fbfd0703
fe000005
01fefe05
01020002
fefb0004
0c000001
01010000
fefafeff
03030005
07080007
fe000803
05fb00f9
030003fd
01f4faff
0afaebf9
04020300
fefd0800
00f7fdfa
faf9ff03
06070500
fe02ff00
fffdff07
02090700
fe00feff
fe0200fd
1000010a
0209f5fb
f50000fc
00fc0303
ff040009
00040309
fcfdfc04
fe000304
f2020705
15fa00fd
fe04f403
fcf801f9
00fff903
fdff00fd
fdfe0300
fff90400
0a06ff04
fc00f7fb
0f060005
02fe00fd
fa0401fa
05fdff01
fbfc0103
0000f904
00fdf6ff
fa0609ed
fdfffeff
0300faf9
04f8f9f9
03050602
08050200
00ff01f7
fbfb0a08
07fdfffd
050506ff
0300fc06
f50ffcf8
fefa0300
f8fcfeef
03fdfa0a
0206fefd
fa040906
0400fcfc
fd00fdf5
060204fb
fefafb00
f7fd00fc
0002f7f3
fcf6fe03
ff050502
06040205
f1000400
03ecfbfd
03fdf800
ff070208
00ff0209
0aff04f8
00fd000d
fdfc06fe
fc02fc00
04fa00f3
0012fdfb
0701fcfd
000106ff
0000fe04
0005fcfe
fdfffffb
fb05fe04
05fb0505
00fb0507
fb030009
fdf9f5f9
010001fd
07fcfcfa
0dfcfc07
fc0102ff
fdff0200
02fb0105
07080504
0509fb01
ffffff05
fb04fdfd
ff030400
f8f900f8
fbf902f1
03010108
07fe0200
fe07ff00
03fd0101
05fc04fd
06fe02fd
020402fd
fffd06fd
fffb03fd
fffffeff
ff00fdfe
02fd0003
0201fffd
fc000307
03fffc00
fffefffc
0cff030b
f9fe0300
0104f4fd
fdfc06f8
f400fe03
00fcfafd
f8fdfcfb
0df6ec0f
fe030005
00010000
01fa0004
f701f5fd
fa000400
00030b00
03fb000a
01fffd06
fc0309ff
01020208
01ff0103
fefb0300
0101fcfa
00fc0803
030bf901
fefefffc
030606fd
080009fc
f9090000
f8fc04fd
05feff05
0603fdfb
fc040705
fbff07fd
00ff0107
fd00ff01
0202fe02
03fefd04
07fd0303
0300ff09
0002fb00
fc04f9fc
fceefa0a
070c00f5
0cfa0910
f107ff01
0404f200
f4f4f3f4
fb0bf8f5
04130a05
ff03080b
f6060401
0304f4f5
000f0000
01fb00ff
06fc00fd
fefffef5
09f70307
050d0f29
0802070c
f9080106
f5072302
d9faf8fa
00d5f300
0c04030f
f6f700f3
fdfb00f6
f8ebf0f0
f000f3f6
01f800f7
08f9fb09
16210d12
05e20a1d
ed181316
e5f4ebe3
fff206fa
03fd00f8
f4ff00f0
000b06fe
0004faf9
ee0208f8
05080efa
0cf8fcfc
0c100814
07131004
0bf70400
0a0dfefa
deedd409
fce6eee0
020202fa
fd0508fd
fb00050c
f800fd07
01fe0301
040a1610
f3f2ff23
00fc11f5
fe07ff0e
f1f406f9
f7efef00
1900ecf8
00000a30
ef05f8f2
08f9f707
f8faf6f9
f80f0108
01f1ffff
f0fa00fb
060afc01
0900f4fc
25090f29
000efd03
0500fd08
f70501fc
fbdef4f5
0402f0e3
0bfc06fb
ff1100f9
f9f3fa0b
fa070700
fbf50909
0cfbf8fe
0801f801
f7fbfc00
fcfd03f8
0d07f6f5
0103f702
02f6f8fe
00f6f5f9
fefe0704
10040324
082512ea
f3f5fc15
f8061207
f6f5f807
0d09fa05
ebfb04f8
eef8ecf3
eaf91200
ee12f013
eafefecd
1e001d03
06081c0e
0f00060b
040df702
f8fe05fd
07fefa00
090c0900
fbee0403
0911fc01
000003ff
0bfef101
f80000fa
f7f3010a
03ff00f8
0bfb0bfd
05fcfe05
f0ff02e6
f9f9ebf6
e8d8e3ea
fafa0004
daf504ff
eff7fce1
effceded
f1f3f2ea
00f4f3fa
01fd0101
0bfcf804
14f40e06
150a0600
fdf4060a
fefffd03
27fbf7ee
ed152908
0cfa130b
0501f6f8
02f80800
fa0103fc
f2eef8ed
0cfdfe01
05f800ff
f2fdfaff
fbebf5e8
00fdf4fd
000a0008
ff0a06f9
efeddf0a
06fa0cfc
f4ffeefc
fcf7f0eb
02fc00f9
f9000500
050905f9
01001afd
09020e1e
f5fdf403
fb00f9f5
fe12f8fe
f2e50904
f007090d
f20bf3eb
fa00f5ff
fd00ffe8
fef8000c
02fc00f8
eb0005f6
0606ff01
f6001803
02fdfc03
08050501
ff0afb00
08fe0600
f700fefe
09fc04f7
06f902f9
fc050404
070d1009
00fafaff
12160009
f1faee05
03fa03fd
000000fc
fbff03f8
fcfdf9fd
ee03fefb
faf8fbf6
f00406fd
02f7f5eb
01f8f3f7
fb020305
0707f5fa
00eaec01
f705e8ed
09fef9f2
0105fd04
0907fef5
000f1e10
f4ff0004
f2eefeff
f4f3f9fd
0ff80ff8
04030bfa
0806080f
00fefdf5
08f9fc00
06190e0b
f1f90100
0f021114
f7020504
f3e7fc03
f6ebf1f0
f8f2faf1
f61f03f7
07f50ff7
0300fb02
04ff07fa
06fb05fd
00fafa07
f606fafe
f9fcf502
030409fd
0f0802fb
f4fdf4fc
f704fbf1
f9f6fbf7
f816fd0e
fbf701f0
03fe0eff
02f7f901
0d0efa00
000c0402
00010c04
f5f3f4e3
f70808fa
08faedf5
ebfffdfa
080e07f3
08070902
08f40b00
08380fef
fd0c170e
fdfcf101
fcf600fb
07fd09ff
fc0b040b
ebffeb09
09f9edf1
09fffefe
05faf503
f705fd06
fffb04f0
ff070311
0304faf9
f7fd080d
fef1eaf5
f2eff3fd
000ff9ec
0cf2fe09
dafefbfe
fdeee9ed
01eef5ee
0afbf6fa
f6fb00fc
fbf80007
f901f705
05fb0902
fc120009
fff900f1
f1fcfc09
fb0c05fe
01fe10fa
fcf6102a
f6f4eff3
f2faeaff
0809f3f2
0607fb0c
0309f6ff
fcfafa0d
f3f6fef7
000df103
050df9ef
fffdfc04
01fdfb00
00020002
00f7fb0a
1503fe0e
10040c13
0f0c0e01
fefb00f4
fbf10000
00ff04e9
06fd040e
11fb0102
16140d07
f819190d
1303f7fe
f102fe01
0109fefa
0afd00f5
02f5fd01
0113fd0b
f1f40b0c
06fc0600
00f40afa
0c030f03
eef501fe
fef602fb
03010000
f907fff8
f7f90dfb
f9f8ff08
0b04fb03
1a060409
01fa0415
0908000d
f7f00e03
f8ef03fe
0aebfaf7
ff00dbf7
f8f2fbef
fdf90307
04f9eefd
fffbf501
fa020105
14071103
00021400
0b090806
00f60006
05f5f9f4
feff0206
00fc0803
ff0105fa
0600fa02
000201fa
f5fcf0fa
0e0b0ff3
0cfefaf8
03f70002
fd000105
07f40001
19110918
10041801
05f0fb00
0d00f001
ff0309fa
0d071212
e7f8020d
01e500ec
fd03f50d
faee0000
09fafcf8
00fae9f3
07020801
f0dcf70a
eff1fbef
fbfa01fd
f0fbf301
fdfcfef4
faf50404
06f90107
ebf203ec
f9f7fcfe
03ee0600
f808f701
03f9fcf9
01f90908
0b03f8fc
1cff0010
fefefefb
faff090b
f7030501
03fff700
0e090a04
fffd0c0d
02fd03fb
05f8fcfa
fe05fcfb
0e0c0009
00120cf5
0d020505
faf802fc
01f105fd
00ff0005
02f3f304
05fb09fa
1219090e
0c0a0d0d
010c0300
ff110011
fe171309
fcfb1615
f9010603
0607fb02
faf7fd05
03010dfb
fffe00fd
0100fd0e
00090504
06f0f200
0408f305
f4f604fc
edfdfe00
faff0506
fdf409f1
fe02ff0c
00fbfcfe
09fb0013
f5faef01
02f9f3ff
0d07fdfd
010a0afd
f9ef02f6
f4fe06f7
fa0405f9
01061011
fef604fa
fef60908
fd000cf5
fbf5f700
f704fc06
f7061511
fcf8fafe
fd0509f7
f803faec
0b0007fb
03fbfd09
ff060a06
0600130b
08f70005
f8150908
0806fef2
02040301
04f903f9
f804fcfb
120b0efa
ff000404
041501f0
0dfe0a0b
0bf9f4fb
080e0a00
f4011201
0500fb03
0608fb07
f7f7ec14
03eef8ee
1d11f501
1c0d0b17
12051205
1efdfe12
f4f8e50a
f3f4f2f9
020705fa
06160b06
f8fe0bfd
e90df416
f8f0f8fd
ff0e000e
03ebfa0d
f303f1fa
fb07fef0
0904f5f8
00060e03
1300f7f8
00010b0c
06f60d03
f50bfcfa
00fffefb
05fdfdf9
df00fefc
f1e5eee6
fcf2f8eb
030efdf9
f90700ff
fef8ff01
f90e07fc
e8fe0afb
07f90003
f8070515
eef7fae2
f8f8fb03
f30af2fc
fded08fc
ff030afd
09031911
05fffcf6
0002f000
00f908f9
f202ff02
0f0409f1
fc13fd06
ff070bfa
0a080705
0a150804
18fcfe14
fb1113fa
12f31211
03fcf718
f4eef204
1a0bfaff
0b051013
0bfd04ff
0007fcf9
f6f4f7ef
fd0605f0
08f4f708
ff02fcfb
f3fdff01
0f0b1708
02080514
04fa0003
e9fe0002
fb11e5f0
ef0204f5
0902ff00
09060d01
f1e9e808
f503f7f7
0100f8f7
fd010503
09010503
03f6fdfa
08020101
0407f2f7
030a0200
fef90603
040002fd
07030a05
fa08f8f3
23050d03
1d08212e
0b140314
05f401f6
05000010
fefafff5
00fa0cff
0e000efb
0219fd09
e7fc00f6
ebf3ffe8
02f5edf3
09fafc02
180a1214
08fc0c05
08060809
000b0117
0d070904
07fcf6f9
ff000303
0c040201
0506f5fd
08fb0f0a
fdfff407
02fefb01
eee0f603
0416faeb
fbfc0201
f4f3fdfa
fa000400
05fbfefa
09fef3f2
07000304
fb04fd00
0cff00fb
fae8f2f9
000df605
0a0bfc04
fb0afb10
0c080102
07070a04
f8f7fe06
01f4faf8
f505fefb
fbfffcfd
fa06fe01
ebf00203
01f7f8ff
f90102f2
fcfe000c
f9020409
05fd01f8
fa01ff0f
f60000fc
05010500
0e000b05
0101fe06
08030005
f9f300fa
fa09fef3
07010801
00fffd02
020afcfc
05050bff
f9fdf8fc
fe0bf906
f7f1e5eb
f301f4f2
060efffb
00f5f6f8
0006f704
fdfcfe06
fcf80d00
01fbf70b
05fb08fc
0bfff202
040800fc
00faf4f8
f6fefcfa
fe02f602
00fafcfa
f60af807
f9f800ee
ff02f6f5
f7fd0008
05040301
f90afafc
0502fd01
0000fe09
00f4fefd
00f9fa00
fff9fbf7
fb00fe03
000af1ff
f7020be4
02fe00f5
00f9fef4
030800fa
00fefbf8
fc08ff0a
0b00fb03
0afefe02
ff091312
fc02050f
fc0703f8
ff0603fd
0508fd06
00f80105
fd000208
fbfd0dfa
0202fbfe
08fa0004
00fdf8fb
030cfb07
04fc02ff
14fdfcf9
fffcfe0b
fd0302fe
00f9f5f6
0400fe02
02010003
0709fd08
0801fb00
fc030803
04fd0002
08fffafc
fef60102
f9fc0300
0a0003fd
030e111d
fd0400fd
02fbf907
fbfd01fa
fbebf7ff
f407f4fd
02fc04f7
00000703
060bfdfb
060c0502
ff04fcf0
fb0dff03
00041407
00070a0b
00f8f70b
0b06050b
0e15171f
0e011106
f4f500fc
f6f9fafd
fe070004
00fa0bfa
130d0717
0a14060f
fbfc0e01
08eef8f7
01fdf203
fb03fe05
0afbf706
090800f8
f90701fc
f103090d
040006fb
070302f9
0b05fafc
fd0e0002
0509000e
0b02fc0d
f405fd00
060003fd
02000700
0202f900
08030003
000602fa
04070308
03000f00
f8faf809
fb06fb0a
0206fefe
0e05fefd
03f2ea00
f1070107
eff6fff1
00f600f8
07f7f707
07fef701
07050000
fe010008
05fa09fc
ff0704fb
0c07fdff
f1f10401
0c1105fb
0004fe09
fffdfe02
00fafbff
02f4eff4
08fcf4f8
070bfe04
0103fffe
08ff070a
fbf2ff07
fd07f7fb
10fefcf3
fb01f808
03fa08fa
fff90afb
f2f300f9
f60df600
f701f603
fc00fafd
02f5eeff
02fcf806
fffffa00
f1ff00f4
0705f8ec
fe03fdff
07fe04fb
fe01f9fc
07fcf905
0504fdff
0cfbfd03
0000080b
07fb08ff
fff5fafb
f7fe0104
06f7fafe
1309fe0d
fd00fb06
04fefe05
02fe00f9
06fbfb00
fbfefffd
f9fd07fd
050b0508
0a0903fc
fc00f8fb
fafe05f7
fc070500
fc0bf809
030000ff
ff080cfa
f8fbfef8
03fefafe
00ff0afc
08030a03
faf6feff
f500f700
ff0107fd
06f6fb02
fb01fd0a
04000800
ffff0808
00fb0800
ed01fc00
08f2fbfa
ff0111f8
edfefdfa
fc010105
fc070909
111000fa
fb020a05
0006020d
050bfa01
0100f9ff
fa04ff00
fdfa0b00
f9060606
fb05ff01
07f1f9f9
feecf3ef
ff020706
fe0bfe0a
0aff0403
f8f2f8f5
06fbf1fb
0611fefa
0101fffb
03fc0409
01110af8
05070afb
0b0806fb
07ff0e00
0a0d0f12
09090d18
00faff03
0203fcfd
f9fd000b
011007f8
f9060a08
03f80402
f60702fb
fc0afcff
fa0306fd
eef6f8f8
05f3f7f8
020008fc
080d03fe
01f600f2
f6010604
f1fefffd
0404fd00
0ffd020c
0603ff0d
09080201
01fc070c
f9fd0100
05fc06ff
050700fb
ff03f406
00050502
000000f9
0308f803
09091818
00ff070a
0b120009
0c0a0d0d
000a0006
fd07000d
0806050c
0f1206ff
0f11090c
04080bff
00f1fe06
fff7faf2
faf7f6f0
07fe01f6
f901f7f3
03050006
0801fef9
03fe090a
0100fa01
fc07fbf4
070dfb00
fe020af9
f9fd00fe
fd02f7f8
00070d02
00f60a10
f4ff02fd
fbf8ff08
eef8f2ed
f9f300f1
fcfefcf9
f5f3fef9
fbf1f1f5
fb02fffa
04f80706
0d000006
07fd0004
050002fe
fbff0007
f7fe0d05
0004fcf8
f9fbfc05
07f8000a
fc05f806
fef706fc
0601fbf9
f6f8f604
f5fcf7f5
10fb00f9
0bfb0912
0905faf8
fcfb0300
f701f7fc
fbfdfcfc
04f5f900
0c0ff7f6
0b0903fe
fb0b0e00
fafafc08
02040000
f602fd03
00f808f1
fe00fcf9
00f4f802
0806fe00
fef800ff
f900fc03
fe04fa02
0b020107
00000500
faf2f2f5
0700f8fd
f903080b
fc00f604
09fff5fe
05fffafc
000aff02
fe0602ff
f9010b01
fe0bfdfc
01fffa03
0609f800
000afaf8
06eff701
fc06090d
fc070301
0605ff00
f8050905
0307f905
020d0a03
0c0f0e06
0004010a
fb080401
05030bff
08ff02fe
fcfdfefe
01000700
0d030101
040200fb
07fefefe
0af9fd05
fe0405f6
f9fef9fc
f800fef8
05ff0df8
f608f703
05fd0afc
00040508
07fafa00
05060804
09f6071a
f5140e15
f401fd03
0104fa04
04050efe
0607fdf5
f800f808
f70102fb
00f50806
0007fd00
00ff0102
fb000c09
fa0303fe
04f90309
00fa02ff
0a0b1109
0502fc08
07f6feff
ff0901ff
fd00fafa
0e0cf7f4
00050704
fef70c00
0afcff03
fbf60002
fef4f805
fff80502
fc0806fb
00f9fe0b
fffafef7
fff501ff
07fbfb08
fdfd0207
f80201fe
fdf4fc00
fe02eef9
0b010600
fe00ff01
0309fd08
00040002
01f6f7f8
faf7fb03
f8030200
fe00f909
020004f9
0d0a0dfa
090101fc
07fff903
040000f7
ff060805
fdfefe00
0c05f501
0bfffd0d
f1ff0a04
fbf7f900
feff05fe
02fd0402
f703f503
fc02fc00
0b09fffb
fc0dfe00
04000f03
091201f0
f7f5fdfe
020f0200
010600fa
f606fd03
faf60502
0d02060b
07010a03
0afc0004
0201ff08
00e7f400
ff060712
00fc00f0
fbfbfbfe
fffaf906
06f707f8
f500fbfe
0afbf502
05010b00
0505fc01
03fc050a
0c01fc11
fdfb02fd
0af8f500
04fd0400
00f9f105
f7feecea
0101fd00
f0f7e801
050301fe
05fb07fa
f900ff07
030c0c09
0d0708fe
fd090a05
0c0d0d00
eff40815
f8feeef8
02030103
ebfe01f9
06080afd
fa05fd00
00fd04fc
fc07fd04
04fafb07
0bf7fcfa
fb0e07f2
fbfcfcfb
eafd0302
00050805
000a0608
030203f5
0003f904
fc0504f8
0a000003
f902faff
fff6fcfc
f6fa0505
09000305
0bfef6ff
fdfdf7fd
01f8faf7
fa00ed00
06fff7fb
faf704fb
ff090704
08f8fe02
ff0504fa
fc0700fa
0af8000b
08ff0b03
fa040007
04030200
fff70205
f8fbfb06
02f70505
fffcfcfa
fbfdf902
0a00ff07
fffd0d03
0cfd110f
02010006
fef5f303
fb00090d
fffff2f4
00f2fbee
0405fdf9
faf907fd
0807f903
040808fd
f702fbfa
06ff0800
f9010807
f504fff9
fc090404
06f70a06
f5f7fb05
f408fc02
f9fa06fe
ff07ff01
040504fd
0008040c
03f700fa
fcf6edfe
f207fefc
f7fffdf2
f8fff603
f1fef5ff
fefdf3f8
07fafa03
fa00f403
0909f801
02fd0603
f806feff
03fd0b08
0204faf9
02fbf7fc
fb0101fb
01fffcf8
0900fdf9
0002fe02
0600f808
fc010807
fb08fef7
040dfc03
09fb0611
09020205
00f80906
f30c0b03
04f6eef4
fafc04f5
04fe02f1
0906fc0b
f8040507
0004f8f9
030600f6
03f90002
0f01fc01
040d0701
000afa03
fa040a02
fcf707fc
0120fbfb
fe0c1c0f
1410f600
011b1000
fff9f5ee
00090af9
09110700
ffefee02
000ffff3
05fd0600
fafbf302
f7f302fe
f8eff9fb
f801fa0d
fd0400fa
000a09fd
fa0fe912
e90f04d7
ee0b0409
fbfd040f
10fdf8eb
f6070c03
000cf901
c0e608e8
07e803e8
fc11fd04
fbfefbf8
ff080e00
05fc0a12
0328fe08
fddd0517
ee0afb11
dde9f8f4
fceaf8f1
010800fe
f702fcfb
ff0905fb
fd090109
000afdfa
fd03f903
faf70400
f5f6f4f9
fd030bf5
fc02fe00
f7faf702
f1ecf6ec
0a04faf6
faf80409
fc07f700
fb000800
effdff02
0305f901
f6060a04
f504fcf2
f9100601
faff000b
0104f8fb
0403fc09
0209fbf8
fb060a06
06f9fffc
ffeff605
0007f0fb
fd0b08f8
05fef202
070a06fb
110e0cfa
fc021100
edfdfbfa
08fd03fc
0b00050b
effffd03
09110df8
00051905
07fb0afb
0307fa05
020afe08
00fef7f4
06fb0801
02e608fc
fbfafd1b
01fb01f5
0500f9f7
00fafff5
f40107f6
0000f704
f7fafbf6
fa0901fd
fef6f313
f412fde1
070f0008
01030305
0b0305fb
f912fffa
f90300fe
1502f201
f902f8fd
0705ffff
100f0a04
fafc0107
0dfff900
00f611fd
0002ff02
12f80009
0013000d
ff0716fa
fc08fdfd
f60200f8
02f204fd
0304f502
fff9020a
fbf5ff08
f9f7f6fc
fef2f908
fa040405
05010f01
f3f7fcff
0522fffe
080b230e
060afe13
001008f4
14f90902
080c0f0e
0c0008fd
0a010104
0cfb0a0b
060b040b
1007251e
10fd0614
070709fc
0dff07f8
cfef02e7
00f7fceb
0103130b
ecf8fbfd
050702f1
0a04fe02
080603f9
04ff0006
f2fff80a
170e02ff
f70a0011
01fb0006
fcfd0906
050aeefd
f6052901
f9f8fb07
fefef901
fbf701fb
fdfa0003
0cf1fcf6
00fd00fa
08fa0513
0400faf8
09080308
ecf401fd
fefcfbfe
f9f8fdf7
1afa0911
0100fd0e
02060efa
04f8080d
fafefcf5
f6040302
0602edfb
05070800
03feff08
fc0a0801
fb0401ff
07080108
faf8f703
f9fe0006
f605ff01
020107f9
0202f80b
03fae8f2
e4f901f6
00fafef3
01fbf8fd
0706000c
0000f7f8
0807f805
0b01f8ff
06fd0203
f40401f6
e4f9fdfd
00eafefa
01f90400
02fc0201
fdfefef9
f0f2f8ef
10fafbf2
0308000a
05fc08ff
fffa0613
f7f501fa
0202fc06
f7fa0400
f6fefc00
00fffd00
0700fff7
09fd01fe
fff8ebe7
f6080100
00030301
f8edfef5
0cfaff15
080704fd
06faf0f5
060211fb
fc0709fb
f800fb01
01020906
0206fcfe
fd0006f3
f8fdfe03
feff01fe
fc0805fd
000207ff
06050d0b
ff02fb07
fcf308fc
01f6f806
ebfbe5e4
f904f5de
040d0df7
fd04fa04
0f04fefd
f0eaf805
f7f4f0f0
fafff800
0701fa01
03070701
06f5fefc
07130af6
f3090c05
edfcfdf9
edeaf801
ee0af1fe
f8f5fdf6
0d060cf8
fe05f6f7
f507f9fd
0a041907
08f6ea02
0a040b00
02fe0102
0dfc0000
000d0c04
f400f6f7
fbf5fcf1
edf400fb
f8e2ec04
f1f2d8d7
05fa09ea
00f8fb00
05060900
f7fb11fb
0402fa05
02fff6fb
0d0d0201
fbeefcfe
04ffebfe
f8ef0204
f20403fb
00fcfcfd
fffc0602
09010bf4
0e041812
fef80016
031c1402
fa062009
2e120c08
fe13f90f
02fef9f4
020f04fd
ff00fd09
00fbfb01
f900e9ee
01fafc00
0ef7070a
0e000d10
ffebf309
09fd0306
fffe10ff
fcf9090a
f3fff2fa
fdfe02f2
fb030008
0b09f800
f6fdf70a
fad7fa01
f107e805
fe04faf0
f5eef8f8
fb00fcf7
02fafbf5
fd0a00fb
ff0f0103
0beffa01
16220000
fc252024
130a0116
f7f902f5
fe07f9fc
0204fdfd
051200fe
0b0f0405
03010c05
09010ef8
f8010003
fbfeeff1
f30301f9
f0f7ebfa
faf0fffc
fe13eee8
faee0202
f600faf9
0af1fa03
06fd08fd
fcf50aff
000209fe
08fa06fe
f60207f8
f6f1e8f7
f3fef9e7
0200fced
feff0208
f8060301
fbfd0203
01f900ff
060fff0a
fb0e01f6
1b1a190f
09132516
01050313
010103f4
fc04f40a
eff4fefd
e8f601fa
00f50009
0b18f90a
05000601
0c060b0d
04f600ff
0019f7fa
07001800
fe0606ff
0400fefd
100606fc
0cff0812
fbeff508
ec00eff0
fa07f5f3
f6f40200
07fb02f7
fc00fdfd
fdfc0301
00faf40b
f3fcfefd
f50104ff
fc02ffff
fb03fef7
0304f802
fcfafffd
0703eef4
ff08ff00
fe02fef4
00fdfa00
f1fffaff
fcfdfb08
16fdfcfc
092b0cf4
e9f610f0
f5e9f6ee
06fbf8ed
fa02f6f8
04ff030c
f2edfc02
0009f3f8
fc0e00f3
fff90109
fbf80303
fd05faea
00fafd03
fb03f701
00fdf2f3
05000700
ef09140b
0811f3ef
08040f07
03fb04fe
06010400
00fa0a06
07fe0ef8
0801060c
040100ff
fafc0000
fafd0003
02ff09f6
021304ff
0104fffd
ff08f909
000bfbfe
fffd01e4
fffc0500
04030202
00030a06
f7000505
06000df8
f9f9fc04
05f5fb00
fdfd010a
0302f3fb
11010305
05000a00
04f7011d
03fef308
0a02000c
feff0405
040104f8
050a060c
0402fd00
fdf3ec04
05ffebfc
effe000e
01f8f3fa
fbf7f7fd
0009f9fe
040102fd
fa05000a
f704fcf6
f60b0aff
02fafff2
e5f60b07
0f000001
01100205
fc0402f5
0009010b
05fefb00
fd07fcf9
fefafb0a
faf6edf9
f7ea03f9
0906f0f7
f7fe00f7
0910f10d
f7f3f6f9
f9fcf6fa
f9f90c00
fef3f50e
070d0601
fafdfe06
fb1a0ef8
ff00f5ff
00081517
0cfc10f7
0200fc0c
11fe07fd
fae8f70c
0cfce5e6
f8f80108
fb1c08ff
fcf8f8fe
0e050200
03fffd04
00fafcfa
f90bfcf5
03fef906
fdf7f4f8
010ff7f4
000908ff
f807f8fc
1600f905
00080dfd
17fd021a
080f0313
00fe050e
f9fcf4fb
ecec0df6
f5edfeef
fcf8eaf0
1006fefe
040400f7
0d01fe0c
0c05fefa
fbff0005
07060000
fd0b00fa
01f00008
0406f9fb
ff0811eb
f8f91101
f7000bfc
01fb07fa
eff3f70c
0d0207f5
f9f60af3
f1f2f0fa
f4fcfd00
fef705f7
0401fdfc
fd0007fd
0803f903
f3e8f105
f8f40c06
07faf904
ff0604fb
0008fa07
081400fa
fd020004
fcfffd01
090508fd
04fcf303
09fee703
fefdf80b
ffe1e8fd
0bffe7e8
e8e803fe
f2f700f4
f8fbfd02
0003f800
faf7f5fc
0402faf8
0b0c02fd
01fff805
0b000b05
04000308
09ff04f4
02f1f7f2
000bfb05
0902ff05
06fcf8fa
0afd05fc
0a0a0101
f700f7ff
fef6ed03
f6e6eb00
fffc16fd
f900ff10
f8ebf2fa
fdf9f2f6
fb00fa01
f8f90000
fdff00fd
ff02ff08
0901fa00
fb0200fb
fb05f806
00fe0009
fe0606fd
060007f1
f300f7f4
0a0df904
03020200
0412fdfe
06f8f9ff
fafe0001
03fdf403
f700f7ef
060df9fa
0ff21609
f6fef808
fefffeed
00f70004
00050ef7
000003fc
0c06f60e
f9fd02fc
08f80204
06fc0501
e40009ff
fbfafaeb
fb000a00
f9fd00f8
f9f80802
f7f9fa01
fbf9f803
fb0a0006
fdf9fcf7
f504fff7
04f7f500
fbf4fc00
0601f8fc
fbf802fd
0600f909
00f900ff
08fcfd02
090cfcf9
03080cfa
01f903fc
fc000207
f5fdfcfa
f7f703fd
f9fffdf9
0505fefe
00fb0905
0d06fb03
0005090b
0003f8fd
fc08ff01
03fef7fc
f70409fe
fc060201
f909fdff
f6f600fc
fe0000fd
f8050001
f8fc0001
fc0b0702
faf70201
060006fd
fe07fef9
06fff806
00fbf704
ff060a00
fe00fa00
0000fc02
040401fa
0002f9f7
01090104
fafafa00
0203fdfc
f8fdfff9
07000906
05fd05ff
f700faff
f600f8ff
fafe0103
fc020407
03fc02fb
040404fc
f501f9ff
0008f908
02fffefb
f3fdf800
06fbf402
fbf8fa0a
0203fc03
0803fef4
02f90302
06fbf901
f9000602
00f7f401
f7fa04fa
0afcfcf6
fc0afc0a
f8070604
00fa00fa
fffc0001
0a0307ff
fcff0bf8
05fafe02
04040207
fe050103
fd0202f9
04fdfe03
fbf3060b
08fe0008
f9fc02ff
f7f602fa
fa0306fb
050003ff
f7fcf9ff
fe0e1103
05050a0e
02f803fe
0304fdfb
f4fd06fc
f2faf902
fe05fafc
fdfdf7f5
fc01f504
f504f602
030100f7
0505010a
fafe0200
03f70606
03f9f601
fcf904f9
08fd060d
f804f8f9
02ff00f6
02fd00fb
04040008
0100050b
f8fe0305
fff90000
00fcfefc
ff01fafe
f6f7f905
fe00fd00
02f5fd04
03fafdf7
030100f7
030f00f5
080c00fd
fefbfefd
f6fdfcff
fbff0602
f8fa00f8
f303020a
000006f4
07030004
fe010001
fcfdfe07
f4fefc00
0601fbfd
03080106
fc0407f8
fc00ff04
03fafe07
04070206
05fdfef9
07f907fa
00010006
f6f3fffc
f7f8f0f9
fdfff9fe
f90701fe
fe0e0af9
00f8f9fe
05f9f804
09000603
05fb04fe
f8f70404
08fb0003
f7f9faf4
f6000303
04ff0105
fc010102
fef708fe
0200fc02
090b0bfc
f4fe1102
f8fa02fa
05fb0800
f8fe0503
00fe09fb
00fe0308
fefb05f6
