00dac2eb
f80fdbcc
edf0ed00
f6f5e9e5
090000d3
02fc0e19
e7eafdff
00eafe05
f70d00ef
f3ffdded
f304edd9
00e3f3fc
f7f7d5ec
08f4f2eb
2214fb30
d90bfee5
edd709ff
f7f813f2
00faed0e
fcf716f2
e9ececfe
02eef100
f2f40b00
0cf3030b
0004eaf9
ee1304e6
05111af0
ff1b0801
f10c01e0
e0e219f6
1cdde715
05fbd5f0
faf8fa0b
e9070a0d
19f1081e
1c08e80d
17fdf600
0e1b00e5
06f9f711
00020409
0d070918
00001c0d
10090c05
ee020a17
fbd104fe
0807fe0b
f0160503
0303eaf6
0800f8f8
03ef0d0f
1129fb03
0d1a1bea
f912eaf6
f70207e3
01fafe0f
f5ef04f4
dbdf000d
fcdacef2
ed10d8e4
02120d04
e411100c
e5e103de
f2e0fdfa
ffcdcae3
f20ed4c4
e1cfecf7
11e8c6e8
07f201f4
fbf4e6f4
0b00fdf0
f40b06f0
fa00f6fa
20fb1f15
d1ea081d
002b1004
f6f8080b
2bf1e3e4
04f8fc07
13e6dc04
191af81d
edf8fe06
fdf0efee
ef010b0c
fdf70dfa
fcf7e6f8
09f90f3c
02090205
0003f700
f300fc01
f4f4fff4
1cf92321
fdf408ff
02cccc11
26120cf5
f2f4f634
14effe1b
ea04f811
fc04f8e2
09030dff
0002d5e3
19290a02
ddc90cf6
00efcdd3
0bfc131d
0ef40602
ed00f5f8
130ff6e6
ed1c0a07
f70ff0f1
e7d61af3
f20efa05
f600f1ee
0eeff8e4
100b020e
fdf2f603
ff00fdf4
fff6fe05
eeeddfe9
f1ffeae8
fefdf0f2
0a11fd00
efeef5fd
03ffeefa
19ef1000
08290f21
ddc2d7ed
19fbecfe
f10007fa
f2f3eef8
fef9fcf9
0d000000
f5ed0002
fcf9cadf
fde5f70e
fb01fd08
00faf8fc
050913f3
fb000f05
f6f4f904
fe0207fa
f9df01ff
e105f2f4
fe01fafc
0600fa01
fbf10006
1312fee2
fb00fe02
dffff6ed
f6e702fd
03f0f5f7
0002f803
fdf7f8f1
f1fbfbef
e20e1606
04f801ef
08fb07fd
02fc1903
0d05f709
fc0afa09
02fd350f
f3d9f7f1
ecf8e5e7
14001906
0cf00611
f4ef000c
05f40d0b
1a0003fe
24280c1d
02102111
ee00150f
fb03ff0b
f70211f8
fbf30602
0000f000
0c170f19
e8e2080e
f6f0fdf6
f3e5ee01
23fce906
f528f4eb
f9f8fff6
0b050304
f8f5f6f9
eaf0ccdc
0ef3e7e4
f7000307
dffcf908
0600f7ed
01f4e1fb
f104cfd4
e9de07ee
f3f9ebf3
04010b07
06e9fcff
f8f40ffe
06ea190e
f7fe0100
11090903
eaf9e3fd
06ebfbfa
ddd3e10f
b1dbc2ae
e6fee0c9
f8f6e9f7
cfedefec
e6e601e4
fbebd000
d5f7e2f6
f4e3ebd4
00110809
ddf4dccf
182607f0
fe080008
eb030d00
fd090c14
09f70011
de01f5e5
05f20df3
f0f8061e
fde1f2f5
1108fd02
0d090708
0ef8faf8
e0e6f2fd
12f904d9
10050016
fffefe08
f2fedc05
e4f700ea
120bf306
1a0c0729
ee11fd00
f2f30df5
08f306f9
0602fa0d
fefbf9fc
04f70514
0a01000f
fdfb02fa
02fd0208
0509f1f9
e6ee01ec
0efa0ee9
0507fc03
fa050d04
fdf20008
0dfe0204
0ff30812
2209f91d
d80400fd
aac8cfba
f3d40ec6
e5f7dbe3
150c0607
e2e1e021
e7dddfe1
e0d6e2d3
ecddd300
0ce6eb0a
0209f50d
fef3fafd
f50d01e7
f3f5f900
e5dcf6ec
24ec010b
f2f30e15
fceaea0b
020bede4
01f917fb
13090807
e4f3efe4
f5e0e7f5
10eff9f2
f60cecf6
ece911d4
0a0309f5
08f704fe
0f0b0709
0af0fa09
fbfbe400
e2eff3f3
fcdf05e5
04e8e1f3
0d15faef
fd0914f4
e7e3e0e0
c3dbf1ca
fbcae0f4
e6e9fefd
f2e4fc00
f5f01400
f5220d13
d0f0fb02
dbf2e2fe
12f30002
0d0c1804
00f8ef0f
f9061316
e4e71618
2b0504f7
1cf1f1ee
0015ec19
1610fefa
111d05f3
fc021403
f2fff705
d2c8d9c5
04eecedd
080600fc
f311f706
e8da00fd
fb01e3eb
fc161308
f50a0c0d
0e0e1709
050bfefe
010c2009
00ff060d
f808fdf9
fa14eb07
04000b18
f103fa04
0d00f8f7
0609f50d
db030cec
f8e3faea
120c0efb
04180914
070ff30f
fc09000b
a6fbef16
c1ccb5ad
ff2408c1
d2d7d3b3
0302e7e2
0108f900
f7f70de9
08180712
281802ee
0618fae5
f3090900
0b03000c
cd11efeb
0aecffea
cfd0df05
dbcce2d4
0000e6e9
00f7fefe
bdf8f206
c4d2c3cc
e5e304db
05040906
e5ec05f9
eef312f0
d908010a
f60df301
f6faf702
cfeeeff1
f4eadbd7
ff10ffcd
fcf3fefe
07f0fd13
172ef6f2
fce51102
0a2bded1
0ff01116
ebe7fee2
04f31e0a
df0610ed
e1ecc7e5
38fd17e1
1009f92f
070003fb
bbcf00ff
10f100db
d74c4e31
150416d9
ec190807
091bf902
ecff0d03
04fd01f1
06f9fd07
291b0c1b
03040cfb
0bf3e7f5
f703ecee
1d13050c
e9faf924
05f4ede0
e40a1818
ece1e6f2
05fc0fe8
f60e0f01
f1f0ff03
ebfecadd
210e0104
00070908
05020b0b
fcedf4fb
0500000e
0504f9fd
dcf4f7f3
06dff3f8
050cfb03
e0e3cf03
f9ee080b
efeeffeb
00061213
f2f6f3f3
dffe06fe
e6c4e2c2
f8360505
06f80c03
f209f510
fdf5ff02
000efbe0
13e6120e
e901030f
0c060a29
09001408
0ce2fc11
e80b011a
04d2e8fb
efd4f3fc
ecfbeaea
f3451f00
e7ce0100
fcf2fe9d
f917fd02
f3e3f311
06f5f5d4
ff160202
05f800ea
ff0afa0d
e1ff1af8
14d80019
0103f917
fffe0aff
06040e0d
f10c00f1
0cff1400
f80c0eed
f2fa0000
f218d3f6
e2234ac3
1adef603
e608ec00
faeb00f2
09f8ff0c
08fcfaf7
faf6ff03
ff00f1fa
f83be804
001534df
e921ccda
e9d614fc
00070213
0604f4fd
ecfa03ee
ec0a2ee9
dad91e37
180ec3ed
cb4a1bb8
f7fef0ec
f1e7fbfd
0efdf403
0109ecf9
0100fbf3
fbe4ec08
f704e5de
0d0c03f8
0007fa0d
f70004ff
02f30bff
090e0307
f8030005
fe0409fa
00f7f109
02fcfffc
e8fe0109
fefb050c
0af3f7fd
01fe0020
24f6f1fc
ea19e6f7
feff26df
0d00fe0b
fa03f5f7
f9f805fc
fcfaffff
ec1108fc
ddf30cd6
f6f3f90e
01f7e9f1
001615f5
f20afaf1
fbf70ffa
0f0ef402
eb1100f5
f008faeb
1103f501
1008ff0b
0105fafc
f7f401eb
0cf9fadf
0df5f941
172e13ef
ea033008
0c0af8f7
02010307
fd000304
1e15f8f5
f411f702
140b0115
f90408ff
04e3f2f6
04f7c6de
eef606ff
15fdf801
e6eafefc
102df8cc
eff70609
e80bedfd
e5f205d4
03fbf404
ef16fcfb
fdf800fc
0503fef6
f8fa120b
0b0cec08
e409f701
da09d3f7
f400fcc6
ecf20105
05f1f105
220df1f9
16250a23
f8f5f0eb
0909ee16
d4fee7ed
f50cfbff
04011107
fe04fb0f
f60b070d
d8e7f509
f7c8efff
f8efe002
fce0f204
17f9f405
0e010c02
f9090cfd
eefe0310
07020201
f1ea0212
01fff6ed
fa001202
07eef7fd
fe03f3fb
fbfef1f1
0001f4e8
0d2510f1
08211604
ebfa0115
f3ebe1ef
17eaf6f4
e70d0000
00f6faf6
0ceefd08
01100815
ff17fa03
e8e72210
fd03f0ec
fa10ffeb
ed0c1903
e8f50def
f0eef504
fae7b4e7
1afedbd5
081707fc
f7f7eff9
0b07fdf7
0d0ff8f6
08e5e9f4
0003f4ef
f5fcfdeb
0f0cd2fc
2afe0ffb
fefd0813
16073ef4
f3eb06f2
f6ecf800
f7032c07
11f11305
f111021a
f0eecaef
03faf4ef
03fefcf5
01030bfd
0803effb
fefbfe01
15e7fa00
3107dde9
ec0ceeec
e6f4e9f3
1212fce4
1310031c
02e8dcfd
010c04f9
f8140b09
f8eef9fb
0000d704
d2ec01f6
f800f302
fa00f9f1
07270d07
fe0bf8fd
e3f10605
efd4eefb
e3f8ebf8
00fbe6e0
0ef800f6
fff1f2f9
000d00ff
eff3f906
ecfef9fc
05fef0f6
12da111d
01fa0f0c
f300eef1
08fc02f1
0afcf2f7
f703f7f5
0e0cfa05
f40e12fe
e80000fc
fbf404f6
1700f2fd
3807e3ec
fc2ae800
10000b09
e7000e0b
031d01ee
ecfeebf2
e306e1e5
04f807f6
fe04f7fe
18fa0005
fbf20d14
0807f8ee
03fa0f10
09e1f5f3
1a2e1006
00fb252f
f5fc03e2
01061313
061d1623
dff0fdf3
f11801dc
13eb1d0f
0304fa17
15f1f613
d8c9220e
0d0c00ef
ea121b04
18090801
fe17030b
0000000c
f7f3f3f3
f4e1cdf6
04281def
0313ff1e
eaf208f8
05eff807
fd060007
0402f8f0
dcebf2e9
1dff11fd
ebecf220
02faeeed
0efe2121
071b0d0d
13f1f2f8
ec01e305
e1ee00d3
06f5030f
0300e402
dbd1ebf1
f8f3c9e3
e8fffdf2
e7dcf7e1
0afad2e8
f7f22002
27160df5
edefdff8
fbee00dd
0101001b
02fef408
e5e3f9f6
2706f4f1
111315fe
12031f2f
f5f8fafa
f90b0cf6
0107080b
02eff1fe
10f8fbf9
0d1c0d17
12151401
fd0c141e
ecf9d1df
030800f4
f604050a
030a07ea
160cf409
fc1616f9
f0effe12
08180806
03fef90a
12110513
fd0d0dfc
f621fdf6
0cf9295a
f2080919
1e244b2c
f0093d55
05ee0ae3
0f16003f
f6fa241e
2218ec0e
1cfa5035
91d5f825
d2e7eeb2
f2dee3fb
d6f2c19f
fbc2e1cb
03fdd1f4
2025df08
0f280fe0
ff091704
fcf0ef06
0911f71e
e400130d
0e0af5e6
ead8e303
ec09b807
b2feccd0
090c0ac8
db2b1a09
aff215dd
031122fa
00fdf411
0105f0ea
f4e6c5f6
0fe7cabb
a4ebcec9
e8e5e5c0
e836caea
d700f7c9
fbfcf8e7
2cfde90c
1e1b0932
1d220b3b
fd01f421
e30ffdc3
10ef1405
0efed014
e901d6e3
f0f9fff0
02dae7fe
0c0deefb
04e7f2f9
320ab9da
b2f6fc0b
d0b4dfcc
0c0a0611
c2fde0eb
0c2e00f8
000d4702
ad092536
e3e803f2
e3111d09
31e30432
11351a26
eaf5f6f2
c213dec1
14f9fbff
2603411e
1ffe2d47
f5e4010e
09150e0b
d1feea12
0bf905f0
02e0e7fc
0b0b1901
e7e6ffff
f6fdefff
120a120b
0fe3e903
faf3ef09
1aea0d08
09ff0000
eefee4d8
161b060f
f8f1ea0c
1b060d0c
e9e30404
0a00e7f3
fd0a11fa
1b021c06
f503f31a
20f40c0f
f616f81b
f3f4f5e2
fd10f6e6
07091c1f
08000315
01f2f10b
150d0c06
ebf50302
e1fbf5fc
02f3f6f6
e7f50001
fde5f707
05051002
0cf6f510
f6fff7eb
fbf6e8f1
f8eff7f1
0be9defe
f40402fb
17090600
f01a00ff
e4e912fc
1ee8ce12
0505ece5
f922f606
edeb1dfd
f3d4d8eb
e8e5dace
00ee00ec
000af910
f7f9fdf0
f3e6fcf5
fb121d07
3503080c
201e0425
1dfb0312
1628ef2e
030be4f6
04ed07eb
16f9eff4
2012f42b
f605f1ff
f5ea1112
f000d600
f4dcece5
fbebf8f0
f4f5f3f4
03f3f6ed
1d0afe0a
25270e26
e7fa08fb
07fb09fa
f2e913f6
cffaeced
c6cce1ca
050905e2
e71701ed
06031009
03f9fc0d
1df3eefd
fd0b030a
fbfc06fd
f10a000f
e7faf9de
0104fc09
0f09201d
dbecfe0a
f30b01e6
f8e300e7
fef1fd07
0c01f4fc
00fa0103
00f804f0
f6fbf209
fdfb2416
ff00fc12
06060204
01fc03ff
03fef1fa
01f80300
d80e1eff
c7e006d1
12050305
fcf8f203
0df8e6db
0407f802
00eef7f9
110df001
f5040100
f7fe1afc
06010711
0c101112
0405fc11
13fe000b
0b02f910
fefff6fd
f0fa04f7
fefcfafc
fc04fb01
f4fe0902
fcfaf600
f3fbe9f5
e0f0f8f2
f5361bdb
1c02400a
ebfe1203
06f40a03
0bfc0d1c
06fb06f9
fd03fe0f
fcfbf6f5
fb000400
fef1f007
fb0bfbf7
fbf40cf0
0400fb0f
faf80107
01fa07f4
09fc0609
eafbe4dc
f80905ef
e6e2f7ee
00f8ebf6
fafe07f4
02fffa06
08f0f30f
ff1af1f1
faec19f8
12f0f706
30fbfef2
15200a30
0f0a0901
31190910
08050302
07fbeffe
0007100d
1229f70c
fc063e0e
fcff05f7
e9fcfcf3
08eaddfb
000b081c
f9e8e9f9
02ddfb11
eef3f0fb
11340ef7
f7fc0cfe
c0de02ef
01ea00e8
161f031d
f8000417
fbf5f8f7
feeb1c13
f800fb03
1426e7e9
f30e1800
ebfae9d5
0702fbff
f8020f02
e7f3fde4
0ffb07f1
1007f200
000419fd
1b32091b
de00f7e4
0bf7e5e4
0917f612
f9f7f7f4
0403ffeb
1111070b
06f6e1ef
0d12fe05
f2fa04f9
0b000a03
3433f708
dcf227fe
04dee606
1d0d0001
2f25061b
13e5fe05
fbf5f805
d5b4f0f8
f9f6def6
01f323fb
141af8f2
ce04230a
dae0e4cd
deed0dd9
f80df7f0
06f60802
0ffe03fa
01170005
05fc03fb
e7dfe0f9
f8f9040f
e200ebea
1deff5f5
05090300
f8fcfd08
0c0604f3
00100afe
0f000501
050efb05
000c00f9
07fe000a
fb070df9
00fff6f8
13080005
f6fb130f
05051402
05060307
fff6050d
0bf5f701
000af00d
faf006f5
08112000
0b001214
01040012
0bff00ff
0efe0a05
0d1dfcfa
07051a03
0f000505
0602f409
fdf80200
0200f2ff
eaf0f804
fbf3f8f5
fffffb00
040d04fb
dff9fe00
f9e4f9ff
fd00fefc
06fafd00
09fc0211
f80907fe
08fd00f8
1e0e0101
0f0e0d18
fe0a0a14
02fa0aee
0803f205
f702f600
01f8fd02
fdfef001
f305ff00
eef300f7
ecec00f6
fdf6fef8
0afeecf0
f80001f7
fdfd07fc
00fd0605
f4f5f604
fc0704fa
0f01040d
0c190004
1303fef5
1f14110c
081cfe09
fa0d1108
1bfe181b
050af40b
12fd00fc
0d0706fb
0d0f0908
020d0aff
0b06120f
06100514
09edf91a
dbfbe5dd
0008e101
eaff0bf0
00eff818
f9f8e600
0b0309f8
0d1cffee
f10021ff
f4fcdc15
fa0405d8
110df818
f7f3f6f6
051df8eb
0aff0b14
e211fcf9
bcda2ebf
3cd0ea2c
db0ffce6
1dfe0206
02fb0b07
0404f605
f8f615f8
150bf918
fefa07fa
fc0001ff
f30004fa
2513e534
c40f01cb
f2fa2713
20e3ea20
f7f8f2ec
0e0aecf0
ee0d13fc
ecf2fde5
e8eafcfd
fcf60bf4
0dedebfc
ecf9f907
f504faee
03f91405
faf9f8f2
d308fef8
06e103fe
fe2ff0ef
f1f209ec
15f8fcff
fce6ee04
f801efec
061e0bfb
f7ea0405
15fde602
0506fafb
fbfa03fb
f007f4fe
110afceb
1205e5fe
f6060fe6
03e41620
0f05e702
11060dfe
1801eb1a
001afef2
f7f9f3fb
000702fe
00040703
fcf6edfe
ef260102
fded15d4
edeb0522
f9ee10f1
0502f606
03f3fc0a
f4fff805
120c09f3
eb10efe1
070209e4
04e5f20d
f5090002
fbf30000
03f2f309
00090406
000cfc0a
e6b1b802
1de50164
08f8eb2f
06fbe703
fcfbe9c9
f6f003ff
03f0eb02
f3000005
fbf602f7
c7bcc200
2ad3407f
fbfacb21
fbf5f2fa
02fcfa00
f1040100
09f30e05
050d02fc
ffd1f8ef
dfc0d6fa
e6d52321
fe01e04d
020309fa
fb0e06fc
07fb0a06
fd07ed09
11fbf70e
0100020e
0af0f0ff
0507fb00
02030008
0703fa03
0306fff4
000dff01
fc090d00
e70b140d
f9fd04fe
fe050006
0203f407
fdf60300
f8001be6
06f3da11
eee3140f
15efde12
f50a0403
f50107fe
fd000904
0002f1f9
0b050bf3
0003fef3
070a0a03
effaf705
f9eefcff
dc040802
07f905ff
11010902
f902fdf2
00f30d04
f5000406
0bfe0607
fc0b0206
fff715fc
030202fc
00040504
fff200ff
0af9ebf9
dfe808fc
f3e3e9f2
f7ece0e4
f6f4f1f3
fd07f7f6
07081601
f3000b0d
f7f40407
fb05e406
f6fdfd20
0001fbff
000f03fd
fd01f8f9
fcfe06f4
fce4e8f4
e9ece9e5
f2fa00ef
ff0306f7
fbef0a0b
fb01f9ee
ec000af8
f4fd05fd
03ff07fa
06001008
f6f50a00
0c0000f9
040a03ff
fcfd0514
fd000500
09040810
0f0b050f
1f160b0d
f207fbfb
f8f904f4
090002fc
06010009
f0f4fc06
eeebfffc
e7ecf802
f8f8f4e9
fbf0f7f6
09010cfd
fe030503
faedef03
f1f5ece8
f7f900f3
ef07fff5
0610f90a
0302010e
fd03ff01
fa020600
fdfa0500
f8fc0706
0b0b0707
f7f70603
f6edf5f7
e7f8fdfd
f6fa03fb
02f40503
04070b0c
fb00fefd
f3fcfc05
fef4fcfc
0001fffb
f3f4faf2
10f2f802
14050605
0d090309
ee1000ee
f90b0c0a
05fb07fc
ea1e1a0f
110aebe3
05ebea19
0bf0defa
0bfffa11
0110fff8
15e8e5fb
1327e2ec
08ea0003
08f3e607
dfe202fd
f4da05ef
da091724
3915ebe5
1a05fb16
f80b0d17
f2e5f6fc
06f6f603
09f4fc00
eefcf7f8
01090e05
f50405f7
fc09e8d6
f30607f7
02fefaee
1a16e1ed
eee1f106
1ce1e905
00fd0b21
ff01e8ef
d8f1e3f4
0c07e2de
faf3f50b
0a100610
f7f40f0d
d8dc02e4
fd0c1008
f7031e17
f7ffed0a
08fff605
0d19fdf2
f6f2f616
09e5fb05
1a100913
111a071d
fb120afc
e900fcf5
e5df0af7
0de60321
0f0b0004
04f1fd12
e70a09fa
0818f3f1
ec00fb04
fe100af9
1f101713
0ef8f523
1300e3f0
0d2209fe
0e230606
e0eaebe7
fef4e1ec
0dfafff2
ed0509f9
00ec07e4
f2def60d
df0d0202
e7f7f2d3
05fffcf0
fe0be7f5
d1f100e5
fd0100f9
16f1fd17
1d14f917
f811fbf2
dffd0809
dff512e4
02ed00f6
ef1d0af4
f20100ec
fa0e0507
f9001204
fce70005
00ea0011
02080221
070e0204
0a131bf9
edfcfb04
fbe90004
0b00f101
f70c0af1
01f2fff2
00f3f81c
00e7f404
f32df1dd
f9082ae5
effd10fb
fdf20903
180ef6fb
f915f7f3
fefbf8df
e8eff1ed
ededed00
d8fd1fdf
f1f422ff
fd1b19f5
fffc1b00
16ecdc09
f7f1caeb
1111cce7
090e0d16
01021404
f0f2fae2
08f40200
fffaf209
2203010b
1807000f
fa06fbe9
f7fe0cf5
12e6f824
dcefea07
f8e8090b
f802e200
e40c01f0
f3fff7ee
f8f30af6
001205f6
fd0611fa
fdfaf70c
f4effaf2
f3f1edf5
f71b13e2
0f03e300
fa0df9ed
e4ff0bee
15ea0310
e9f1f61f
01d8df13
f0ede303
f7f40402
0a07effc
e2f5f1f6
fded07dd
f1120e0b
eff4f703
fcf9ebff
f5f7f3f7
0502eee6
f2efeff3
f7eaf5f3
c80ee2c7
16ea28f5
02f30b2a
130503ff
ff05fc0b
16fef208
080f0ff1
fdf705fb
070cf600
0607f6fe
00fbf8fd
f0fe23fb
05eaf206
0f19f0ee
00001004
dafb0d11
f6ddfdda
08100708
e10cf1d6
00e019ed
ebe2fc27
e8e8dee8
03fcf0e1
fcf6f4f9
0bf5fe00
1916f117
e20713ec
09040b01
fe0402fc
f70906f8
f6f6ff0f
fcef16fc
08070609
faf70208
0f0003ff
04020603
0a05faff
020703fa
f6f5f302
fbf6eef4
f8faf2f5
e2e218da
fff8cbf3
eafffe00
f3edecfa
0011ff00
0d0c1304
f704001b
f30702f7
08fefff8
faf70900
f100070d
f2f1eef9
edfcf8f2
dfebf4fe
05ef00e8
fef2e702
e20bf0da
00041708
fc0608f3
0005110b
fbf3eee7
fb1000fb
f2d5beca
0a13ddda
fef1faf2
19fd100d
0efd0319
f01518fe
ed11fbfe
ece6d0d4
15fefb0c
14fb04f5
0dfc0132
06f1fbd1
fb0917f7
2eddeeff
de11fefb
f5e1b501
e8e8e5d8
07f1e31a
060dff0b
f3001b10
f02312ff
f2eaccf1
e40029db
13ea010c
d7f6eff1
c403d8d8
f5f7fbe2
1bf2dcd2
1efafa2e
203e16d3
05f510fe
0201e8d8
dbedf704
ccfce5f4
f5cbdb01
dad6dcba
dfecb0d4
1501f9e0
0bce0c19
1309f706
f109eb1a
e4112c08
fef30514
e6f909de
00e2d710
1600f40b
f10ceaf2
f8e1f5db
e8faf3d4
3b101ffc
02302309
e9f3ee0d
110fb2c1
415e4c22
040d131c
370d1e2a
f2e901f8
fe0dfdfd
9ace022e
05c3e3d7
ca0e0215
000421d1
0a261a07
1ff9d2f9
282203ec
edf50509
0e0f0e04
f0f1ef00
fbf7daec
12f701eb
15fcfafd
1219ec15
fd20f809
e5ef14eb
131a0df4
03010704
e5e5f70b
eefaecd9
0f0600e8
04f6effe
fd030502
03f2fd1c
eaeef6ef
f7f7fef6
d6fcd2e7
f305ecce
0ee5f21e
05fdd5e2
e4e5e3e7
fae2ebd9
f20004f9
eaf4f8f4
e6f0ece5
f7f917ed
fd06fe07
00f7fae5
fa27261b
cedfe0dc
e9e4fad0
00e3fd04
110af6fb
142629fd
f1010101
edeaede5
fdeceae9
fe10f7e7
e9eef9eb
f5e2fdf1
f51af10e
ddf00e00
f2e8fee5
c6d0c6de
0802ddd3
1003000a
fdfe00f6
09000b19
11f9f200
ecf5e8f9
d4edf3e6
070d18e8
faf6f6fa
fd0becef
eae0eff1
19ece8ef
f7f40008
fffefe06
f801040d
f6f8fdee
f9022a05
eff2f50d
ededf7e1
eae2e3f4
0bf81a04
08130708
12030c0d
fceef503
f3f808ef
eff8df0b
00ff0104
1601fe13
deea0f00
fcfc020b
e601f8fc
f8e3f0fa
0501040a
0000f9f0
f8f608fb
f5f0eb0a
f3fafdf9
05f4f4f9
101108f3
ff000606
060ce9f6
f00e110c
f1eaffe3
e7f202f4
f4e8fefd
00f60bfe
1ff8f505
f7220406
f617091b
f7d702dd
01f011f9
fd14ed12
0108100a
0af2ff08
0001000a
e6e703fb
fdf0e1f6
f50a00ff
f30006ec
ec08f1e9
15f8fff7
090b1913
f8010304
f603f7ee
fae3fcf2
e9fcfffb
f1f7e4da
f4eff2f9
fff3f1fa
fc09f0e9
17241409
070d0c12
ef0011ec
130b0004
f90d1f02
cbf0e0df
f0ecf9dd
ff110602
150300fb
f2e3f4fc
f8f2ecf7
0cf804ff
030d150b
0afc0311
0400ff05
e3f20ad9
06fb0e00
171a0024
0a171019
06e9f20d
08fddddc
dbf809fe
f3dee102
d5d903f5
02eedd01
06f0f0fa
f204efeb
f90c12fc
f0eed2ef
fd08f8f6
eef7f80d
f3f6efec
0ff8020a
fef6fb01
f30c0604
e1f00303
0d06fbf7
030425fd
fcf8f5fe
f602fdf4
02fb0004
da010a1a
fbf2fd00
00f91208
0a08f6fd
011a0904
fb01041c
4cf6fafe
0437e600
0ee2d7cb
f503f314
f6f5fee5
fafbf6fc
02fe020d
0234000a
e9002800
f5f4eded
fbfffffe
0200fcff
e80ae1df
0a000505
edffdcdf
0706fadf
ecfc0305
fcfbfbf4
1500fd05
ff00f800
02fff4fc
0900feeb
fdfef907
f706f6f7
fcf901e6
07f00b06
04f40df8
0500ffff
09fdfa06
03050204
000e05f9
05010000
0207fbfa
fa0207fd
00f708f8
fcf9f400
4607ff00
1955e112
10eae9e7
f4030100
fefcfcf9
fef6fb00
fc0705ec
f8fef604
f3fb00f9
ec02fff6
f2effd02
f8f7f404
fbf4030a
fdfcff00
eb01f1f9
f8f7f7f1
fe0b0dfb
fafb0fff
01020c0b
fbf8000d
1007fefe
f216e400
06ff04ef
ff1a0704
0cf300f4
f3041d02
f5000014
14f80709
ec02fafa
fa030bf8
1613050c
150f1506
11fb0800
f6fff811
f2e4f4f1
01eef3f3
f8ff07fc
020902e4
1aecf401
0bf72b17
2914260c
fe06f7f1
e800f3f9
07010ef4
1bf1f709
d9ec03fd
f2e5f5f7
08ebd7ea
f900ecfa
fb000ee7
0d07fc0e
f903f803
17fe0eed
fd10eb06
19fdfeed
04ffef2e
ff0f0f03
eaffd6d9
f5ef24df
fe0af30f
e9f1ede9
060310f5
21f0f1fd
070a0f02
e7eff51e
08ebf814
f9f61719
01f1f404
0fcde10b
dc07c7c8
021005be
09010705
f8020514
edf1fb05
1d02ef05
0807ff16
051e08e9
eae6ecf1
e0e4e3ef
040e00e4
f510e1f6
0211f0c3
ec03f6e2
03ee0ef1
e8fdedfd
e0d803d7
0d00f621
f3040a06
f2de25f3
180beb1e
0b1208f5
0c2a0eed
1d0415ee
97d6c1b1
aa97e7a7
f8f8f2fa
00f009f8
fbf70a02
f303f7f9
0c11eaf2
040ffd0a
fa091009
e9fcfee6
e6d4e8f5
f40506f4
f9de1200
0d180f02
0f0b0506
fb04f1ff
04fafa04
f90f00f7
0af811fc
0702fb0d
10fb1221
081ffd18
f9f5fef5
1200fb11
05f3f8fb
f8f8fa04
fefcf6f8
f002fdf6
04eefdfc
fa0806fc
02fff609
fce9f9fa
07f9f9f7
ecee0301
0bf8fdf7
e101f1ea
a7dcc7a5
bc9ee3c4
0b0709fd
00000911
03e3e105
c30be5dc
eae3f6d5
19f2e6fc
06fbdfe1
01f6fe04
0a000000
0a000303
091cf906
01fd01fe
03070003
011cfefe
00fc0dfc
f701f204
fffaf3f3
f4f4f2fe
fbf1f2fb
0402f4fc
ff0c04f8
ff000300
f5f40b11
f5fdfeef
1d120401
130b1620
f701100e
01070df9
fdfd0006
0004f2f5
fb00f7f6
e209fd01
f7e6efec
13f3e7e0
09181400
00ff0f0c
f7040cfe
f4fafef8
04f9faf3
ff090600
f90012ff
fcf3fffd
f5ff03f9
0000fbf4
f1ebf3ff
f40e1e07
00f50200
fdfd05f7
fef8fefc
1a10fe03
0e09fc11
05100d05
02fef700
fa02f9fb
fb030c01
fe010000
fd040efd
02ff080e
00f5090d
0709fffe
f50208fa
00f70d07
0305fc04
fa02090b
fbfef804
0f1208f4
fc090905
fd01130d
0c0b0e0b
010f080d
06f80206
0300f70b
00fa020c
fd070100
fbf7f300
f8f7ecf3
0d0ff1ef
000a0202
08fd0701
09040c19
03000a02
fe07fc08
f8fff8fd
000300ff
fcfdfcfe
0ef6f9ff
06ffef17
0afaf7f7
070b0909
f4f905ff
fe00fcfd
f50102f3
fe0300f9
f9fffcf6
040bf9fd
01000103
f5f9fb03
fdfd13ff
0d010505
fd0c09ff
03fa0004
01080408
f0fd03f7
f8f100fc
fdfaf8f6
01f9f700
fffd0900
03f90000
030e0f00
f9040c02
e6fcfff9
f3e2ebea
e8f1faf6
0dedfafc
0604f7f8
09f9eae9
021200fb
04080610
e8eefef6
10f806ec
fb0119fd
02f11608
05e6f00e
f4fb0000
f1f0eedc
f1ef0607
fef9f6fd
090002fb
fff9fc14
1202f9fd
dddb0d18
e1e6e4d5
10e1eef0
1106fffc
fc0b06fb
fa0a0afd
fb010900
06090300
05fde4fc
1804f7f2
0c010a18
23f1f6fb
f901ff1d
f0020afc
e7f0d7d7
e7e0faea
f8ffedef
eff0f5eb
e1d8efec
efebf315
dae4ee00
e3e0ffbf
18e6ec04
0404f3f8
e2fcf3f1
f40000ef
f7f9fe05
150ff6fd
fbf50020
f4ff07ff
fd04e9ef
001007ea
05e7fe18
05f3fa0d
f4eefffe
f415f9ef
dee11103
e5e4dcda
fbf3e6e0
e3eff2d9
fde9edf4
080c1314
00fe0105
eff6fffd
0a04f907
f70c04f0
e901f7e1
17fef6ee
03e7fbf7
0deef00a
10fe00fc
f807f9fd
0500f7ec
f8fc00f4
05f7f0ef
f8150e00
f7f3f9fb
0404f0f1
01ff09fa
1cf611f5
0d0e0437
021efdf1
eff3ef06
04f3fefc
f4290bef
f0f3110a
efe4ebea
01fef500
f7fef800
01fb0afd
fffd080c
f5fdc9fa
f5000af5
050002f7
e1f9f70c
29fcf00a
ef140008
12f2f2fb
171df10e
e9e0feec
0ee6e20b
edf0e8ef
ece4f4ea
fcf6fff5
f9fee8e8
fb00ffec
eaf9edf3
e9f1fee2
f4dffd01
faecddf5
fc07e8da
00f809ff
f2fdfd01
f0fafaf1
03ebf9fc
03f8f9ff
e5f7f3ec
f8f20301
fb0ff808
fd040bf1
1713faef
f4120bfe
e3f8e6ea
eaf7fee0
fd021301
09050007
090d0d00
ff00fb00
d806f7ee
fbdf02ef
fff9dcf5
ee0c1009
0005ff00
fbf0f8f4
f8f4f201
f5fdf6e4
f4fa0507
0b00ece6
f9f810fa
0502ecf1
e6fdf401
0dfc0000
08ebde08
0bf203fd
f6fbfe09
050d0cf2
1812070d
0b04fcee
e100f80c
f202fef3
0bfd00f1
00071400
fb04f2f2
1bfee8ef
e7f0dde7
1d02edde
0b05ff17
fc03f8f6
1010ebe6
fb0a06e6
0000f2f6
f0fe0409
0cf4f2f1
f2faf5ed
f8e5fbea
f2d2dd1a
e3f5d7f6
d4f516ec
fef505e3
02190c02
ec0203ef
2c180000
01f8effb
0608dcf4
fc1bf8e0
e00a06f6
e0fa3200
02fb13fa
06131113
fef31504
feebeb10
0de4ea06
0405f5fe
03110f08
070afefd
fbf7f900
e8eff600
fe130703
09e9fe14
2116fffc
050e0501
2bfdfdfa
0c0be122
0af7e1e6
0205f6fd
000cf8fa
f30d0903
dff00308
0d2b0ffb
04171805
f5110af7
f4f0f9fc
e602fc00
e5fc14f4
ebffe9e5
f207eedc
ed0af4d9
f8c5fcf1
20f61703
03fb072d
12faf400
03fcf5fb
fcf21c22
05f4f70f
f604e0da
07f41216
0309fcc9
0bf71709
de0ee70b
14ffe70a
05192bf4
0bf81306
0c101019
040b101a
0109000e
ecd3d506
e8e2b7c7
e6eb06ef
f4e0eee8
ed0fe9f3
00eefcfc
0403ef12
0008fb02
0cfc1af8
eefcff15
f8fce905
ebf215eb
fde6e9f2
fd17eb00
ec09dcde
100015f8
01ecf500
fbfc0901
d3f61c0b
0febed16
03f80bf3
120e0212
29e904f7
e920edf0
06e61f10
d3e9dcd3
0af4f0ef
06f60af0
090ce7e3
f1f60eee
d7edfadd
04def114
d4f5eeed
09edf1f2
edde0b0c
eb06ead8
fbf90a0f
fdff0800
e826fe15
f0c106df
f50fdbf8
1afa00fc
fb1511f1
060a0307
1a0af9fb
30090f00
0b0812fc
e2e6112c
001007f4
2b082722
ece9e81e
06fbebf1
fde8f707
f302dcec
ef3afcf9
0ee41f27
0aeef307
ec0bf201
fbea07f7
d5f8fcf7
1bebe10f
0105edfd
f720ecde
ff0b0aed
e80b1afc
070b07fd
e3060910
11eb0801
02fd0f18
faef0001
010e000a
f211f2ec
d5d0e9f8
f0e2c9e7
eff1dace
f1e5e2f9
dbe1d4dc
f4e30108
0004f2fb
0f050c0d
01ff080a
ebf1fb04
00000400
01050813
09000606
ff09fcf7
fd0df901
f00017f9
e8feeeee
e701f6e3
eedb06f5
13d9d307
11fbd9e1
edfcfd0f
f3f308f0
14ed1b31
0108dc11
00fafb0a
000ce9e7
ff05ec01
0cf9f8f4
0e00ff03
0006011e
05040b0b
fe03faf2
08fdfd03
1203020e
000a0709
fbfe00fa
0007edfc
f4000cfd
f5eafef0
09e5e0fd
e5f6f700
eaed10e3
080d2116
f802ff03
040307fe
f000f207
fe1303fe
f5f118fe
09f3f715
f912eefc
ea0600fa
ff030605
f0fce7f7
f3fbfae8
01eeede2
0401fafc
fff8020b
011206ff
fd0dfd06
fbfbfc0b
ff08ecf9
000c09fc
ef090305
02f903fa
edec0312
11e9da14
2a1501e6
e530c5fc
0ad109d9
1bd9f82d
eb00ddf6
101de2e5
f60c0ef1
09060725
e00e0fde
1ced070e
e021d1ec
f2ed12d9
d6060ab3
0ed81af8
fbfb112d
15f10d13
f4e9e4f3
15dfe11c
1815e8fc
0411f824
e80613e8
03060318
ff00f3fc
dc0107f9
15e80e09
ed19dc0c
ea061b05
1200eb06
fc1bbf0f
edfc12c9
091006f5
26061412
e1032a14
0bc1f035
07f1f3e5
fcf5eb12
05fc07d9
e0f4f811
010500f4
f04404df
00f11401
f8fe1718
17f2e50c
220df2fc
fc18f7e1
1f071af9
f11b14f7
20e52216
0cd4dfe6
110c020c
f5f1ce22
fef6f6f7
e9f800ff
0aee030a
ef130714
e2de280e
09f5c204
02df0a15
fc0df10e
060908ff
00f10103
f51f05f5
af0e1cc0
d6d2fc27
f6ed1d00
1b06f503
0704f400
0204fbe4
f3e9f109
f5e9e3f0
f614f6ef
e5f7ffe7
01f3f702
e8eff0f0
eff4e9e8
04fedbf4
0609f8e7
100f1005
00152600
fc0807fd
04f1fe06
ee040501
f8fbf1eb
050907f3
000be6fc
e6f9f6e6
000c03f7
f9000801
080a0005
180d120f
ff130d0f
1101ff0d
030af106
f9fe1204
05f6fefc
f6f405f5
fbfc00fb
fbf4fcf7
09f4fe0a
f8f4f503
0fe91922
0514ee05
f703f603
f5f900ee
f0f4eff9
04f0ecfa
eff3f6f5
efe5f3ff
fbedf9ff
f2ef07f1
0beff603
04ecf708
0012fb00
00f3fff2
02f1ebfb
060205f2
fd010df4
fcf902f7
f7fffcfe
f8f4fdfe
f4e4e2f4
eaf3f5e6
edede9ef
e5eff2ec
f9fdf9f9
fa00f6ff
00f8f8fc
f40aeef6
f9fd02f6
0afcfb0d
07020100
05fffc00
0400e3f8
f8e90200
ecf8eae5
020201f5
f707fc02
f300f707
03ff06fb
09ec111b
f90cff1a
fa0316f9
0f02fd09
1500f926
f7fefeff
f1f9e9f2
fcebfc02
03f90ffe
fde40311
f6fc02f5
fefef8ea
fbf1e3e5
051af8eb
ec2316eb
07e507f8
1bf0e025
f3fbf2ff
dffde8df
12ff02ea
f50703fb
00fbf7fa
fff4fa0f
05f5f600
0d04fb05
1309f507
0d0c0f11
ff0015fe
fe00fc01
fa0005f8
fd02e8fd
1012fefb
0212ef0d
fd24eef0
e9f00dd8
0dfcfd00
fa0df1f7
e9fc08ef
0ae80c16
e106040d
ecedfced
fc01ebfa
e3eff006
fcf602f8
10030f0b
0b0b0614
ee00f025
fdf2f6f4
eff0fb03
07e7fefa
faf8e2f7
0006fa01
03050e00
04edfef6
0001e8f3
0a0d14f4
0b0ef4fb
f70c0bf7
f5fd23f3
01020d1d
19010617
1a0a0007
04e6010b
f104effc
f41b0ce9
e80e37fe
e2faf8fa
f6f105ea
0af9e300
ed0001f3
f0f400ee
05ecf516
fb05e2fe
eeee09ff
050cfaf8
f7ff0f05
0f0902ff
e7fcfc02
e7e70810
fcf70d15
e22317eb
e7fa0aef
f2e902e9
0618f908
30d3fbf5
6244ad04
e43beaa5
fdd40d10
0ce1ec11
0eddf808
020400ef
0615e000
de2911d6
f50916f6
f3ef0dfe
d5fbfaf5
e0e32b06
f4ef0c0b
0313f0f0
00fafce9
03f10000
d615ece1
fbfc02dd
03ff01fb
e9070902
faea0be2
1ef7f410
0f10f80d
061700f2
f5e3f5f0
0cfd02fc
f5030110
f4e90905
09000a0e
fe05ff07
f7020dfc
fbf900ef
000507f1
050002fb
f1f601fd
fccf0f13
4a1bc0f3
100ae0d8
0505f109
edff14e5
05fc221d
fae10f17
f1091b04
01f0030f
020c0006
ed0706f5
02000004
ef0af1f6
ef191df1
1706fe11
0224e0ed
040612df
00f90603
f70cfdff
f9f00ffa
00fcfe0a
0b08eff9
f2ff04ec
00fbebf9
00f3f0da
fd3216f3
fae5f315
0405f5ee
fdf009f6
fbf9fe04
07fe1609
070aee0d
0bfaf019
f20dfed8
0f0f0407
02122806
f30f1512
eba7f2fa
fd0dd500
0cf00efd
001bf404
f6f9eef3
e7f6f0e3
17dc1cfb
07f79adb
fee91fe8
01fffefb
fa080802
ea01cdd4
ef0f12e1
10e90bea
eee2e723
12f92ed7
f9caa703
0dffe7c4
00fefa15
f9001100
13000e0d
0405fc05
05100f0e
01060400
040aea02
00071500
fdf40c0a
fff4ee00
f8f8f6fb
edf60003
04e9f4fc
0cfe0e03
050cfef9
0205fe01
fc07fd04
252302fa
04f62709
eb0df01e
e4dffdf8
faefe3fd
0b000304
000cfb05
080903fc
030d08f2
0400fa15
f3edff02
0bfb05f9
ff14f605
fafa18fa
03fb1409
10f40f3a
f3faf900
f700eff1
f9f807f8
e3e9ebea
0cecf6eb
0ffcf1f7
f90cf700
f6e3f913
fbfad7d8
fbfffa00
00fbf001
f0fd02fb
02f004fc
01050704
0c000a14
090ef310
f4e1daeb
f9ffeaeb
00ed06ff
fa0700ff
dce6feee
fcdaf2f6
020ffffd
03000707
f80510fc
fdfb0d16
0b0208fc
f6f0f30d
0df9ecfe
f0f40b0f
e9e2fafc
f700ff07
0bffeae9
0e10060c
eefe0cfc
fbeef1ff
00f3f0f7
04fd0401
e3ef0d0e
01f0f1ee
f2000bff
13ff1416
fd05000e
00f3f219
f6fdecde
141c020c
fbfd05fb
01fafb08
fd080906
150004fc
f5000103
0701fffe
07f7fa00
0300f702
0f1806ff
03030bfd
2416020d
f3fd100d
1006020b
d0f1f102
feebe6d7
0e061217
12060f07
f505ff0a
01f6faf8
eb0f000a
e9ecfee6
eb0f0a01
e7f8f5eb
01fa01f1
fbedeff5
e7f6f7f0
f2e4f4f2
04f5f6e8
0bff090d
fb000107
0302fa03
f30101f8
f3eefbfc
fe261a08
e9e61101
f8000ae4
f51100f5
effd1413
05fbf608
f102ff06
e1d6e5da
efffe3d2
f400fe0b
e9e6ffe6
dcb3e7f6
d4f0d0da
2128e7da
03ee073e
04dee5da
0602f306
fbf4fbf0
f7efea14
e5e304dd
e7000016
f900ef04
f8f907f6
fbebf8fb
0d13fc10
fa05fcf1
091300f6
1b1d1611
e5060b02
f5e30000
13fff900
00ee0902
e7ebe90a
03edfa05
f00603ff
182018f3
1ffef3f9
181f0c08
fcfcf609
0cece9f4
f7eafb01
d6d9e507
00e7e7ef
e8fb04f6
02f7e017
fa00d8e0
e5f6f5e2
00fafcf3
07ff00f6
0b0f070b
15f1f715
0715f9db
ee0001e9
08fc02f8
f100e50c
edeb09e8
e3091f05
f9e904fe
0c020200
06150cff
000b1515
0cfe0f29
e5f4f7f2
fcfafd0b
f007f3fe
04130f0d
10050d19
1613f90a
f4ede80e
0d07f6f3
c6eef2e6
08dddcef
fdfef300
f10018f9
dee61400
0ff9000f
0b2fe500
fdfd00f9
cff3f424
f7f810ef
2301f60e
f5f900e3
04f60cfd
210d0dff
01f8fd01
24001714
0a0cecf7
d0f50cf5
16e70f00
03f9df27
06fbfe20
f60cfdfb
06fef3f5
fae6fb03
fbf8110f
eef4020e
e706f00e
05f00618
f108eff7
fa011ae9
2700d800
fff4e904
f6e2edf0
0ef10903
00fcf4ff
ec000304
f618f0d6
01eff307
f2ffdcf2
f1f100e3
f4ecc6fa
efefd7d2
ec0409d7
18020efb
0e080c0f
00ff04f5
0bfb0808
06000d19
27190c0b
18050bfb
10111608
00ef1904
0903f115
fd0802ff
edffeadf
fdecfe02
04faef06
0313f8fa
fffdfafb
e8f2f1ea
e40de0f4
e9e814d8
03e6e81d
0f04dff8
ed0805fd
fc06e9f0
fffdfa00
e6f8fe07
edf504f7
ec07db02
fdbcfe35
e814f11d
e4f9ece2
e6e6f1f9
000f0106
f1df0c15
0304f2e6
e800f9ee
0cffe5f5
12110100
07f904fd
0e02020e
0001f806
03f6f505
fe0e01f0
0300f00a
f50e0bf6
07f50c03
0412fcfa
f9fb10ea
1a0efe01
f60afbfe
e7eff4ec
f2e7eaf3
ff1502f5
eb02300d
ede0eb0c
f3eaebf3
ecf5f8f9
f903e0ea
050a12f5
00f3f0f4
0612fff7
041e1801
f3f51e0b
1914f60e
0a201505
f7fd0e00
ed09d6e8
ff0305ea
ebf9fff2
f4ee0401
f3f5f400
02fef700
f3ff0b04
f7f9f3f2
f3f3e9ec
f2f8f3ea
0c1b07ea
f604f600
0d0600fb
f201ff02
0afafdfd
09f6ff00
00100aed
f1f20700
fce9fffb
f1edeefc
fbeff8f5
f1f1f9ef
051607fe
100f15f5
eeed171c
fdf6ff00
02ecebf6
0009fe07
0e0e17ec
0100f0fe
f40109f5
f8140500
02ec1d16
fafee50a
08030100
09f5eff0
ee02f7f6
f2f6fee8
e6f9d4e0
f4e9f1cd
eb080002
f81319fe
00001d16
f50307f9
00f60305
00010103
0408f906
09ebf705
0d11fefc
edd5ea04
eadfcedc
f3d9e7da
1419fef8
f61a2911
ed0df0ff
f50505ea
f4eaddf7
f2ecebe0
f00bfcfb
fa021d00
f5f5ff18
f302f7f5
00ec0400
020cf2f8
08181201
e4f6d6f1
e5f4f0c0
d7d5000f
03e5d9f8
08f1fff6
0d08080d
16fa040a
23050b25
fb0cf8ff
ff0d05ff
07fe0e00
0201fe0e
fd02fb05
ddeffc02
f0deebf2
00efe9fc
040df6f8
05fa0400
1314100a
0b1b0e13
fc0a08f6
fc05090b
fbfa0008
102506f5
f30214f0
f1ef02f2
f4eaebfe
fa02f903
f4f906f4
0b170607
010a170f
0006121b
05ff0803
07050001
fcfcfff7
f9f7f902
f0f0f501
e6f1f6f5
f7e5f3f6
0510f2f4
ed000000
f9e9fef1
13fafffc
0502ff01
f50002f6
0507fdf2
1f00faf9
07fdf100
f3f1eff0
04f9dded
051e1706
e1152df2
f9cfeff9
fd04f1fd
e006d4d9
051306dc
0b071622
15f4fbfc
ff06010f
f0ddea2c
d403f404
f0e4eef2
e3fa070c
12e4e822
2921d102
14f2f7d3
ff0af4fa
09f300e0
e4f4d6ee
f9f3fcde
c80cd8cd
fde41ee6
d41a18f0
e3c909f5
28cd0712
2aeea9fb
26ecffc4
101fe816
ebfc25e3
0607f9fb
09f21903
04ede4e2
101fd9eb
021402fe
f30513ea
12f60f11
0112fbfc
f900fdfc
fb16edfc
e2f710ee
09d3f5ff
0204e9ef
01f3f511
0201f6fd
e5080102
efd90606
f201001d
30f01036
0c20dc0f
dde500f6
0210ebf2
1919e806
00eff3f1
09d9f202
0119dde8
f50914d8
0301f7e9
0d360ae7
ff0eece6
fafc17f9
04d7f50d
fbead4eb
2c0fe2e7
1d19d000
e803fcd4
fcdcfafa
0e1ff60b
00fe0502
00fc0005
fcfe0200
00fef3f7
0506fc00
05060905
f1ff0005
0e0505fe
0b020707
04030608
f7f5f809
050b01f6
06fb0f05
0b1d0900
040d1706
01021013
0afffd00
0103f8fa
05070701
09080206
fb0000fc
02020100
fdfb00fc
0303ff02
0b040a02
1b0f1613
0d070504
0e070f06
0c07040e
fc00fb0a
02fffffd
f4fa0406
000206f5
03030901
fb0001f8
02fe02ff
fbfffffa
04fd0206
fffe0505
fd03fd02
02040006
060403fb
fe0f0b00
0003fd09
fd04fbfe
fbf9f8fe
fef6faf6
fafff700
01fafbf9
0900fdff
07060502
f0081307
fbf6fcf7
fffefeff
f90200f1
fd000609
03fd0704
02fe0000
f9f2fcff
04fa00fc
f40904ff
f900f9f8
fafffff4
000103f9
fffb0607
0103fc01
fffe07ff
f8fafb05
0401fafd
fb0300fe
05fffe05
ff030bfc
08f602f9
1e16eefa
131c0b07
03d8ef16
ff01dbd1
f8090901
fdf7f3f8
fb0902ff
fefcfffc
eeeef1e3
eae60908
e4e6fbd4
f7253cfa
14f80629
e8f40f0c
f7f60424
f5f8e9df
2125f805
f80e0500
fb0aeaef
20d510fd
07bb80d6
1d18fb92
dfb7001a
eeedc403
1bf1f5f2
f400db0f
0fe7f8ca
48d0197f
2d1507f0
03e8ebf6
faf6e3f5
ead0f800
0befe5f9
e812f9de
f7e40af1
0111130b
fd001407
090bfb10
07162e05
04050f00
f8f90001
06fcf508
f2f50107
ffeffe0a
12f3f909
02fbeffd
f3f9fd0a
fdfdeaf6
fbef05ea
0e000af4
f3f2e202
06f30819
f801ed0e
0c0007eb
0610091a
06030205
040afef9
ed030106
e2dc03e5
09e5e4fb
0a00ffee
1b0d00f4
09e9fd05
35fc235b
f805f108
f11a2006
070cf5ff
ff01f70a
eff6f700
efe6fdf5
1508f218
fefbf3ff
1114faef
f70e050c
04efeaff
0d041809
eeff07f5
03fb02ff
f7fafd03
fefafff7
f90809f3
01fc060b
fbf5f6fb
05fafaff
fff50100
f8ea01fd
fc05ff08
fa0901ee
ff0c0a0a
00000008
fdfffbf1
ead90002
05ffd7fd
07030b13
090e06ff
e707000c
2bdc3d3b
e7f2d827
08021fff
f6fb0103
ebf2fefa
14dfdd10
03060100
04fe0df9
fc020d07
09090915
020506f9
09130302
010210f9
f2ecf80f
00f4e9fe
f3f8feeb
f3f200fe
04fcf401
03f71107
0afe0301
08f8010a
0304f3fc
03f80703
0008fc03
efe907fb
fff1ff06
02000d05
01f802f9
f0f5f3f9
f5f5f200
f9f8f9f8
f9050108
04f8ebf5
0004ffff
fdfbf702
09f3f7f2
fe08f504
0c0005f8
0e0d1b00
0e08090e
f7dddf09
f2f0cee5
0e00f4d7
0307fa01
020d0500
02ef18f9
070e0320
02010300
ec1b01de
fe0f01fa
f508f404
02ff00f4
f2d9f508
f6f2ebff
def1eaf5
f7f2fdf2
01121004
f9fb03fc
fdf6fbfb
e7f40eed
edc9fc0a
0db1be08
fc04daee
e0e4fcfd
fbeee8f1
0ef500ff
fdfd04f4
ff03fe00
f8f3eae5
0dfb0902
14dcff17
da09f0f4
dcf7cdc7
fa110fe1
09ec0003
00eede1c
07160fd1
f6ef0902
03ffe9f0
fd06f9f4
f6fdf1f3
2b0de31b
f521ea00
ca22f4eb
beeb19bf
060d0b0a
030ef708
00fa02f5
03f70610
f804f70e
e607fff6
00eef805
0a07fe06
fb1406e5
f4fef006
e906ebec
130afef6
f1fc18fa
10e6f612
bef415fb
00c910fd
ff0406ff
090309f7
0010fe12
fef80808
d9f3040c
f3bbdf03
fc08e200
0cf8ff14
00030002
00f6eefc
0201fcf3
0008f4fa
ec01f0eb
000702ef
ecfa01fd
f5f802f9
01fd0309
1505fd08
fe0500fc
05ff060b
2521071a
e003f0fc
1bfce1db
ffe3e9fd
1bf9e5f9
00fb06f9
0cfcf110
0cdfeedf
2625f202
130e041a
feeff908
f3edf6ef
f6e9faf4
1df3fa01
021309fb
010504fb
d90604f2
cae2e6c1
fafbf5d1
fd02ff0e
12f0fd06
03dfe90e
09fdfc01
0b14f5f8
0c0f0105
08e6eddc
1c1cf70c
e5e7d808
18f1000d
05200607
0e0812f6
1305040a
1411040d
070fff04
ef08f2f3
f8fc00ef
00052c01
ff111110
200e0a09
200c111b
f7080c15
d5c70929
dcc5ddf6
f10304fa
f813fded
0400f6ee
faf9f3ef
f3f2fef9
e9edf2ee
07ff05fd
03081603
00080403
d2fbf2e4
dfe4e5d2
fb1307e8
fdf3ede0
0f11ece8
fbf8fd0f
02f1efff
f2ed0e12
fc0112fe
07f7f5f7
0017fef3
f1e4ee09
f7f3fa00
fd0bfb00
fef6fffb
f2f9fbf3
e8f90904
faee07f9
f50809fb
fd0005e5
0701fa15
02efe7f8
f8fd00fd
ef00fff0
02fa0500
ee0203fd
fefcfbf3
01fc0204
f801fd00
0401fafa
fcf3f0f4
eaebfb06
0802fef0
05080010
03000900
f2eafd06
00fff4f5
0801f900
0400fcf8
f1fbf7f6
120b02f4
090c050f
000d120a
fd04f4fc
00030600
0000ec00
0a06f5fb
f1f0fc00
f9f3e5f6
1f13fefd
12fb0013
0803f703
11050713
effdee08
000b08fc
ff0206fd
0d1b0b08
030f3012
fdfe03f7
0bf9fc08
ff000c00
00030504
09080902
0703080b
0d18080e
06fefe0b
fefe00fc
f5f90000
fcfbfaf8
fdfff6fa
ebf3fdf7
f4f7f1f4
110a161a
1b140f0d
02f5000b
f90003f4
f2feffea
f1eaf502
02f3f8f3
fcf6f8f9
fcf5ed01
06000706
f0fdfafd
f70e03f3
1008ebf4
fe020a0a
f8faf508
01fcecee
f7fbfcff
fff6f4ee
ed1efe01
00f717fb
e3fd2f07
0be2fc27
eafef4f2
e2e9f1e5
00f4faef
fe13effa
06040df6
001f0d02
1702212c
fcf81109
f3ecfaef
f1e6eff7
f80400f3
2af1fd1a
1a07e1ec
e738fdf2
fef9ee0f
23ff2f13
03e9f83b
0ff7dbf3
f8fa0be6
f8ece20d
e9fef6de
0f06e1fe
f3ffeae5
f410f4fb
feff0a13
1debfcfb
0824f80d
06ed01fb
eafc0011
d9f3f519
02f5e6f3
e10c04e4
e803deeb
f3e804ed
08070a02
021401eb
100209ff
1516111d
ff05f402
a6e8d3c1
fdb7cae3
02100500
fe02150d
eff10002
0706e501
f81201f8
1006e0fa
defaf7ea
d9e1f8f5
1d03ff04
031d170f
180324f3
e702070e
e5f8ee03
e6f009ee
f8e0dcfa
eff8efef
d9efe6c2
ead2ede1
fff50003
0600f500
f4ddf712
fdfcf7fb
130a1103
f2f90afb
25e4fdfb
faf80008
00f9f000
0003dc01
240cf1ec
fd0009ef
fcf403f4
fc1a07e6
f7f9000a
effd09f5
cd0500f6
0c0818e6
01f6fbf7
25110301
0e040b04
f9070503
2117fefc
09050419
f2e7ebf5
f0e50c11
16df040b
11171306
f5fb2205
122d1b0d
e50513ef
0213e7d5
fffd0907
000cece8
ebfefaf8
090d01f7
1cfc0b0d
f0e0031d
fa08f9f5
ff0315f3
0604f3df
fb2805f6
da013217
f7e6efed
0ee3f5fa
effee2e4
243cf5dd
f1edf100
21f5fa0c
e7f80030
ede817ed
0607181a
10f40719
e6b2fe09
00121303
e50ef305
f9ecfbdf
0e03f8fc
06f3160b
0703f600
f9f9ede8
efffd9d8
022d24e5
e7f70000
f8e9f2e6
05fc0008
e900f7f0
e6ef00c9
f11904df
232129de
fe031e1e
ddfef709
f300fbf6
f11ffff6
ff0e060b
f10e01f2
01f600e1
f520f6f0
063329e7
f90700f3
f2fcf2ea
20e91524
ef1bdefc
14faebe3
15051104
0beaf113
f6f60207
07fef6f6
f724f70d
e8f108f9
f6f6f6e7
e8f0f1f2
04161500
12e2fb1a
01f6f5f0
f1fffe06
15fb06fd
e116e7f1
fff5f3fe
050511fa
fffdfc14
0106f8f6
f90306f6
f6020b0a
fff2f9ff
e509f904
f6f90bf9
1806ee02
fcfff902
ece805f5
fe0ef209
f1ff0308
db0f1703
08e0eff1
dd0ceeeb
0cf702f5
1306f50d
21f82519
031af000
e7f51d0d
0bf2e615
c9fb02e6
c99ee8b9
07f9d0d0
f80bfe08
ee0316ed
e6f4ee03
14eeeaee
f805eb03
01f7fe0a
ed03f4f6
fdf1f9fc
2b0de300
f332091b
fbd21dee
1b0f39e7
2323142b
0a03e507
171705f8
1b250015
f4f625ea
ed00ed10
06f70210
f6f803eb
fc02ecf2
020f0b07
00f60400
fffc18f5
f5130c0d
edef28ef
f8e7e71b
0afa1403
f902f7fe
f5080c05
eb00eaf8
0000e5fb
04f5ed04
09011a0b
f0f9f701
faf6efed
1402faf6
20051a1d
f40d0a0c
02fe00f3
040bfe01
f1f6f102
1d29fdfa
daedeb14
f4e6e0ec
fb04f5f3
00f70ff7
e1f8faf2
f0e8fdf9
00fa01ff
09040600
00ed0305
ff0001f7
f1f903f1
f7f4eeec
021515fa
f9181a07
ebe6eef3
1c1014f8
f7e9f0f4
2200e4ed
14112113
011a0623
0f0ff6f8
00030dff
f7f90904
03f9fc02
19f3fbf6
18011812
f8f90101
e8fa12f9
fa06fe02
d2d6f5fd
05edd4e7
eefbfaea
eaf3e3e1
fd14fbf1
03011603
0419040a
02f9030b
eafbfaef
120505ee
0e00fc0b
fdfb0b16
1102180b
fafb0103
090f08e5
f5f81813
ececf4ff
e300eeed
d1ceebda
f9f8e7e5
160d0e09
100317fe
0409fb0a
15021327
fc1700fb
17091e10
180bf811
e704fd0e
0bfcf5fc
0b01fb39
09140bf7
faf2061e
f4fbeffe
f9f5ece3
e8fdfbf7
fef3ebf2
e9050703
f9ecf6f7
070dff0d
090d1008
1919001b
0f10201b
d4ee0500
e0c3dbde
09eddbde
f90d0c08
f3fffffb
02fb050a
ff00fe07
071cf701
fef3f911
fe00fbfb
020906f7
edfd0008
f2f3fcee
fdfaedfc
ebf7f3e3
f5f300dc
fbf3f207
01f40108
f4edfb05
f9f106f8
f5f6f8ed
07fcfa00
0d17040c
f1f80c14
f6ecfbf8
f4edf2eb
f0f2e9f3
e205ebe5
00fbe4ef
f700fbfb
11070016
0b071e09
fcf7f6ed
eff9f7f8
010c0ef6
03010001
13090703
eaf100f0
0efcf401
e600f5f9
fcebf0f2
edf4f8fc
fcfdfcee
09f6fcff
0500fb07
fa0ffbf3
f6fbfc02
10f1eff2
010ef80c
0d030b15
0b231b0e
0f030008
f5ff030a
f902fcf4
fe09030d
080f1112
fb0cf801
0a0f0c1e
160e1e02
f4fbece2
f505f2e2
e8f60fea
0ef2fd16
f908f206
fafc04f7
d6f90c04
e7edfcd9
08f0f9f4
fdfffdf8
fcfdf9ed
fc0d07f1
09fbff0d
0b0d0405
07fb1214
f8030106
fdff0dfd
f1f6f6f3
0bf5fe13
ecf7f802
0f04f0fd
ff06f8f9
03010900
0b0cfd0a
ff06fbf8
00000102
f100fdfe
00030c06
f6fafb02
0dff0004
07f5ebef
f4e2faf2
f5e9000a
ddf7090c
e0e6f2e3
f3e6e5ef
ebf2ebee
e0eff9f6
f31509ed
1dfdf917
0306f0ef
fefd0803
00f5160e
ff0605f7
0bfd0a0f
ff00fd03
12100100
fae3ee02
f5f7e0f0
f1eee6dc
f8ebffff
fdfef902
00fffc07
faf709fa
f8fff7e7
f8fc0efd
f8fcfc0f
f5f6f8f9
e2edf5fb
e8eefbe9
fff6f612
fd0a01fc
f90b0ef5
06eaeff6
edffe6f0
fdfafff0
00eff9fb
efe1ecf5
ffddf7ff
12e9e0f6
120a0413
0c0c0917
08fe0b06
26ef0b26
f2ebfb0a
ebfbffe7
03ecfe11
0300e6f8
07210e04
07e9f2fe
2ffcd5fc
1ee0c503
030deee9
00ed0cf9
f8fd000b
deecf60b
e9cdfff4
f9eee92a
fff80afe
10e5e819
fe0cf91d
f3e41b14
09000305
f206f9fc
0d14fffc
0cfffe00
1a0febe2
f616fee3
e60526fc
020ad1f9
fb110fe5
f4d7fa17
21efe917
06eeef0c
0d1ef803
fa2b1df1
ef08d8cc
12f02600
1ae2e822
24fffb0e
f9f4fc04
e4effef2
d52deefb
f12124d4
f50d3318
04090000
f8140d02
09eff3fd
0d1200f5
e4001100
ff120f0f
d0f6071a
e8e70cf0
28fb060a
1ee9072e
2311e211
fa04fdfb
f9ed0302
fb08e212
0df2f8f0
3bfef7e7
2c14cf1b
0419ecd5
08010007
082efefd
01f8eee7
f209eedb
f2ff0ce8
e3fd05f0
23e20a0b
1e38d600
0603dcd4
f9f6efe4
07fbf7fa
faf8fbfd
f5faf6fa
0b08fcf6
0001fcee
050bf805
0f141101
f5fa210c
030bf6f6
f7030801
e81505ee
010f1000
f3f8e613
0402f6e0
fde00d14
00dac508
0a08f9e8
f50ce401
fc0109ef
ec01f6eb
faeef0fe
0504fef8
020318fc
0f1ae808
f7080707
faf5fe00
de06f0e9
0e0f2dff
f802080c
0008f900
0901fef9
f3fefbff
0cfdfcfd
000f0cfc
03f30c1a
fb09ebff
e8f3ede7
fd101cfe
17f31212
05fdf90f
ef0cfdf0
f3eb12fa
fdece4f6
15fbe2d4
fe020016
0d10ffed
05101e16
0b0b1a18
fa020613
fefdf704
0b06eefc
f1def504
fbfbeaff
ffff0eff
0b07f808
020d06e6
e2fa1408
0c10fef5
0c151023
faf8121e
01f7f2fe
0205eefb
fcf1f3fc
f20006f9
03021116
220e0e14
fc03f40c
17040d03
e3e80305
f8e2e5e6
0008feff
00fbfbf9
08faedf4
ecf3f5f9
f7fdf0d2
f829f4f5
07052922
fff1fef9
f9ecfa00
fdf1fbf4
02050108
fdf703fd
f4fdff07
08fff9f3
f7fa08fb
eef7fce5
0a08fe00
090f0702
0003170a
0bc5ffe8
1023eb19
0afb0000
050af00d
ff05070b
06eff90b
e9fdf2eb
f2d8d70d
f8eed7de
16f90100
fd0df002
f70000fc
04ed0a07
fff4060c
00eee7fe
f0f0f1f4
ff07ff00
f0f71227
0df310ff
f406ea08
f5060c0a
ddf505ec
000cfaf7
0e080bfc
0dfa060a
f9060303
e8f7fc09
f400faf5
02eefaf6
0301fefc
0b0c0806
fff3e503
ef03e9ea
06fe00f6
01f2ebf9
1106f9d4
e8ff0304
edeaf7f8
0b0d0912
fbfc0a00
00010001
03021cf7
e705010d
f1e9fafe
fdf9ebf8
f82c0213
02fd0e09
fcfe06fb
00060bf1
0003020f
eaf7f900
011af5eb
fffa0300
f1f8ebfa
07e8fcf8
01040605
12dc070d
0a04dc17
fc11f6e4
06ef140e
0b05fa05
08fe0ffd
f8fdfc07
f5ecf5ec
12eed410
080be3fb
fbfc12f1
dcf11d04
08f0e904
fa2f05f4
ca083bd9
0fd80825
f50ce0f1
fefcf400
f303f202
eefde9e9
b9f91ded
15c2012d
f9fbecfd
fa000203
dbf9020f
f2e523e8
0b05fe1b
d01716d8
11d50820
03f5fd01
000ff803
ff140cf2
f90b1cf2
f8fc00fb
000b07f0
0bef030e
ff000705
04fb08fc
07faeaff
fc0bf4f9
f6fc0ef8
0b10f900
09000cf8
f0fffe09
fafc1002
fd040f0c
0a100608
f4f9fc0a
f4fffcfc
de13f3f5
cc0133da
01dc071a
fe0116f6
03ee040e
f4fef3f6
fbf411e9
ff0b10fe
11fbfd0d
0400f8f9
040510f5
170a0708
000eece3
fefefa08
e708fff9
f1e602fd
09fa0bff
03fce90d
f0e90bf0
1cf7f31c
2118e3f1
c30ef7e6
feda07ff
ed07e4f9
1e07ecda
00f40512
010719fb
cb08f203
112504d3
03363cf9
c60908e4
e6f7dcf2
fb114723
c2d50cdf
faea0106
e7f6f8fb
492cf9f9
08f5ed0f
02ffb0d2
fffb00ee
ff0af3eb
05f4e8ed
181fe7f7
04000407
f2fff9f6
f4eff3f0
f3f8e7e8
fc00fe00
eefa2231
c0ade908
f80d2725
e2ee02f2
090b00f9
faf30704
f704f9fa
0511f7f9
0f0c2ff6
f3010e1c
e2afedff
ffedcfdf
222806f8
fee00016
0bf400fe
fbf20116
10fae711
e0040106
fc03feee
07161fea
fb03f1ea
080df4fb
e7e8f500
050200fa
3aff0519
1a08fb14
06decd11
f8f704e6
0a10f4f8
fcece3f3
00f8e9eb
eff20200
f6fff0f8
e4f60e08
001109f4
f4fd1c08
f5fef90e
04001a00
00101526
effef90c
05eff9fb
0bf2100b
000df915
e405fbfe
0adbfde8
01110115
05ecfd0b
e9f8ecfc
0cfd02f3
1bf0ed03
20170bef
f6fef927
f9dcf1f1
fd04fae0
f109f0e5
fef008fc
01dbf617
f0eddfdf
130ff3fb
07081308
0b2ae9f8
e5f612f3
f1e2e6fb
fef8f8fb
051f13ff
fe2303fb
2ffc220a
fa060e27
fdfafb18
f000f4e1
14dfed08
1509f7ee
eb10f70d
f1f204ec
00eb0920
cfe6eae2
f31216f9
00e601fd
f9f0d9ee
0b0ff802
feff000e
d601eaf7
faf107dc
e607f3e5
0e01f9f3
00f40005
f60bf5f5
edeff91f
e7dbf0ed
0cf1dfe8
faef0000
08f5f1fe
05130709
ecf6fd04
f5f1f8f8
f0eef1ee
0c0a1611
00080c0d
fcf2f708
f2fe0cf2
1e0a020a
0bff0406
2f130f14
f8fe1102
fd01eb00
f9f9031b
28060a0d
f4103a24
f6ff0af3
01fbe104
fff7fb03
fefe00f7
06090a17
fbfb03f8
f80007ed
0408fdf9
08f21b17
0dff1a11
01030818
27dbc3e8
3efafa1a
e0e2effc
f3eee7ed
fdff0813
00f7f20c
f0f2fd00
0af20102
faf40605
0bffddf4
292bf1d5
0909070a
d3020edd
80bbe5ef
fb101dac
1910640f
03fff6f0
00edd513
f9ff0400
03e30dff
f0cff305
eb00250c
c4eafe12
f6d900e3
f108f70d
1e06e5f1
0018f306
d408361e
cdcad4d0
01f604e7
07f8e5f9
ff0cf1f6
111a2d06
f0072dfd
0efc0a1a
efdded0e
fefcdfd8
232c100e
f509ef14
0a00e7e5
fb061306
f2fbeef3
20f7e2eb
02fe13fc
05f1e3ff
03e70220
09e81416
01fcf90a
0900fb00
d2130105
ebdd0edc
d70511ee
effed7d2
2a2b2309
f903150b
e0fb0900
f708f3f3
f605f0f4
d5f40d17
0f0310e6
020a091a
fb1312fd
ebf208fd
020f2602
d205f6f3
f4efd8f3
22f3e3fc
f2e9000c
06d8ecf5
fcfe030a
01071bf0
e901100a
001f0312
011017fc
f9f70013
f2fbfcfc
0601fdf6
ebf700f0
1005ff04
f40ff000
fdf504f2
f1f1edde
f9fee7fe
faf0e3f3
f90afcea
e4ec0401
ffebf0ff
fafcebf5
e9f815eb
020b120f
ff000407
0b000900
fc0a1015
fc04fd09
0df406ff
ff1b0002
e6e9fdef
faf2ece9
e2f4f9ec
1ff80a02
12210215
090bfbfb
050d07fe
1c190806
05260f11
f0f40b09
27f91237
ef02e306
fe020200
05feff05
fc08fef4
fdf801f2
14f2f500
11100b16
fefc0609
fc01f5f6
0dfd0100
0a00f9fe
fdfff501
000201f1
03020804
defc040e
dbdaeed8
00dfdef9
f7f902fa
00fcf200
05fb0401
0300f808
06fe0600
f5fcff05
090003fc
0b020207
f8ff02f8
0414fb07
f8f50cf9
0e070afa
100d021c
190108ff
0b0df4ff
f1fdfd05
0cf1fa05
ff011902
fdfe00ff
00f4f409
