fa12fafc
f81202dd
00eeff04
18fee802
f5001701
04fafb0e
150205fc
0519fb18
f10008fc
f4fcfcfb
fd09f1ea
0bf8fffc
f8fbe1f0
0af900ec
eecfe809
0010fa03
c7fef7e3
07eb07ef
e60ef6fd
fa0bede7
0201010c
00fcfa03
08100606
ecc4f213
faf2e718
d3fce2d2
0d00f6ee
f9ef0df5
1f0dfa00
07fdf10e
f004e7e6
e1f30c01
f7afd801
0f12e000
05081004
fdfffd04
fd00130f
fdfafbfb
041128fd
f7f0ee13
ede3e8ea
06fef5f7
220f09fc
fd0c1220
f9f4f0fc
f1e9ebf0
1412ff01
08000a0b
0e010708
e3f3040a
e9cce1e4
fb0af8f4
05f80500
09140307
d802d5e3
edec0ada
04000917
0205f903
010b0000
fbf007fa
13fbf0f9
110a0e1c
001410f9
05040100
ecf7f4fc
f1ef04f0
fb02f0fe
f50004f8
f4dee7f3
12f6fbe7
fcfe0d11
f8000202
f02200f9
e2f815e5
0900080e
1109f909
ffeefaee
15f6f125
f922fafe
edf021ff
06eeed09
02110204
0a0f0901
1701f112
00fefaf5
01090606
eed1dc00
ecf9e704
eaf000ef
06f2f805
11e21208
10f9f825
fdf0ebe1
f8fff6f3
0ceff2ee
18f3d703
f119f9f8
dae505e1
03eefef7
e130fde8
f2fc0ce4
10fb0615
fc0dd5e8
13f70bed
08dadf0e
fcf4e7ef
ebf6fffe
fbecf1fd
fdedc5f5
110707ea
e6ee0ff2
fefcf200
dcfc2006
06ff0cea
f70826ff
f609f2ec
011618fe
f5fff8ff
130c02ec
f6d6f00c
15140800
e3f8101d
fff104f0
ff0c0c09
c0f0d4b3
0602e9e5
ff0315ff
ee01f60d
fafafcfa
06fafd00
e2ed00fb
1c0800f4
03ed0f05
080b0afd
0218010f
e8d5cdd4
3b3dfee8
e0d8eb2d
0a240afa
ee020619
0bfbfdfb
07ff02fe
f804fe02
04040808
f0000600
f8ee07fd
fe020503
f8fae8e8
eef804f2
00100ff5
f2f7fc00
1909f6f5
1319ff03
f2f5f0f5
f304faf4
07fcfcf6
00fcf502
0c090501
13110b05
fd0c060c
fe09fff2
f41501e7
f6161002
f30afdf2
090d0df2
0c120c14
f60e1115
ebf70e00
f4fa00fc
d7fed7c9
08f901f6
00f0edea
12eb061c
f905ef12
fc2124fd
f9fd1c1b
06f306ff
fffcf504
0f0c0000
0400fd0e
01e5000b
f8fbee02
e5030f00
eaf70f15
f2faf7f3
11dde71c
f4ff010e
d2ec1ad3
13201f13
0302211e
faf6fc0d
fa0605e9
05000004
fdfe0103
ffff03fe
000a0d07
fef90b0b
05020602
0eda7c0a
dfdce064
f8efedc3
faf5f9f6
e6db0104
111afb08
f8ee03fa
fdec0214
fdf8f9fa
f15880e9
1b3a3ba3
f9f8300a
04edcd0e
19001a05
f310fded
edfbf903
f0f801e0
13030005
00000600
fe020000
fd110900
fc010805
fbfcff00
0906fb08
f70504fa
0cfef703
0701f70b
00feff02
010001ff
01ff0100
ff050001
fffd0300
0604fefe
fdfd00fd
01fe0601
02ffff05
f6fcdeee
f007f9da
010201fe
ff0000fe
0c07fcfb
fa0506f8
01f7fdff
fe07eff6
fe020100
00f12202
11e80e3c
06fbf4fd
fb1402f0
f3f80c03
f7f800f7
03ff0505
0b00030f
fcffff04
cfb9a2c8
edfcb798
f102d3ea
0e040fef
0c222424
edf80a00
def4e8f4
f7d206f9
210cf701
060e0c04
03fe00f3
00fbf215
fdfffcfe
13fe0100
f8fe06fe
151a1f17
e8fdf914
fae0fad7
fa0102f9
07f61214
00f8e810
0e1405f5
ebf41e1b
dce5f7fb
07130d00
f7f21905
0af7fef7
12e6f0db
301a0101
1d0c1b38
faf0fb0a
f00dfdf9
efeaf2f6
ea13ff15
fce206fe
2619080b
e7ff0d01
03d8f9dc
0904ff1c
f8faf505
063a0ee5
f7d716ff
fa06e4f6
0306f304
f1fa03f0
1313001e
ef03eeeb
f6f2390b
07ebcb29
f00909d4
d6fb21e6
17efe029
002b053a
01e0f8f0
09ffe810
f40106f6
fcedfb09
f8f6f3f0
0309f2f5
f9defffb
0808e3ed
b7ebe7c1
1df4fe00
1b011020
f0f0f0eb
08f810fb
f900d811
f40c10ec
fbde1a00
0a14e302
f7fc0101
02f8f503
0600f909
0603f60d
f808f800
ed064a11
dbdaee0b
caa5cdd6
ffe6d5f6
d6f4fdf7
05f303ec
14fffb0e
110f1418
0915fc07
08191f0d
fcfc0a1b
f7f0faf5
0200fd00
f1f300f4
08fd0807
f0cae4da
fbe23567
fd01fef3
f2f1f3ee
02feebf7
0ffc0307
081f140f
0afb1518
01ff0310
0d130808
fc15f8d2
eef5fe0d
f6d1d1fd
0407ced9
010efdfc
f8ff0a00
ecf0f4ef
f10401ec
13f80906
1307fd0f
000607f4
fafa0200
010800fd
0303ff03
02fa01fb
f5ef0600
fdf2fb01
0b0c0603
1a0c1218
24291f25
131e331b
f7fb1c14
fff8fd01
07140700
0f05f80a
0907090b
ea0bfcf3
00ee16f0
ff05ff22
f70006fc
0600fff8
ff09fe08
0600110c
0a0b020a
fdf0f909
ec06060b
f5070bef
0afbfc11
fc00f4fe
070502f2
000d03ff
f80b0a03
fbf5faf8
01f2f7f9
fdfef907
09f90306
100c0505
c806e5c9
f7ef09f6
fb0812f1
f1f12a28
fc09ede6
f7061af3
fcfe0e04
fd06f6fe
fc0a1001
0a000100
fefe0c02
06fe0302
fe0a0d0d
f1000107
f9fe1708
edfb0908
daed04f9
000009f9
0f040805
0a000c08
000a1113
09e8e009
e6f7040a
0f140a06
01f3ddee
292405f9
dd00040c
08e31106
fffafd51
01f0f0ef
eefcf0f8
0207f0ee
0500f5fc
0dfd050a
02f4f707
e8040105
01f10bfa
1008fd00
00f70114
fcf7f1fd
e3fd03f1
ff0113f3
fc0807fc
fbe70502
130f0301
f9f9faf7
f902f2f6
faf90600
f90a0506
f3f5090b
07010d00
efe71500
08e91a30
0e0a0507
0709010c
eff9fe06
fffbf903
01070207
feecfd08
fff800f8
f5f4caea
d923c099
171309ee
fa131e0e
0f00010f
080e0107
f60c0704
0605fdfe
fdfb00f8
0807fb04
03f90402
fd192006
fe07091c
fbf4f800
f7faf200
ebfdff08
f9f900fb
060d0904
fef90507
fbfcfc00
020511f3
f8020600
f900fc03
02faff00
fefbfffc
01f30800
fbf30301
1cf22341
00f4f217
060b0303
07030a06
03f30b01
070a0000
02fe0608
0cfb0001
04fe00fe
ef0ef4d8
050b02ff
00fb0107
04fee9f6
000301f8
f9090b00
fef50004
060df7fe
0b0c08ff
f300eef6
0415eeed
1907081a
13fcf800
0af9fb00
00f2ea00
0d090e08
dcfb1001
f3f518e5
0f121503
fbff1f13
09120001
f2130e00
031004f9
00fe04fa
f1fafb08
d2e31620
03e80bfe
e81f1009
dcf914ea
f3edf2fc
fcf8f900
1711f900
1ac8db27
0adabaee
d6f91803
c5c0f4db
ed16fff1
01f90ef2
260c1017
e718e3e8
00f2e3d6
dddfe1fc
f1ebeffc
e8eee8f3
04050ced
0501f6f7
02fcff07
fefc01fb
00010501
00f90202
02fcfb0a
0000f5fc
fcfe0200
ff00fefe
05ff0003
ffff0003
fcff0000
06ff00fc
060a0104
02090c05
00030e0b
fefafd00
fffb0200
fffd00fe
06fd0000
00fffd00
00fe00fd
040201fc
010bfd00
0d010e1d
f3000310
ff1e1301
08030201
f8f8f90c
0505fb02
1701f8f2
0500f914
020102fc
f9ff0504
00fd00ff
02fdfa01
ffebe2fa
fbf3dae6
f0e609f3
1ffaf419
f6050b0c
08f60800
e1f5dc11
fbfcf5ec
02fdf4ec
fffbf1ff
e2f700f7
e4f6f0ed
0bf40101
d6e2e2eb
e4d2e4e1
0be4dbe7
dd09f8e3
dfe705f3
0806f904
e2ec0404
010cfbe6
09000401
e8ed0209
f0edf7f6
01eae611
0708f2f3
f406f8fe
08f8e6f2
f517f7f6
f7fb16f7
12ebe811
e403d8d5
e0f714de
0ee4f40e
15050b08
04071a05
0ceeef10
04e90625
16ed0f08
fef9fb08
3215f315
0702f001
fe08d3f3
f3f2eb08
0dfb04f4
00181e22
e9f20e14
1c161701
f1f5f8fb
0402e3db
050b0904
e2111e02
000217f2
e5160efd
20e0aef7
34f3091c
faf1000c
02fafcfc
e6060309
e7c703f5
f80b0b03
d8eededb
fce5fbeb
d91b571a
a8fb06f3
2100fbf5
14f7dcfc
d5e8ecfe
0d1703e9
ea0b21ff
f5fcfbf7
050412f3
e33c18f1
e60eeda6
fff4f9e7
03e30006
dcf00610
ead70733
06f90e26
faff120d
e60212f4
ef23f2e7
f81cfbd0
0bcbf4f0
38cdd42f
ef07fc18
ebd1fb0e
eebef700
fd1af8c0
104c05d8
fd080302
f4f40504
fceaf8fd
fff6f9f6
e302efff
e50014fc
060925fe
2524e6c4
f225f9db
0936e5f4
0227f3c7
10f503f2
13e1d5fd
fcfafd15
1ce10720
0fe8e106
f20b0f06
fffdfffb
ff0b1607
09f11110
1402f809
f70e00f9
0f030105
0816000d
00fc0dfd
faff00ed
05edff06
fdfe0501
080b0900
0405f004
fc0706f6
01050716
dbe0f7df
fee4f806
fdf735f3
2a0dfc30
01f90aff
06ffeb07
0bfc01f5
fe080202
f7fa0000
f5edf4f7
0000f7fb
0402fefc
f4070700
fc05f30a
fe1000f2
e5fb1601
24e1f804
0f02e901
080af205
f10209fe
fef602ff
00f2f902
23eae415
0a34c8e1
eff211eb
21f5f517
02fefbed
e60afde9
06f90df3
fcfffbfc
f60710f2
14fa050a
0f0bf402
f900fe09
02f905fc
edfb0005
f8e20505
fcfaf812
f8f21204
01e1e118
0e00f70b
ee2105e4
fef900f9
fa02f800
fb00fef9
fefdf307
f6fcea10
f0fc05fc
00f60305
2ae80400
2ffdc117
060800f7
f21c10eb
fefe1ef9
03eff115
0ff9f703
0b00f500
f405fe00
0400e3f4
eb1008eb
03e81b2d
0a1bf711
040408d5
06e7ec18
0425f212
fc0608ea
13f30f06
040d1306
1a150a06
04eafc2b
070be9ee
f7f519fd
fa07fde2
0ed1bdd5
f60008f0
18f01500
1601e5e9
d5ea23fc
0dfbfb03
f100f600
e6ef07f4
f600f3d5
000fd0e1
0312140b
05eb160c
d1220713
ebeefad3
c7e9ef18
d3183144
ff0dc9b5
251b2413
f22ee816
f6f804eb
fdf8f00b
00fc0601
0003fefd
ff2b1000
f1ff2905
f90fe2ed
f1f912fe
0efefbf5
1216f41b
fff6f3f9
04fbf1fb
030bf6fc
020e0200
f7020a07
00ffecf9
00fafb03
fb02f9fa
f902fafb
00fa0302
e90ac1ba
212517e2
fb020803
fcfafcff
211bfdfb
08efec01
011505f5
ffff0100
ff03f9ff
26cc594b
dfbfc82c
feef00ea
0fe80e28
f703eded
0f04f90c
1e081006
fcfcf70f
fafafdff
d1def2d3
fef1dae8
ebf7f6e7
f9f3f0e8
f904fffb
e4e2e903
eefbf0ee
f5fdf1fe
1116ffeb
1614ff1a
e70e00f3
09f3fcfa
faf3f2fa
00f604fd
ecece30a
d5140c05
edcad0e0
eceed4e1
001600fa
eff40008
02fcfee4
0af00308
d7e1fd00
f7d9e6df
df170f16
e7f6ead8
0df100fa
e6fdf3ff
10f305ec
13140e26
00fd00fb
fef8fbfd
e2f9ebee
f8fd080f
0f0b0006
0bfe0df7
04efe6e7
1e060e21
e026f90e
01e80300
c80a18ee
1defefec
f73213e9
08daf6cd
1011e417
faeed70d
f2f50de2
edf0160f
0700f002
0c0806fa
def50504
00ebe300
e800de24
0adc13e2
0405faea
fa04f409
0c041104
0b0e0202
e2e9130a
100ff919
f5e714fc
0f0e23f6
f2fe03f9
d0c6b829
f9ea56a4
ffd8016b
fc15fcf1
17fe2df1
e4051206
0aeae602
fdf505fd
1606f710
d8fbc4ee
e60b07bd
13e8fcec
0921fbee
04f9ebf5
f20e0400
09f10509
e7f001f5
1aecf71b
fb0701f6
05fd0608
09fef6f0
ff1102f2
dfe20007
2804e010
f2f80e15
220021f7
0a0b1224
f50bfd05
fd0111f5
0f04fd05
ff160900
f5011102
34e8e205
f80305ff
ecefe9eb
00f70612
e921f5de
090d101a
06fcecee
f612fdf6
ecf5050a
1f0ae3ff
01eb091d
04f40006
0d02fc07
eb0ff4da
0bfffbf8
d6e1e015
05eff6ed
020b0114
fa04f808
df0cf4f6
e9e4e8e0
21f901f9
1205f91c
e0f600e9
04fd10f6
eef8ec03
1c0cf6f0
ebfe040e
04cad6dd
03f9f5fe
11eee116
010efbfc
ebf305f8
ebdaeaff
edf5eae4
f5f9f7f7
fccde601
f0f7d6f3
f2d3beef
c4e1cdb6
f105fd16
e8eff5da
08061404
c8e0daeb
09f2d9ce
0005fdf4
e5f207f2
0d05f0ec
0e251c10
0c0c160a
0e071e1e
fbf3011e
17e20014
08f4fd00
08f3f810
fa04fefe
fc13f3e8
000d20e6
f51c1309
fff81c08
0804fa12
f20a09fa
0a050800
f80e08eb
f405ff01
adf6fdce
fabdfbe6
f90a0008
fa0406f2
f7051209
17fb0616
fdfd0007
fdf8fa0c
fefbfe01
fafff9fe
f90cfbe6
21ebfb12
091edffd
fa090cf2
fc04fbf8
f9f9fb0a
effe00fa
fe07f3f5
f708f0f5
fa0015ed
fdf61308
ff03ebeb
00f515f7
11ecb1f5
00e2efdc
03f4e0f6
330206e9
d6081e27
f5ef12f7
fee8fce2
1aeb1a22
121a0f0b
1202fb09
f4fe0a06
eed404f5
fafb040d
04e90718
100a080e
00eaecf1
1415f732
15090b07
051003fa
fa0312fb
0ce0eefe
08251518
07051532
f1fa1305
e423f244
d429ee80
fd2f0102
e600212a
04fff6e2
03e0e8fc
f2f5eded
f50303f1
ede8effa
05eb040a
e716ddbf
141513f0
00f0f209
f8f3f0e1
f70307f0
ff171d06
01141216
eee90d04
06f4ebfe
0412fbea
ff050b0e
15f6e70b
fafe0100
b8bd0fe2
0ad4d502
d4000010
eccef0dd
0e090610
f31101fc
f6f80601
f9f8f9f8
fb12f7f1
e0c91c04
f9d9df16
e214e90f
06f513ef
f61f101e
f9ecfaea
100a020f
f813fffe
130d210b
cbceff00
0ed9d005
00081a11
efecee00
dcff0102
dcc6e2b0
040a0b0c
04f901f9
0d1300eb
fee8fd06
e503f6ec
0effe9e8
04101502
192a1a19
e4eafb0d
1a2829f2
dee0e0f3
1001f5d8
162b2314
ebf9fe26
daf5f406
06afd0ec
1511201a
e7ebeefc
fafff9f5
f4fff7f6
f8ee00f8
f9fc01fe
21f5e8f6
d7fbf920
171000f5
061100fe
0300f6f5
05020f07
f200f108
09fe0a0b
fc00030a
0012e803
03000200
f8f3f603
16ee3707
a2f6ff29
1900e60f
fd1310e3
0a150ff6
ef0114ea
fff6fa06
edeb05f4
1309ee11
010b0cfe
f5090008
0604e9f3
030600f3
f304f5f0
f6f8fc08
00ff0005
fa050ebd
e93008fc
e12b10cc
f7241bfb
080004eb
05070302
e7fd0506
fef9ec00
fff40400
120e0d0b
fcf112e1
aa1ae4eb
11d84409
df0e162d
15cf062c
f9eef3e0
fafdf6fb
ef06fdf0
02f608fc
0e02fa09
