04f9fd07
dff80efc
00e8f300
f5f0e6fd
e4feefef
fbf2faf8
f5eef1f6
fbf0fbfc
0d0ceffc
fde8150e
f800f806
fd08f3f9
fd0b00f4
e8fbf3fc
0be2ff07
eafee2fd
fdf003fe
090af4fb
fe0b1a0e
0bfd0611
1609ebff
1104ed06
e4e70303
0301f0f0
19f30efc
0310fd07
13fc12fc
1602090c
fcf1f100
01e202f4
fb00e6fc
fa010af9
f1f810f8
05f5e319
06fa1704
11f50408
02f0f90e
f704f3fb
020007fc
06f1dcfa
0e0704f6
1900130d
040ce1ff
0dfde5fb
0e07f207
ec03efe8
fcf2160e
f3e8f30e
0000f602
14faf0f7
0e220014
02022efc
fa0a0401
07f00602
0003d4f4
e0f0fae4
f4ecff00
1104f608
38080607
032af613
05ee05fb
f7fcf0fe
fce6e6f4
f30608ea
16f800fb
fbf1f906
1ffff801
f0f6f0f7
02fcf7fa
040e1901
1d09fdf4
02151a00
04f21210
10fef9fc
02fc18f2
07f0fd08
1105ee05
010b0df4
0ef81afa
eafadedc
f41b12e2
f62309fe
eee817f6
0c332610
0b033d09
0b06f303
020103fe
0ce4f4f8
f800fd0d
f0f40ded
fc022216
f50007fb
eae4fa00
1011100d
ccf91119
07de0beb
fb0005fa
05faff04
f303ec02
f9f6daf1
f0f800dd
fe060405
0e06f700
40fe1ffd
ff0f050a
f30103f5
f4f1f2f6
0af9f2f8
07edf900
0a00fa04
f2040005
fcf1f409
05070a01
02f5fc06
ea06f013
d1f1ecee
f2dae6ff
1219e5da
fe1cf900
0e10fce2
edfdfbee
1af5f1f4
f11af506
f5e10900
0b00e3f5
fc0905fb
0dfbf802
f5041906
191b000e
ff101ffa
e0032514
f3e9f4f5
1400ff0c
fef70001
0afffbfa
00fbf00c
e1fcf4eb
f6e4f701
13e4d4f3
1f07e2e9
0d06f7fe
12110d07
f9f6fe09
f7faec02
10fdf8fc
1c040b1e
0913f6fe
fb0b0a00
01f51613
13180207
f40109fa
e2f6eded
ebf4f9e8
fffe02fc
fdfa000d
f6fef6fb
01fefd03
0afffefd
19120802
06121c0c
0912fcf3
f3f80efe
0a001806
f8f6fb00
f6f406ea
09f3e700
f70cfbf3
00f70cfb
0001fd0d
e1fe03f4
0e050306
0802fcfa
01041e1e
eee9fb07
04fafe01
f40407fe
00e7fa0d
0500f2f0
060503fb
04020505
00f5faf6
0d010a07
fd0bf905
faf2fd02
0102eef0
f8ec0a02
08eafbfe
11faf104
fe04fc0d
f7e5dff9
fbf5ecec
1612fef9
05111900
fe050317
f3f60001
0df9f40c
11070820
f8ff0302
e3fafb03
d7f0e2d8
fdf6f9d6
02f8eaf3
f8f6fc00
0509f7f8
0d09fdfd
fbff0701
01f5fcf8
00ff04ed
0b000916
ecede40b
f70a3203
f7f0f609
fceff600
feefeff8
eef8f0ed
f6edf8f6
0df30701
17fc0f22
fdf00606
0708fa0a
02010705
f6fcfeff
ebfa0002
f9f3faef
06f0ef02
050af4f0
03f21506
00f5f911
06050601
0b1003fe
f4ff0201
1003fb00
e4faf0f8
f7ff0ee4
05f9f903
f301f900
090806f9
01fc0505
f8fff7fd
02fb01fb
11f9fbfb
f904fb08
fa060000
01fcfe08
ffffff03
0108f4fc
02fe0506
eaf8040a
001b07ef
f7fc04f9
19000a0d
030b0614
fa030602
0900f5f9
f6dcf700
f3f7e3fd
0e00f3ed
211c010e
1e0c0bfa
06021d24
091cf410
fdfbf5fa
fcfbff05
120c0001
04060200
01000300
f3f70205
0800eefc
02fdfbfc
0f0c0205
04fbf001
f505f1f5
fb070eec
00fb010f
fdfbf5f5
1f170dfd
fd070a04
f6fce3e5
ecf9f5f8
f0f8f306
fff8f3ec
02060703
09e8fd0a
fbeef300
0902ecf5
070304f4
f507030e
fe0306f8
fefe4a0f
05f6f225
2022fceb
fe2927fb
12ec1a1a
fefa0300
03f7f500
def9fbee
06fa0df8
09f42912
f2f2ee0d
f10afdfc
f807f4f4
0af71b05
f9090ef8
fbe9f609
efed1302
decff6f1
0901fc06
0b0bffff
f8efea00
f400e2ef
f000f7ef
0b0012ed
ff010407
d8e8f40d
01eaece6
16255603
ff0a0e2a
01e80108
e9facfe3
edfee9d8
e8e8faf1
f600f502
f7fbf4f2
1a0401ec
fdfd060f
07f70812
e6dbf804
e4e0dbeb
f6ecdef3
f1fd04f7
08f80006
f90eec03
000c0ce0
f409f7fb
16fc0b06
052a0809
f4f728f6
c8f9e702
0ff3fff9
f8fdfffd
0603dbff
f1f800f8
010e32fe
f1ec0663
180bfadf
f9f9e9e8
02f30aee
17ff0200
0c0e05f6
d8fae9d9
00f1feea
fdfcf8f2
1a090202
0405fa0d
15fbf9fc
02051622
161d2305
12f502f3
02010a0f
ff03f10a
1910150d
14110d0b
0bf9000b
0c13fefd
f20deee3
fbf6000b
1bff00f6
f404fc02
12020602
15072022
e9ed141c
f0f0fb00
f3dfd2ee
f1f3e9da
0ef5dd0d
0bfbf103
e8ff1510
fce802ef
0ee1e306
050fe9f7
01f3f500
07000e13
0c0d0211
edfafb0e
f8f5e6ed
f4f6e802
06070c06
0600e706
defd07f2
0c000108
ebfce5f1
ddece9e3
f0d8eafe
fef3ebf0
020b04f0
fa15f900
f7defcf6
0706e309
0404fdf8
ebfaf702
26f9ebdf
fb0ff60d
0a0905e5
110f09f5
f216fffe
fcf904ec
eee9f1f2
022202f4
f60d1004
ecef04ff
2afeea03
020f0df9
effa09f2
e5eefcfd
f40dfbf7
f9faffe0
0e12fbfe
fa16fff6
f8f10c05
08f5e6f5
f90f03f2
e1e10b03
f3eaf0ea
dcf0fcd6
dff7d1d5
f80306e9
04e7ff0f
0501ecf1
fb0706fd
07081b08
2110fdfb
061d0008
f80af604
01f90f03
fb05f709
08eb03f7
0cfd0211
0d020004
f9f1ff05
00040300
f6ff07f4
fa0bee05
f9f70aea
0cf2f70b
0bfffdf6
0d0f000d
fd121102
01f70212
01030e02
faf209fd
0005fd03
fc0c0cff
0af9fc15
03fef8fa
0308faf3
e6000bf0
10f01002
f91500f4
01040c02
0ef7eaf9
08f91f02
0c0a002b
ff041103
eef9f80a
ebf603ee
f6f70bfe
09fc000c
000d0800
04fa09fb
fe00fe00
f2fe0d06
0b00ebfb
fc000ef5
fef6eefd
060bf60a
eafc0000
07dee400
f910f7fc
ecfb14f7
f7f7010c
11f9fb01
08f8ef01
fd010107
e9f91709
e8f4fde5
efe2f407
f0fdecee
f2f9fbf0
08f0f701
fefbe7e7
0e0c05f3
0e110c0c
f0f1f8f8
e8f9f8f3
fdecf7f7
00fefe08
e4f2faf3
efff18f9
05f00310
f3fae7f8
faf602fa
06040201
fa05f8fb
e4ee0ff0
070bfe04
05f1110b
ef040110
15001201
f302010d
fc00ff02
000702f2
00000103
0809ef05
f009f8f4
0af102fa
e2eefe1c
00f5f8ea
e8eb0808
01e2e107
0003e2fc
0200f7f0
01000005
03fef4ff
0cfa0607
2afbef24
f01903f5
080013fe
fd00ff07
f41a040f
0a06f8f4
fb120303
08f4e906
ed09fde5
f4f907f8
0deeee04
f40deefc
f9f70000
fe00f2ff
faf1fcf8
04f3ed0f
f703020b
0d0014f7
01f80926
fa110f05
ff010b03
00f501f6
fcee0003
f5fffaed
0f0a11f2
01100306
11fcfb0d
00f206f6
0d00eff6
fafc0bec
f5f0f8ff
00dde9f9
0a0015fb
1dfafa13
01f70800
04fefc02
0d06060a
0b02020f
ef0103fc
fee7ff14
fbfef60d
ff0015f5
1bf5fb26
f600f804
03fefbf1
f30600fa
2de3120d
f7fcce1a
03f7ef12
0516070d
060806fe
f9010ffe
08f9f6fe
f803f7f4
f0fefd06
0bf900fe
f702161f
04fe08f9
10fcf0f8
140d04fe
0d1a0700
f7ff1bff
06f1ff00
fdf9f00d
10030a0f
030efffb
07fb030e
0603f8fc
060df5fb
ff0b0601
05f4f409
eaedf3f9
0301faed
f9010a07
280e0407
0d21fe06
05f80502
12031415
f9000307
13faf005
f10ffff7
f6fe02fb
f7fff309
14fafdee
05f6fd05
effdeff4
03fb09ef
0200010a
fcf80107
fdf8effc
e6e8f6f7
effbf6f0
210a07f1
0f01fd12
19fbe7fe
15050d23
03f8f90c
0004faf5
f50204f9
08ff01f1
fc0bf701
120c00fb
0d1c1605
f1eefd02
fc1101e8
05060407
03120a10
ef00f8f0
071701fa
1afc100b
0000f812
10170bfc
02010efa
eefcf1f5
12fcfd05
0000eff6
00f404fa
0300f20d
0916060c
0813faf3
0e1b0609
f71405f8
0c04fcfa
0816f40d
03f3fd05
f7fff806
06fc07fd
0e04ff19
eaf5f2f4
09edfafd
0bf2f8f9
151aff02
05060c00
ff06f80b
ebee0efd
0bfbff09
03050df7
ddebfe16
eddcf9fd
00ece1f7
09f80611
04fb0508
0405fafb
fc001104
f1f9faf1
0402f7f6
e2ecf6f9
f1e9fff4
19fbe205
1406001d
0612f906
07fdf505
f4f603f0
04f3f3f4
fcf9f1fb
f8fe13f6
f3f302e1
0a0002fe
ed12fae2
eedefdfe
effc01fc
1702faf8
f9ef0521
0400040a
fd0007f9
fefefefc
120300fb
f6fef21a
09f402fd
f71106e4
e80e00fd
0b0706ed
05f4fb00
f2ea00f6
0606fb11
fa05fffa
faf904f1
06fafa13
030a11fd
da09f9ed
071318fb
050e1410
f401040b
fdf407f1
0df6fe05
0406f701
f9f40901
eb0c1c0e
e8fde9e7
06f2ed02
32f0081b
e8f8eb18
fee305e9
0000f901
ec00f4f8
16fe06fb
fbfdf7fe
fe01e9e3
0413feed
f50100f4
f506f6f9
f2e401fd
1504f700
ea0a0b02
00e70600
edfa09ed
fefe0803
fb0607f4
fdebf2ff
0700fcf9
0a080c08
0012180e
0afd0a0d
fdf60100
f7fcfaf8
0bf30113
fbeefe03
00fdebfa
fc0702f9
fee80008
fafbedfe
d5f8f3ee
04fb03f2
05092200
24fd1a2e
fc060511
05fdfd07
02040308
f9e1f60b
00e8e7f8
0500f4ec
0f08fe00
02faf302
1309ff07
fafaf10d
f7070bf3
f9f9fe08
f3ebfa00
fef9f40b
f30700ec
000400f9
ec00fdfd
03f20805
01070701
fd0b0f05
ebff0109
fad7f0fa
f600f2fd
effafbf8
fef5fbf3
0e0b0e08
0d030900
fcfdfc08
09f8e4fb
ed04faec
f5e0fafc
fcf4ebef
e1fa0dff
f9e2f807
fbfdf301
fdf6fd07
f3f301fc
fff4f2ff
f5f90000
f1e1faff
01fcecff
effff700
fef0fef4
fc0d15fd
d9eb010c
03fb07f6
0806000a
f7f9f803
fc0af6fa
f2f402eb
eff803fa
01f3fd02
03fffbf9
160d07fc
0a0e0003
06112c04
09f7060a
022efef9
ff1020f9
e0faf8fc
f6ef02f4
0402fffe
fe07f800
03fafdf8
0bf3ef06
09f8f504
f9f7f4fc
ff00f7fa
fb0af5f1
fff905f7
f9ffeff9
0cf710f3
f2fff414
fb082904
fcf7fff0
1528fefc
04fc06f6
0ffdfafe
0100060a
f3f9fcf1
fff9f2fd
090ffbeb
f3fd0b00
fffcf5f4
01faf902
f707ff01
ecfa0902
fdfe0af3
04f4fcfd
eefcf700
ee00f3f7
f4f802f6
f20bfefa
f3d1f1f5
fdeac9ee
feff00f4
fb0cfdf9
000bff08
eaf80efb
070100fc
fbeedefa
0700e9e8
00110dfe
04000105
010dfbf8
05f900fd
f1ff07f7
0301f5fc
fefe00fa
f403edf0
00fa08f0
ff05f8fd
fdff0d05
e209f600
fae20d00
04030a04
f60aff02
03100a01
030b1302
14070b13
0b17090a
dfdddcdb
e3e2e9ec
08fd00e2
fd071703
f4f0f412
08ff00f1
0609040d
0105fe0a
0c060b09
f3f8fefd
fef70a01
e8e3f1fe
08fcfafe
0703fc06
f8fff208
060503fc
e2eef3fc
e9f3dce8
f7061203
fdf6f5f8
1313180d
0d190506
f8fc0b08
fe0304ff
0e03f301
e2ee04fe
f3e6f405
ec000d09
05f7fbea
fb1a0b05
0f060108
09041007
fe070b01
ff021815
0c03eb00
f50b0209
0000fc00
160702f7
fc08f508
f701f6f2
fdee09fe
120715f4
f608f70f
11f8f9e8
fe0ef606
0b0c0bff
0a0b0818
dffbf80a
04f200f9
eff1fd13
e0f5f0ea
fcdbedf0
eff9f9f5
f6edeeef
f40b07fd
f5fd03f8
07f9050e
08150a10
e5e80d26
fbff00d0
fa0f1f16
11f9e1fd
03f2eb14
f5f8f4eb
f3f3fbf2
f7f2f6f6
1604fb0f
0a0c0609
fcf4f5f0
fbf1dae9
0803d4db
0004fffe
f7f6dde1
ec00e4ea
03fcf8f0
f100f701
f9ed0400
0c190efe
00010306
e0fa0afa
f8f0eaf5
e30900f6
f0e9f3fd
05fc02f8
02f7ebfd
02eaf7f2
f9010009
02000c0c
fb03fa05
08000eff
fcf700fd
eaf9e9fa
f60004da
0600fc08
ede4fefb
070614ed
ec06000f
04ffece6
05fd0203
00fafdff
fe0b00fd
e2e8ea0e
0100f800
f9040509
00f7000d
05fcf404
0b1b071a
fc070a08
06faf8e5
ed0bff00
06052100
04f90515
f3f4f6ea
ff0a03fb
120b1f07
f8fa13f6
0b00f1f4
06f9ece6
0115f6eb
ebfeeafe
f8f5e800
f806e4e3
00f40104
01f3e400
ee05efed
17010bfc
f1081c02
0002fc02
faf7f5f9
03fd0302
141df7fb
fdf4f80a
0210f7f2
fcfc1710
04ec0207
030fef08
f8f8f802
f9e0f3f3
fbf7f1f0
ff00fcef
000800ff
0100fe01
f600fcfb
f0ebfaf4
faf6f7fa
eff6faf3
faf1f6f5
f9faf3f9
ff00f6f2
02070efe
06000d04
fef7050c
fdfef200
010000ee
11fd020a
fd07fa07
0002fbf9
0105fe00
f5edfa03
f7faf8f8
fcfefbfc
fef9f001
0500f7ef
fb0306f8
03010807
fefb07fd
08f7fd04
00fdfdfc
06020000
fefb0400
faeff9fd
faf4f5f9
0a010000
04090300
00fc00fa
ff01fc00
ff0209fe
0401060a
00f80507
fefbfb00
fdfdfeff
05feff03
f8fefd00
f8fffd00
05f6fcfe
00fd0501
00fafffd
0203fb00
0bfcfb04
0e0afd00
0005fe09
fb0602fc
fff2f1f4
00fdfefc
fff100fb
f6fbeff9
fc04fef5
fefe0301
060000ff
120c0505
08151006
f6faf7fa
f8fefced
f90f06fc
ff000c00
fefc0108
f6f3fd00
01f9fafa
eefb00fb
00f1edfb
01fe0700
0600fd03
fefc01fa
0003f600
ecfaff00
fdf1fdfa
0007f9fc
11090a07
ff050807
06070904
0004fd06
f8f203f0
fbf6f000
0a0502f4
0102fd00
ff01fefc
f100fdf3
01fb01fc
fc00f8fc
fc0000fb
fdfa0300
0efd0201
1909fc03
04180a00
fbfc14fe
fff9fafd
fdfbf6fb
0705fa04
07060906
03040105
fdfbfb03
0701f8fe
fbf900fe
00fdf3fb
fdfd0301
f5fcfaf9
030103ff
ff010201
07070900
05030d07
0606010a
02010007
02fd0202
09060700
09080809
04000607
07fb0307
01faff00
0600f804
f8ff01f7
05e9f804
fa00e5f7
09f90101
fb150500
02020609
f6fc0003
fff404f9
09fcf500
1908fdf9
13220c0f
00101a0c
0504faf3
0101fc03
02000afb
fcfc040d
fafdfbff
04020bfb
0802040f
fe00fa01
06fc0600
f4fd0c00
05f8ff00
fffcf407
030e09f8
fc10effd
10150e0f
05f71023
000ffc07
fafe10fc
0cfffe08
0000fd00
fbee07ff
ebe8f812
f5d7ebe3
0400e7f7
1a0ee2f2
0b28251f
f30ae8eb
ecf3fc05
f7e6e7f4
00070916
f801fce5
fc0a0702
f8f6ecf9
ff0401fb
00f4fff9
e80be7fe
e1e1fcea
ffeef7f7
fc091010
06fff9f4
00eef10c
f7f90b09
efedeeef
f3fcf8e5
0afb01fe
18ff1513
1d0a0627
15293021
fe0dff2d
ff080507
04000002
0410fefc
04101304
02010f07
ff29dcfa
f7030bed
fdfefbfe
f50ff8ef
f919fdf5
f8000cfe
fcebfd02
080df3fe
d4f0fbf0
eee5f6d4
f6f1f7ff
00ff0d09
ebf6f1f4
00010e0a
07090403
eeeb00fe
0001f7fb
e2ff030c
e0e5d9e1
fcfcf7eb
f0ff01ff
f5f401f2
1400fe04
ef081300
12000a0d
00160c00
02020102
1501041f
fc120007
ed03f9fb
101000ef
1f0d1a08
09fe0b11
fdfffdf4
edf3fcfb
f8f2f6fb
eae7e8ea
eff2e6f0
ef0f0616
1d072700
f6f3f918
0e03fd00
0204fafc
fbebf107
fafcfc03
f804f6fe
fdeafafe
10fd0316
091b0715
f3f80102
f3f9f3fa
1b0cf4e7
04f1f60e
f6151e09
0f1505ff
05021011
ebe9d8e2
e9efe8e8
f101ffdf
1605160d
1100fc1a
05f9ee0d
01020800
01f906ff
09ff0301
f6fe110c
f9edffff
fd0306f0
fff6e9ed
0313f7e7
fd0209f3
0fee000a
161dfb0f
f2f30108
0304fef9
030afcfa
07fcf0f7
0a0b0c06
fc00f101
0e010512
fd07f4fd
fd07e7ff
f107f4ea
f1ffe9ed
fcfb02e6
09fb0002
fe05f6ff
ecf0f7ed
ffebedf4
06f5fbff
f900ff05
00f90ffe
f0f3dced
e4fcf2de
1504f0ef
f50b0702
eaee0aec
02ecf4f6
f80512fd
f4fcf2f7
f7dcf0f7
080af4fb
09fb0300
fa190bf3
0df42f1a
fe010d14
fe0d02f6
fef107ef
edfe09f7
07fdf7f8
fe0000f2
f60001e2
01f6fafa
00010a09
01f90006
021a090e
17fe05ff
e505faf6
e2ddfeec
f701fdfc
effafdfc
f9f808f7
f500ec02
0314fdf4
0b0c1107
06030000
12060b00
03fe0713
e4edeef2
faf5fdf0
f700fe03
fbfcddfb
f0f1fde1
fae7ebf3
07efdfdb
eb08f9fd
f0ee0af1
f00e1200
fff70613
f2edf9f2
fc01eeee
f903f5f9
02f1fbf7
10fb0000
f4090000
f5f00bf4
ee0af4f2
f8f815fc
f3f6030e
11f3ff0a
1d14f225
fdf1020e
12fff0ff
000e070c
0b030804
03fafeee
14180e07
faf4fe01
f40507f8
11fd0cfa
0a07f40d
f705fb03
0af70509
f607f406
0000fffc
e4f5fbf3
ed0001f1
02f4f80b
09ffeafc
04030903
05ec090f
dff300f3
f2f4f5f1
0001f202
080ef7f2
fbf80005
f4080107
09f9fc00
f500e611
f6e7f7e6
fef01300
fbe9e30f
0f09fefb
0f0f1a0a
efeffc10
f602e0f0
fe000bf5
f20301fe
f7f704fd
d9f8f8ef
f1e4eef2
f2011503
e5ef00f7
11fe03f5
10fd05fe
f3f30a07
f5e3fcfb
eaf8f6fc
ef05fdf5
ff03fafa
e6f4ebe9
f2e6f0dc
fefc03f8
f203fff1
efecf3f0
eddae4ff
0af4e4ee
2102f702
f814ff00
fafbf4f9
f701f9f2
e4edf0fa
e3f2deef
151af2d2
09160500
17000a05
2a252901
14340d08
f4fc0301
fff709f6
f4040f15
08eefa03
140afe07
01030e0e
f1fe08fb
08fdfbfd
ff0403f9
fc0508fe
0d07f402
0e1b05fb
000f01ff
f90300f5
f7f7f9fb
030d1205
06020800
050c0a0b
f90c03fb
faec06fa
f5eaffeb
fd00f50e
121c060b
07171407
0b041412
1d181206
01170a12
f80700fe
fdf909fe
e8ebfdf8
fae5f90b
0efdeaf4
0808000f
0000e9fb
fdfe0101
07faf5f7
f7e3e510
f1edfbf6
010d03f5
0d0e0f16
05051916
02f8fe14
fefadaf4
fe0a0500
0cfdf00a
ffefeaed
24fa09ff
e1e7fd12
f0fdf609
070a0af5
f9fe0dff
08efeaf3
f50102f3
0501f80f
fc150b01
15001b25
f6ee0f0f
0300e704
0a1000e1
f5fd05fd
08f30d00
fa111212
fcf301ef
ff00fc06
ee01eff2
e6ebf6f2
02060508
f501eee9
eef104fe
edf5e9f3
f2f600f9
0209f201
fc090302
f0edfafb
06140bf5
ff0c1200
faf8fb05
fc0004f5
fefe03ee
fa000a00
fe01ff00
f8f1eef8
020df6e8
04070201
07040a0a
0706000f
ecea0100
f70203fe
08030319
f20808fc
f6ede3fd
f2f7f1f7
061cfced
10e7f30d
0901e6e3
00f8f0ff
f409fcec
17090f16
0a0dfe00
f7f2f5fb
01f70000
0c0a07ee
f7f8f6fa
00fcf4eb
1619fdfc
fffffdf0
08000106
f30c16fc
f809080d
05120104
efefff01
0e070d10
f2ee001b
e1e0e9fc
f6e1e9f5
00040005
f9f201f7
ec07fffe
d5e6e6da
fd0df3dd
00f3fdf8
fbf40113
070403fe
06040f02
00fe0206
f8fffff8
fb010cfb
fafff4fb
fae9f5f2
f1fbdbee
11feecdd
070f0202
f7f6f4ff
18fa0605
03160418
04e8e7fe
03f8f7e5
081401fc
f105fcee
eff50a07
02f6f203
f008f9fa
d4f7dad4
e5ed04cf
200c0e04
f2041312
f3ebf2f1
ed0713f8
00ef0d0d
f009fcfd
03e1ef00
fa0302f9
f0fa07f4
fa060ff7
f7fd1505
fffcfff9
f81712ff
fdf31914
f70f01f7
fd00f700
fafa08f4
040a0dfa
160c0a07
21052434
0e0d0700
050a0609
e40efdf9
f9f506f1
edf613fe
def1fef0
fe00f4f7
fdfbe2e3
fa0906f4
f3fbf607
0a140300
aeee2011
07ef09d8
010c18fe
030b00f6
2119000e
01d5e4cb
0502eb07
ef320ef6
010df207
fbfdf605
070e0200
f20900f3
05fc06e8
0f18f612
fb03edfc
01feeaee
f91401f9
070000f5
e0ddfbf4
fbfcfee5
cd02f8ff
e3e2f5b9
08f9f70e
faf7f4f8
f101fcfa
eef1f403
11fd0311
c4e70802
f6fa0208
00ec0712
12100df5
1d110f16
00f5faf0
f205f705
fc30fffd
f3f4f5fc
e6e6eced
fef507f0
fb11f209
0a07f7f7
05010c07
050cfbff
00071005
ef04effe
00f70103
f1ebf1ec
07f5f7ec
020dfffd
ffecf5f2
f5f8f7f5
f9f6eafc
fbfcf0f9
09170afb
06f9db05
cee60be7
0d1306dc
10fd0606
2911feff
01fdf701
071c29fa
fd07fce1
0afe0503
fc0c030a
ecdf0405
edf8ef00
f1050c0f
f501f5fe
03f600f9
f1fb0004
f4f2fef3
01eb0ff6
06ff000a
ceeb050c
fef60df3
e2fe170b
fe0c04f6
ff1104f0
050ff704
f70502f7
f402200f
05140a03
3af5010d
ff0004ea
fef8dffe
ece3f8e2
f6f5e9f7
ffeaee02
1000f209
f8f5eb01
0bfdf3f6
2d060d0e
fb16f302
1bf5e5e4
05041911
01050211
f6dfc5f4
19ff0403
f2d6ee0e
05000006
1fff07f4
fa13fb16
f4ee02fa
00001520
f6f601f0
01fd34fb
efedea13
080206ee
fbe0e6ee
05f10208
f502fbef
ebf31105
f901f1f2
07e7f500
06fae0f7
f10cfb00
0e3efaee
05fdf501
cdf5fae3
1200eeeb
0b0205fc
f609face
05130d00
f4f9e6fb
e9f6fef8
0be2f9f0
fe01fcfc
15f3000a
0b020501
04ede3ef
f20105e1
06faf202
e9f51101
fa02de01
f7f510fc
02000008
5d12fcf2
ea09f720
0eecf2e8
f3000004
1018fd01
f6fafc02
ecf6eef0
010df8fa
060c0f07
0007fe19
090e10fb
00010e05
f6fefa12
fef602f0
06d2f901
f703def8
040bfdef
f6fffff6
f8f8000b
fcf9f700
fe09eeed
0d000824
ee04edfe
07f4eb08
fef5f0f7
f0f5ebf3
fbfef3f6
f4f90414
f2e8f5f0
f802f9f2
f1eff1f9
ff0800f2
fb05fdfe
f4f5fe00
e5e8f804
f8f5e9f2
110602e8
effafbf6
030d0709
fe000800
1805fa11
f8e8f603
ee00ecf2
f1e7fcec
f001f9f5
f50902f4
edf2fee7
09f6fa04
f61f06f5
fbfa04f6
f713f2f3
19fe0c0a
030d0116
f5fa00f9
fef0f604
1414f900
04f5ffe7
00040101
f3f2f5f2
06f6000a
f0fef708
f3030df6
fb020305
f706faed
01ebfa0f
14f8d9ea
f90afbfc
e7f700ea
f413fef4
fee90b03
0800fbf7
f81b0e00
0c0b000f
edfd0800
00eeeeef
fbfbf808
fc02f6fd
00fafaf8
05130207
07000cfc
05fbfe04
0607f5e5
f4fbfaf7
23eae6ee
f30ef712
f3d8f5fb
ff05fc0c
f3fb06f9
f7ecfc07
01fcf1e7
eff10d01
0a05f906
fdf704f9
f3f3f804
0101fbf8
fd00f8f9
02130c06
0c170d06
f7010201
1102ecfc
000bf701
00f108fb
0f0400fa
15030208
f70a0b18
eff4fbf0
030e1100
f7faf904
0d0efcf4
f0fef5f6
0401f3f2
0f0917f8
0007fc15
11d0fc0c
0110dffa
010e11ed
e3e90100
f005f2e5
0af6fffb
0f060803
010afe0c
fe080dfa
dc13f2f7
eae7fae9
fd00fffb
050401ff
00fef201
000eff06
00f30503
000dfe06
ede9fef6
edecf1f1
eceef4e5
030afaf6
fcfcfafa
e4eff9fa
0bfdf5fa
0d0807fc
fe010512
f4e6f1f7
02eeea00
0609fdf3
0e00f20e
e510fce7
f0f12715
f40101f2
0afb150d
0c04ff0f
00f4f1fe
fff8e7f5
06fc0700
0006fc03
02f8f601
fffffbee
e5e402f9
fdeaf507
0a09fa00
ff180901
f4fdfef2
0bfa0004
f700f900
080e100c
30170305
ff051116
00fcd9f6
08f20b19
fc0df5fc
e3ecd2ee
e4f4f9d6
000004fa
f80313ff
f006fd06
edeaf101
ecfaf5f7
eefbf7df
09f80400
08fd09f9
fdfb1115
fffffc02
fa0305f7
e1f6fff5
efeef7ee
09f2fc0b
0a041c05
0a10010f
fd060efd
f906f7fe
0a1102eb
f9fd0403
00fff7ef
030801fd
03f8f7fd
1604081a
0a04f908
04faf7fc
020309f2
142f070a
f1f91cfe
f2f8e0f5
fe06fdfe
07f4faf4
e5f8f807
f4eef7ef
f400eefd
f2f9efe2
031011f3
fafd04fb
eaf7f7fe
030306f4
fa04090e
ed0205f8
fbf3fdfd
f8011e00
0202010a
f6e3fa00
fcfdfbf8
1b0cf0fd
0309fd0c
0efceef1
0d050120
edff03fa
02f8f602
0a0ef9f1
0f040b04
02001410
050c01ff
ebf2fffb
07f9f000
03001302
f90eff00
021205f2
00050908
f80d10f5
09001216
1701090d
071405fa
0dfdf502
0412f6ef
fffb00ff
0000f0f9
f8f9f6fb
04edfafb
f5e8f000
e7ebf3f4
f4edefeb
02000df4
0503f400
0ffcf707
f4fef8fe
dbf0f2db
092407f4
eeff04f4
e5fee3eb
fcfdf6ea
fbfbff00
0bf93e2b
dae1fa06
fe03faed
0201060c
0c0b07fa
070c0302
0d010310
06f9f90e
00e5e1f2
f0f3060d
fbe9effa
00f3f915
020af202
0822fe00
07f80b00
0000f5f6
ebe8f4eb
fef3e2f3
f7fef600
fe0200f9
090dfaf9
faf90600
07fe0605
fc00fd06
010600f4
fd0507f3
04fc00fe
1007fffe
0c0efc00
0a0f0fee
eafd0300
05090ef6
0703060d
07f00008
18430bfd
08f52101
00021426
0100fb03
fbff02fb
fcfb0005
13f8f7fb
0d24fd04
f50001ec
0efffd10
0900f80e
1912f70f
e40701f7
fb14e1e6
e8ec21fb
05fc030c
0311f308
0df5f8e9
fd07fc01
030108ef
0f130dfd
03f90d0f
0af2f009
f108f5f2
11f711f7
0b05f815
f9f0fe04
fcf200fb
fcf6f703
defb07ea
eed0fff9
0b00f80b
ec0703f9
fbf803ef
00f30a09
e8faf201
fdf405f7
08fde8fa
0403fc0c
040d0e09
fd0006f8
0501ff01
0f0005f2
060f090a
00f2f8f6
0c00040a
f60ff907
12fd0209
fd0fe705
0b0a030b
021000f2
1101f600
f300f900
f30b12ea
00fd0af8
f3e7ed03
fdfcfd02
f3f70000
06fdfaf9
faeefd02
fbf0f1f5
fc05f6fb
fe06f9ec
f50304f3
10e914fe
0504f913
fbf9ef04
fffd0708
f20d0303
edfdf5f9
effb1b0d
0804fe0f
0501fc01
f9faf2ed
ff0006fa
eff6fb05
f80e0ff0
f7ea0d0b
00000310
03040902
12090105
fc0efa00
0a04f7ef
140ef91a
091400fe
0400fdf3
1a0a02ff
1005fc05
1005010c
fff5fafd
20f1f31d
0509d908
0208fd05
edf0f4fe
0afe0b04
14000007
030001fe
05000a03
20090905
0d000111
fcf2dcd5
02fd0206
0b0304f6
ff000100
f5e9fd0b
09050100
04fff302
f1020401
f8e30504
fbfcea01
fdfb0202
00051209
ff15f1f5
df041aee
f7ecfa0c
f4fef2eb
0aef00fd
1206fc1d
0106fbe6
fe0305fb
12e3f90a
ff02ebf6
fbfdeeef
0dd807ee
1208d902
f709eadd
00f20a00
04f6ef0d
11eff41c
fe13e5f0
0deef500
00fdfb09
f9fc17ee
05fef108
f7f8edf5
f805fefb
08fbfce9
03fffc0a
f504edfe
050cf6f6
f804f6ee
fd0003f2
0bffeefc
ecf6fade
0f06fa02
f01bfbec
f9fd05fe
ededf70d
11f8f2f8
220ffc20
faf2ebf9
f5eaecfb
ce01f6ea
032001f3
f4f322fe
f1f001ef
0af9ec00
06fc0305
ebeef30b
fb0000d8
0ef306fd
e5eff40d
06eff00c
eb0af0f6
00f80201
0606fbfc
08ff1c07
050dfe0d
02070700
f207fbf6
f2f7fde3
09e2f009
fc00d8ef
edeffe03
03f1eafd
05f9f9fc
13ff0910
f9e9f407
f8030203
ebf901f2
faeb02f9
0004e70a
09050a09
11060302
f1f5e3f3
e0eff6e7
f0fb0af2
fdf1fcff
e8f7f0f0
fdebedfe
f509ecf8
fbf002fa
1601f80b
01010101
fafe07f8
03f0fc02
f70afb05
feff050a
04f9f60b
fffff6f5
0609f1f9
f0f502f3
fffcfefc
f304fbf4
f3f70af0
f4f3f8f4
110ef2f1
f6edfa01
f8f8e1f1
f80ef5d7
0e0d0a0e
f80400fc
0001f8f3
00f8f2f3
02effff8
e1e4f710
fae1e6f9
0200e2e0
fd05f400
fd0a0fff
fe02f401
f6f806f3
0fff1e03
06fcee0b
ef01fff9
0605010c
0bfb0cfe
00f301f9
04fd02ff
ff13f00a
f40000ec
003414f6
01050707
dfef00ee
07e3fcf6
f801f6fe
f0f502e8
f4f8fefb
02060f11
08000207
eeed080a
00f6f9f9
f1f1f9f9
f71516f1
ffff5032
f9020405
01fcf602
f5ffecf9
f7ff02fb
ff100201
01fb0201
0000fd03
fd06f7ff
f30309fa
d4f2fdec
f0e2e8f3
eff60c0a
e6f8f2e8
fb0105f9
fffefcfa
040e09f3
0a180e00
f5ff0e06
e6f4f6ed
08e6fe05
0a030b01
081ef510
f90913f9
f7f8faff
fafbf100
efe0fef9
f8e9dc03
f61202e4
03ff1302
040d05fd
fefd1103
101c0304
02f90500
00070a07
fe00f5fd
fcfdeef3
fafd01f6
0b09fd08
fb03f904
1106f9f1
04f2f803
fa04f2f9
2e16fff4
041eff03
fafdf7ee
03fa010c
f7e2e8f8
f5050101
fb00ef00
0b070af8
08020516
f2faece9
f6ecf8f0
f41b1110
01f9feee
151b0d0d
f7e6fff6
1d0401f3
0a000a1e
f315000a
fa06f4f0
0feff606
f2170ceb
00fbfd20
e4d706e1
18f9fe07
fd0b0003
f606ea04
0fececf5
e8e6f605
f4edeaf0
0de7e5ef
f5ea0b07
d006f0f4
0c141310
eefef9fd
00ecff02
03f7f5fa
f409fdfe
0102fa02
09fbf9e2
fcf22010
c0c3f00b
0807fe0b
090004fe
f3170004
07e5fefa
e9f51817
f4eaf3f2
07fb04ee
e6f1100a
ecfc06e8
f4110608
03000011
f11a07e3
fcfe0303
e8f40d06
05f009fb
03060d05
edfbf706
10eb00f3
f9f700eb
ff05f3ec
ecfbf408
010707fb
fd05f705
dccbea04
fa180104
dff301f0
08f8f4f4
f4f50bf3
ff20f3ea
fb1c030d
ffe9fb08
f90301ee
07efe9f6
fd0300ed
f2f3f0f5
0e100bfc
07050306
ebdcf90c
11ef0af0
0efdf7fa
1c08f3fc
f6e9f5f9
0715f1fd
dd0e0001
05d3dbed
1316f905
faeb0d00
1017090b
f4051e00
0006fcf1
0cf30e02
07f5eaf9
0c0104f3
f005fa02
faf61115
d3c1fbee
f304fe2e
0bf9f607
08011600
ff0508fd
0600ec08
08170df0
e5131100
000400f5
0009fffd
f7fcf801
03f9f2fa
05090600
00010c00
fff8fcf8
f3f80b0d
ffddfaf2
f30208fe
f4f2f00a
fcfb0501
f60101f6
fefbf504
11fcf705
f40bf4fa
4a180212
de01f7fb
0bf8ee00
2a1608f4
f804071a
ecef00fc
11fbfcf4
edf8f6fc
09e8f4f6
e4fb070e
09cce3fa
f00fdbf6
1f0a0a0b
0b0a000c
fdede6f1
0cffeae4
f7150404
0809f5f8
f1050a0a
04f603f9
0a0d0e0b
f7f2141d
04fafeed
ee2a1afb
fcf4c2db
06fffcfb
0a0008fe
12090cf3
eb0beb09
ffd8c4db
1411f1fc
00ec0309
f002f5f7
1103f6f4
fb0bea0f
19fe07f3
06fd1b0f
f4f4fafc
f8091ff9
09f9001f
f2dae0fd
fbfae0f0
e70cf3f5
fcfe00f6
f70ef8ff
160702f9
04fbeb1b
11fe090c
140d0013
04f3fc07
f70a0902
000af8ec
fc0607fd
0bfdfcfd
0008fe04
06f301ff
001112ff
08050901
06ff0b13
07161109
edf40410
eee7f702
06f1effd
070417f9
00fffc1c
04fde500
090feffa
091d1704
f2fc04fa
f20102f9
fafd05f5
0b06060f
fc0700fc
01f1fefc
03f3eaef
1f0906ff
04fcef23
000200ed
0d1208f4
0f110809
f1040d12
f1edfefd
f5e7f8f8
130b2402
faf01b22
ece4f2f4
ebfaeff4
f902e9e0
fffb02ff
21f9e4f5
0b07061f
f3f1f600
f504020a
efebf9f8
03ebf3f5
f5fbf6ee
ff05f7ed
f3eefb09
fafbe9e4
fffc030b
f6fbfc0a
09060e0d
141c0007
fcfcf908
0b030107
edf000f6
fcff0df2
0303120d
fc0bf6f5
e6e4efec
0ee8de0b
f401effa
fbdff2fa
0a00eefb
f7f6fd04
fbeddff7
fefefcea
14040c0a
06fdf907
07f2f4f9
ff05f3fa
04100201
ec041907
0101f2f2
edf1f3f8
f8ececf3
fcfdeae7
051207fb
ef051505
d4d2faf4
091504de
f30bfaff
c9e201f4
06f4f7ea
e90c0b0e
0a00f7ff
05150a00
f9000009
f5feedf9
eddbeffd
09f8f1fc
f701051c
eff5fdf6
ff060402
fef200fe
eff403f7
f0f3e5ee
f6faf5ec
f504f4ec
fdf4fff5
1609fcf2
16201113
0a0e0ffd
00070509
fb0c0ffe
fcfaeefc
ece5f3f0
e3cfeaf8
fbf7effb
f4f909ff
01fff204
02f4f6f9
ff050e03
e8e8eeff
0feff7f7
050ef0f6
f5eef706
ee0afefc
d8d80df4
edf7f8db
f8050312
f906f4e8
0afbfdff
fb08fbf6
17fe0bfc
0907f2f7
0001f807
f50000fd
10fe0413
f9f9f1f1
07f5fb02
040f0dfe
fa0fe400
e80e0beb
05fdeb02
03ff03fd
05f8020f
fa0bfafc
feef09ef
f50207f7
f1f3f409
f800fcfc
f8fe03f9
f7ff08ff
eb01fe00
f00801f2
f90218ea
02f3040d
e812e8ee
00ea08e0
0efefe16
ff16f6fc
faf304fa
f8f7e6f3
07edf3e8
ffff0001
01f7ebf8
f206f103
03e1f5fa
0a01fcff
030408f6
00fff514
0af2f6e6
e9e90009
05f003fc
00030307
fa060a09
07f0fe08
0d020c10
f800fb0c
0cf4fff6
f806f2fe
fc1100fa
ed0622ec
03f20209
0c03f3fe
fa02feff
03fc011b
f308fa03
04f21b03
0dfbea16
00effcdf
fc02fcf7
eb05fc05
f7f301f8
fc05fdfa
d706f5f6
e4f20cf8
00f0fafe
d7130ee9
fff415ef
ff030315
f1020008
07fd0d04
09f1e118
f8f902fe
0cedf509
f920fc00
f0f310fa
fb13f604
0500fc06
e4fe0d01
f7da05fe
f408fc10
09f8f503
1f0f04ff
f8091010
0ffd0309
fae5fc04
09edda00
0705f0e1
010bf3ef
060800f8
fdf60008
1fe50f2a
f5f0f01d
0401f1f3
01fff908
faf8fb09
06f7fc00
0e1ef600
f8220eff
ec1a01e3
01f31af5
0507f417
e406feea
fd021500
03f8f604
02fa00f8
0c01fdf9
f8faf5ff
fcfbe8f7
001602da
ff07eb19
edeefd01
03e0e3d9
17fcdf16
1a05f9dc
f4140e16
092b0200
16091808
fee5032a
10fc02f3
010de600
f20302eb
f5eff6f5
e1f0d9ff
fee5fbfd
0315e8fb
1601f3f1
040303fc
03f6feff
ff0ee7ff
15f5fae7
0a1df106
1d1218ed
ee15f203
fbfafff3
ecff09f6
f9f00a03
df0221fd
2edd002a
00fad6ef
fefd0501
e9f31709
f7fffbfc
fe060303
0301f9fe
0a14fa0d
ecfcf6f1
f8ebf1ef
d8f8f1f8
efcefbf7
f8f3e5fb
030d04fa
00080104
f7ff13f7
f3f1ed00
01f500f2
f000fcfa
01faf9f0
fef0f1fd
f20d0000
30feef19
fd2d07fe
eff7dff0
ec00edc5
f7f40806
ef05fff3
eee300fa
f7f5ecf3
f8fef3f9
00f9f702
f7edf7f8
f9081f0d
ff000104
04f6f4ff
ecf9f9fe
e0f004fa
f3dde80b
06e3e1e2
fb040c0b
f7f70302
fe04f803
0b0dfbf0
f8f80406
16fbf111
f6fc0afa
03fcfb00
fff3f901
f40b05fa
ecf102fa
f3f5f2f1
fdf003f9
0301090c
ff0b0cff
ebeef916
ffeff5f5
0efc0807
11140103
fe02fe0f
0405000b
04f60dfb
fdfbe9f6
f5f9faf4
fe0bfce4
fcff0e04
07fae6fb
f4000801
f3edf3fd
f9f8fbfb
e3f0fbf1
010407fb
f407fffa
f2f8eae3
fef5f7f4
fa00f6f4
f6fdfaf4
07010c02
f2031bff
0900ef07
0c04fdf3
0a00f703
e8fbfdf7
fadcf704
0f15e406
10110407
fbf200fe
180dfe13
f6fcf803
f8deef00
faf5c3e7
f50003d8
01f2f4f5
03071804
11050908
fef90305
fa0b11f5
e8e20efe
04010006
fe061afe
2201f205
00380eeb
02e5f9e8
09f60e04
f1edfc09
ef0c03fd
e7e3ffe7
f8090cf9
03040708
d9ee0303
00deeaed
1405ebf5
fd1809e8
101b0810
f7040601
1706f80d
03010a00
070f2208
f5fffd19
f90307f8
0707fbfe
1b090500
f51017fb
0e071c1f
08ff0016
fe0cfd04
05fc0400
f10d00ff
02e9fb03
fc04f3f7
02090900
ebebfb05
fa141604
0efc0f16
e8e5f10e
f3fae9f1
14fafdef
041f04fd
01000a00
0b071808
f5e3020e
f1ef08fd
0003e1e8
00fdf8fa
eb1311f0
03fb0d03
e6eefbf7
0e001009
f901fd05
fde7f000
10040016
08fcfc0a
06fdf306
14040e01
0e01180b
f406fb03
fa0003f7
1608fc12
1316190d
f600fbf4
f9f4f801
fbf3f7f5
fbf5f500
f8f20703
0df80113
0afb0613
03f90e13
0dfef114
fc09fe04
fa08fcf6
00fee9f9
fb0206fd
020a1300
07fa0808
0207060b
00110006
0cecfa0c
faf8efec
0001faed
fb0b0e07
07080909
0100000c
07030bff
f9f9000d
f0f400f3
f7eaeaef
1a15f006
2208ffff
1c0205f8
f0f6fff0
01fe01f3
010a05f7
04f802fd
150dfe07
04070b07
f3fbfbf8
f3eeecf0
faf6f6f4
fceff4f7
0808fd01
0f000a09
f60c0308
fefeedee
1706f5f8
deeee8e9
e0e1f6dd
050a01ee
1211150c
0302fb15
1000fefb
fc141008
02fff9fc
060b0608
020b1600
0bfc1619
f7ecea0e
fceff7fd
131708fd
0b0c10fe
f70700fc
0a16f8fe
07101a01
0cf6fc00
0a050413
fafcf702
fe06fafc
fcf9fcfb
f5f00700
f8f209fc
01f4f904
f5f7f6f5
f8ffeeec
fb0009e7
0f07060e
f30000fc
fbf7f6f5
f7fdf901
010716fe
1104f808
fcfefe0c
faffe8ee
ef02fcee
07fff8f9
09060304
f4fd0e2a
efe6f2fa
fbfdebe6
0afaff02
0c0502ff
f3fefbf1
ebf101f4
08f6f202
ecf9f0ee
f8fa08eb
eff5f0fa
0bfbf8eb
00040d09
03fbf700
f80af203
faf6fdf3
0414fff2
f9eff7f4
f800f3f0
f6fa05f0
ef0211f7
eaee0ff7
eaea02fe
0e06f40c
fd0deff8
03030204
f80a02f6
f2030507
fd0605e6
05021b14
f8020c00
f9f40e08
041c1b0d
13051709
fc00000e
ed0e08ea
00020000
02fe04fe
000aeff5
eaecf4ee
f4e5faea
ff151907
06fd0c19
eaed01fd
f4f0e2f9
fdfdfbef
02f4f50b
00faeff9
0cfe0606
0201f409
00f7f503
090500fc
fe0f0807
06fc1314
05fb020d
fe1e02f3
02ef0af7
fc00feff
faf6fcf4
fcfcfc00
ebe9f401
fcfefeed
07fdfe05
e8ebfff0
06eef304
07fef6f7
0206fb0b
feff0401
f100fdf2
f0f8f9eb
f8f9fafc
f5f00000
fdffe3f5
05e7ef11
f908e9f7
f6f70bfb
efeffd00
f40504fc
ebf50ae2
fffbfafb
e1f8ecf3
f5f6f4f0
08e8fe05
fdfbf700
01000202
00fc0003
120c0a03
16120714
fbfe0001
f10504fc
01fbfaf7
0d04ff06
07fef3f9
01000703
08fbfa0c
0cfa0313
fc0cf908
00f4faf6
04fa01f1
edf5f309
feeae404
eb04ecf1
f300f3ee
04070a00
d4f7d4d7
d1dce7ca
080b00dd
fb02f6f6
f0f808f1
f5f2f6f2
fbf500fd
0d050100
0a140f00
07f60003
f4fdfd0b
f3170dfc
0c004422
0704f135
ffff08f8
10fafd09
12080a07
f700fc03
01040706
0b0d0cfa
fbf00210
04fbf500
f3f603f7
f7fc03fe
00f8f9fa
0f1af0fd
fe0b0705
f8f6e5f2
f401e4e5
02fefae2
f8f9ecee
f9f600ff
fbe5f20a
f8f5f4fc
030c00fd
feff0afe
0206fcfb
18060113
f3f8fb03
0cf2fffe
0a09fefb
07fbf8f9
f50fe6f1
f9ec04f9
08fc0009
fcd6d7d9
0900f7fd
f6dee9f6
f6f5eeec
f801edec
ff0600f7
04f80800
02ff080e
09fffd0b
ff040400
eef3060a
071a0b01
0d0c0406
06f90d06
000fff02
06ff03fd
00090409
fe08f704
0ffc0a0b
fb05fef9
09f8fff6
0b03f5fd
05150e0c
ff0c1100
0a01f6fa
fe00f103
0c020502
f80d0902
f4fa08fc
00fd0b06
ffffee07
0f13f8f1
ff0c07f8
e50a1104
dbdcf4f2
f2e9dff4
00f2e9f2
0b00fbee
05e5e6fd
030bfbef
0a09120b
000500f6
fdfdfbf6
d8e0fdfb
f3e1edec
ea00fefa
f0f4faee
ee2b03f2
fdfc21f9
ecf80412
f5ffeefb
0de801f1
f601120c
f9f7fdfa
e705faed
fbfc040a
f2fefee8
05f9f902
02f7f6ff
fdeafe03
fdfbf1fb
fff7f3e2
0e1efdf9
00f3f601
0002080b
faecffff
00f50617
18060701
00ed0103
0705fb0a
fe0af00f
01ebeffe
fbf6fb00
fcf20506
fc0907f2
f5ffeaff
0b0902e6
02fdf6fa
06fbf4f5
f7faf5f9
0b0004fc
ffedeafb
f9ffedeb
f3ebf0fc
e7f2f8e5
1ee8f404
fdfff7fa
fb05f502
fb010ff4
02fe0300
0afefafc
000903fb
f3def812
06f404fd
11fdff0a
fd02f9fa
0c07fefa
0d080f26
feff070a
03efdcf6
eff908ed
f2f4f8fb
01050ffd
05f6fe04
f4e3f504
f90a0a03
05fcfcfd
fc0f0efc
fff7ca04
07f0fd18
02e905fc
03f703fc
08f7fd04
040c0508
00030200
040d03ec
f30304fa
13f0fdf3
0706041d
f3ee15fe
0e110803
ee020502
04000419
e8012413
03f11bfd
07120508
061400e4
ff130803
0407fc0a
fcf3000e
1306f400
e6330bf0
04060a08
ec0b03f8
fb0100ff
ff12f2ec
0f10f9fb
0c0003fe
fc00eefa
e600fefd
06fafcfe
00000dfd
fd080415
08eefdf7
fff2f90c
01fcfdf9
05f5fd07
f7f6f6f5
eaf4f3fe
021406fc
03001005
15020003
000f0219
f00805e4
0bf9001c
f3f1f3ed
02f7f7f0
01f30001
fd1105ec
f6f20701
fbe9100a
0ff400fc
0e04d6f0
0213eee6
f70f05f7
fbf429ff
120cfd09
f3fb12fc
f50c0efc
dbea05df
06fa04fd
1cfdf6ee
10101a0f
faf3030e
e9edeff1
faffed00
00080901
fff30400
ea02f9e9
0a100404
f0fd0f07
fb000409
e9041500
f8eaeafe
05f90400
0a3609f1
0cf31104
0706f808
0106fe00
fd040008
01fef0fe
0704fbfd
02f6f301
dff2fe0a
0702f8ed
000e0805
f300f2ff
edfbfaf5
fffad4ee
12ff1b12
182105fd
07080600
0b000b11
0102060e
05fffaf7
f703f1f7
0d10faff
09f7fe04
030304fc
02f9fc00
fefa00ff
00fa0200
040b0c03
06f50905
010d0300
0e000cfe
00050303
f8ff11fb
ffef0706
08f8f902
1601fff4
fff4fa02
0400ecfd
f3fd041b
03ed02fa
faff0306
ff000aff
ead4eef9
0d101402
10000b24
ff010a18
0dff0606
f0010415
0afd00e2
05010a00
0a03fa02
fafdf60e
01fdfcf7
21110e04
f1eefd14
eeeff400
0401f7e9
040e0307
0becdef5
03031401
ede6ee09
e8f0f2f6
1904e7ea
e9e4f90a
f1e6d7ef
f3f7e4e7
090106fe
f7dacbf8
13fc07fc
f9f0f609
f6161c06
0006fe10
030001ff
ef090305
fbf507fa
faf4f506
fd0002ff
eef4f5f4
f40f12f8
ecfbe7f9
fe0300e5
faf3f502
f0fb0701
fcf8ede6
fb140ffc
ff0e06f4
edfcffe8
0310f9f0
fff0f9fa
020004fa
05f5fe02
0501fefc
f900f9ff
00fe00f2
020f1409
f903fbf6
eaea00fa
f900ecf1
e6fcfc00
0013ffff
0dfe0b01
fa020d20
f1e3fafd
08e5edef
000405fd
07f70211
010cfd03
eefbfbf6
fdf1f8f6
03fef700
eef7fa05
0903fbfb
13f2f0fc
f8f6f003
f7fff8f9
03fefb0f
ececfbff
03fb00fc
05060e03
0200f601
fd000b04
01fdf6f1
fdfe04fa
efed00fe
03f7ecfc
07f8fdf2
00fef301
070203f6
f0f10613
e4f4fbed
fafb0602
e9f8eef1
fd03f9ed
08f4f9fe
ebf300ff
0d02fdfa
ff020a00
e5eeeef8
01fe03f6
08f0f4fb
000cfdfd
f3f7f8f7
f6f8f2f4
00fffcec
060c0404
04000301
f4060500
e8e701f3
0c010000
0f15030c
050b0001
e9faeff5
06f6060f
fa05fb02
f3f6f6fc
efeef800
eaeaeded
f1edfced
01f8f20b
fafb01ea
f0f7f905
0210fbf4
0a060d08
0004fd02
0a06111d
f4eced00
08030e13
0d040b0f
0007fe06
ed0000f9
f8fd02f5
f7eef4fe
f8f9e5e6
f6f8fefd
1a00fe08
020cfc08
fdfbfcf1
fffcf900
fcfae5f7
000604e5
f5fbfffe
0df802f6
090e1709
1d06020e
fb02ff00
0c0000ff
f700f30e
01fcfffc
00fa0a1d
0b06f5ff
00ff0c06
feff08fe
0400fa06
000702ff
12f905fc
09180621
0e09170e
01000511
06ff0008
04fd00fe
020ef4f5
03080a03
fcf9edee
06edfb00
031004f5
fbf800f8
0b00f9fa
0809fe04
f70c0f02
f5f6f8fd
edf9f8fa
fdfe06f2
f9eb0b04
fa00fef5
070207fd
0201f50d
f3f4f6fb
02f4e1f3
f2f0f508
fcf0f5f4
01f8ff03
f504f0ea
05fa05e9
11fffe06
f7f31301
e5e7f0e9
0ff2f2fa
f9fff60b
f3dffafb
0a06f70d
12150d07
f8fe020d
160c0b0e
fbfd0a27
f6f7eff0
fbfc0eea
f8fbfc12
f6f0f4f2
06fb0403
070a0405
fe0f07f4
0c0a1903
04000218
00ebfafe
f700f9fe
07f40704
03fd180b
f703f900
f201fcff
00f8f6e8
0004eff7
f5e9fff9
02f5faf5
f8f2eff2
04020508
0e220a0b
f6f907f1
0907ecf3
f8f4f2ed
e900daef
0003f8d1
08000106
0a171004
eb01fef2
f40e1eff
11fe000a
f20c04f9
f5000406
e8f5fce9
00f0f701
fa0afced
040000f5
1102000d
f71b09fc
ff08f7f6
f4fefcf3
0606fbf0
070017ff
01190a07
14040f0c
fe030d07
fcf7fafb
fe060700
0d081504
ed000d01
05f3f9ff
ecfcef08
04fb29f9
09ff0104
eef8f405
f7f4eff0
0bfc04f8
00fbf5f8
ebfa0afc
ede3ed0f
eee9e000
fcf9e0f3
f915eaf9
08fa0313
240b1319
f80d070e
01e2d2dd
e4ecfefc
f7efee07
f201f504
0a07fc08
0e1b0f0a
040c1408
060cfa05
fd18f3f7
f5fc00fe
0201fee7
f0eefa02
fcfcf80b
eeeeefff
0ffefcfd
eb0efaef
eaf20ae0
1ff7f315
f9f3f2ef
fd00fa1d
fbedf1f0
f4080005
e3030bf4
fc0b0ef3
08eef2fe
04011323
0efc0807
07fbfa05
030000f8
ddf6eb04
fc0107fa
d6fc01fb
fee8fdfc
f90de5de
0305f103
fef6f800
f8130f11
000efefb
ec00f305
fff00700
fc00e617
05ff0010
daf5edea
f0ebf3ea
0004f3f7
08f4fff2
0bfc0e03
000b0000
f4111312
0d0d0af4
fbf9f70a
050a130e
0efe060b
fb120003
07f803e9
0c0d0003
f41600f9
03f80900
01f5ec27
0012fc03
160514f6
1812fa22
f1120a00
f906f4f7
0509f8ff
11fd2419
1002ff0c
14110c0d
f22100f6
07041603
0d00f615
fb180f02
0e120e0c
fafc09fd
120c050b
f804f9ff
e8e30cfc
00eb03fb
fcfbfbf5
02050400
feeded0c
06191814
ff13faf8
f81d000a
f9fc05f8
1f00f616
f010faf9
0ced2afe
0c091206
1f0d0616
07f804f1
f4f9ff08
f61005f1
fffb0703
1907f80c
f900ff05
0e0beefa
12fbfd16
f10f0cff
0aece805
cbf7fbcf
f5ddef00
0efdedfd
fb03100a
f5031af5
eeed091b
c7f1ecd3
f69cbb08
fa0f10f9
0a06fe0c
fadaf30b
ee00e209
fff5ecd4
fe00030d
0f000600
fbfffd0a
e0080bf0
fcf3ffee
faf800fa
131e0bfa
f2f5fefe
08f60007
00f6f604
1202030b
f8f20613
0c1a13fe
f8dedde8
cee3f5d9
071a03fd
fdff0d02
e2f2f0d3
fef300fb
faf6dfdf
f9fceae6
fbf3ff00
03fe0007
f8faf606
07e9f0fc
0310f1f8
140a01fa
0a0e0004
fd000508
fffbfe04
faf600fb
fefafdf6
0002fcfa
0af7e90a
e7faf4f4
f105fc00
f4f6faf4
f5f6fbf5
fd01faf0
00110a00
f0f7f7e1
f9eb00fd
fb0004f4
0a0f07f8
e7f2151c
ffeffa05
f408f502
04f71000
f6f80101
e5f2f3ed
f5ecf4e7
f6f800f6
00fafb00
e3ed02fe
00f1f800
f5fff0f8
e9f6f5eb
08f7f802
e90ef9ef
f9e801e7
f7100500
09f71c0d
f2fbf613
fbfafe00
00f0f4fd
f2faeef7
02f403ee
04f90301
1409000e
f7ff0806
fd04fa06
0c0c0005
12140a0f
fe0d0903
08000602
f8faf5fd
fbef000a
fff4eff9
fa00f8f8
0000f800
05fb1505
03e6f113
03fef5f4
0101f1f8
fa0a0ff3
f1ff0809
01f4fcff
f8f2f4f1
fa0afefb
0001f700
020a13fc
07ff0802
0103fd03
fd0700f8
fcf8e6f0
130608fd
0e0b0906
000f0007
241a0410
002313fa
fef90b11
06040400
f901fc06
f801f9f0
f5f607f5
fbf6f503
01fcfb05
0300ff00
0806f0fd
04fc0902
0f08fe04
f6fbf802
fa05f5ee
f4f204ff
01020403
fbfe05f7
0b0cf307
000b13f2
03f11003
f805f7f7
f8eefffa
ffe8f2fd
f900eaf0
0603fdf0
010dfff6
f60003fb
f2f009f4
08f3f717
170a021f
040cfc03
f6f8f1f0
0204f4e6
fc00fffd
17ff130f
edf2030e
03fa0600
0702fe03
0a0201fb
02fdff00
0b07100f
0f070a0d
0beee90d
081b0300
0a000e0d
fe120ced
14f3020e
08110608
0b120d0e
14f80809
0b080209
f4efe806
f6fe00f7
f4f1f900
0ffdfd05
03120800
070ffe03
03020001
f0f6ebf1
00f9f9f0
04fafd01
12fcf503
f8fefd01
040905fe
25072419
1714fe20
fe1005fb
fbf9fe04
f303faf7
0b031209
01fa04fa
0601020d
000805f3
f9f0fbfa
13020312
fe08f708
ffffe614
d6fe10e6
ffed0efa
0cf2e4fd
fafffdfb
07fef106
fc0400f7
0000fa07
061a18fc
0009ea00
e1f80cd6
fb08fcfd
0d0409fb
19060403
08050717
fdf0fa02
f5ff06f6
f5e7f8fd
0203ff12
01030df7
fff40003
f2fbfefd
e7faf2f3
fce900fd
f5fff90b
03f6f700
0c19fb00
0000020b
10fa0208
1df9fcff
f513eff7
f506fde1
03f90924
09030407
0cfbfe19
fb020407
fdf402f2
0801f0ff
0d2a05fb
01fd0cf8
22000910
fd0f070e
12fe08fb
fb0f0502
edf00706
05f9ec0e
f514f4ec
00eee9fc
01ffe8f2
00f504ed
f90006ed
f9ff0300
060300ef
02fd020f
fdf909f9
fffc0306
05270cfb
ecfd2502
0f00ee0a
0ffcf908
04f2fffd
01faf515
f8fdf1f5
02fdfe0b
000bf300
f4100301
fcfdff00
ff06f405
0c080af8
f010fe09
04fff2f0
11010109
f4140bfd
0ff30515
03f8020e
f3fff806
01fcfff1
fefb01ff
fbf4fe03
ef07f0e9
fdecff00
0607f4fb
fcfdfc06
fbf7f408
11f8fffc
ed000602
fbf610ff
f30bf20e
fdf9f8f8
0607f2f6
09f8ee0b
f40a01f0
fd09080c
fb07fff7
e7f5fd05
1100fe02
f107ede8
fcf6fa16
effe01f8
eb09e7f9
ecfd06ec
01ef0400
0a15eb0a
09021d07
fafafdf7
0fe8f3f9
d7f2fcec
070215ed
0bf7f5fe
d9f9f9eb
fef1ff01
05fbebf6
f3fff7fb
f2f2fef6
edeff808
0c06e501
051109f8
0601ee03
e50000f7
f7e0f3fc
1106f502
130b0e0a
0507061a
f306030a
050ee8f9
fcfffff8
ec00c9f2
eef1f4c6
f0f6fb02
0af4f9fa
e9000015
fdeff307
0cfce9f9
ef0bffe6
0b0c130c
02f4f508
0b0c0401
0bfcfc03
06070505
eaf002fb
fee601ed
0405effd
fb020510
f2fe03f1
f305fcf3
fbfffe07
08fb0eeb
fe082509
dbfd1007
00d7e704
1608eaed
1c131122
ff160505
0005f3f1
04030f19
08100ffb
f40006fb
0905ff08
eefa05f6
07f8f70a
1f050e10
f801f7fc
f307f5fc
00e42b09
07eced08
00fd02f4
f8f5fc0d
120c0a0b
fefd0005
01f60708
0100fd00
f6e5f0fb
dfeef0dd
01f5f2ec
f104f6ec
f0fe05f1
0606f709
10080a01
100c1810
fbfe0304
060d06f7
f700f10c
0df3f5fc
f41802fb
16081a06
e1f909f9
f9e80310
02fa00ec
f4fdfd06
e3f4cfd7
1cf236e2
effa0129
f7f6f5fb
f808f8f1
f8ff07fe
f8ec080a
00fe01e4
061ef813
02fa0107
fcf50bff
00fafa00
f81e06ff
04090909
03130a0e
15f20e0c
0e051212
f706fa06
0cfefffb
fcfb07fb
efe9eb06
fcfcf6f9
ebedf0f7
f9e8fdf0
18ffe8ff
f10af000
0fe4f6f6
e613cce0
20fa300b
03f80000
020404fe
020912ff
e3e9fbf2
0bf3fc00
e70af2fd
01ef07e3
f9f10005
0507ff05
05fe0815
02f8fd00
080e0002
09ff0c03
00fb09ef
08020002
03fef60a
e3f9d7e0
eae007f5
f2f603fd
fdfdedf8
e0e6fff8
09fcf5ee
05fbf9f7
ec00fbfb
f3eafbde
05fafd0b
fb01f901
fb0d04e7
02f908fd
0407fa07
12feff13
00fdeaf8
f6fefdfa
fd00fa02
0ce7f605
e8ffe4f5
fcfdfef5
00fd0607
f601ff0f
eeec06ff
f6f8f102
f2fe04e8
fff80000
050008fd
f8f80101
f5eafe01
ed1c0c01
01fc1203
06fe0414
f706f5f7
e903d6e5
19f5f9fe
0400f305
fc0204ee
e2fcfe0b
fffaf001
ebff0bf1
eff6fef7
0600fc00
060af507
f10606e4
050c07f6
fe000f04
f5f4fafa
fde6f4fa
f3f3efed
0dfa00fa
070b06ed
fa01fffa
fff6f3f7
f80110f8
03fff8fa
000702f9
fb00fdf9
d8eefaf8
e2ceeee9
f8dce3ee
f8040201
fbf500f0
f50707e8
03f90512
01e600ff
0af6ea06
f50afaf5
fde90efc
f806f507
f7f6f3eb
0bfef4fe
fc101602
02fc0e0f
00f50502
03f2ecf7
fdfd01f8
fefe00fb
090002ff
010301ef
10fd0704
e9d7c8f6
c5e9c5bc
f6fafad1
fb00000a
e6f6ff04
f1f204ec
f3feff01
f6fe02eb
010c07fc
f91816f4
0bf20c17
0c0e11fe
fc0c0a08
f3f9050c
0800fbf6
120f07f7
ff12020d
0a130f08
00000f0c
ea04fce9
090e0401
00fe0001
ed040808
01f1fffd
fc06faf6
0401fafd
fe0e0506
f8f5f3f3
01fffdfa
e1f3000a
fe000503
e1ea0312
fae6fdf5
fdfaeced
0400f5fd
f8fdeef9
0d070e0f
04050d1e
f3e806ff
05f4f505
e2eff2f9
030bf7e6
f9f4fef1
fefdfbfe
fbedfc01
f60afa03
040b05f1
02121207
03070500
12fdf9f7
01120203
f4fd0efa
ee05e8f1
eff202ee
fdfef8f8
0c04050f
12140607
08050b07
00fb03fa
04f700f7
01f9f6f3
03f8f901
fefdfd00
04f4e700
0500f3f2
04f1f6fe
08000104
02f90b07
0d11fd01
011c1e02
0b050d10
0008f010
f70006f0
0afdfbfd
0c1cfefe
021514fa
12ff00fa
fa0d01ff
f6000ffd
f502f2ee
00080d01
06f7ff0b
f802f90e
0b16f7eb
eef4fff3
fe03050e
f203f9ed
00ebeef3
0a05edf5
f61406fe
f600f4f9
f4f1ffef
0502fefc
01050808
0300fe00
f60400fb
06f8fc04
0005fcff
00fc0904
fa0505f6
0005f1f4
f5e900fd
fbfaed00
0dfb13e8
ff02ffff
fe0607f7
f8fdfeff
f4e4f8fa
0003ecf3
df16e8ed
1d2afce6
00250cf3
36fa0514
0f0ff309
e0eeffee
dceccdc1
090befd9
11f504e8
25f70412
0d141f09
07120b24
06ff0e01
0b0a0b0b
0310f401
dbfcf501
d1d6fce6
e7fcf2ee
c7e2e4ce
e9ee00d2
f3fbecf7
1104f4ed
ecf2f512
13f3e6fa
e5fd0ffb
03f5e70c
0b0eef0a
1c0419f4
ecd60012
eae3c600
e7f4f5f5
fce0f501
06fceef5
ff0ff8ed
16051c10
1d1320f9
1b001820
c3afdb16
eee3d7f6
fe00ecf3
02f7001d
fd0408f9
1a15060b
ec1e0dfe
feeeed02
edfccadc
1e3af7f1
04324d12
fdf62b22
faf0f3eb
21fcf6ed
06162831
e5ed0b0f
09faf50e
02040005
09efe403
0306f2e7
e6f7080b
030d04da
ed0a16f1
e3f4e1d9
fe0007e5
02f3f8fa
e9f70100
fb04e9eb
f0030fe8
1dfc01f3
13261227
0b0204fb
08f1eb12
1a16f109
07001303
0110f200
fddffcf3
0a0ff60a
d702050f
efd0fafe
eb00e206
1d040c15
fef2e90d
07130906
20130a12
07f1f512
fdf8e0ef
0f15f9ec
f5e9f8f0
000efbef
eff6deeb
f0f6fee5
0be8dff0
f4fcf8f1
f4e3f0f4
ddd7f1f4
db21d2db
f6e4ffff
04fc00ef
e6fbfdea
f10001dc
faccc910
dafcd6d6
ebf2f9df
f4002505
db08fa20
02f402fc
fcfe1404
121a1f2c
fff20a17
fb0c00f7
07f6f2f8
00cd0a02
f0f0d9fa
23f7e5e5
021c120c
f504f8ee
26ffe815
f500fefd
fee4df16
f0eefffe
fb05f5fd
fd1e2614
fd0c0915
e1cc02e2
d5f1d2fc
eceef4e6
fc0cff00
00e0d5ee
e707dfe2
101d0fe4
140d031c
f9e0150b
0dfcf5f2
03fc06f0
1507fefb
fd070c0b
141a0e0e
0801fc00
ed000203
f8f6ecf2
19fc01f7
04080b02
ed011720
0e020110
effbec08
e8f6f2e7
e7e9f7f8
01f3fff8
00090b0c
f7f8fdf8
f4e4e8fe
01f0ebde
01000a08
0d030305
f0fc1001
00000702
f6ff00f8
11001612
0901f813
fafb0b07
fdec0004
edf1fcf0
ff09fdfe
05e500ff
070af50d
05f5ffeb
02f20701
0105e706
05f3f109
11f4f4ef
f5ff00f9
e0f701f4
e8dfecec
e7f7f1e4
f1ecf7f3
00f6f103
140aeaf4
f70d1704
04f3f808
02040006
eff8fcf0
04010710
fb01ff02
e60a0cfd
0bebfd0f
f70cf7f2
ebfb03fd
ff080600
fcf50305
00fb0000
05fa0705
eb02ebf9
00fa07f1
00fcfaf9
fa09f904
01fbfbfa
f3f908fe
f9e9f4f4
ecf4e9f8
fc00fd05
01ff01fb
f8f6fcef
0300f400
0901efef
fef60107
f803feee
fd02effa
f90213f7
fafffefc
fa010606
fc07faf5
fd0306f6
f900fc03
07070403
02f504fc
080705f7
08130400
f00c05ff
04f20700
f1fff8fd
0d001107
faeafa0d
08fbf000
fd06fa07
0f000d0d
f9fafe08
f9000402
f5effcfb
fc0bfdfe
0c0c0cfe
f8080003
edf602f9
14e6f8f7
000ef500
f0fd06f4
fcfa01f6
fe00f6fd
effb01fc
1df70009
f302060d
edf500eb
0fecf1ff
1301020b
00fcf30d
02e3e205
000fe2e7
f90409e9
1303050a
eef1f0ff
e2edf2f8
1cfdf20d
0618fd0a
0af7fd01
fd071402
0b09090a
f5ff0e14
0af6fdff
04f9fbf1
fe03f400
02e8f7f4
f7f0000b
f6f7f804
1b020d13
11fafe1b
fb1506f4
0c061814
020aef07
f9090600
fff3fced
fff7fc00
f8faf2ff
fdf8f600
ee09eaeb
ebed04fc
0ffaeb00
1108f9f4
07190a05
0ef605f8
0500f704
f70502f5
0201060f
05f9080a
fa02100b
1df10a17
f7f4ea11
ecf2eaff
1ae3fa07
041bfd00
ed0214fd
fffefbee
f5ff0803
ff030cfd
f70a0001
f8f808fd
09f7f908
f700fb00
0000fe08
f100fcfd
10f9f510
fc09f1f4
03f8f7f9
f303f4f0
05f301f9
0805fb09
f9060904
f4f808ee
09f90402
fc000a04
f602fffd
ebedfefe
01f6f1fb
09f8f6ee
1200f70b
1108f8fc
f20806fa
09fbf905
04040001
f8f3fef7
00eff1fc
0302fafa
f9000300
fc0002f7
f8fefbfa
f9fe0102
04f5f5f9
05fef6f6
00020100
fcf81103
0df6f808
fb03f9f7
00050200
f0fe00fd
07ec0607
fdf8ef0a
fb0cfaec
fbef05fc
04f40008
0500fc0b
0af0feff
0d04e80d
010508f5
fc0af2ec
0400fe05
1fe3f411
0e16e607
f7fff3e7
08010aff
fbebf704
fdf8efff
fb04fe00
f101f9e8
f5f90def
02fcfcff
f1f408ff
fafd22fd
17000119
f90000fa
f7fb00f3
feeaf300
12fe0503
00fff50e
eb0c0cec
0ff30d10
fcfe1f08
06fe0908
0800fe04
fdfff30a
09f9fcf9
f50804f1
feea09fd
fdfefe03
eff9f8f0
f0fe0dff
05fd0d07
ffff0311
0302f409
fe08fee9
fe0dfaf1
f70411fc
fbfa00f7
fdfafcfb
fdf4f803
0300fe00
ee03f1f5
f5f40cf4
f0faf610
01fe05fa
ff0d0408
17e5f217
f611e9f4
05f1fdee
00f9f2f9
f1fdfff8
faecf9fb
db00f807
06ea0607
03fff40e
f50213ff
08fd0e0c
00fdff11
06f9f307
f6fafffb
00f1f000
fa02f1f8
030600fb
f90e03f7
07050306
f802fcfa
050af6f5
fb0701fd
0cf3fff5
0d02fa10
f804f7ef
0bfb0c11
0b05000d
04fafdfe
fefef3f3
02f8f6f9
e601faef
fef1fde7
06f6f50c
000afdf1
0b070403
f8091200
0e0cfd07
f5fa00fb
f9f6f8f6
11ff090c
0809fe04
000ffaf7
f8030502
05ef0203
ff00f300
fa081110
e3d40d0d
f3f5f80a
fcf001fc
1603f704
0005f709
0e0ee104
01fcf10e
faf5fafa
0dfe0d02
0208020f
edeafa08
f2041109
0dedf904
04f4e9ff
faf6ebf2
ff0c0306
fd0f09f6
02050419
0820f6f9
02f3f109
09eef70a
fd0efc0f
f1ff0df0
080a0af4
030f05fd
f9feeffc
1115f3fc
1507fc11
f6fefd05
f2fe0e0a
f4f80405
0a05fff4
fe01f8f7
050002fc
f70802f9
f2f4e2f7
0818ded0
04fafced
fce1e0e6
fdf7080b
ff00fddb
f3f6f3e8
03fd09f6
03140007
080e13fa
00010502
04f700f8
000900fe
14090a07
f7faf4fe
010b0505
1000fd0a
f0f4ebf9
1203fe00
0805f5f8
f4f8eef7
e80401f9
110bf9ef
fee7f515
01090503
ff030bee
fa0c03f4
05faf3f6
0322e0e4
fcfd0a01
f9dee3ec
f3f2ebf7
f5f1f3fb
00040a00
1b030410
05fdfa16
0d00f9fe
1d04fd0f
f7eafc01
02fe0c0c
1b090519
f6e2ec14
0501050b
f8edfe19
fcf3ebf5
0d0f08f7
1f0512f3
fdfefcff
21f9f0f7
f9f00614
eb01fefb
0ef0f2f5
02100000
140618ff
f707fef4
f2ff00e8
080000f1
f707f101
fcfff0f6
ff1112ff
06262d0a
29120001
0313ee10
f5fdfc06
f4e3ebf9
fffc11f3
19f9f806
dfefff14
f4ef0000
eb091b1b
d2e2ffe8
dcedf9dd
f9f814ff
00f70013
f4f4f909
f3fe0400
f3f5fefb
ecfffffb
03f4fbf8
200d0d18
f7f7f80d
0afdf0ec
121603f9
fd10fd07
f0190b08
fcfefae8
04e8f900
fcfeeffb
e1f213ff
f4f7fff5
0af3ff05
00030034
00f70600
10fdfff9
ebf4fa0d
f30402ec
0b0d1e0b
fafbff01
ff06feec
05f30004
faf80010
050e07f9
0afaed06
f304010d
ebfffcf1
020000ef
fa0302f6
e0f0f1ee
04f6f5fc
150100ff
f6eef606
2604e501
04040df6
f5edff08
f5fc0802
0afd000a
fe00fb0b
08f20802
03000011
eaede8ff
100609ff
f209060e
fcff0606
f8ff03f1
fbeffc00
fefbe9f2
00fe0807
13120008
040e1013
f00000ef
f3e3ffed
04fff8ee
0c0b0d0d
0d130f10
edeefdfe
f709f6f9
0d1b08fe
f8f8fb19
f60003ff
fcfcf1f2
fbd5edf9
0001f1f4
f70d08f7
eff5ed02
00060003
030309f7
f9f8fd0d
19ea0202
f1e9081d
fdf2eef7
15f80ef9
f1ee1313
f2f0f401
07fdf616
0b080005
fd000400
09e6e2f3
faea0f0b
fc040001
f1060009
fdf1f3ef
fbf2fffe
fc08fdf7
05fcf505
f100f3f9
00000500
161a0000
02060019
0bdfecec
fbecfd0b
00dae9f6
e6132d14
fef4ece8
28311d02
e6e6f7f7
0100efe2
fbffeef8
f40203f5
f0f5fdf9
070b06f8
09fcebf9
15150002
0af80914
f8edf409
2015f4f4
fc08fb15
31fceaef
fc0b0211
e1e3dee9
13f3e80d
020af5e8
0af6f505
0f0c0100
ebf20902
0cf1f200
f8081d1a
25060807
f9fef60a
fe070f19
ebd1fbfa
fe0d02f5
f7f00c01
11fef5f4
000afe10
ebfbf8f7
0111fedd
fb1a1411
eb0f0e0b
ebe9fef8
0b110cf4
ffff0005
f603f8ed
eee3ef06
00fd0105
e1f4ecdf
120b10e9
f1e9f003
09f716f8
f4ecf31d
f4fbf7ef
000c07f9
fbf7e8ef
080e08fc
051bf1f1
f9011300
f6fcecfb
0f1feae5
fcecf0ff
0bfdf2fb
f5ed0410
fb09f507
1bf60301
f2fb070d
f0dbe0fa
f6f4e7f0
220fffe9
23200a1c
f2fdfcf2
f3f7f1e9
f3eef006
0e151011
f9fe0605
e9e6e305
fdecf0f2
0a0604f9
0cf0fa05
0308f8fe
eafbf906
f5e1f103
ef0e0b0e
f1f8f4f4
1c06fd08
f600170a
e6e706ee
fcf604f5
10f4e6ff
0f08030a
051012fb
fff5f8f6
f9ffedf6
0e0f04f6
0df5f0fb
09140b04
050a0912
fc150a0e
051107fe
ff090f05
04f7fef1
030d000a
fd03f7fd
0cf70008
faf00803
f6e8f100
04f8f4fd
f3f90410
fefff2fd
f9f7fdf6
00f7ff02
f5f7f807
020b11fa
03fc0f06
0d0c0c00
fb060104
0010f802
f9eff606
f7eeefef
effa01fb
fafaf1f3
ff0004fd
fdfcfbf8
fe0af2fb
00fe10fb
0c0302f5
04040507
000a0c0d
0108f800
031407ef
f8140a00
f3ee0601
0b130af7
06ff1109
f7f5fa0a
0d03fcf8
090f1607
04f4ff04
fbf4f1fe
1410110f
feff0e25
f1e7fdf5
09f80005
fbfc0715
f701f6f8
fa0d0e06
f3f6000d
ece4dbf4
00f3eff5
13020b1d
0b160b0c
e2f401fd
0803ddd5
020af908
eb0501fa
fbfbede7
0a190cfd
0b000007
f402100a
fdfc0603
03f90108
1906eff4
0209f50e
fdf3f4ef
00ef040f
efedfc05
03ff0009
fef10d09
fcf900fc
04f7f9f5
e1f1f2f2
020c09f4
f8050b03
16fb0a0e
0306faff
01f5fd01
04fff4f8
e9f9f6f7
f8fd01fd
2712050b
ff080c1d
f8e3ecf9
fbfbfbeb
f7fafff8
ed1f1afd
e5e30005
0b0c0ee9
fdf5f601
26160300
fff4fd14
f7eedde1
1e08eaf0
0d05080b
08fffd07
02fe1208
05010107
eb06fdf4
050100e5
fff8f80b
f900f4f9
edf0edf2
f2f6f3e9
03060713
fff5f5fa
f8eefffd
0502050a
f8ed0914
02f8f605
08f7f2f9
f2ea0108
f6f0eefb
f4f7f9f2
f6f8faf8
0d1f1ff1
f005160c
12ff02f0
fffffc04
05f1f0f3
f4fc0209
efe7f1fc
1301fa11
1d0e1519
0f06f318
f1f5f3f4
fc04edfa
08030efd
fefd030a
070feef5
0705fdfe
00fb0200
04e4fe07
0e05fd07
1e03fe11
fa0603fe
feef0d06
02fd0813
f202f7f5
fafc00f7
f1fe0ce2
ff080706
0000ec01
f6fff7ea
010302ff
fc0000fe
f5fbf6f2
fc0109fe
f6fa0503
f7030cfb
0eee0905
10fbee0c
020bf7f6
f6fc03ee
ff030104
09041002
000104f7
070a0112
00090700
ff0f0af9
f9fd0202
0700ef04
00080400
060d0400
0dfb19ed
fb0300ff
faf3fb02
f9fc07fa
00f6fe05
090cf501
0d0efaf8
03fcfaf7
040a0204
f60315fa
020301fe
fe0210f8
f5fa07f7
ff18fe0a
0806ff05
fe0301fe
ef010500
06fe0402
fc000200
f9fb06f9
02fdf800
edfc0afc
f1fafffe
0104f1f3
f6f3f1f6
0200eff2
00fdfd0a
f5f7f806
00f400fb
f2f0e6f5
0704f8f8
da1afbdf
04f8ffed
1ff8f90e
f30500f9
f8f90e04
ff00fa03
f0f90400
fcee0001
f6f30406
05d7fd15
00050e01
16020a05
1300fe14
0010fbfe
06f9f6f9
07040116
f915f601
04f9f91f
03eefd11
fffcfd01
fc030902
09ff0004
08f6ea0c
ed00e8f1
fef10c00
fbecf90a
f7fb0f0f
dee70009
030b05fa
fbff0701
1107f7fe
04000207
0a08f703
040fffef
ef2df3fb
ef08fff1
ed00fae7
f4fe00fd
1c00f400
fef5fd04
09f3f409
fbfce7f9
0bfefe08
f3effa05
e30006eb
09dfff0c
00100010
e8ff0df7
f7effd04
fef504ff
0e060310
2105f208
0c44f4ee
f40e070a
faf3fdfb
1a03e6fe
dc0befd4
00edf9d9
09e7ea0f
06fed2f4
19f3fa22
fd08e404
00f0eb05
07eee703
0e0407fd
05fafe05
fef10500
f306f8f0
fe04fcfd
f6fc0600
f2ec0000
e4040ded
10ec00fe
0c030ff2
060bec08
00f901ee
fb07f9f4
ff040beb
fe0600f5
000a0503
0f02170a
01030e1f
fc000c00
fb08ff04
1ffafff3
0d1c0500
f9f700f5
f1f6f1f9
f2ebf4f3
09080305
1c14ff10
f9030f0b
f1fcf702
0200edee
f800fdf7
00ff04f1
0707f6ff
0804fa0b
fc0504fe
ecf404ed
00eefdf1
ff02efec
fd00fa00
f9f9fd03
fbfc00fd
03060100
f701fafe
080b1004
0aff0816
fff1f303
eef1f2eb
0d03e8e7
01fbfc11
fcf7f8f1
e8faf5f0
f7eceff8
05fe0103
02000008
ff06fb03
f8070704
f1f0f5ea
0be7ec00
fffdf1ee
000601f6
f800ff01
fdfc0802
10fafc0d
f60f0009
000b1902
eafe080b
f9fbf7f3
10fffcfa
1d17fb15
060a0408
0dff00f7
05020f12
05fefbff
fe0401f8
f900fbff
faf906fe
f1f80100
01fcf8f1
070c0106
0ef80c02
05120110
f50f0206
f8090c06
edeef8fa
f3f7faf1
fcf4f5f3
f5fefbfc
0000faff
f5fefaf9
e9f200f6
fcf5f100
fa04fd00
ecea0613
0200f7fc
f1070a02
08030007
09ffff14
07fb0002
1113090d
04f70200
f70ffa04
fff90d04
01120af7
00ff0b03
e3eef3fd
eee7e8ec
fcf1edf6
f602fff8
e8e8e9f7
ebedece9
03f4f5f6
fb0f00f6
f7eb0af3
f5f0f9fc
f3ebf9f5
14e7fa00
1a10f106
00eef9fc
f300dcee
f6ff00f1
fbe7f400
f8efeded
020afc03
fef20000
f50d0602
f1f300f3
080400f2
fe000604
0309fd0c
f80c17f8
fff4f400
0301f507
fff2ff08
f8fefb02
f8f7fefb
0000faf8
fe020705
fafc0b00
0af200f9
fb030101
00050408
060a0907
05fffa03
030200ff
02010bf7
07080313
1211fe02
11090908
fc0c0b10
0806fbff
f804f705
060201ff
f0f503f4
fafbfdf9
02fa03fe
03040102
0803fe06
f9ff02fb
01fcf5fa
fdfcf701
f4fe0cfe
f5f50713
071007f7
08070302
16ed0b0d
0b0fff01
07faf6fb
f80c00ff
05f712f7
f3fcf905
f3fdf4eb
fdf6f0f7
fcfdeef4
fdf70909
eefbeeef
00faf6fa
ec07f7f6
01f606fd
16f9e9fc
fffa030f
1a00fef5
010cfb01
ddf700f4
f9e30bf9
fc000007
02fe0af6
020704fc
0afcf601
02f9f804
eaeefdfc
04f0fbfd
fff7ed01
12120a00
ffff0502
fbf80401
00e5fff7
eee5e2e8
f001eee5
fbf3fcf8
f5f9f2fd
fc00f6f5
fafd00fd
fff9eefa
01f1f8fb
f8f203f0
fa01fef7
03eb090f
07030303
030a130d
06f8fb01
fefaf9f4
0cf6ecf6
0000081c
f4e5f0fa
fdffeff5
060e04e0
0809fd10
f506edf1
f9e205f6
0e08f2f7
f2150900
f9faf2f6
00fe03fd
f6f4f2e9
0001f3f1
fbf8f903
00f7e1f3
e7fefbf7
0e1413fd
0b0a1510
fcf70c15
f8e7f308
0bfd00fc
08fb060a
fdf6f0f6
fff4f3fa
f0f5f4f1
e8e6eef7
fce2d4eb
eefeeff8
01f001fe
f8f9eff6
fffc07eb
0209f506
ffff0df6
1505fa09
03220804
f30a1301
fcfdffee
faf8fdfb
0b06fdff
0513fb03
0708090f
fbf0f5ff
eafcfaed
f0dffffc
0bfbedfc
00030506
f9fbfdf6
00e7e4ea
ee00eef1
0a0a14f0
fbf8f302
f6f4fceb
fffefefb
02f0edff
28000f2b
0200f614
02f00913
eaffedf6
05fb05e0
0105ec01
151200ff
15181107
00fffcfd
0f08ff00
0116090b
00fdf8f2
ff01fcfe
0a06fcfb
f50200fe
f3e80107
fa030000
f1eaf1f6
f6f3ebee
05fffef9
0cfc13ff
f802070d
111408fb
f2f70d02
f607e7f6
03e90006
0110f702
1d07fb03
12110904
01140712
f8020d04
f6e7f901
fe0bf10a
fa1d09fd
fa05090b
11fa1005
18060405
ff15fc17
f7fce3fe
f1fef9e2
15090300
fc01fe03
f5f8f7f7
f8f4fef3
fdf9f6fa
e8f5feed
0500fbf2
0b04ff07
fb040903
f6f6f500
00f0f4f6
04fb0300
ff0d04f9
f3fc0c04
07fdfe04
0004030c
03fa07ff
0700050c
0100f705
02fefc00
f7fcff00
fffe0200
0aff01fd
0302ef00
01030101
f804f702
f6f80505
02fc0805
0bfbf7fe
f5f60b01
efe30000
02fafd03
0ffe01f9
0d050211
ffff07ff
02fd0607
0612fe00
02122107
f1fd0010
000308f4
f0f6f800
fbf3fdf4
fcfefb05
06110500
0f000e11
fbf30b09
fbf8f2fd
e8f3fbf4
fceff9f7
0bfcf8fc
ee0700f9
09030500
0805f9fb
00fefffd
fef8f8fd
08f6e8f8
f2fd00fb
fef4fbf8
fff4f8f9
04f40217
f804fd02
fdff08fe
f7f8ff00
f203fdfb
f3fd05fe
0502ebfa
07fff8fc
f90005f6
09fef703
0006fa00
0cf9180f
0aff0311
05060400
01f8fd00
2b0e0102
09390ffb
06f619f5
0604f6fd
00120df9
020a00ff
000a0c00
051510ff
07070d0a
faecfd03
f2ebeded
fdfde9f5
0201f900
f8fb0202
f4f31101
fe00fafc
fd03fa00
06faf400
07010000
fe0ff9f6
03fe14f9
00fe0b00
000202ff
06effcec
0e00030b
f6f1f5ff
fc04ff02
14f50401
03fffaff
effe08fe
0efdfa09
fc06f8ff
fdf407f6
00fff900
0013fdff
07060507
05fdff0d
02f9fd0c
03000200
f60903fe
fa0300fe
0dfefefc
f7fdfafe
fe03f7f9
05f5faf2
14050504
0508000b
ff0c00fc
f900f6e9
f400f9fd
00000c07
f7030a00
010a00f6
fd110b02
ff010b18
f50000f5
000d0d07
ff01fcfd
ff0303fa
fdf7f1f4
fb00fdfa
01f502ff
0400ff05
f7f50402
f9f1f7f6
fff8f0f7
fefcfd00
fe0203fc
f70cfb12
14070dfb
000ffefa
fc0a0f11
f5fd0b0b
eee2ebfc
f4f7eef4
f6fdf5f2
090e09f5
d801de05
e1f5f6c9
171306fa
fa0714f7
0d10fa06
f01306fd
f70401fd
eafbecd1
0902fb00
17032209
0705fb43
03f9f4ef
08090b07
dfe70cfc
07fff7f1
04fd0500
f3eee4f2
fdf4f2fb
040814ff
01f10a20
0c00f8ee
fe00f1fa
110500e5
090b140a
fbed1101
fe010efe
06040805
0d0900fb
1a090205
e3ed0d23
fff3e7f7
d4f4f1e1
fcd9faf7
fa07fbf9
fbfb1200
f6fcfd07
02080a02
fa0301ff
00ff0cfd
03fd0107
fcfefd10
090300fa
fafb0801
00f9ffee
0005f90b
0b0700fc
140f000a
00feff08
0005fd03
0df4fefa
e300f912
0d0c0803
fd060926
f2faf6f3
edf0e4f9
e9fae9df
f5fe03f8
03f2f9f9
00fff50b
0a1001f8
12090ffc
edfce8ee
f9030cfb
f9eee5ef
08fa0d01
f8e909ff
000df9f2
02f40803
eafbf8f9
faf3dff0
08f8fe02
0101fbf4
fc0cfef3
00fef2e8
f11a0809
e9f00605
ddedfcef
fade01ea
ff0a120d
0000f8fe
f2eef800
0c030600
1b1301fe
2124f815
0af611f8
e712fb0f
efe7ebeb
effe04f9
eff4f500
fefdebf3
edf3faf7
ddefe6e3
0fe9fbea
fd06edff
131708fb
ecfa09fa
f7eddefb
e6f2f5e7
ebf2edf6
080ee1ef
ee0900f6
0bfb1802
0c0e1004
fffe1119
040b0510
ff080503
0e0919fe
02ff0603
fffa1b0d
eff8fa00
e801fffa
f6fd0000
12fae8e6
e7ecfcf1
020f0107
090d01f8
fe170808
f4170706
fdf7fff0
2035fef1
fbe60405
f4f6f802
060e0301
09f900f5
fc0100f6
020c0106
fde7f2f8
03f8eee8
fb06030b
f90bfa00
23fffbf5
f8150511
f301fc0a
d1e7f9e0
faf0e9e4
f507e6f1
f519fff1
13f61c07
f3130a00
e40705f4
fbe212f0
08111b04
e70205f0
00f9f7f4
eff5fbf3
0ff7eaf2
113009e0
f4221cfc
ed042b1e
0a0f0af2
f40312fe
2d070c17
120ff92e
07fcdefd
17090211
f5e0fd00
fa120803
d4f1141a
06fc02f1
e0ececf1
0cecdeec
e9d9d604
f517f300
020a120c
fd12fd1c
fe050205
b1f4f4eb
ddd7dce1
f4e0f4da
d503d5c3
00f7f5f2
0beedf03
e805ee01
0805ffe6
fefbf9fa
eefce0d9
e0fcfce8
e3040d13
08fe2906
ee01060e
ed08e5f0
edfcebe9
f4f7fdfd
edf203e9
0107ee0e
061000fa
080808ed
fd00feff
0e170007
eeddbff0
00f7e5da
01ef07f6
e906f008
e909fcff
f2e305f7
ee0209fa
dffdf6e0
f40505fe
01170b07
e1f00ffc
fb0314f0
f80e0102
0bea0103
0705f408
0bfbfbf6
f7f3fc14
faebe8fc
ed01f3f8
e4ff01fb
f8fcfdf1
1c080003
e0ef0708
fc1409f4
f9effd00
32332246
f0020300
0a14dcda
ff11e7e5
fcee10ff
eae4daf9
fd0de7d4
edebf6f1
f30d1d10
e9f8cede
fafdf3f2
040bf3eb
1b04f3e4
151cfd0d
0b05290a
570c0a23
064a00ff
effbeaf4
e9f6f7f8
0c1d11f9
f4e7bff2
17fa140c
0e000908
00070707
05080507
16100402
0105191a
eced04f4
241cfefd
0107f903
0d00fc1d
1937ebdd
0a0c1bef
0a100018
ee000dfb
07030000
0214f7d2
def5f2e9
05021a1f
ebfe0710
030dfc01
f70207f2
e0fcfe05
0be0eee8
0b09f6f1
e300facc
f30e26f5
001af0f8
00f407fc
2313f90a
f50228f3
edfbd7dc
f5fe03e8
0303ef00
020104ed
0600faf9
07212e0e
07fefa03
eff11df4
f21b06f6
0e121807
e50b000e
05e50500
1efe0103
00f8f1fb
ff09fdff
fe0cfaf9
f4edf5f9
ffefe7ee
07f3f6f4
fefff0fa
f0f0f2f1
e3f5f9e6
fffe03fd
0bfe0bf7
05f9fb14
fb0204f0
f3080002
e1e9f6fe
e7d6eced
f6f5e9f1
1afa0513
0b13ff18
f2fae203
e4f7e6dc
eae200f6
01fee8ef
eff3fbff
f7eff2f6
f5ff0502
fef2f104
f5faedfb
0e15000f
0c03110b
04ff0513
06fafcfb
ebef0afd
f8e7ef00
08eaedf2
fcfb17fa
07faf30a
ece1e2ed
f7fddeda
0207f9f3
f90808fc
fefcfc06
fdfd0701
00f3fffb
f40df9f0
f8ff1eef
00f9fafd
1b010c08
fc00051d
fafaf6f9
eefdfbfa
080301fd
0b0004f9
1bfe0f28
ff00f208
f605f201
fbf3f7ea
f7fb00f7
06f1f500
e800eaef
fafafcf7
0000fefb
f6f50903
f5ece4f6
01fb1efa
15060716
fc0afc0f
030510fd
07000512
07030912
fff9fefe
0900eaf0
0a0907f9
13000613
160a0212
13f4fd05
150a040a
edfa0d09
f6f2fbf9
fb050608
ff0e07fb
fe000000
0703e909
fe09fbfb
fbe40003
f5f2e9f4
0408f9ea
0d0904f7
070d0ffb
08fdfc0f
fe00f503
04f1f000
fe00fd03
eaf5e3fe
f5f5fbf9
2d0cf1f5
11260908
02f90fea
f4fff9ea
01fe04ff
f902f1fc
fbfd0cef
f8fc0005
f9f500fd
eb00f900
f5edf1f8
fbfb0004
fcf80200
05fbfdfd
03fc04f5
1d0bf908
000b07f5
120b1609
03120f1f
fd010f00
fc02fb05
f9fcfafd
eef9f8fc
0106f70e
f60303f4
fd03ff00
020209fb
e6fb0e05
ecdee8ec
f9f4dae6
0004fcf6
ef0006fd
f817000a
f8f704f4
eaea0008
f6edf5f7
0603ecf3
100608fe
08020600
f20300f4
e7eafff0
0701fafc
f4ff03f8
f2fcfffa
f602fcf7
f8f3fbf9
fcfd00fc
f9fa0d00
f4f6f5f9
03fc05fa
07000003
1400f3fa
0bfe1406
f90900fe
f5f407fd
f5e2fb00
07efe2f3
0002f3f9
f8fb0a04
d4fc00e6
f9eaf4f6
0c0f0700
080d1f09
f1031017
f8e0f4ff
f5f8e3f2
14fa040b
040af6fc
04141b15
f1fd0afe
ecf9fcf3
eeececef
fbf3eae7
fdece5fd
0800ffe5
e8f601f4
02fdfbfc
f9f8fc01
f302e0e3
ced6fff5
0adcd809
fd07ebec
00e6f405
1304e7f3
eb0d0007
03f41102
00f70b08
080be900
0cfbf9f9
000b01ee
e6f90c07
f6e2ef0d
09fd0400
fafb0a0a
0707fefd
09f1f700
fb00e8f9
00fd0700
0001faf9
ef090efb
fdf412fc
fafef4fd
e3f509f2
17fcf904
f3fae900
ece405e9
0100f9f9
f0fefbe6
03fb0609
03120bfd
10fbf5f1
0700140c
f6fbff08
ec00f7e0
eeeb0502
faf7fff8
0503fa07
0b0305ff
050ff312
0203fdde
f8fafe09
070314f7
19060409
17180209
f9f80300
0afaf106
1d03efef
0505fa14
fafff4ef
171cf307
f90104fa
07fee901
000ef5ea
050b0afb
0df8f900
de050601
f1d4faed
fa04ff09
f8ed1203
fcefe30f
04faeef4
03fff8f2
fcf600f8
0100fdfe
13e8fafd
0911e5f8
f7f9f4e8
f4fdfe02
01070af3
e70ceaf8
f5ee02dc
efeffe05
eef5edfb
10faf2e9
fef6fe0c
050809ff
0800f801
fd04fc01
f6070af7
14effd11
e0f1000b
fbf7f4fe
13f5f0fe
fd0bf106
050a04f1
0200f6f9
07030af4
01fb120b
f0fbeff9
03f2f3f7
01fef301
f2eeff06
1302f402
fdf6f7f8
0dfbf803
ecfe02fb
f9f6fa0b
e9f6f2eb
fff3fd01
01f6fe09
1007f4f4
0b140c01
ef0e1701
d8ebf6e4
f0d5e6ed
03010701
100af2f3
11090808
ee05fff3
f90009f4
e9ee0102
edfef600
00f6f7f3
edf8e900
0009cf01
19fb0be8
0930000a
00000ffe
e001f906
eedef7f1
ff00010a
f3fb02ec
0a0207fa
fcf4f7f4
fdfff9f7
eee403fd
12fff6fa
1b061114
f5252afa
e8eff200
e400f8d1
001c02fe
08061b01
f2fe020b
00f600f4
fa02f8fb
0f0e0201
f9ecfe0b
03f4e7fe
0f110a00
f7fdf103
03fce502
06fe070f
04eb00f8
09f9dbff
f2ff020b
fce2f9f8
f504ff09
ff0009ed
0d030710
0c1911eb
dd02050d
051403d7
f0ff0000
f110f1df
fee11001
0202f508
fdfe07f4
0c000103
f902edfb
1807ffdf
0008f010
fef5fdf6
d7f1f908
0de3f5f1
ec15100b
f200f9e4
0a010a03
f40008ff
e8f9eefa
fb03fff5
fff7fffb
02fe00f4
0002fefa
eff8f600
ebec00f2
04fbfb05
01fb1c00
dfe6fc14
00d3f6e5
091bfd0b
e5f00b09
04f902f6
07000703
d3fff1e7
15fe06fa
06fab3fe
161008d1
f2e5ff15
0ff8f901
f4f7f601
f605fbf1
faf5ed01
08fbf0fe
05060600
051000f3
f7010501
102901f7
f70b1bff
fd04f7f5
f3f10ffe
fa00fbfe
0106fdf6
fbfb000d
00eef3f4
0007ff03
0a1d010b
e9f11702
d905e3f1
03de02f8
f5102a0d
00f400ef
061601ff
f2f2f0e5
f5fff7f1
006eef02
d7e71ff7
fc01d2cb
01000001
00010006
11f6151a
f2000513
fff809f8
fbfafffa
00dbf8f8
0b14f302
e7f51314
0c0001fa
fe000509
e9fef502
f905fdf7
fffaf704
0303f0f9
ff0001fc
faff0302
fdf301fc
040cfe00
fcf4eaee
0007f4f6
fbf8f4f4
f31cf8f9
fe0208ea
1915f800
01f1fffb
eb12f3e1
00f60be9
0b000100
fc09f905
08f1f202
01f4f8fc
0b0afa00
02f2f407
fd0904f9
12edf607
f623f404
0cec17fb
f9f00b16
f2f3eaef
05fefc0b
e6e7f9f5
00f7f202
051102fe
f702010f
f2f8fee5
041102f0
f5f7f4f5
1a02fc02
02def104
f7faf7e6
0b01f318
0a1a0e02
00f81313
010a0306
0ff2030e
04ff0009
fef8fdff
01080c03
0502f807
ff07fdf7
00000f08
f807fefb
10fcfe0f
fb0d13f8
0a110d02
fff5ff0a
0bfe110d
f907000c
08f6f9f3
ff01fffe
020b0203
fefb0b01
0500f2fb
14060f10
edfc0a0f
060a01fb
fe06080a
f70001fc
0dee0604
f100f9f7
f5f307f1
03f7e901
f500fd00
efe9f3f7
ff1309fe
06081616
000a05f8
0ef7fe08
0507f608
fbfe0af8
0012fa05
08090006
fbf50002
fdfdf9fb
eaf000fa
efe7f0e5
f902f0fd
09030e00
0a0b0113
06f201f8
05030910
f7f2f5fa
0af80f05
fcf4fd04
fe0a0b02
00fa0a07
f9fafe03
fce7e3f1
020af9e1
fbf6fffd
0605fbfe
fdf80000
f0f0fcf0
05f5fb00
f305fcff
f607eeea
f5f6fcfe
08fcf1f0
fbfbf8f8
fefbf4fa
fe020500
e7ec0100
03fafdfe
020a07fd
fefb0c0f
ff0cfdf8
08f90502
08010003
fe010400
0000000a
e1e4f6f0
070cfdf5
03f90a03
0000f5f2
f90703fc
feeffb04
f6f804f4
01ffe009
08ff090a
fbfbfff9
04fd02f6
07070701
0005fafd
f7fbfcf0
ff05f7fe
0e020b18
dde7f5f6
04e7f400
0809f9f5
00fcfa0b
f802f8f8
f1fc05f7
09fd000c
fb0b0c07
efee00f3
1100fb0d
f9050bfd
0cfb0903
ff02070e
12040004
fffd0809
0500fefa
03fe07f3
06060713
f0e0f6fe
f3fb03ff
ede400ef
fbf5f801
fdfefbf4
04f5fbfc
07120506
05f40d09
fdfd0207
f0f1e401
fcf4f8f8
06f5fbf0
150f0501
1911100d
0f01e626
fc0c0100
01f9ff04
ff04fbf8
fcfbf003
04f60001
1b030213
050a160e
0f0f1c1a
04070c0f
fa04f7fb
1606f9f1
f6040703
f1e9fef3
ef000108
02f7f2ef
000e02f5
01000801
fefefff2
02eef103
ebf8def8
f304e2e4
030c0bed
f904fe06
0e18f6e6
fffff407
e200f5f3
0b0d01f5
020dfb0a
fdf9ebef
eaf40504
fbfafc01
fefa0b02
f6fff0f6
01fd00fd
f9fee600
e5f308ee
05fa0dfa
0b051418
f8f10f05
f6fdef01
f7dfe400
f7f9e2d7
f3e4f5ee
07eef5f7
0800fc0b
fef3f1ff
f707f1f9
e9fb03f9
fd00fbff
070a09f8
f5fd1104
f0f5effe
09f507f7
00091027
ecebf300
09fff500
0d050212
edeff4ff
0b0b2c0a
dee61228
faf3f4ed
e703f4ed
0ffef5e3
f4eaf9fe
fbeeddf8
e3f8f6e6
f2e4f8eb
05e4dff3
11f9fa0d
01f5f206
14fa1603
f8f6f30c
fdfffcfe
fc060007
fd0700f2
0d0c0d08
16ffe9f3
0c0c0a0d
090412fc
00feebf9
111cf1ea
05f0fb12
fd0cff0a
0307f4fc
02f0fbf4
13053014
f4f9fa0e
0804f705
0513fd03
e4f20e0e
09fffff5
fa08f702
fcfe02f9
0c07f802
f20305f9
ee00f5f6
ff0505ee
00fa020c
02fbfafc
01fb00fb
04f5ed03
fd050f0a
ecff00ff
10faf7f8
000706f9
f0fae800
1904fbfe
dbeb0900
fc050ee9
00fe1a0b
ffefe7db
05050103
faf1f30b
03e50d0e
e7c8e701
07efe905
00f713fd
011200f4
fb1218fd
0bfe1106
060b000a
09fde9e8
070a050a
f9fe0e0b
f8161e12
f2eef309
fff60000
00fffafd
eef3080c
fbeffbfe
04fafffe
11070506
fe06030a
00f3de05
e9eaf2ea
090703f9
fd04010f
fafb1912
dfdbf8fd
00ff0700
0d0501fc
f90008ff
f209010a
010006ff
f4fafaf5
f8f1e8ee
0f00f9f4
fbfaf008
f6f70001
06f900f7
fc0e0008
05fbf708
00ef0700
0b14fff1
fef80af4
f002fcf4
fbf301eb
06f4fffb
0f01ff1e
f91205f3
04fe130c
0700fe15
02070103
050615fc
0105fc00
fc010fff
f6f7fdf4
0ffafa06
00f902fe
fbfdf300
dffbfaec
04c8eb14
0006f1fe
f1030a03
f7ff0b00
01f70efb
fd05ff15
fbfffafb
04fe0000
0cfcfef6
07f7fbfd
0a04fc00
0309060b
00040b06
f6f8fafa
e9fbeeee
eaf8f8ed
f2f00df8
0bfcf6ff
06f2f909
04fff5fb
04010b07
05f7f414
09ebfa12
f605dde1
fb09fde7
00001ffc
e7fdfe18
03d9fb00
ff05e602
0905f50c
040800f6
fbfa01f5
effefd0a
07f40103
f707f1ed
fe0507ec
f8fcf4fb
fcf500fd
1f06ef03
f9150cfa
03fdfcfc
f7fc0512
fb35fbf6
e0064600
f9fcef16
f4ef01f8
00f7fc01
f600f8f3
faf100f3
fb0605f5
07070cf4
07f6ff0b
fc04f7fd
f6f70400
f7f7fef9
fbecf9f7
f7fdfdfc
f8f9fdf8
12fc0c0d
0909000a
070bfd00
fcfc01ff
07faff15
fdf20c01
f9f6f011
f6fffce8
020d04f8
08030a04
05ff0010
00fcff02
fef903fe
16f3f7fd
f80c02fb
06f810f9
fe0b080b
0d070d07
0be501f4
0af5ff20
f8f3f5fc
fef70b06
1406f811
001e12f8
fdfd1310
e6fafaf7
fffbf9f8
fc030709
eefa01f9
f3eff4f9
0000e7fb
08f701f5
000d03f6
0bf500f3
fb0a0a06
fa0c0107
060401fe
07030008
fef9f7fb
00f80201
edfdebfe
f7e303fd
0af0ea05
f4f801f9
00f9faff
00000600
06fe0a0d
eeedf5fd
f4ff0bf9
1116f913
0d140f03
00fd1302
faf5fafc
00f7f700
0507190a
15030a23
0cf80504
0013f5f9
fef30b02
fef0f6fb
04f9ffec
dbfb0e02
fbe7fc05
fe161015
f2f003f6
030205f6
15f8edf9
04f509f0
e1e0f2fa
0afef6fe
12fb1b15
0c030211
f3fb14f4
030cf60b
f6fd0400
fff505f1
f615fbfa
faeb0806
0013f914
0f031403
ff0afe0e
fbe4f0f7
0e00f20e
0b0302e8
f00a1001
eafbf1fd
08010100
f7f7faf2
040af5f9
0b07f4fe
12100f0c
1003151c
fd0cf110
f6ff14f2
fbfefa0c
02090ff8
0401061c
1d1813f2
1e211d13
fe230705
fc090cfd
fb03030a
f0fbf702
030ff1fb
03ff06fb
fb08010f
13000505
0b0d1209
f204e6ef
0ff42101
0421062a
0af8f402
0502fcfc
f5fff302
080006fd
0d010400
06070009
03ee12fc
e8e6f703
ee140ce7
04f41008
ff01eb19
061308fe
f9e8fff1
fffe0c07
07f80303
f908feee
eff0fdec
fefe1902
1bf3db07
e4f40bfe
08f600f7
fe020aff
fb0400e2
14151000
18111d1b
110a0e1d
f6effc00
1400f70d
f6f0f8f8
f9f0fdf6
06f3edf1
fe03ecf4
f1000cf6
fe00f910
ec0000ee
f1e4fe0a
02e3ebff
0d00e1eb
04fffe0d
030601fa
080c0107
fae6f7ff
fbefeefb
f900f7ee
171dfaf9
f31f3801
0ef70e25
ff1a0000
f70511fa
f7fefbf2
010303f5
e7ede9de
f700f8ec
f3f1e410
fcfee5ec
dfeb04f4
e5d3f0f1
0efddff9
fc08f5f6
fd0b07fb
f6f3fef0
06fd0002
e5db0df8
13061d1f
fe01080a
fcfaf705
f208070f
ef03fcf1
ff000efc
0b040606
f300ff12
070afcec
fafe0dff
d8ee08fd
f8f4fbf7
fb0b0400
f308e1f2
ebf503ef
030b0903
fe0900fb
05e2e5ed
f61108e8
f805151c
f9d6e8fd
ed00eff1
06f8fdee
0207eb13
ff162b18
ff0e0009
f7030600
fcf6ff05
01f90bfd
0905fcfe
f3f4e3e9
e5f2f2e2
00edf1f1
f705e900
fffb07cd
10041806
f409ff08
f710fdf8
e9c4fef9
ff0d1207
edf0fee9
03effcf9
f5000302
fe0502f6
f4f7f70e
f9f51000
0cfef404
0af0ec06
ebf70407
54fefd1a
0024ea10
0800ff02
0d000a1f
0aedee07
fb0c01ee
e9eb0610
f1eef3f2
f1f201f2
e5f8f2e1
09fd01f6
0df9160d
f5fa041c
fef300fe
04f2d2fe
090b07fa
ee0b1102
f6e2f8ff
000802f9
11fa030b
0cf1fa04
0e00f6fa
f9e4f804
000ee502
eb0700f9
fc0700fd
07fa0809
08ff0001
fb06f90f
f2f9e0e8
12f50f09
f8fdfe08
02faf8ff
f2effd0c
0900f5f4
fc0a04fd
f0fa0aee
fa0a0013
fe10050c
f8fe00f3
ff0809fc
02ecfb02
edf5eaff
f0f5f3f5
02f909ff
efeb0c1c
fee7f5fe
05141504
fcff04f8
09f215fe
0e01dd03
f0f7f30b
fcf5fbfb
10f6f7fa
ff02f1fe
fcfff5fa
1cfc18f6
04fffd2b
04fe09e1
10efee0b
11180706
f0e600fc
01faeffd
1a0eecfc
f2ecfaed
ee0efe0c
040b16f4
090c0105
f9ff0eff
f5f0f8e4
04f20cfe
f7f408f2
f706f905
eeddf4fc
090a190c
0b1505f4
fefff907
fdfd0f03
12effa15
f03807ee
fff011eb
eef3ff04
08f0f700
ed0aecf7
fdff17d8
08dc0616
1a06cf04
36021408
f3ecf5ed
09ebe1e0
fb0afe08
ecfce7ff
f3fbf8ef
1af9fe0c
edf2ecf9
f1fa0efe
f208f303
05e3f504
04120703
ec0001d7
ff0afffd
15fe1d0d
fdfaea16
0014faf9
e7011501
fa00e8e5
f3e5fbfc
eff8e4fe
f9f8fbf5
e70ef8f5
fd26110b
e5f50ae3
f5f0f8f2
fdfd07ef
e8e9fef9
f8fef3f5
09f5f4f2
01f80b08
fe060002
ff0529f9
f3fb000a
f60b05f4
02f8f9fb
08f7f9ff
0000f9fe
0701fef5
def9ffc4
0b070614
19f41b21
f7fbf20c
020307ea
ff090d06
2009fd0c
f81200f5
ecf108fc
fdfe00e7
13050a09
05ef0101
f607f2f8
fdf801fc
fdfbfffc
0a07fd03
0602f20e
fdf900f8
f1f6f6ef
f4fa00f2
eaf9ece7
f5fafced
00f1f4ff
0909120d
f6fb0c10
0afc0409
f7ffedf7
f4fbfcef
fdfd01f6
0bff2715
0d080311
01eeeef7
0f11fbf5
08f91204
0100f60d
0c070d00
f9000304
0202f4fa
03f3e403
f208f1e9
f4eae1fc
edf4e8ee
f8eafaee
05f6ee00
04f6eff8
00fefbff
f9f6fcf8
f6f30ff5
0df1fe0a
fd162102
f9fd0707
f2f9fd06
f9f0f6f3
04fe0300
f1faedf7
faf3f1f5
f8f9fbfd
fdfafefe
fe02ebfc
01ff00f5
02090b06
01050613
0b04f505
010e0106
030400fc
f9f1e6e3
02fffcef
fefefb0b
fcf7fffa
0df9fb01
fafdf101
fa0000ee
04fefeff
f500fefd
14fe1425
0110fb21
070201f1
1005f804
e9e40403
0302fcf4
ea080b10
00f20d0b
fc020604
0c1104ff
00030602
f9eefd04
f3faf606
1723faef
081813f8
ed0a07fb
fafb05e1
05090d0c
0201ff05
ff000301
fcdfe105
f5feebf4
e6e500f2
000d07f3
06ece8e2
09fdff08
f7fa0001
0efff2f9
03090003
0ff2ed04
f707ebf0
11100ef6
03181bff
24f90203
0700fd2c
ecffeef1
0af8f9fe
090bfb0a
fd17fffd
f1f60dff
0e1ef9f8
ff070104
08f209f6
05000410
f5050900
06fdff09
fbf5ff00
f20a0b05
fef0060b
ee08f502
f7eaf5f2
f6f2f3f3
00eef808
f905fef8
0202f8f5
000efd01
faeaf8f4
eaf6e1f3
11fcf1e7
fb160213
14f10203
f8050706
f3f1f500
fcfc00fb
f800f9fd
fceff5fc
f8fdfaf7
0403ff02
fb0f0dfe
e9060101
ebeffae3
00fbeffc
fb06e5f3
fb06fef8
f606fcff
f5f4fcf7
f50cfa0a
fc0506f3
f2fafffd
ec02f4e4
050002f4
f5111702
01fe01f0
f3dcfaf6
f8f7eff7
ebecfb07
ffe0e9fe
fc00ecee
00f80409
fbfcf2ff
0c0b1a0e
11030d1d
f9fbfdfd
fd0601ff
e3f0080d
f5e6f000
fd00f3fb
05f7f3ec
070aff0b
f305fff0
e9effdef
fde8e8f4
02f6cfe5
e9f406f7
00f20009
f8000506
04f90102
04f8ff04
10e7f303
0104fd00
f704eff7
f90a1d0a
cff5fe10
f2f505f5
e2fe0312
f9f80bef
fcf7f907
070a1d0f
f9f8f408
fbf0fafa
0000fdf9
f2f90309
fcfffbf3
edf6faf4
e6fdfed2
0b0f060e
09fe17fc
010310ef
f5eaf402
01fae8f7
f6fefe00
0502fdf8
e4040402
ebf209fb
07050900
f70013f9
f2f10105
ec03fdf4
02052609
efebf60b
00f4fa05
00fc070e
fff7eaec
03f9effb
01021512
f4f8f8fe
04f500f0
06fff407
171207ff
fc1d05f8
f9e8faec
fb0603f7
05fa0207
05fee0f6
010203f8
06100506
fffbf201
0104f6f6
ff0503ef
030909f6
e303f6f8
04f80010
05fdf8ff
fd0b0807
f7fdf804
f5f1d4ef
e1e8fcfe
f2d6e1f1
fafcfaff
f5f403fc
07fefdf9
0204f7ee
03080706
f7faf0f2
eff7eff5
1303fef2
fe1e09ff
00f104f2
2607051c
fc0e0a0d
00fa05f9
0a05f502
02fffdef
04070207
f9fa0702
00fcfa0c
ee060805
e7f6fde9
f2f0f9ea
07edfc11
ecf5fdf7
f3120201
fdecf8ee
fc060309
07000a00
04120700
16010a19
f90e0500
0622f701
e4020bf1
06fafee9
fb171105
17080106
f5f6f7fd
0905fd00
08160103
050305fc
01f2f8f6
fdfff9ed
f8fd00fd
fc0003f7
0dfdff07
07231205
f1fc1202
e8f400e0
05f80000
0507e6e7
0ffe0138
021608f4
000e12f9
ce02101a
f737f6e6
1af818f3
cef90906
01e100f8
e20efafb
ee01f4ef
05fcf1f6
00f9f8fe
fff3ff00
071f2000
eb070608
2103002d
f3110a04
20020416
f20a0219
1b0af50a
0f03ee04
eeeeea00
02f1fcf6
0bfee4f5
f8fbff0a
0a050308
ef03f9fe
e70101e4
09fd0c00
08fed7f5
0c0a12f5
00e3e90f
06f8f2f5
0df5f707
f9031202
0eeff8fc
100c1407
1afe0308
f400defb
1f13edce
070e0eff
f80ef2f7
080805f9
0a110e02
080908fc
0306131f
e2c6e9ee
fce51dfb
0607eb20
08fcf713
00fdfe01
2d1bef18
f700fee6
f0f51c00
d9f5fbf4
f71513fc
f2f9e9df
f2f002ef
06edfff3
e5fdefef
c7e3f2ed
e8e7f0ed
f1f8dbf0
f6fbe8f2
e8d00dee
f600230d
eef1f019
efeafd00
0200f700
e80303f9
03eff708
11f3f9f7
00fbf60b
fff40500
150ce50a
0f270204
02c6ec26
fc08e800
e403ebf7
111908f2
fb030101
0e0c12f3
03eefe15
0a01e0f9
d6ef0105
ee360ef1
08fc11ed
c7000220
00e607ed
0aeee4f2
fb05fd00
f0ffe803
01eff3ff
3611f3ed
fbeff517
f409fbf7
000b1102
00fc0001
1205f10a
e80009ea
f2eff903
f7fc0906
e700fcfc
fed9faff
ddfbf9f8
7f09dde9
f9090822
00020200
fb02e306
070d03fa
000505ff
e0ed00ec
013814df
07ff1302
02f90c0c
ff01fe01
fe04ff06
fb03fad3
010d0e02
05ed03f7
f704ed02
01f30807
f404ebf6
0e09ffed
0200e4f9
ff04f5fa
f700eae2
fe03f8e9
060b0308
ede8110c
0f1707f5
fd081104
efff221a
efeaffee
faf7efec
04f403d3
070002ff
00feecfa
c1e3fdeb
f813fae7
04fd26fb
e704f3f5
fe090906
08fb07ea
eff1ea0f
f1100aee
eb10ffe0
12fb1b03
f9f6f2ef
fffdf6f7
fc080e0b
01080e06
fbeaead7
280de90f
f60011f9
f818190b
fe070dfb
f1050c12
e9fff508
fd0307ff
0f0a0012
0afaddee
2d3afbec
f3f8ea1d
f61e09f3
d5fa250a
f4ef03f0
efff0301
f0dfe1dd
ecf4e4ec
fe11e9fd
f3fc02fc
06fb0405
f300fefb
e7eafe00
f3eae40d
00d800e6
eae30af3
fbf203fc
19f6e7fa
151600fd
f9d8f2ff
f11a070d
06fdf7fb
e605fdfd
f9000900
fc0c0bf5
defc13de
eeeee907
f0f6dacd
0a0c0408
0401fbf1
ec050dfe
fdfb01ef
f00c0010
efeafddd
f5eff8eb
fb00ee00
f3fcf9ec
f802f601
000e000c
f209f7ff
04dafa02
f0fdde02
140711eb
e5fe03f7
fa213412
ebe91c03
f1110d0a
e6fdf5e7
f9ed0bf7
070b0e0b
06fd081b
2706fb1c
02f6f20d
17081413
ee00ff09
0514ede7
f6fc02f0
f5fefb02
e2e101f8
00f5eb07
f603f8ed
ede6ff00
ff08ffef
ea05e7e4
dae5f5e3
11eee000
1409072a
f0f9e0f6
0af4f6dc
1100f9ff
0c0d0312
060d15f9
1110f000
0111edfa
fef607f8
f6efff08
010f02ff
fc000201
01f30706
f7e7fefb
fd08f0ff
eff0f0ec
fc0000e7
fffa000f
29fb01ec
161d0806
fbf61afe
e5fd0ef7
08fd09fa
130e12e5
fa07ec12
0cfe09d5
01e5e1f9
0c01eb0c
f5eefc00
05090306
1304f91d
eb1210ee
f20fe719
e6c82500
03140a10
ed0d0908
bf040216
00d0cccc
08260be9
c40a0dfd
dfbe17ed
020d030b
f1f3ddf0
02de05ef
f3f7eaf2
1b05ef10
12fef912
150efaf4
fa09f707
e4ec06d6
0b160d0e
140bf1f4
f5fd17fb
d517fdea
0bfd1fe5
ff0517f7
f5fc0e01
ebeffd03
e7edfef2
fdfcfffc
0e0401fb
070d0306
00011500
e9f90a07
eeeef5de
f1f70801
01f900f3
fb03effc
00010006
0100eb02
f9ff07d6
0ff9070b
fa000809
04f7fe0b
000efc02
fc03e2f9
f00309ed
060408fe
00ff0709
05fcef00
fc03f0f5
fa0105f6
f70104f0
00f5faf5
f7fdf1f4
fcfefff4
fc02f8f9
090801fd
f5eaf701
fff4f5f1
e7e7f9ff
f7edf7f8
fafaeff9
f2f5f8f2
14fffffd
0d1a080f
00ff0809
f801010f
01fc0000
04fdf005
fbff0000
f8f90100
f50001f6
00f30600
fa09fd01
fff403ed
04120405
00ff0a01
fefdf900
fb0208f5
00fa0902
f9fe0005
fbf9fffa
e62f1b08
e8eafbe1
f1f3eeef
f5f0faf2
eeedf3f7
fb05fff0
ef0100fe
eef813ec
04f90f03
fdf60afe
12f8070d
f0f0f80c
07f00c02
1004fd0f
0003fc08
0f02ff00
1518d8e6
04100ff5
08e70812
0705f60c
10f8fef6
fbfff6f9
f70209fd
08e7f117
f4f9e9f4
fdfa0bf5
fdfa0301
e72c0e00
e4001eec
f0fe0515
fcf3ff01
0605f707
ec04fee9
0cfaf9f2
f9f30414
03fafe00
0300ef03
f709fcf2
f6eae9f6
f4f4f1f2
f805f2f4
faf4fcfd
fff80612
00000504
0001fb00
fc10eef6
fe0603ed
fadff50c
08f9f700
f706f900
fc0501f6
00f50512
fcff060f
02fd0213
03f11a0a
0000f111
ff0b03df
050304fd
f803f70d
fef80000
00fdf505
fe03f905
f9f4f4ff
09efe905
0303f700
e51005ff
02eb1206
f603e700
0802fef8
f402fef4
f3fe13f6
fdf60209
ee0ff6ec
f2f4fdf6
000604f5
030e0e06
06060206
f80a06f5
edf601f9
e9f60ce6
04fa06ec
03131505
f7f8050c
f2fefffb
00fafe05
02000b02
f2fbfcf9
faf20300
0903f9fe
f3fdfdfa
1108fa09
f4010001
08fdf4f1
fd06e8f9
e80e0af6
e8fcffe7
feebf305
feed0a06
1108ef06
f4210902
effd0bff
fcff0013
080e13fd
ef02050e
ecf8fae1
f4eef802
00f208f5
16f7dc14
03f3090c
0008f50d
feeee5eb
f4f0f2ed
17fcf5e9
2218fd0d
f91825f2
03f90208
f900fd06
06e8fd0e
0610e501
ff0ef1e8
ee070be5
0607100a
ff0301f4
120b0d09
0605f4fb
fa000d03
00ee21fc
040ee306
da001de0
2ed2f01d
110be0d6
f609fbf2
fffe07ff
00ff07ff
fe00050c
fffcfb00
fe0e0308
eded12fd
10f4ee23
0eedf900
1404d615
0d150fdb
e318e4f3
f4e3feec
11e2040e
f910f1f2
240cf7ec
f21314f4
f1001523
08ee0500
1005effb
f811dcfd
ddf326e2
16f0de0d
f000f7ec
eaee12fa
12ebeb23
02f3dbe3
10faf0f2
fb0e07ed
02fa0a0b
fcfdfc02
000e06fb
f8f7fffc
f704fe00
fa02fcf4
f3fffcf9
f60606e3
01faf711
fcfef7f7
f6080ff8
03dafaf6
ed07dcf0
feecf4d1
fc06f7f8
02ef0710
04fbec0e
0316fe03
fdf706ff
10ed020a
ff00f5f1
07f1fa06
ed070ffe
20eaf719
effef0f7
f60400e4
fde8040c
fd00f504
f0f7f1fd
21d5fa19
f728e7ff
f9f906dc
01f8f607
fbfaeeee
000af6f6
070a02ef
f8040000
f7df16fb
01f9ff00
f7f3f3ee
090e0a01
f80204f9
05fe0a00
030903fa
02f9121b
f4fc0708
03faf303
f807f900
07f800f8
00fff2fd
fdf8f2fd
f70000f7
15fefd0e
041a00f2
ff05f0f6
f2050cf7
f80a00f6
e2f3effd
edf400eb
0afff202
0e0e00fa
04150404
fdf00e19
fb0b0404
fdfd0e0d
00f7ef12
07fdf8ee
d6f20600
0be3fff8
ff02e314
f9f6070a
00ebf50f
f6f404f4
11f5ef01
f5f8fb06
eaeefffd
0603fe00
020407fb
03000105
00e1ed10
00f1e7fa
f6fef6f6
06fe0303
d60df7ef
fcf808fb
0b07ff0b
1c030907
08160b18
09091700
fa03fdfa
f5f60103
fde8ef02
07fff7fc
0800fa05
0003f4fa
ec0009f6
00f8f4ee
f4fdfbf9
ebf8f7f9
f4eef9fd
0000fefc
00020508
0c0afdf8
01f8fc01
fc0304ff
f90203ff
f80004f9
0d0000f3
09090e07
09fe0408
0c020106
040a0411
06e8ee02
25fef9fd
0900030b
05fef60e
1005fb11
0900fc05
f9e9e902
fd00f500
11faff00
05080206
f3f808fa
0809f4ef
02090504
09feff02
f3f00905
01faf8fa
fe0b0d03
fef6fafd
fff6eef7
02f8f6e6
1402fbfc
fd0306ff
01e8c1c8
f5f70303
f6e8e5fe
f0040800
eeef0803
030d04f6
02040906
f8fffcfa
fcf2f2fa
f607fe0a
f6e900f9
03f7edf5
03fe04fd
f5f703f9
090a17fa
e605ff0e
f4ebf0f1
fefcfcfc
ff00f6f1
f9f7f9fa
fff1f000
0801031a
fdf5050d
f605fffd
15f31019
10ff0018
0602f40e
0505000c
fc060701
0b081206
170e0c13
f6ec040d
fbf7ea03
fc0600f5
fcf004f2
0afceb0a
0304fe00
fc01fe01
fbf820ff
fc02eaf5
040ffff6
03020305
fffc0502
0708f803
fc0308fa
01fd040e
0409f902
ff04f5fe
f8f2f1ef
1019fef1
fb01fc06
f802f4f7
11fef9fc
0003ec08
000902fb
f604ff00
fc2636f2
f90c0dfb
e3ebfef8
00f4e9fa
f40005ed
05fff909
fc0a00f8
1300fbef
0d14fc0a
f9f0e808
00f0fb01
fffcf5f4
07190afc
f90b120c
f4fffefa
03f1f900
0efefe06
010af802
fff2fcfe
f6f9f2f1
fefdf7ef
0303f6fb
f4f405f9
f7fc030f
ffeafaf7
fffe0604
0101fbfd
ff110e09
09f8f6f3
1c10f3fb
fb0bfdf2
0c01f8fc
14effbfb
0902f208
04fce5f3
d0fdece0
02f90fe8
f4ff1af3
0404f80a
fe0e05f7
f904f9f6
fa0f0aff
fff90a00
02fe0302
fa090d1b
f40b0000
faf7edfb
efe90500
f9f604f8
f1010000
e8f5fe01
f9d7f2f9
f40be10d
e7eff3ef
f70b0e00
f303f8f7
000800fd
f2edfc00
11fadc09
fdfc0e10
ffe7fa06
0df2e7ed
fa0503fe
fef0fd05
010c0700
f6f31619
f101eefa
f8f610e9
0505dff8
fbff060f
07eff6fd
060d02f6
00edf612
01f6fd08
f1ea0803
0e120afa
fdfc02fd
f902edf9
f9f0fc06
0508f306
1300f90c
fafbf6f6
020007f5
01fb110e
faeaf8f8
f0f3e3e4
00ff03f2
0b04f90f
08eed6ed
0b0d0c01
01070004
02f9fcee
f9ed0321
fcff01f7
f70d1312
f800ecee
f6e300fe
0dfefc02
ebfc0700
17fbf307
0600f7f9
09fef9f3
11f80efa
f107fe04
eaf8f8ef
020301ed
f502020f
0cf80613
eefe0800
18f6fb0b
0117ff00
fff1f8e1
07fdfdfb
07fd0b09
fd25f4fa
f90414f0
c9fdeff4
1006fff3
10000a0c
efee0018
fc05f4fe
fef600fd
eef5f806
fde6edfc
00fcfef3
fc030400
e7f00703
fbfa00ed
fbf10300
fceae9f7
f4f9e1f2
00fdf5da
fbf9f2f2
02fcf3f4
290d0302
cedbe006
f4ebfce6
1a0ae7fe
0e0b0509
ebf7fc01
0007eee1
0c0bfbf8
f50b03f9
eaf3f7fd
053b1cef
06fdf807
ece40df9
ecf9e803
0ceefbe4
130a0e15
07faf909
fbfce3e9
0f0d0004
f2e0f8ff
0514f805
fe0002ea
03fc08e3
16070007
ecff0a0a
050d0ef0
020b1509
14100500
eeeaeb0d
e9001dfa
1d08f5f9
f4f6fb05
f00502fe
0efa201b
fd2c0af9
f6f94103
d7eff7ef
f2dbf3f8
00f0ecf7
fe04061a
0610f2fe
ef1110f8
f3f40b0a
1420f7ec
fddbe8e9
ebfef3ec
fefb01e9
ea100cec
01fd0502
fffc00ef
fafffeff
00f6fbfc
05f3f503
08fff8f8
fb080003
0bfc00ed
fff6ffef
1bfe1d13
fcfc060f
ef00eafc
e5000ff8
e8d6f0f2
0b090701
f9fa0a11
fcf1f9f5
0c0404fc
fd060201
fa11e903
00fb0106
06f700ef
f8ff070c
02f1f6fd
080102f6
fef90603
0006fff4
05fd070d
eef300ff
fef9f602
f4f90809
e5e3f7f6
f9f4f7f8
fb0007f2
00f8fa00
00f5f8f7
edf3f701
f3f30005
fe06000a
ebff0200
faf1f4f7
040c0700
ed0aecf4
0f000def
090000fc
fd01fce7
fdf0030c
07e8e5ff
fe0bfff1
00ef0302
ff0d0207
1705fd04
f609f706
04fe0200
fffe0c04
1824f303
e60f3dfb
f4fbdfdd
f2f0fe05
edf60001
07f80b00
fcf4f50b
050a0cfd
1e0a1124
fbe9ff0e
01fcf605
00edf3f0
0d24fef5
fdf802f7
e4fffce3
00f6fffc
00dfe7fb
fefcf0eb
dae0f7ee
f7e1e1fd
db00e4e7
ccb3e9dd
fb00e0fe
ebfe00fe
f9f700ec
02f707ff
03ff0312
fe0b10fe
00e4f316
fcf50206
00e5fbfc
f3090e00
f304fbf1
faf3f8f0
ed120ae8
f7ec1714
f90c04eb
f9efee09
15fbfce1
35590d10
060c0df8
d702f3e6
050713e5
f70604f2
0ffd000a
f5dffdf5
fed3ccf1
0ef3fff5
0e15f511
f8fafffb
03f90e0a
fa00f7f8
08010e05
e805f707
fc0c00ec
f9f1f3f5
0d06fffd
f9f8f9ff
f008eff6
0ffd05f8
ff09f814
0403fa03
eaf7fffd
fbf7fbed
f2fff4fb
1f02fef5
051a060a
fefdf3f9
141e0d00
09fa11f3
010505f8
03f40f12
eedcf8e9
fe05e5f1
f2fb1707
02fdecfb
110718f6
cd03f1ed
f8f503d6
0412fbf8
ff1208fb
02ee2d1b
09fdee05
f4f207fc
02f1f307
0001f2f5
04000e0e
ff04ecfb
f90deb0b
00eb0af2
05eb0218
0500f4fe
fffb0700
0003fc00
f7010d01
fa00fae7
01fa0000
0609ef02
ec1a0fef
0005f704
fdf50100
fbf8f800
f305ed01
06fff6f0
f4ed11f7
0700ff08
0af8061f
ef01f5f8
00fc0af9
00000005
f6100810
fbfc0002
f700f405
ff0e06f3
00f90207
0005f906
f40000fe
150411fa
fe0cf30e
fd05f9e4
010cedfd
f90807f8
0807f613
050512f8
0ff5fb00
0b23f00a
07fdeef6
f803fbf9
faf91100
ef04fcec
ffe6f8fa
f8f408f8
0e01f009
fb1e0606
f2e804fd
0007f8f9
f30408fd
0beffb00
fd0f0000
030710fd
fd040e03
02f0000a
fe04f5fe
f3f302f8
12080909
f80efbfc
16040eea
100f0509
040e0e07
00000c0c
f9f7f803
fff9f411
f705eee9
e2110e03
02eb00fb
ffefe9f4
09f50411
fa07f9ff
02f3f104
0503f2fa
fa021409
f8f8f4fe
08fa08ec
1a07f617
e00402fc
0bf3fb00
fbfffbfe
fefa150a
05fdfefc
06fb06fe
0202fcf1
0202eb01
e8ff01f6
eff81400
07f705f7
0d00e90b
0b05f6f4
f90efcfd
06fcfaf3
f703f4eb
f9ff02f2
03fff8fc
e5050604
f9f314ff
feffe710
ff09f4fc
fef407fe
00f3e717
ef0407ea
f0f00d02
13f9fc0a
0b1bf9fa
f50500fa
0bf90310
faf3faf6
f7f00a06
fc1514e5
f60a0afb
00e606ff
01f7dc00
f0f9fde9
05fafc04
f2f9f9f7
0002fc04
020d0001
03fa2eff
f309fbf9
00f1ebe7
05f802fd
f2fefcf7
faf9fbf8
fc0bfc00
0000ff0d
fdedfafe
00f5df08
f309f2f7
e8cdf8fd
20edf502
f50bde06
09f50011
1311f40c
fde9fa07
f9fafff1
05f8fff7
060103fb
e7e8f9f2
f302f804
000cf8f4
fb0606fd
1af502fe
07181012
11111a05
f4f6eff0
160106fa
f6e2e804
f2e6e0ec
020fe7eb
070f14f2
0c060b0f
0b030a01
faf2e811
f7fc01fc
fbf6fdfb
0bfd0101
ed050a01
fbff05f6
eefcfef9
ffecf6f1
02fe01f9
0dfcfc04
fcf5f1f6
ec09e6e3
f5faece7
0505edf8
f7e20300
f600f0fd
0303faf4
f004fc00
f3e1fafd
07fe0a12
0901020e
07040005
f20f0bfe
dff40103
f4eaece9
00eaeee4
0918ecf2
ebf10cfc
09010601
f300f8fc
fc02f6fc
f20709fa
f1f8fffd
01ff02f0
0008f4fa
fefe0003
f7f2f30b
010105f9
00f5100c
00fdf800
f6fdf8fd
1217ef02
151b160e
fb00000f
04fe030d
ebf8f1ff
f40100f6
f0f0ff03
f6ff00f1
e00c1110
fdede3e5
f506fcea
f3edf2f3
02fef9f6
f9f8f2fb
f900fc08
fd07fbf5
02f3f9fd
fd070309
06fa10fb
fb00f906
04e8ebfe
0f01f904
edede1fa
1afffe00
0d0df708
f8f4fe00
f9f9eff8
faeff4f7
f1e3dffd
fffbf4e6
ff00f9f0
0009fa04
05fd0300
f8f6fe14
151700fc
f1fd09ff
0000f8fe
11020409
04faeff1
080eeceb
f5081100
f8f8f5ed
e5e300fa
061006e3
00101306
0303fd00
0d010704
fc001003
060a0306
f8fbff06
eb040801
0efe080c
0200fc0d
f3fcf3f5
0f02f1ed
000f0608
f1020206
0200f5f7
fb1b06fc
fd070b07
00fc00fe
02fdf427
0f00f1ec
03f30b04
f4f9f0f3
0ffeeff5
0e0a1015
eff9fe0b
07f1e5f0
fdf903f5
00f903f0
03f803fc
0bfdf7f1
ebf4f7f5
0bfaf6f7
0e100811
f804ff0e
e7f5f7ee
0901ebee
05fb03ff
0105fa09
efee1bfe
f1f0eff7
ef080703
01fafafb
f6eef0fe
f00df3f8
03e70407
faf7fef9
fa05f908
e7e904fb
09f8f108
0609ede8
fc040300
fafc0bfe
0bfaf920
fe0aff00
f7040004
ffed0a0c
06e8f7fc
f317f907
1c011af2
ff26def5
e71725f1
f902faef
feef04fd
edfd07ff
041001fc
0b240004
d2fc1ed3
16d60c28
ed00edf5
faf003f0
f805f3f3
effff7f3
ef090c01
11ee0d14
0300ebfb
e6f60aea
fff0fe06
07001312
00090200
f006f5e7
07f4fd06
1805d5ff
da100fd9
001224f0
d9fc0ee3
fdf7feff
edfafaf9
07f3fbfd
0b08ff0d
09080b11
17f3dbfd
ed1704ee
f7270df5
e30020d9
dedf0622
fbe030fd
0effe71b
ef000eea
03ed16fa
f2eb220d
0ce8ed19
f801eaec
f4f8000f
ebe3f906
03f412fd
110df808
fb13ecf1
f3f11efb
1b0ae408
da1803e9
fb1010f4
f5eb19ef
00f1f80b
fd010009
ecfb00fa
fff7070f
ff00e0fb
e80af3f9
fcfcfcfa
f1ddf40a
00f7f006
ee0700f0
f8f102ea
01f6fa1a
04eefe09
0003f8fa
fcf200fe
0ef6fffe
fa03f3fb
f0faff07
0001f407
0203f401
02f8fc05
00e4edff
f404f8ee
fff8f3ef
de15feec
f9ec1000
0703ecff
fb10fae7
f8fb00ff
1504f700
d526f8c9
ffce1bfb
120ae60b
e4010de9
f90712f9
f5f1000e
04f00012
0dfa08f7
1ffffdfc
19f10018
ee11e1f1
f70018fa
17ef030d
f5daf000
26fbdd13
0617f5d0
f7ffeff1
f6f903ee
f9180400
06e90205
fef501f1
01ffecee
13fb03fd
0505011c
ec05ee00
fcef0b03
180ae3fd
00e4ef02
fef3f5ee
0cfafcfc
f910f6f8
1a0f1d08
f8170004
e60812f5
fcf006f9
0900eaf9
ff04f3fd
ff01f2f4
f5f5e1f2
00f4fbf4
fe03fff9
fdfb02fe
0a020301
f40707fd
00f50100
faf7eaea
f404f8ed
fdf8f801
ff000dfb
08e50709
fa05eff1
f6fb02f6
00fbf9ec
07f8fa02
f3f9fce5
faf702fb
f7ee10ff
03f1f405
f6f8fafa
ff060001
040201fe
f7fc01fc
f9f3f7fb
00161311
0b0e0609
e9e70407
03fff600
00e808ff
f00af400
01fb070a
efeff4e8
02fef8f1
0b000408
00000e09
03f10301
0606fe02
e9e0050a
f6f1eafb
f3efe7e1
fcfbf6f4
fe00fbf6
09f8fd01
0c04f4f8
052105fe
f50800fe
d9e80102
f8e1f209
f7f7f6f0
fcf2faea
f300f8fa
f7f7f6fa
06f5fe09
08211007
fefe03fc
eaf5010d
fcf404fd
05fcf8ff
08fd0015
fd05f902
ff021b00
0d000112
fcfe0009
00fafbfa
ffff01f7
f602feff
00f909f5
02f5f61d
fe0afaf7
f90f1f01
faee0800
ff240cfb
f6001bfe
0bed0411
0408f408
f7fb04f7
0703f4ed
fffcf6fc
0804f603
130e0600
02f6fc0d
00faf904
fdfc00f4
000200f9
fef2fff1
0400080a
0109ef07
fb0707ff
0bff080a
f3fc0107
010004fe
f8fbfd0f
eae2e8ef
00f4eade
fffef215
00f8fd03
f7edeffe
e5f6faed
050f16f5
fc011b08
0b02fa1e
f0f7f5f7
00ecebf4
fdf50302
020b01f6
fce703f0
12f9f904
f6ebfdf3
f501f9f3
00f5fd03
01faf702
0401fff9
08070811
090a0004
fc1202f9
00fbfdff
f9eef9f5
ece9d8e5
160ae3d8
0c030b0d
0400000a
fb08fdff
f4f4fc00
fff6f109
f2f906ee
0509ff04
f4f8f0f1
0d09fcec
0009ff02
050601e4
020500fd
010607fd
f500fefd
01f9fbfe
0e1901f7
f0030bf7
1507fdf6
fd11ff11
f5fa14f6
00fc03f8
09fc0700
03113215
0008fc0c
000700fc
fe0003fd
f1ff06fe
01fcfc0f
00040001
f1f5effa
fcfa02f7
02f718ef
1cf2204d
ff09fbf0
0df0ee00
0cfe02fb
00f6fc09
06f2eff5
f20cf3fb
fef308f5
def907f1
fbf3f1f7
faff01f5
f5030b09
f9faeee7
ffe4f20c
03f9e6f2
f9fc00fe
040608fb
07f7f100
010bfef7
f9e61803
f8fbe000
e30ef7de
eacffbfa
020a0012
fa010af2
fcf6fcff
f11d20f1
f0e23632
0316feda
000f0b06
f5f7f803
01eefdfc
f5f3f8f3
fdf7fbfa
030504f6
0bfafe07
0901f1fd
fc09f305
00fd0bf8
eb02f7fb
03f6f705
f403f7f5
070df6f5
f3fb0502
01fef8ff
06f6240c
eef5fa0a
f30f0d00
f9040610
f6e80002
f501f803
0400f2fc
f6fcf1f2
f7e7eeeb
10ef071d
08fb0af1
030bf009
050004f4
0a02f602
f805fcfd
fffffcf7
f1000000
01f7f805
0204e5f2
fd010800
f90c0907
f0fa02fc
f9ec0800
fcf0f200
ebf6f708
0702fdef
0b040508
0209f800
05f708fd
f40000fc
eafafff9
eef3f4f4
05000001
e50406e4
f9f402f3
0ef70500
09fe0021
e2f200e9
fd03f3fc
f60e1104
f1effbf8
020500f5
f502f0e9
0703fdf1
f6000303
ebfefbfc
fbfe0ffd
f8f103fd
11d5eaf4
2a5af1fc
fedc02cc
f602f8f6
f6f4f501
08ffe4fd
f2ff12f6
eafdf102
fbff06fe
0300f9f4
04fd04fd
0105f504
da06e8df
fbfc07dc
fe0bf7ee
12fffbef
100cff0b
f8000207
0901fbff
0ffc0319
0007fd0a
f8090bfa
ff15fe06
09f804fc
f5fbfa18
040b0efb
03fef602
ec081010
eacbf9f3
0c1ef415
1b0e1a09
08f4fe0a
fc0100ff
fafafff3
ddee0000
03edf601
16051710
080e0802
f51108fc
fef003f6
dfceef18
f8f5f2f0
0b08fdf2
ef09060d
f80df705
0008fdff
fbff0a01
05f7f1fd
d005fe00
02f9fcec
f500f1f8
fffa00df
faf60f02
f7f4ebfe
13fef4f5
02060010
01fe06f9
fbfbf6f8
f9fafaff
fefa04f9
00f8020a
fefafff9
fbfefd00
0e100100
020e0df7
06010905
ecfa00fd
00fafffc
0404fb01
030600fa
01f1fb00
fc0201ff
000502f9
06040206
f9000004
000207f8
050503ff
000c09f8
0d010812
00060400
0004030a
fdfb06fd
00f8f903
fc000200
fefa07f1
0309fe00
f40f05fc
f3f6fffb
030602fd
fefefa01
fb08f7fe
04eef90c
f5f9fbfa
0afd0004
050c000c
fffae4fd
080400e8
071dfd0a
ff000e01
e9fbfa00
f5f000f2
03fbfeff
05fcfe1b
f2f6f4fd
faf9f1f0
10ff0817
f8f1ef04
faf6f6f5
02faf9f6
00060000
fdfe03f6
07ff07fe
f902fe06
08fb0ffa
fdfe0208
00ebfbf6
fef6f8ff
eaf50001
faebebf6
16fef6f6
ec04f4f7
01f901f7
0207f418
050e07e7
f6f2f614
00f1f8fb
f6fafa02
04f9fafd
fdfe04fc
03fdf9f9
fbfffffb
01fcfb08
020103fb
f3e50605
fdf4eaf9
370dfcf5
04260f01
03f700fd
f7020204
05fe00fd
fbfa0000
070500fb
051df400
f90011fe
edfff0fc
f2e6f8f8
fefcf6f8
f5f9eee6
02fbfe01
fdfc08f9
fdf30209
0a1600fb
fafcf6fe
e700faf1
03f5f901
ed0d0c02
07ff0209
060dff00
fb080c0d
f6fb0cf9
00fb05ff
fcfaf3fa
fd0501fa
05fd0305
f1000102
fbfcf7f5
fd0008f8
05ff0c00
fbfcf800
fc01f3fd
fefafbfb
fa00fe00
02fd06fd
0503fefc
0300fe0b
f002faf5
fefff3f6
05030500
f5e90102
03faef01
f500f9f5
00ebf801
10fbf4fd
0b05050f
05020007
00020905
f406f9fc
00f8fefc
fcfaf9f8
110103f7
00140609
02000a08
0805070f
06000207
fe0d09f8
000b0000
06030cfc
060d0608
2b090a0a
010b030b
04f500f6
f9fcfb02
f4fa00f7
f300fdef
fcfaf5f4
eaeb00f9
f2ece1f5
0005e9ef
00fb0701
fff7fd0f
00fdfe11
fbf5f703
fb0704ff
0eff01fd
e7f80905
fe0500fb
edff080d
fdfc00f9
f7f6f400
f6effef3
f4f7e6ee
f904f1ef
f7f1f3e9
ede5fb02
f2eeeef3
1904f4eb
0a230c0b
00091700
f9fafbf3
f9e2f702
0505f6fd
f90505fb
fa00f902
f7fbfcf6
f8fcf802
edf1f4fd
f7edf5ef
f9f3faed
fcf8f9fe
03020602
fefa0503
0b181707
0405140f
01010a19
fc01fff4
04f9f401
07fb0211
ff0900f6
05fb0409
0800fd00
01ffff0d
f8fafbfd
f301f8fc
0303f9fa
04fcf4f8
11050111
030d0612
00f400fc
06fafbfa
010a0210
f502fefb
fef60803
07070601
0304fb01
0afa0409
fb03f7fe
00030d06
f9fc01fb
0af2f6f4
05060504
e8f50b04
ffe7f3f5
f6fd0100
f9fdfbfc
fc0806fc
03fafaff
00090200
dde3ee00
fdeff4ff
09fdf501
f304f8f4
fd0001f4
faf4f2fa
f5f7f9f4
0ff9fdfa
0e130d10
f6f9ecfe
f6f2f4f4
0ffbf5fe
fc07fbf6
08fc00f2
f9fffcf8
f9fcfffa
12000e0b
120c0b17
fdff01ff
0600f401
fff0050a
f9f6f1f5
f8f1f2e8
f3001001
03f8fa03
ec00fef7
0def0000
fa06f6eb
fffc06fc
16120800
fb080102
00ff04fd
0008080d
f8000102
04e9ed14
f803f2ee
041a00f9
ee0810f4
0a100002
01110cf8
000404f8
02ff0805
0c081203
fffdeaf7
f908f6ff
f9f5fdfb
00010103
f7020506
00f405f4
02060006
f501f8f6
fdfe12f1
eff6fcf6
f6f501fa
f3f800f4
f500f7fe
e4fe0ffa
fcff0002
fe030d0b
0501ff0d
0107fc06
f506f708
f80208e8
08011301
0615040f
04070f04
f4f3fb07
f6edff00
faf5f2ef
ef02f002
fa102000
080c06f4
0d10fd0d
00fd0500
ec090605
f0fa13e3
e60f0501
01f6edea
1733f307
13051407
f2070e0b
f102f0f7
e200f4f0
f8fffc06
ebefe2ee
04e0e3e4
09071218
fdfbee00
f3fbe8f5
e807f4e3
001df1fd
ea0d00ef
2221f5f2
04fd1513
fdfd021c
fb090607
11071504
0b0a04f9
1e080a15
dce0e102
e8faf5e5
ec05fbff
faedfcee
fde8e2f2
fcf60e10
f6f2010e
0ffcefff
0613f409
011606fa
fb03ff02
000902f7
f9eaf900
f5f8e8f4
fbfff509
f4f0eff2
f3031f01
f6f8f6f5
0e372202
24001f13
f5f40b2b
fa0402f7
fde0e3f7
f7f40002
e6f4f7f5
ed050ce2
f9f40808
01200bfd
fc071403
dedbe800
fdfdf8e4
fdf6fbed
0903f0dd
0d08f602
1108e9fb
f00508f7
ff181406
fe0c2016
ef000414
ebf0fe00
01ebf7f3
2312f600
f70f05fd
f50c16f8
090f02f2
00f9fc00
08fe100e
260a0110
18feec18
fe09ecfe
0ef4f613
d1dcd1f8
fdf2f6fa
ff01e5fb
1245f6ee
dafd1adf
ecf4ee07
faf4eef2
f0fe09ef
e9f2fadb
feeffa05
e0fff8dc
f9eafbf3
f807fdf6
06f91607
dbeb1418
06fffff2
f00516fc
ebf4e5e1
04070eec
ecefffe6
09f8f400
edeef0ed
fbfd0900
f9f8fcf8
f3faf4f3
01f7f900
1b011b2b
f1eff702
e7ebf1fb
ded1f5e5
ed12dee4
f2f80bf3
0af800f3
1405fe03
f6170205
e9effdf3
f5f1f7f0
fcfaf7fb
e1f2f7ec
2015f3f4
f51e1901
e9d90000
ed01f2e0
06fa1cfa
f6fa0b04
f7fe0ae7
0ef1f900
e2ef00ee
fae3f5f1
ee0104f8
0f0402eb
fb1b0501
deea0ef0
e1e30bfc
f4f0efff
fb00fb04
ebf5f9fc
160e04ec
000d0608
0b080d07
f9fd0302
05fafeff
1106070d
f2f9fd00
fd03fe00
fb11f7f4
fdf101f1
fcf7f3fd
0f0bfa06
0100f808
eb090906
e8f8e5e9
fef6f7f3
00dde5ea
fef5f003
00f604fe
0602fd0b
0c0c180b
060a0809
eff7faf7
f0f2f6f8
feebe6fc
05ebf5f0
0d03fd02
050d0211
09f5f8f8
07f8fcfc
fd0900ee
01050c05
fe0508fa
140f1007
0beffe04
0409f703
04fc0b04
01fbf407
fa04f6f0
f6f4fdf6
0cf2f602
0706f410
0617130a
ff00fffb
0df801fe
f2f1e30d
fbfaf8f0
04f8f7f5
f3fbfb01
ebf300fe
fb01f7f0
f9f0fcf9
03f1e8df
1900080c
f8e9e614
00fff5f0
0d0c0402
0e0a000c
e2f90bf9
f6f9e2e3
ff12fcf5
07020704
fbfd020a
eaf4f100
ff0f110a
01fd0d18
0803fc00
edf7f3f3
eceef4fb
faf0efe7
0a0d1405
0a070d11
030209fc
100a0811
f5f7ff02
fdfd00fe
ffeefbfc
0c0dee05
030c1006
1b121211
0a1a0c11
f00bf608
fd0009f9
1205fdfe
fdf7fd18
0108fa05
fe0d07f9
efddf400
02070604
110d0619
fe00fc00
0b0414f8
eadf0005
f4f7f3ef
09fc0df2
1302011a
fff5000c
f7dfdff6
01feecea
ee04fa0a
08fe05f7
05f50c19
050dfbff
0c0a0e01
fefb0303
f9020403
f5eafaed
f300e1f1
f001f2d6
05f1fcf3
0ef40012
0f0b00fc
f2080df4
e7edf9f5
f0ddeaf6
f803f1f0
0bfdfcf5
eff9f009
faedecf1
ebf3fdf9
00f0f7fe
e4f6eaef
fff4e5f8
fe2300f2
00f9fd08
f9ff00f9
efebf1ff
0c010404
f9f61715
f0f700ef
03041b0d
fdfb07fd
100d0409
ece3daef
ddf5dbda
f605f1e5
ec020605
100d09e6
fc110809
02e20000
06ef0415
f3e9f4ff
02f9fe04
fd090a01
0e0702f4
0a090303
00fc080b
fb0102f6
01f10500
000afe00
040407fc
fcf3faf1
fa00fff9
f7020604
08fc080b
0805f200
05f5f808
0400f4f5
080bfa04
fffd0308
fe0400fd
17f60111
fb0c000f
0104fc03
02fb02f7
fbf6fe0b
f5fbfc03
fcf5fff9
fff6f8f1
0407fdfb
0d08f8f8
0b0205fc
0002f700
1d0efaf3
0b18091a
00071000
060806f7
03020607
ff150f02
ff020300
f7f2ee12
f9f9e9eb
fbf4fcfb
fcebed0a
09ebf1ef
fffff9fb
0500ff09
08f60208
00020205
f7ff01ff
05000f0a
f3f6fe0a
eefe00f0
09020102
000900fd
f30609fe
fbf3f5fa
f704f7f7
090004f7
fcfeeafe
eaf2f8ec
f9fdfeed
00020b06
fff7070d
ede8eaf9
f60604f9
faf30003
080d0505
f21914fb
080103fd
fbf2fc09
09ff02fa
0101fffe
f30000f9
02030b05
f3fdf8fb
120a0100
07f90904
f0f50003
f0f8f7ec
f7fd0af3
fffefd00
10050610
fff90900
fd030504
fb00010d
f5fa0d0a
0efe1d1e
10fe0aff
00fefd14
01ff06fd
fffd0105
06f6fa05
f3000400
f80100fd
00fffffb
eef4eefb
ecebfcef
00d9dbf8
fefef808
0212fffa
ee01f7f7
f4e80afe
fdfcfa02
eff2edec
0ff403f9
050af30d
f40a05eb
fc09fcf4
fc090afc
080801fa
fb0406f5
000404fc
fafbfe00
0b0c0004
0d090701
0c0bf607
0105fefe
fd04fb03
0000f703
05fcfd02
031a07fc
0a13110b
02070908
fcf802f8
f7fcfaf0
fe0bfef6
fe040606
ff080911
f0f3ffff
fc0800f4
f70316fe
0cf9181a
0802f309
fdf305f8
f503fcf9
f6f801f5
ff0304fb
0f02ff04
f5f6fe0b
02f8f500
09f6fa00
0afdfcf9
0d00fa04
00121019
030712ff
04fe0709
0506f711
051b0df0
fc070b09
0cf1080c
f608e900
f9f9f3eb
eb0400ef
07000502
f4fe07ee
0100fe02
f5f1f9fb
f8000700
eedd0604
00d8d400
f100e8df
f4f7f4f3
05fe0700
1a021d17
000a001d
ff06feff
f30002ec
1a100000
fd06fc0c
10f408f8
0e02f10d
f306ebf0
0310120b
f0f2ff07
00fa03f6
0807fa06
1a09020c
0a131008
0f020e04
1b0f051a
0a09f70f
f3ede7f2
f306e9e0
fff9eff6
fb0c01fa
ecf001f1
fafdf901
f7f7ffff
01fffef7
f2eafbff
fb090ff9
0dff0816
02eff900
f801f8ec
02000207
ff03fe00
eff7f804
f0f201f8
02fef209
0e040f0a
060a0a17
00f5f4fd
faf2ecf4
daf6f5fb
ffe905ef
fe0c0505
07fe0310
f2f90001
e3efeaf3
f6f4f1e0
eff51204
02f5000a
f4eafb0d
fde0ecff
00fdfbf9
e8f600f1
00e9f8f8
10f30b0b
0800fc0f
fdfef1f0
f8fcf600
140cfdfd
f91910fe
f1ecf7f4
e5f903f0
f5ff0801
f9fb01fa
ec04feff
f4fbfef1
ee01f7fc
eaeaf7e5
fedde7ff
090f00f7
0004ee10
0fff0205
f404faf5
fa03fded
f7e9eafc
05f2ebef
1007f911
072906f7
12eeffe8
01f20010
00f7ef05
f5fbeee8
190010fb
ffe3eb10
0701e5e8
11080604
0b0e1100
f3040e00
e9f4ffea
f9e8f600
13fd0301
0d0ff607
f0e3f8ff
1cfaf406
0cf2060f
0a080006
07fa000d
1007030a
06120400
0bf6ea02
eefcfdf0
ebfefdf9
fef7e2ef
fdfd01fa
fdf0f7f7
08fcf0f4
010805ff
edf2fbfd
f30002ff
f8ed07fe
f0d7f9f9
01f1e4fe
fcf9fbe6
040ffbf1
ec0204f0
fdec0501
f8eae908
02fdfdfd
f908fbec
f4001104
f7edf607
eff5f9ed
02fbf10c
ebf8f6f8
e3e500e8
fbf8fff6
05f504f7
0bfaf202
1afdf1f8
0413f6ee
ee1009f8
00e810f4
0613f4fb
040c0003
fa05fcfc
de05fcda
0fcf1b10
0b05ed1c
0c0200f5
00f0080e
fd000203
0001ff00
f5f301ff
00f003f9
fdf6f2fb
f3f405fc
0712fa03
02fc03f5
00f5f6f0
0003f407
f1ff06f7
0cf20108
0001e104
0ffaf60b
0e100000
f601fefc
faf90b00
01f4faff
090bfc08
0cfbfb00
ffff0901
07070d04
03fdfefe
f5000103
0ae1f3f2
f506e700
04e910e7
08feee06
0e02f0f1
0f0a0410
ff0f09f8
fe060600
fcf40800
fceefbf2
f507f903
1002faf3
ec07fcfa
00f604fe
00070bfb
0003fb03
fd11060b
fb040807
f501f40e
f5fc03f7
04030108
fafd01fe
fa050afe
03ea03fa
1503f600
0d0ae80a
ec1402ea
04ee1bfd
1806ed11
f7eef6e4
05040108
fe0807ff
fa0008fa
05f9000c
faf601fb
04fcfa0a
f1fbfffe
09fcebee
fa0cfaf9
f8000ff8
020f0c0f
f910eeeb
0afafffd
fd090000
00ff080e
fc0f0806
01fe02f8
fcfb0e08
09f5e812
e7fefbf9
05f504fd
00f6eb0b
f8f60609
f8fdf1fb
faf20d03
0df6f309
f60001ff
fbf00b00
fd08ff13
130af504
0d160001
f203f7fb
e9fa06f8
fff2fc05
0005f6ff
f50404f5
f6f40100
0d0f0cfe
000e08f6
f0f009fa
dc0704d9
05e6ff14
faebfb0c
eb06feff
f0f1fff3
0df6f407
e7fdf7f7
0ceb0806
03f5e705
f704f506
f20002f4
0302e805
001106e5
f10414fd
0cf8f80f
0601f6fd
010df402
fdfb03f7
0af9f8f4
f80d0905
040106f9
fbfe02f7
f4f10b09
f8f0f10b
01fae7eb
0602f10a
000d00ff
e80ffaf9
02f40c0c
11f60e13
2406effb
03eaf50a
090de901
f803f4e4
fffe0cf3
04070400
ebfbfbea
f1ff00ef
05010a00
18070c15
07f804fe
fffd0804
06eff70a
ff04fe02
f1f7feee
180b0202
effe050d
f3f0fff7
fbfdf600
ecf507fd
faebf1f5
f5f9f703
f700f9ef
07fe030a
f0f5ecec
f3fc04f0
00010900
f8040104
f80b00ff
f8f0fa09
fd00f2f5
f4fa04f2
00eff508
f901f6f6
f4fb00f0
050400fd
f00001fb
e8e9f3f5
efe3ebf2
f6f0ecf8
f5f5f7ee
04fc0e03
f2f9f5fd
f1fafff6
00f8f8fd
0dfffb05
f9f90300
fef2eefd
06f6e5e7
0404fefd
031106fa
11020610
0c1f0aff
03100510
00eff9fb
fbf4f7f7
fdfcfafb
1101f9ee
0410ff04
00ff0c00
f40300fd
f7ff08ff
00020f05
ecf9ff07
f9f800f1
fe02f7fc
07f709fe
0efe000a
090bfa0a
08060b00
f2000208
0006f9f9
f10804f9
fefc0605
0101f401
fc0008fb
fd01f704
fdeef1fb
fc0bfff0
f60208f1
ff040d08
07060007
07030005
00ff0001
fb00fc09
fa0bfaf8
ed010bf3
00f5f9fb
030e0cff
00eae9fe
f0faebf1
0308faf0
fbf3ff00
070c00fc
ff0afc04
01fafdfa
03faf8fd
0f09fb01
fd02fe03
10fb080e
f5e9fe0f
02f5fdfb
f8070619
fc0001fd
06040002
00000804
09ff0211
f9fd0008
fef3fcff
e6e900f7
fae5ebf4
0200f1f6
fb040000
10fa0bfd
fffaf80d
f90103fb
f0f2f503
00f4eaeb
070ff8f3
02010905
fcfafe01
f904fef8
fc010c03
f70000fc
f7f205f9
ffeffef8
fe05ebf5
eef60bfa
01eaf605
fb02f0fd
f2fff2f5
f50819f0
f6fef5f0
f1eff7f9
fdf9fbf4
f4fefef9
eeecf9ec
06efeefd
fb08fb04
fcfbf7f7
ff0806fa
04f9f60f
f9fffffb
0c0c13fa
fe080e00
fdf11409
0700f307
09fef400
080bfc03
f90300fc
fcfdfef4
f8f5fef2
10080eef
06161015
0c061211
0205040b
05ebebea
01010200
15171800
05fcfafb
0905faff
fcfcfc04
f80300f1
1107f700
0e121300
0107f8f5
0000f7f3
020e0600
f7ebf4f9
e8f1f803
f7f6f4f2
fb04fffc
f6fa01f8
fbf9f903
fa0605ff
02f900fc
f1f1f8fc
100904fe
f6fc0e10
fce7fff9
fefbfc02
0000f9fb
fcfafdff
06fdfe00
f4fc00f2
f8f8fbff
08070102
fc0d0607
13190fee
f4fa0904
f8f8dee3
fbf6f0fe
0000fef7
effdfaf3
ecf5fdf7
f009fb01
fcf106fb
020d04f8
000c0804
effe0004
fef9f7f5
f904050d
f6fcf4ee
030700f8
12fbf6fb
12061309
f7f6fa08
f8f5fcf5
f4fc01f2
f8ecfafe
08080403
02ff0a09
f7f4fefd
02f3fb02
eaf7efe9
fefc08f4
fef6f8fe
1514f0f7
090e0c07
060507fd
00020b05
0301f800
0b00f700
130a1306
03fdff00
030804fe
05ff0004
070301fd
f4f9ebfb
fef605fa
fe04fff9
0fff0a10
fa00f803
00fe00f7
ff000000
0200f7fc
050305fe
00fffdfc
fe02f8f2
02f80300
01000202
fa0400f8
050a0507
03f20009
f9f8f5f2
0004f9f7
f6f2f7e9
02fe0305
f50e0600
08000a0b
edf2fe07
fffc07e9
fb00f8f9
07fb03fc
fe060104
fcf6f5ee
feff0807
ece2ee00
020300fd
04010304
070513f3
0c0d0512
fd05090d
0b00fefe
000000fe
0d01fdff
fc000303
f8fe0e06
f4f1fff4
0d0efc02
040c1204
100e0c0e
0607010a
0503f6f9
ff09fd00
02000701
00040a0f
fefef800
f3f9f501
f9eef3f6
f4f9efef
0f08fef5
05000cf6
f7030301
f9edf8ff
000403f9
05fe0e0e
000408f3
f9160afa
0f0afc02
0f1d100b
04f60a06
fe0e0b0a
f5fcfcfb
fa08f800
0509fff1
f9f102ff
fffef7f6
f60a0010
f0de0504
f500fffe
f2fcf9f0
f9f8f8f1
f601faf9
f2f6f2f0
09f313f0
0603e702
f9fd13ff
0006fdf7
fc0009fc
f6fcfdf7
f0f1fff5
f3f2f3f7
01ff0104
00f10200
00fcfd04
fa01ff06
02fef40b
f00401f5
edf702f3
03030705
03f8faf7
f5f9fef7
08eaf8ff
f6facbf8
edf3f6c9
f2f0eff6
ebfcf2ed
f3eef8ee
000d0cff
06ecff00
01fae4fb
fef0fce8
0409fe03
f705040d
ffe90609
fcfaed06
fcfffaf6
01f60201
0dfd1503
edf8ec0a
011a04e7
e7021500
04f7e7f6
0301f701
010a03fd
e9000000
fefa00ef
070e0f08
00001502
01f80510
05f2ecfc
f9f90af5
f907fbfa
f1fe00fb
e4f8f4f5
fcff00f4
f8fc00fc
faf2030e
f715f4fd
01f53c00
0b00ea06
0cfef70a
fd06fafb
0802f508
fafffaf8
f90e0c07
f0fafbe7
fff808fd
ff00f200
fb0500f6
ffeffb08
fa06f0f6
0304f6f5
f9fbfaff
0604fb00
09090a06
03000d07
f90c2000
e7ed00fe
edd7ecf4
01fcf1f2
ef0bf700
f5f008f9
0100f0fc
f7fbfdf2
0df80007
0803e808
17170afe
10e40516
04100d08
e2fb0c02
f9eef6fc
f8ebe4eb
eaf50108
e014f9f3
f7f27f23
02fce316
fd270ff6
00ff0e02
fffb07fd
f402fd06
f40508fd
040605fd
090dfa01
fb0cfff3
0d10fe04
fb120aff
0bf50205
0c150408
fff8fe00
04fbfa00
f200eff2
08fb05ef
07fffd03
00060afd
fef605fa
ef01e102
0ee2fefd
0015f40a
f70f0000
f3f004f4
051007fc
080b1802
13050708
022d1df2
00000d04
fc1afaf6
00ff12f7
05f7f6fe
0901fb09
0402f404
fa1901ee
03061003
000bfdfe
09fa14f4
ec071a0e
05ff0306
03f8000b
f4f90bf9
00fd07fe
10fc0b0b
00020007
fd0006ef
00f6030c
fcf9ff01
feff0103
23ea0820
0624c715
f70200c0
fdfc08fe
faf01100
0df7f515
f114f1ee
fdf903f4
fc0dfefe
04080106
01090700
e4f6f2f9
06ed0003
00fcfc0d
f90703fa
0701020d
0d08eb02
e60c13dc
f8170000
08f61c02
ec0a000a
fef404fc
06fdfc0f
0002f701
f8f900f9
f3f801fa
1009f615
0208020a
f50002fa
f5f00b09
06f7090d
1412e800
ed050bf5
06f400ff
f4fe1a04
05e6f004
fffcf7f4
00020903
eefb060c
0200fffd
00fb03fd
020401f7
fe05070a
02090300
02040eec
ffef0402
0503fa00
e5090bfe
16e0080c
08fde2fe
00f801f3
fd0200fc
00f511ff
02f2f800
03f70604
09030717
f9fefd09
080f0a06
0f0a0606
f2fb0500
01f5fcfe
0500fc05
fc020505
f42506f1
02fc0dfc
08fdf215
ee17ede9
f60212f9
07f2fc11
0a08f708
ed0112f0
07f4f90c
ec1106fa
eedfffef
0f0bf1ff
0502faf7
f4fa0000
ecfe00fe
0300fafd
0c02fd06
f60a09fb
ff0ff600
e9fdefe8
fbf8000f
11fa0202
fe060600
00f80903
f300f9fe
f9f713f3
1104f101
09e9fa11
f607f0f8
07040200
fb020100
f9f104fb
0a00e915
fbfa0c00
effb06f6
09e2f10f
13fe0c0d
f904e806
1bf9f0e5
000503f8
f404000f
fdf6020d
1303f1fc
0116f706
ee0305ee
fd0409fc
02f904f4
e4f10511
0ad8060b
01f2e3fe
f5fefdf5
01f00901
edf617f1
1de8ed0d
00052102
faeef70f
031606f6
01ff00fe
f2fafb04
effffffb
0304f7f8
fafc1100
03fbfb00
06fafa01
0507fc09
fd12f5fb
040110fd
fdff0022
f9ff0b0f
fdf9f809
fdfa04fe
080900fc
f900f6fd
f90004f9
fcfd090a
fb080af9
01001106
f30204f7
ebf1f8fe
0cf50e10
0c18f911
050000f1
0cff0510
f4fa01fa
fdf50000
0d0605f9
1c110800
00180808
170cff07
1912001b
fbeeeef7
f5fbecdf
eb0000e9
f4f7fcf5
fb04fe00
fe090700
fc060007
01f0eef6
0703f9f4
05261713
06041e20
0507000e
07030b08
e70103ff
f5eefe00
fcfd0209
e7fdf5e7
04f4fa00
0d0202ff
04050205
010702fe
f30c010a
e5ebfbfa
f2eae9f5
f2f7f7fe
00f40ef8
0203fb0c
faf5edf2
f9f9f0e5
040d09f9
00fcf900
ebf20303
f7fbf5f8
0504fcef
0a01fe14
0b0004fc
05fc00fa
fcf708f7
0c04f80c
0607050d
17f9f408
f9fefd08
f302ffef
f7f0f8e7
00fff401
0c090b07
02000d0f
f5fe0706
f4080b00
0402040e
16190314
140d1300
0004f904
0701f005
0509f003
00fef8fd
f3edfafb
faf7f8f5
f9f3f2f5
f701fdf8
07ff02f6
190d1015
f7f31119
00f7f1f5
fefbf2ef
04f2fef7
09f1fa00
f512fd03
eae905ec
fff9f202
040bf4f7
0a090907
04ff02fc
fb02fc01
0e1602f2
00001000
1c0b0304
17270ef5
f5110cf8
ececfbea
eff1f3f8
0ef7f5f1
110d0a07
ff0c0006
06fb050c
f0fffd00
fbeffbf4
0501fcff
f6ff00fc
00f6fbfc
fc05fdfe
fb00faf4
0e0a06f0
fffffdfd
f90202fd
f30007f4
fcf0fa08
edf3fcf1
e0f9fff2
0f000613
040a0006
f2eafcf4
fdfafffc
010e00f9
f701fffd
fffcfdfe
0bfa0d0f
fe060005
0419ff00
00fc1507
fff4fc06
fcfaf5fa
ff03f9f3
f7f8fafd
01f7f0f6
060e0704
ebf703fd
0e050105
fc0bfeff
f40501ff
ef0000f8
fdee07f6
00ff0002
faf2f5fa
0004f4f7
fafcfbf7
fc16fff9
f8f104fa
fe0006f9
ff0e0202
fa030105
eef0f206
f404220f
ebee0106
f8f1f6f8
f813fd16
170bede5
ee0012fb
fc012a11
12fffa03
1500f709
f509fef9
18080412
030a00fd
fef8fa02
0504030b
00fa0001
faf3f902
0c14fe08
f4fef006
11f6e6ec
00040402
0406fcfa
02f70107
0001010d
fe0c0505
fbfb0005
f6ff00fe
09180c00
070b0509
060dfb00
060407f0
ff00f801
fcfce8ee
fff40705
0cebdc00
1b06fe11
04120405
020e0bfe
03fe1015
00ff0513
fafef901
edef0802
05fafc03
15f8f702
16050a1c
fdfaf303
00fef2ed
090cf7ef
030d0dfd
1302ec04
ff09f1f5
e2e3eefc
eafafaf0
0407fcfc
f6ebf909
fdf7eefb
ebfbfcea
f7040cf3
0b140011
1c2001ec
f5f8e915
05fef6f2
01031817
f202fdfd
fff703fe
f2ff0900
ff000100
fcfafaee
040a0002
f10d0204
f1f9f7f8
1a1606ea
07eaf125
06f8fbf8
00f40114
0df9f906
131009fb
02051608
fcfd0605
08fa0c08
fd030217
ec01fc02
14e908ff
f6020f0b
0507f901
03110fff
09100b00
02fd0600
fef2ef00
0207f0fd
05120bf8
0e020902
0d00070c
ecfdfe0c
00f0f4ed
f80df1fe
04ebfbf2
0304f403
f2f10bfc
0709fef1
fffa04f8
00fbf7f8
f602fa00
00f6ecef
12fcfc06
f506f4ff
00021efa
e8f306fc
00f1f5f4
0ffa070b
01f3f8f9
01f7fbf9
fb00e3e9
fc01f3ee
e5f3f6fb
f1fd03fe
0303f904
f9fb140c
f9edfc09
ebf804fc
04f50f08
01fd0b0a
0501fbfe
fb1203fd
fff40404
edf10001
fb0300ef
030d0200
f5fbfeff
080306fc
0bf4f705
040f0015
0109f903
fafd0700
ef0302f4
f10df6f6
fff204f7
f40400ef
00f4f6f9
fa0017f9
0b020c05
00020507
07ff04fe
0b050c0e
03faf203
f209e9fb
fbe6fe06
efefefff
e61601e3
fbe80501
07f9fa0f
06fef7fc
fc120709
fb021301
07fe0e17
f71302f8
f00331f7
ff02f1ec
000301fe
0104f702
00070401
fe060102
