080f090f
00f914f8
fd01f310
ff0c1efd
14fff603
010104f7
ff070a12
fdf1fff9
00fcf7f6
08100c06
01ee10fd
f2e20df6
fbece300
e407fc08
ecf9ffe1
d1f9f6f3
e8ebd3ca
1400dff7
ecfaebf4
0cdffc04
1300ebf8
00fd07f4
f8f101fc
f6fcff05
03efff00
f0fffe02
e1fafdf9
1c032925
e802fd0e
00f1ece6
fcf000f6
e8f00c14
f10201dc
05f2fb08
1d000e1a
0d1cfe0b
090d10fa
0d16feeb
05f5060f
f5dbe2f6
e4fbeee8
f6fafee5
e1f7f6f4
f2f0fe05
0c04f800
110af908
ec07f800
fafef6f8
eb0501ee
1620010d
f3fa08fd
12f90404
f50d1019
f7d8fef2
00e8f7ed
fa0600ee
d1f8fb1b
15031507
fcf90b1c
0917060b
f3080503
eef307f4
0701f0f8
15ee0f16
08f7f90e
fdffe20e
140e0e00
18f2000a
fe270707
fd021201
08ff0207
00f5f80b
04f3e8fb
f8ff07e4
fbf200f9
0005fdfd
190f0403
f3e5fc07
f6e4e1f5
fdf61808
0002f306
e3fef5ec
eff306ed
06fbebfd
f7f9fbfb
f816ef08
03e508fa
0c0e0607
e0ec05f6
f8f8f1f6
09f00402
fc1b0314
edf3ed13
f90a11f5
f6e10618
1b1f0004
001c2a0f
ecfdf0f5
10faec12
0c0b0809
f6f7f911
f2320e07
02e2151e
09f7deea
fd04f60c
fc10fbfb
1003dcfa
11f9f4f6
00f80ce3
0e0ff809
fa0c1301
14f2ea12
f905f301
070a0fe5
090a0c0e
cf04ebf3
03eef8ff
ed1f1401
e4f30613
f501f9f0
effef8fc
ed000100
0ff7fefa
ec1f0fff
0c000203
040ef80d
27fe0626
e10de3e8
f71103fd
dfede108
e700e4d1
0c0f06fa
f61d2209
fd030113
1e0f020c
030101f6
f7070df9
ee090204
14fe1312
08d909ff
0e0b0023
12fdf6f7
2a170d11
05290c15
0a0611fd
fe0a0afb
f0eedef8
001d0ff3
fbfe1114
0400fe00
28f1ec06
f414f302
07e90700
fd000013
f9ed0afe
00fb11f8
000401ff
0f09040e
001005ef
f6ec0205
0a0e0d08
ee0b0b05
ff140c11
12fe01fc
f1e7f70c
000a01fd
e614fcfe
f4e911e3
f00008fe
1e160905
ff0c1100
fc091e27
03f9f8f6
cce5fe07
fbf8e7fa
fc0305ed
eff9f402
fdecfaea
04f01506
0a0be811
ed03f1f8
e4e6ffd1
f9ea02ef
ff0601fc
08f909f9
0500fc05
06f802f6
eaf0072e
f5eff8f4
fe0aefee
f9071117
02061701
05020117
fa0f0bfb
f902f3ea
f6fbfb03
08ffeb17
16e6f303
10dbfb05
fde9e3fd
f1030bf7
00050c03
0d01080e
f4eefd06
faecfffd
fd080302
f80303fc
f5f6f613
04fcfde9
07edebf9
f102fef2
ed000bfb
f2fefcdd
040bf700
21091a17
13200812
e81301f7
fbee0f08
0900ea02
ec0002f8
eceef6ea
09fada07
0500f8f9
f40defdd
fbf802ed
000d0202
e7f5020a
fc382df2
3feb2133
ef14fc14
f50704fc
fffc0ef7
ffe9f4fb
f0fcf7f2
e904faef
f7f400ea
f1dfdaec
fa00fce9
e3df1102
1a1af9fc
d1162a00
fdf32df9
1d04f535
fee9dffb
f206f2e8
13151607
0107fb12
13f907fa
fffa0209
1810f1f1
0c0a08ff
fc000000
fbff0a09
f6e4ede5
070308fb
04020b0a
0b00fe01
071ffcff
ee00f2ef
00f705ee
03030112
09110319
03fc0cfc
f4140ff7
03e90300
faffebe7
17fff703
0b010305
1e112131
04fb0f09
f407f7f9
faf5f203
0e1218f6
13ee001b
1dfff3f6
0f1b092c
15e9fef4
0203e9fd
fdfd09ef
08f80e00
0800f803
0d221203
04f90302
f2e7f1ec
04f20713
0d040e01
fa03f6ed
f0f105f9
0bfbf801
09ff00fc
00f0010c
02fd00fb
fbfe01f6
fd0507fe
fafdffff
07fdfcfd
ff0c08ff
0605f5fe
f802181f
feecef0a
f0fcefdf
fc0f01f5
d5002cfd
0de30930
fc02fffd
fbfbf700
f9fff402
eff4fb00
00f600fe
12040c06
0bfcf702
03fff304
fa00ffee
fafe03fd
08fbf60c
07030904
1a070402
0cf9fc02
fe010101
0ce0f40c
15fee804
0200f3e3
0005fff6
fcdbe906
010dff00
0afe0e01
00010c04
03130b09
10f51402
03fdd2ff
070afef0
fb000010
ff0f0705
0efd0005
0e02fb08
fbfdfefc
fb000900
eceefef7
fde2edf6
040804f8
00060008
1c100508
05fd00fd
eaee02fc
f2fbfaf6
e3eb0809
07f9e7cf
0808f4fb
e703f500
08e90302
07170a09
e4020ce9
0d01f805
0af4ec0b
f90a0ae0
ebff04fc
ede817fb
00fe0300
fb0108ff
0afbfe0a
fc06fdfd
e7ee1bf4
060810fc
1701000a
07130205
00f31100
05fa0305
f808fdee
0000050a
e2fe0500
cfe615e6
f7f70605
04fd0101
fdff02f9
1603f40c
05180705
eef6f7e1
05fef4fc
07f4fcff
fbffff00
03fffe04
ea01eaf9
eefafffa
03fdfcf3
0002feff
0f0a0b0a
120d0b13
fcf6fafd
0b0202f8
000e15f2
fae8fe06
0607eb1d
fbef00f2
fd06fc0a
00edf9f0
fbf6f6f9
fe020b02
0aeaff11
fd070203
fefbfdfc
f603f102
051303fa
06f90bfb
0a09f7ff
000007fe
03f9f815
000703ff
090cfc03
01f00506
000cf7fb
05140cfb
eefa0300
0aff1efc
0b0afc1d
ef030d06
0c030cfa
03130400
0ffc08f3
01fef113
fdf8fe04
ff06f400
0ff1f8f2
0e0df422
00fb0706
05fc130d
0b01cc16
dc1006ad
ea07f8fb
06fa1700
f9fbee04
f9f500fb
f303f8f8
04f50d00
fd0500f4
fbee06fa
fc06f0fc
f7f900f8
fd050001
fefb04fb
1006fd00
020017fd
ed000405
000107fd
01ff0c06
14fcfe1e
15e50100
1b1aebf6
070deccf
f117faed
f9f506ff
0b03080c
090df801
ee010400
fcf50e06
0bdde600
010dc204
0bf703df
ff0d05fb
f9f2ecfe
f5fd070a
f6fcf4f5
09fa04f9
fd0505e8
fc0c0214
f0020ef5
dfef190f
09cb07fd
11faf005
e6140202
efe10df8
f5efff17
0f06fe07
050a0ff2
110a040e
200c0903
0b140216
040c2ef0
0e000809
0a0a010b
00fc0af0
0af80514
ffe300f2
0502e5f2
feeaeae4
0108f2fe
edf005f7
c4fbfeea
f3e600f2
fb0c0305
e8f510f0
07fffc06
fbf9f900
fef8fffc
0226fff4
09fd1508
f402fef8
1bff0814
12220e00
1f07fbff
05f8fb22
f820fef8
e5defcfd
f1de17f1
f8f2f117
19ff0000
0d1300f9
f7f5000b
15e9fd22
ff00fbf1
f20305f0
fced0400
0a05f6fe
010d15f8
e6140fe9
f8fa05e7
12f0e508
f607e2b0
00090002
010206fc
03f70b00
f2fa03fb
fbfdf5fc
f90bfe0d
fb00f600
ef060901
0ddf0125
f900f1ea
0703100b
0902eceb
f621ff0b
05ed1bfc
060400fd
f0f203f2
0bf6eafe
08fef3ff
fa06ecf3
f70000f7
00f60008
fd120708
faf30e07
f6090f02
fd0a0502
f8f6e1fb
eefff8e0
0000fc00
13f7090a
1415f6fe
011cf7ee
faf6fef4
04f70500
09fffe05
fcff0b02
07f9fdfd
0408010d
130417fa
fb121101
ffee0000
04fee600
f3f9f800
100c0dfb
f7f9e802
f8f20f01
fc02ea0d
ffde0c0e
f000ef11
1bf0e9ed
ee1becfb
00ef00f9
101200fb
f0f01207
10f8ed07
221fee00
e41413fc
0ef600f7
fb0f0106
fff61deb
fbf6f706
ecf8f4ed
f6f5f4f5
faf10000
f1fbfbf5
0900fbfc
fffdf9f9
fa0ae600
f4ff13e6
fff403fd
f8fdeb09
f703fdeb
f8f7def5
100cf3e1
183d1700
10003913
070f1712
0814fa06
0ffd140d
0117ff1e
fd0a06f8
f9f40005
e3fbfbf3
0cf506f5
0feff3f6
06081604
14fbf714
e512020b
fdef0110
020a0808
0605f904
e9f3f9f8
04e4e70d
01e8d3ea
f3ecf9ec
f807f6f2
f6021005
18f2fd08
f9fff60d
fffd01f3
f3e709ff
1101ff0c
f51b02e4
eff2f9f5
0a03f4fb
fc09ee01
0b2500e5
eed2fe14
0fe1d4f3
fb02f3e8
090af70a
07111afc
f5f6f2f6
08fbf4f5
03100603
05020711
0df21a04
f400e60b
e60ceac6
07df0001
0014fe0a
08f8fdf9
08060000
120e1006
ff0100ff
fd020afa
fd04f2fb
0c0ffef8
fb0ef70b
0afaf8f9
e3f003fc
fdee00f4
fe100a03
030a141a
eef2ecf2
09f1f0ee
e7f500fa
e6deeef1
f4fe0400
0a05f3ee
ff1c06fd
ff00f6fc
17140aff
f911fcf3
0402fef5
0d04060a
0a18130a
050e1f14
c90302ce
fcd4f9fe
04ffd8fa
e1fcf4e8
06dafced
ff05d2ff
ff0706ec
ff1310ff
05f80000
e7000107
0cf80006
0509ff07
02f105f0
f3f1fdf3
0008e5f5
06fc160d
fd15f501
0c0d0f09
2d100b1e
f319000d
000b1200
1418090b
ff19fd0b
00f6110a
e803f906
03f90103
000a0200
2802ffe8
f6110506
fbf8f505
13f80000
03fff8fe
fe03d4f1
01fd0ded
f1fc1004
0afff10c
0202ece7
19fdfb09
0bf700f3
29130016
0fe2f909
010af702
23290c08
1444261a
f3043516
f80004ee
09f4f410
f5071409
dff4f6f1
0b0504f0
1e020412
1f08080a
fa2408ef
05e6fcf1
f306f0f9
fe091700
0c0b1708
1901180e
f2030d0a
01fa0c0c
fafa01f4
0bfef7fe
fd13fd03
0e0cfe05
fa0c09f6
ebf5eeea
d7edfbe7
fffbfa02
fb05150d
0b190308
ef0208fc
f9f7def0
f516d0e6
f41308e9
ec02f7fb
dae9f6cb
071222fe
fa0a1efe
dcfa080e
02fc0f03
12f9e302
ff04f619
f5ceecf0
0f190d0d
fffb1208
2c0c02fb
001a0f06
02fa0f03
fef3f107
ef0f0d0d
00f80600
f7050510
fc0a0ef8
0b02070a
160f1701
fd00f803
0012f2ea
fcff0312
fbfff5ff
1001fa13
050007f2
0b0aef03
03060e00
04ff011c
fcf1f604
01f0ff06
17000607
090debfa
1e1efb16
121b1af9
140c0af7
11091008
fe03061a
f4fbf504
00003100
0de7fd0a
05fcedf5
0d010720
efed0f01
00f60b05
010cf102
fce8edf1
13faf90c
f4f9fe1b
04141005
09080b06
d800f7f0
dfdf07ec
e800f0ff
cdf103d8
ee1306f2
ebfef4fc
03030516
00fc00f6
e5fae4fc
00fbf9c1
0500f703
ef271a10
ddee0e0d
fa0406e2
fc050403
e2e82703
f4eff0fd
00022409
ceebf9e4
fddff8ec
eafbf0f6
eef5f1e9
073d16f1
02fd1a09
060ffe04
0a200206
ecf6050c
d5eb140c
ff0001f1
f00010f6
d2f4edd0
f8f709e6
06e9e108
1eee0307
0303f006
fdfeef02
f30211ff
01fa00ff
f7fe17fe
e9f6f4e4
110bfef5
0c01eaf7
d1010b0f
f7deedf8
fff4eb09
e8f0f2e5
03e303eb
fc00f4ff
edf4fde6
03f8f6f2
f6040ced
0de80e0d
ead5e8f6
e8f3e2fa
dde3f4f8
efc8e5eb
edf901f1
f0eaeae3
063b0bff
1b195625
eef8194e
fcd9edf8
0606070c
f302e9ff
fefbec04
f2f614fd
ef0708fb
d9ebf20c
07e6e614
06faebfd
03e6f90c
f3000002
f1edd9e8
edeaf9e5
fc0bcffb
f70d06e6
03eeedfe
0c0cf407
070c0604
00ef030e
fafc0505
f5ffffee
08eeff0b
fcf50008
14e1fe06
f50e0e0e
1007f5f9
01ef0105
1ef2fd04
ddf0d40e
10ec0511
fe03e906
150100ff
f812fce8
eefafcf4
f8f70a00
130a09f8
fed602fc
09fbe4fe
15050ef6
0bf800f7
11071c02
14ff0f12
faf7f9fa
fbee09fe
1b000b15
120a03fd
16ebdffe
000308f9
0600fbfd
e50201f7
00f21611
0aef0527
f6f8ecf9
03ebf2fb
1efefbf2
f13ae621
0efde9e8
0a15f9f7
f0e5fefc
0ff1fa08
06f9030f
0c0300f7
040df100
f40bfdfb
ea0a04fa
090406e2
1725fcea
fffae900
02171310
1700f40a
f900e501
fa0ddcfe
f9f407eb
f4f403f4
fcfcf715
f7f7f9fc
07080a0d
edf8fdfb
05090f02
05f6fd00
db00ef02
00e1030d
fc04ee14
fe140efe
060a1202
09ea0306
f3120a14
f9080913
e30017fe
f10e010f
0008ea07
011709fc
f8f3fbf2
fcf3f2f1
fcf7e7f8
f80af912
06defc12
e9f8e4fc
eafdf7f6
f0ef06e1
020cfbfe
f6fb1014
f7010e07
0b100b0b
ed04f4f3
231a0eed
fe10ef20
110b01df
140a07fc
00010300
fb05f50c
0bfe0d01
040400f4
00080f16
08eef719
e0ecf402
ea04dc08
fd0c0007
031a21fb
00070bdc
fc08f403
0cffef14
f7f9eeef
0901fbfa
06fef209
0106fdf3
01e70710
fff2e41b
f703f6f6
f3190ffd
ff01eb0a
fdfd11ee
0fe309fc
14efe421
0902f0fa
0108f9f5
0505000b
e300eedb
f80c00f2
ecf1f6f9
fe0f04f9
0000fd1e
0002f9fa
0e0106e4
fe1104f6
fef9fa11
fc02f007
06ee0b03
010406ff
f8ea0a13
f004eb07
07fbf0f9
ecfd09e7
00fa080c
faed040b
000e1204
09f7f506
0915f304
fe00fe06
0cf7f402
09f8f806
e300efeb
f4e70606
f9f1f206
f207f6ec
fce81bfd
020debf5
00091406
030cf400
041bfbe7
fb0d0004
fa0dfe08
f70724fe
ecfbf9f8
f70efb06
f70cfef2
fbf01409
11f5e2fd
03fdfa00
08faf8fc
02f800fd
fe04ef05
eb151102
f4f807fb
ebfd0900
fe00f70b
0b13f7f8
f71118f4
e4f500fc
f9f5f3f0
04e9e8f7
f7f3f2fc
fee2e4f7
f7f81af3
1cf30c3b
ebf60e1f
effffa04
000c0406
07fe0e0b
07080704
14140aed
fe11faf0
01f203ff
0cf2f00e
08f6fe08
eb16ffee
f6ed03f9
000ef8f9
08e81ff9
f8ff00f0
f500fcf4
0ff30bfa
d909fb0d
f90fff10
fcf518ff
edfad902
02fc0a06
f402f90b
0301fd06
00fb09fa
001509f3
0bf10c15
fa00f9fe
e70d2be3
fe11fce2
030b07ec
f80114f7
f2f61af9
f3f7f802
06f4f108
e205e7e6
00e600f7
fefee5f5
e909f6f2
02ee0006
01f8f800
fe020600
fdd90906
fde8dff7
e1f7f1f2
1d0600f4
f6fedcef
0dfe11f5
fffafa0a
f60002fb
feff000c
ff010107
000bda03
14f30006
0ae90706
1cf5f90e
fdfaf01f
fc070af9
0debfdf6
ec05f6ec
dcfe0e03
f602f1f4
f205fbfb
0f0e0906
04070409
080309ff
080f0707
fdf7fb08
0603f913
04fc0afe
11f5dc0a
03fef6ff
fbef040d
00effaf6
00fdf607
080906ff
faf70f0b
f8f60ef2
fffc000f
04ea0601
fef1de08
02e40cfb
fa07f5f6
0106fd10
f10200fd
07f8ec00
041301f2
070512f8
00000c06
00e5020c
08f11a14
01f1040c
b00cf811
00dd071f
0500fb00
0d0bfae8
0136f10d
03e6101e
fe07f907
fe090705
faf91506
ec130807
d810fff4
fe0d18ee
fefa03f7
fa080008
0afefd00
180400fc
140c05f8
e7f80c07
ecf400de
003601ef
08fef807
f300fc03
0dfeedf2
e90608f1
f8e2fdec
f7fafef4
0aebd500
0506fa08
00331201
ec121d0c
dce0f4d7
fefaf4ff
f8fb00fa
f4fae7f1
f701f3fd
1101fb03
f5fc120d
ff14f8ed
0ae7f808
caff0aed
f30004e6
f1fefdf6
eb041100
02e9080a
e3fbcce1
f2fcfef6
fff9fd25
011300f0
1818062f
00fe0927
1304040a
120d1b0a
0600010e
fafce6e8
00f1fbf3
02f7eef2
f7fd0909
dfff07f4
00fc1a00
0eecf0f4
060712f3
04080afd
021d2716
00f41c1b
00e7f3fd
120af3fc
250afb28
eef00cfd
17fb19ef
ed270f16
10f51114
1c001f06
e3001218
f207fdec
00010af8
0013f111
050f0b03
20f11402
fc110013
0ae7fdf6
e7f1bfed
eef7f1db
fa1004f5
0afa1004
da0efd09
f0e90bdc
ebfaf6fd
fcf0e6db
efe5f202
07eee0f3
2f0b010a
f9ee0115
13f9e8f6
1b0d00ff
0106f7f3
0e180c07
fdf50903
0521fb0f
fe0e7219
ef030702
fcc9f91c
ddfaddf5
17f1e5e2
f112e6ee
e408f6ff
eafdf9de
0f210409
23270611
e6fc11f7
f7ec0fe7
f0f9fa02
1404e3fb
00141404
fdee06ed
eef30309
04141ffa
05f0f405
f2d1f2e0
0110f2dd
040d160a
3a0710f5
fd0af802
10fd170a
05000e1d
ff0e160f
fc04de0a
e103fdf3
0902fbff
07060009
c2ed0203
11f208f8
0f06fb08
df0c07d0
feee0e05
1602dc01
f71403f1
e4dd0c03
0ef403f3
23f10408
01020b07
1bf80a04
f1f914f6
fbf7fa18
f8fe0f02
1a230cfb
f6dcf816
0ff7d9ef
0a0805f9
13fd0214
f4eaf2eb
1407fcf3
fc00000d
0bfd01fe
f1fa0507
0b2a00ea
0e0f0909
75330733
f733161f
e00202ff
ebefeede
07d9fbea
1fffe4fa
1af8070c
0b0ef9f3
f603fff6
0702f5fb
ece10903
011bfbed
1a1605e3
dee2f100
01f7080d
fef8f7ee
0e0900fb
090600fe
1e04f71b
011e0cff
edf1dbfa
14f4e20f
002807f9
0f11e607
0100ff0a
0dfa1015
fbfc0012
d8ed08fc
00dbe7f7
181d2eff
ff031620
fdff0a10
ef00f9f2
0703f9ed
eceffeff
03fcf401
e1eaf2fa
e9fbf8ff
0b0d1605
10082527
fdecfd0e
fdf5dff7
1906f7f2
12ffeefe
fa1af4f6
1dfff011
0e05fbf2
1508050c
ec0a07f5
ff03f60e
02e6cade
ed000204
f4110f09
0d00f8f5
92dffdf5
03c6f3dd
f11000fe
e90202ef
090d1204
fe02f8f7
cb00e3e2
fcefeced
1405f2f4
f801090c
f8020009
09fd020d
0d13f716
160b090d
05f905fc
e9f5fc0d
d5ccede1
1af5f508
2b1aec38
0bfffef6
f5fc02f6
0af10013
f30ff7fd
ec174bf6
34f4ffeb
0734f9f7
03f70ced
b7ed1300
ffe1ebff
00081009
140f11fc
03faf90f
1316f0e6
ef0c1105
f5e80008
1cf6deee
7f3e1223
113e172a
0801c7fb
1c09faf2
05f3fb0b
05ebc9ea
0a0209f6
082104f3
e8f5e2e9
41150505
edf300fe
120f000a
e80200bf
06fe0f00
0a0e1011
12190003
fc100909
f307ff05
0ff4e5f1
17311701
17f8f309
25051720
f7120b16
02eaf7f8
dff6000c
0fb9e502
01fbe5fd
1d00e9e4
ecfff8fb
1cebf910
fe03ef13
ffe91101
fe0bf911
02f2f91a
fb02fbff
fc082103
daebe8f1
dbe3ede7
f9e6f8fe
f4f90205
f4d0eaf6
e6e5d7e6
090cdbd8
fe07f4f2
09f401f6
150a0103
fa240907
ecf502e8
eef4eee0
e79ffdfd
00d588f4
2bf3fdda
272b0716
de130bfd
14e80306
f107e4f0
f90ff420
03f203f0
032f0ff9
16170a0c
421c0d04
20422c05
0509050b
fbfffd04
fef80ff3
e1fbecfc
fdf30600
fefeff09
f9ff1204
fa04f02f
f0fafefc
29000b00
e3fa3864
27f9f105
0c0afc12
fe011305
032bf7fc
130e2309
0d0f0633
06200b02
f70aee00
16f9f06b
f8fcedf4
fefffdeb
f0fdfadf
fb2d090f
ecfcf7f3
22fdf3d5
09e1fc00
00230718
34071915
1101ff2f
ef07ea01
e9eff3dc
ffea01f0
fb04d0fb
fc04fad0
04f4f208
f60e00f8
d9ecf3f3
0afd03f4
e8fce906
02fbecdb
ff210efe
1af9e20e
200ef8f4
fe080014
0d00fbf8
e3fc1afd
00030313
010d06fa
10eb1609
0f2df711
0cf4fc04
e90c06fa
f5dd06ef
fe06e506
ec08efe6
01e91302
22f50d2c
201d0d1e
00c8f80a
0af5e0f9
210f06ed
0f38270d
e5ff1108
f3f3f5df
05f7f4fb
f800fc10
1b0001fe
f3ec1208
2000fc00
0d021e13
fff6f700
0e0b1806
1710130d
edf3f10c
fbf2f209
d401f0ed
01f7fd03
eff308f8
e803e800
e4f6ef04
e2e8e5ff
d6e8e0b6
eed3f0de
e3fcd900
00eff7f8
0e3c0506
0d172b19
eef91b15
e8e101ef
0209f70e
030ee2fe
eeff0de3
031d260a
381714f6
06fcf31f
08ed0005
c8ef24f5
fdf800f2
fc031007
e8ff0011
f5d5fcf8
e9f30efe
02f5f5f3
fb19fcf7
1c001603
1414060b
0702fa18
ee1b1402
d6eedeab
f1e102e9
ef090400
ddf1f1e0
eaf9eeee
f90a2102
02fd0023
151a1413
00fa0af8
06f314fa
0bfee00a
fc041e07
f8020a0b
f4f5feec
fcf1ebfb
e9de0627
03f5daf2
170adce6
04060500
00f70308
01100b06
0a100f05
04d9ea07
f1eae9f1
11faf901
24140015
09f3f7f3
0f160928
070d0b10
ff02ff04
0b09f906
f3eef201
050015eb
2c0a0e19
fa0605fa
fcebf7fa
e200fbe2
1006fefa
f0fff1e4
e6f3f4fe
01edfaed
0afe0eef
1c0afd16
06100800
0a1e1304
e11af9d4
01010708
03f7220b
f6ffe519
02db0605
00eabcf5
f803e6e3
f4f40d08
1bf8dffe
f2fb0016
f7f6f9fa
03081b0a
06f71816
2d11fd08
1403f403
30fc1504
0e2112f7
090e0905
05111200
0600f90c
010004f3
f909fcff
fce5fc00
0208ebf2
f5ec0510
fbf30201
00f20106
07000500
110f0d16
f9071006
f3f601fd
03dafaea
ff06ef06
eff600e9
00e4ebf3
0a09dcf3
0314f2fe
e0f8fcf0
000a080c
0f09fb05
090ff1e9
1401eeed
1b071200
020d1013
f1081508
3003faf9
fc14030c
f6e9e2db
00fdf9fe
080a05fe
f6fc02f8
0100f5f1
020a0504
1b020303
000d0e0d
eef903f2
0304eafe
051311fc
f6dd000c
091d0ff3
fd030b20
02070508
fffb06ef
dce1f5f1
efdde8e0
ffe8faf6
fffd00f5
0b060004
07fe020c
fdfb0ffc
05e2f008
f60dd700
eafbf7f4
faea08fb
0e0e4610
17050111
0bddfcf9
0008ec00
f20ffdf4
faf7001e
fb05ec02
011204e9
00191909
0df0c60f
fe04f4f1
edf7f0e5
f2d8d6eb
d3f7f8f8
e00200d5
fbfb0914
d0f9fac3
05e5040d
1103ff04
16020431
091a0f10
0ceddc04
3107f2e2
0b200802
ff04fb0e
f8f302f5
00e3fff3
ef12eefa
ecee0ef1
1011000b
0006ec08
ff0b050f
000a0df1
07f41afd
0408e7fe
181315f2
fafdecea
0a00f5ff
0c06f700
f1fcfa03
ededf9e3
ed04eee6
fff6f8fd
0ffff102
00e0f5f5
fa11fd07
f00402f0
1136f505
f5fd12f9
e9fd050b
ef08fff8
03fdeff9
150cf108
0613000e
1205e8f6
0401f2ff
eb00f000
05eaf5ef
03ff1010
f00cf9ff
07f808f4
0100fcee
05ffe5fb
0f0ffa03
f80dfb0d
e9f9fefb
04eef2fe
1309ff11
080808f1
ed0b0d06
dbcce2f0
2c3101ef
fbfbf6f9
200bfc05
06090d06
edfaf9e3
140500fe
19000607
02021504
0d0d2118
fd0e00fd
100d0211
01002c2b
09fc13fc
05021509
dfec020a
f0f405e5
010104fe
0013fcf2
0502fd0b
02f81c0e
13120b00
1c0e0e15
f6000a04
f0e8faf7
faf6f5d6
11171df3
0e031807
f4f9f709
f8f0f0f4
0a0de9f3
171013fc
030c0711
00ec0903
dbe2eafb
fcefeb0a
f8f51602
ff010611
edf3feee
e3e4f5fa
fbe7f007
f102daf1
ef0afaf2
0efc05fd
03fae612
eceafa0a
ffeff3f5
0af3e8ec
1014f01d
e4f3fc03
fa0eea01
1513f102
0f050208
f506ffff
ffe209f8
f7f6e903
f70c0b04
05ff07f9
e0e7d9f6
f800efeb
fff6fa01
01fe05fb
04ea08ff
0411f5f9
0404051e
edf4e7eb
01ffe0e3
010fffeb
f7fce1ea
010005f2
fe11fc07
fefb060f
d4e5f6df
f20beefd
0af2fc11
f3fe07f9
f007ecfa
fc0801f0
f0f3fe01
feecffdc
0012f90e
0916fc02
ee070a08
ed140818
f307f4f0
daf6fc01
fbeaf8ef
f1e9fe03
02f7e7f6
f410f502
f7fdf8f7
171ffef0
151010f7
100e1324
e904f004
09f501fa
07040b0c
0ff93507
fbfa0318
fdf90cff
fbedf109
fe1117f2
0cfdfff6
03070007
010c0ffc
fc05f6f2
f0f6f3f8
e4efef08
00fe11ee
2704fbf3
fb01f4ee
fc06fcf8
060c07f8
f804d21a
f5f8fde6
040101e9
0309f1fe
13fe0405
010605f7
fc0dfefb
fc0a08fe
faea0403
27e9eef8
c4e00827
fee6efe4
02151107
f40b0002
00080812
ff0302fd
1508f6e9
eaebf20a
f800d8f5
12f3270a
fc0f1015
17080215
f6ea030a
06fafee2
f900100f
0e2cf300
05000c06
0407edfa
0d1a1006
ed11fb18
03ecfeff
f704fbf9
05f905fd
000c02fd
fa0900fa
e2f2e100
e7dcf8cf
0d070a0f
fe06f507
f1f202f2
00070b02
13f9fd07
f1e8d8e6
1afaf606
f1e1e20b
fb00f5f1
e4f21112
0be5d4e7
05fef1e9
06150d06
1e151106
f30c09e6
fae904f8
03f71200
02070e1c
1f0ef910
13360e23
f5f00901
00fc00f5
0601fe04
030f0406
ebfbf5f0
091505f1
ff101c11
142becfe
0506130c
ea0afe0c
e0e6e9dc
0611eee9
00fcf504
0b0205f6
e7caf012
eceef1e5
0908e307
03f4f907
fbfefafa
0c00ff13
ef00f000
08090908
f212ff0b
fbfb0405
06090ce9
f7d605fc
f3e8e4ec
06301c06
fa0301ed
f2eef907
f0f6ede2
f3ede2ec
fbf7f8e7
17f5f8fd
12f7f10a
000909fa
29010408
06131028
060df6fa
f8f7f5ea
e50009ff
eceae7fa
08e71009
e90be62a
eddeeafe
f0ee00fb
0f1bfaf1
0b1d1d11
e1f002f9
e6fee6ea
e903fefa
0d030d07
f4f6160f
f0ebebf5
06fefdff
fc01000d
18e5fa10
dd08ff08
e9f9e9ec
000a09f6
ff050b04
0a02fb00
fc080df8
14fc070b
e8fcf9f9
040df4ed
1300060f
e604faf8
f0f8edf2
1700f5fc
f2f8f7fe
f7efe0f8
00ffe8fe
ef1000fb
ee00eaf9
03010106
f5effa00
01f1fc00
0af5ed03
f7ffe1fa
f5e8f809
15f3e8f7
f3fffe04
07f0010c
efefe5f8
000dfbdf
eff1f305
03f4ebf5
fc06fbee
f3fa06f7
f702e5fd
e2e9f8f7
e5f5f5ea
11ffd7ff
20f12b22
fb0bea1d
f208fdfe
fc050407
1300f412
f0fafbef
0af000fe
fb07e6f0
0aef170c
0fff0615
fcf2f4fe
f6031a01
0d0f060a
0c1b1407
0102ff09
fd0fdde9
ff13f502
fbfbedeb
0e06e905
f5e7f7f8
00ea0902
e7ffed0e
f10cfef7
da0f0afd
fff6f5dd
effefeee
13fc1303
08f40621
fdf80015
0c0107f7
06ff0c09
041b0ff7
0e04f911
f2f7021b
e0eeefff
ff0cfdfe
f1feed0e
0b070003
060910f4
0009f403
03fb1017
11f110f6
0201fd15
11fbfb0d
ec0ef2e0
fff7fe00
0505fd02
fafb07ee
fafa07f0
fdfd10fe
f80315fb
1602ed01
fe0dfc06
f5fd04ef
fe050700
0703f408
f10b04f4
ebde02fd
f5f3f80e
bef1fff9
dbde14e3
e0e1f6f5
fe0a00fc
f50509f7
f4f7f411
fa01fcf6
130e00fa
fe1dffff
e10df2f9
f5f90b02
ee0dfff8
fbed07ea
f400fafe
f01e20fe
15f51805
1123090f
f8fef602
0600e8ef
f50114f8
fa10f90c
0b2a060b
f3f00ef8
00f9e9ec
f9f0fffc
eada03f8
e6e3e6fb
08f7f2f6
1312fd05
0c050706
28250b20
fff8260b
f50e100a
fa1a16fe
f4f20d20
f3fe00fa
18fe0200
040df309
11fe0406
f70005fb
0000000b
e90f20f2
f1070912
161e0700
031807e7
030b1609
09f8fe04
f6faf6fa
f6020602
020a0505
dcdc00ee
ead3ebf0
ffe1f202
fff1fb17
f7f5eef9
06050605
0602ee0a
06f60711
06fb0efd
02eaeb10
e806efed
f30305e0
0000fe01
04f30908
110dee07
19f6f405
f61f1d04
fd0001f4
ff2012fd
fd070002
0ffff6f3
0a0509fe
1709f620
f6fd0c02
cb03f1e0
e60ef7d2
fbe5f0fb
0cf2e1ef
fc03f2ec
0b110e13
fd1b15ff
19f7ff04
0a2108f8
de140cf5
0fff0a0d
0e071609
f7ecd30d
01000300
1429f404
000d08ea
14171014
eff9f50b
0b0d0ff8
10f40312
f1f4f000
e8190809
e50322fc
0c170f0e
fd0a09fb
eb0d0af0
e70614f1
06f3f709
fdf6f5e5
06060502
200efefb
16ff110d
fdf50512
fefb0b0a
0bdf000c
f70bf7ed
2a191a16
0904fa00
0707fc0d
f8f4f103
000b09ea
03dcfc02
01fff610
14fceaed
221ef217
1cfc0117
f71800ec
f4f70cfe
02d910fe
fef6f80c
05f9e605
ee0901ea
faf70502
0dffe7fc
190d03fe
f42507f5
100a1800
15011109
15070e1a
fe00090e
f30e0206
cff30ced
f1e70fe8
fbff0105
09010c03
02010901
0a0e0a09
10010c0b
f7e30ffa
f0f4fd0e
f5d6f3e8
1a14fa10
f6030efa
18f805fc
f5eb00fe
fa08faf0
e6180503
f5f7f7ff
01070009
fbf408f4
f4f7f6f6
fef9f9fb
fb101307
fe020910
0dfe00ee
1105f805
20fe0000
3105f01e
f629fbe3
f706eafc
0105fc03
11022005
ee08ec00
e3071ce3
fb0c0d08
ff152e0f
f9f20cf0
030d0300
0308dae9
e9fb02fe
fb1500d7
f31cefee
dec59be9
ddcee1d0
fafed9dd
ecfe00f6
08ede4ed
030a020a
fdecfc06
f7f30d07
f2fafef9
eefc16f8
11070305
151e0909
132114de
361105e0
ed022a17
14f90426
0efc0406
070300fd
f1fced07
02f806e7
0306fa13
0400fb1a
04140514
fa0ff9eb
00050dfc
e9f3f801
10fef3e6
06f90001
06ff0206
0a00f204
0604ed0e
11000b04
0905e809
fe050600
021d1f0b
02ea130d
f1e3eaf8
f3e0e1ed
dff3d0f1
05030df2
eb070d0c
0403f6f5
faf70cfc
e8f1e5eb
f3f4f2db
f8f5f5ff
f1f1eff6
0c1df4d5
1916fcf7
f20a0ef7
f0fa06f2
d507fcea
0bf9d5df
0b05f703
03faf5fe
05fd00fe
261a0c0c
3f0ffa40
ef130908
e7fc06ec
070600f6
fbf3ffee
ea03072a
f821fefc
f3031df8
280305f9
f8e6fe00
fdecdcf5
030ff1f5
160f21fb
150206f4
08f60a05
03e9ee05
ff020605
d6eeff04
e113f3ef
03f80ff8
02fcf0fd
f0f0fcf4
f5002a0a
f3fcfaec
0e07fdf7
fefdfe05
510ceae1
06eb00ff
0113e8f8
00fa08d4
0ef2fc0a
00fd1dff
31ebf019
edeaf816
00fce6ff
0f23f401
08041a0b
0800dffe
fdfb0728
10fd0904
f30ee7ff
1cf0f2e6
fa060aee
00fcf2f4
fa00fb08
f9f80005
010df61c
01f4f6fe
f8fcf500
16fff4fb
210a120f
f9f30010
fe000c00
d4ff0fe9
eef20400
ecf809f6
e0ec00b6
191b14fd
ff112810
fffa071c
f11bfe01
e6f105f2
210ae5c4
fff9fb0b
fc010412
05fef8ff
fafbfc07
fffd2e04
f200f105
002203f5
0a070d04
dff30cfa
00e4f8fa
f6040404
01feecfa
290afc02
02f1f900
0005fe03
01f8f908
f3ecfbf3
ccf6001e
0021f7f4
01f005f6
fd0a0c20
fef40bff
fd00fa03
1e141c08
eaecf60a
00f7e2fb
fef504f7
f70400fc
fdfdf9f9
e900f1f3
0dfb09fc
feff1f0d
d1fbf2e9
10600eee
f4f3f8eb
2308fec8
fd0f0302
0c0af300
16110a21
fbfdff10
fa03ebf3
f2f2fe08
08e117ff
f7fd02fe
b0f83814
03eafe07
0006fd07
ec0005fc
fdf90afc
0cf7d0f6
3b14fc14
00150304
00fb06fb
2206fb17
0410fa0a
000b0cee
f404f5f2
ffe20007
08f9ed03
dcfcf7e5
f3fbf700
05ece0f7
e8fd0b33
f4e201f8
0200fd05
05f30806
12050305
f4fdd000
3a100219
00f70109
01f90dfe
1201e428
fefdf90f
0700f703
1b16e501
1dfff806
fc0d0209
0b080306
faff0807
0ff6fd1d
e70f07f9
fc14130f
0907f00d
080a01fb
04f6f506
f7fffaf1
edf6f5ed
06151104
f5fc0206
d6f3fbf4
071402f8
f9040709
10f80412
f0fae7f5
f2f6c9f5
fa0dffeb
ff020801
0400fe01
14010bf8
19f9ee16
f81efbff
0005f1f5
0b0913e5
0606e705
05fbf6f2
010b0002
01011406
ee0e1105
fad414fc
001103fd
e6ebfbed
f4f0f2f6
0109f408
e5fbf8eb
020f0fea
03f60207
0e0e1301
01f90609
d9071906
0c04f8ea
0a17260e
0afaf3f5
0e0c07fc
e8000008
02f8f5fb
0503f711
04130300
e2080202
daede786
0810fcf8
0205fe0d
faff00f4
f0f1f5fb
0ffef3f9
fa15e80b
16fd00fd
0e00d909
04f3f605
f4f6fcea
ef04f404
05000aff
050c0a0f
18100205
dbf71203
ffdcfa08
fa0cf4fc
12ff0112
f60f0ef7
03fbf2fe
f2f708fa
08e90000
18fa07fe
0b11ed12
0a0602fd
f8f70605
0a080de8
fd0b0004
fa0cf5fa
e60104e7
040ffa00
02f000fb
180bf4fe
0a16030c
0cf10afc
0cfb041f
fc26f9fe
17f30efc
f10900f8
0ef0d90b
e810e0fb
0408090f
08f3f006
020206f9
02151211
fc00ff09
feefa9e1
e20001ed
fad4f6fa
03fbf6f3
eff707f7
fd00f1f3
1c07f1ff
0507090a
f0d71206
05faf603
dcfbfbe8
ede9f600
fcfefdfb
2a25fadf
f3f2fc0d
0603edf5
16fcfb04
fd0600fe
0cf6bcf1
e7fa0000
08f400fb
0907e4fd
f8e5101c
f7eef9fa
0600f900
05fdff09
080104fe
09030b06
e8f9fadc
06edfafb
f505e2f7
0d140c09
02050d09
f90201fe
00f8fbdd
0008f605
05f4db01
2105fcf9
ffdbf101
0f01ff02
e9dcfbf4
fcfc00ed
00101511
0a07f4e5
200efbf1
10f8dff7
02f7000f
edfcf8fb
00f0edfa
f717faf0
00e20606
0a0c1209
f6f1f1ec
0e1600fa
f5f9edf9
fa01e9de
00050005
edeee6ed
04fff8e6
07fc0000
f7f6eff7
0207f2f0
fc0b0ef8
eeeceffe
eef3ece6
f1f3f501
edfbe0f7
0c01eefc
f8fef406
05f6e7fb
faf3fe04
05fafffe
f5050004
d1edf9ec
0a0514f8
07090e04
0404fa06
01fe08f8
f8140903
0ce81517
fc14f6ff
f7fc00ef
28030309
1b13120c
0d0aef12
fb01f4f1
1208fbfe
f40d0d00
ecfee6ea
fffb00e3
f9fd1306
dfeff6f8
0018fefe
ef0309f9
03f4fe06
00f6fa02
0902fceb
01fb09f7
09f40c07
f5f804fd
0900fa07
060a060c
0e000cff
fc010003
fb120a05
fe021719
0cff0000
151fff0d
fe1a1906
14f21915
f902f802
fe0c0704
0c0400fe
041103ff
070820fd
08000e0d
fdfb0701
f511f5f4
fafc16fe
f8e1ee05
1d02f202
f30c0427
00e10007
1219f207
f107ff0c
fa060cf2
f0f3fcfc
08f7dff8
fe04f9ec
02f0f9fa
0005f8f2
0e1b1103
f1111915
03f2fa1a
f3f409ed
0802fc06
1cfb0702
faeef60d
0afffd00
fd020f0a
120b1005
f80d0d19
faf7ecd1
fe1501f8
f50807fa
fdfd0203
fefef100
fe020702
f807fcfe
f6f0fdf3
01f0f6f8
0002fbfb
eedff2ee
010c0a0c
f9090efd
f900f400
f20afded
ff100607
fd00fb01
0201fcff
f8f406f3
0b06ff00
0e0f0101
3d1f0c1f
071b0e20
0c071512
050500f4
09070b01
e50604f6
eef4eed5
01fc00f8
0400fe14
190f03fd
0c01040f
fa000504
f8f7f3f7
faf5fb06
f8e4e300
f90105f4
060f01ef
fefbfbfa
fffef3f9
151709ee
f20bf002
341df8f7
0b1b110c
021efbfa
0008eefa
0107fef3
fbf8faf4
fcf3100c
0b0005ff
040cfd09
1a061113
00fcfc06
fcfb030b
f6f7fbfe
efecfcf9
09f10d00
03fdf9f9
f3fbef04
04f9f5f2
08f509fc
0802f40f
fb050400
00ecfa01
0309eee8
f7f2faf0
ff14fcf2
fafefa00
f6fbf0f6
0a0af2e6
00150bfa
e9070b0e
ff03e8fc
fbfcfcfe
fbfa030d
000c05f4
0bef11f5
10fae001
faf908fb
0ff3ef0f
ff0bfcf2
1110fc06
02111bfd
e6f3e800
090200fb
01030402
f9f1fc09
e7e1ebee
090704f7
08120e12
02fe07fe
fffcfc04
f602fb0b
e8f407fa
fc0e04f9
ef090206
0109ecfb
f9e3fa02
010c03f4
0803f5f4
fa05ff02
090d0710
1d080407
00010609
1bf5f710
0303041c
00f2ee05
faf5f9fd
00fd00f2
2a150907
f202ef02
09fafdfa
fde7ec0f
fff2fffb
1a0af8fe
f5f90508
fafc0108
230b0207
04170c03
02ebf708
030604f9
02faf30a
0201fc00
00f9fe00
f9fcf707
07fbf0f9
0b13f9fc
fd10f70b
feebf2f2
0f01fc06
01fef300
eedef901
f4f3e5e7
0016fafb
1a1c1dfa
06fe0419
07010bfe
eb02fef9
00fa04ec
12f300fd
0105f3fc
d4e303f5
f1e2e7ea
fffe1d05
17060b04
0e080313
0bfd0d03
1606080c
03f7ec0b
0af600fc
e6f10407
f0dcf1ea
fafbdef3
fde5fe0b
ede9f2fc
e4ece8f9
ee02ede0
081f1413
01191e06
f8050905
09130707
00f9ff07
0b10032b
eae9f4f4
06080bf8
f903f3f3
f8f5faf8
f6f4eef7
f40005f1
0a050cf7
05070a12
050e01fd
001209f1
eff3f7f4
f605fafb
090efb00
fa12f502
fa0707e2
fefdfffb
faf9f902
040afee8
f90500fa
00f0fdf8
0a0709f9
eefdf601
02f4d8f7
fff5e9e5
06f0fdfb
0cfefdfc
0b0e0b00
fb0b0400
fb0cf7f6
f90000f3
0b09fd08
fdf0090b
0e0104fb
0c1500fc
fc101f0b
ddebf2fe
eed1e8f2
13f5eaf7
f3f41312
f61f00fa
0005110c
0b05f301
13380e0a
04fe170d
0c0eee08
fefb1302
f71e0c0f
ec0609f1
f3f6fe10
f5f71d01
0b06000b
041208ff
08fc1ffe
e709fb0a
fe0b01f1
11f0e100
ea00fee0
fde902fa
faf4e0fd
1505060f
00110ffa
0cff1315
0b1c050d
12f61111
fdf6f2f1
19ff170a
f4020207
15020204
00f91718
02effafc
faffcaf3
d106f2e3
f9eb0bea
0009010e
fbfdfafc
072716fc
0202350e
f5e8f920
110ff3f9
0c14fff6
1d0b1726
f4110410
fbeeedfe
0c0b00ef
e5e9e200
1eebd5fb
0002e907
0b040107
00f2fbfb
ea08f40d
0f1009fd
fcfce4ea
11ef0cf5
f30cfff9
04e6f0eb
1a0103f8
f507041b
f2ec0302
10020000
0421f30a
f60b1313
edf002f6
f8121bfa
2007321a
360cfb1b
01d5ecff
02e3d2ee
ee04faf3
f7000ddc
27e6ec00
212cea10
ded904c8
faf1fdf8
06f709f8
edfbf2fe
03edf5ff
fdf800f0
041204f5
0d02ed08
000f0515
ef0edd02
e2f8f0e5
2215eaf1
00000509
0415250c
edf90800
fcd7f2fb
fff0f6fc
14fcee05
0003fdfa
f3fdf8f8
2400f6e9
043f0d09
fcf009ee
1000f802
1807ff01
0403fbfd
02f80000
06f0eb08
03061900
fe021918
f6f1f402
0ff3f2f1
d7f6f4f0
fecdf9e8
fc1c0d07
e9fa04f2
163e1e08
0f090d0a
14100409
14361615
f41b2101
1ffbf707
f7fb0000
0d1e170c
16010818
0508fdff
08ffe0fa
08f1febd
00fefb0d
fefdfbf9
0b01f9f8
1505f304
01eed801
0800f6f6
01fbfff4
fbfbfaf5
f6effa0c
f7dced0a
020fe701
121a0e17
07f5eeef
fd02fef8
ff010a13
08fefa00
f505170a
01ec0509
f6eef1f4
01ecdcea
0c02f901
0419030c
290b2a1f
3a1b1349
02170e0d
f800e5f5
fa00fbd7
fcf60a01
05fbfe12
0f00effa
013f0113
f00c34fb
f8f3fefb
0ef90202
0414f7fc
100815fc
f807f7db
0ff3f5e5
1106ff06
04100410
00143309
f6edee05
f6eefcf2
eae6d7dd
1c04e5be
fe070505
0800ec07
0bf40122
f8ddf502
f5f4e9eb
fefbf0ee
fdf5f2f1
f80a0e08
1100011e
0505fd01
19f1ec05
f209060c
eef10dfe
fc1209ee
06061317
f9eeea0c
0df7ec05
020503fd
14fe0c11
f7fdf504
14ff0dfb
fe110401
ed0d0604
e7eee0df
040701f0
e502f2f8
e6edf8e5
17090000
f21302fe
ecf8fcea
09fcfbf6
fef7fb0a
fe00f3f8
06faf000
e711fdf6
141a00dc
04fd0e0d
fcf7ebff
00feeefd
fefb00f3
0e0303f9
010e0601
0a150a0b
fafc0e00
0906eb05
080d1112
2b02f800
0d14f82b
dff1eff3
fffc170e
e0f9f803
f2220304
fffafa05
f8f5e201
e0f9edf1
08fff108
e90b13f5
1307170c
01fe0f02
eb0e0008
f30004fa
e110fbf7
feec03f8
16050102
270414ff
29301e2f
112e1521
e7ecc4ee
cef2f0c8
0200ffe2
1511120e
f3011832
f414ffe6
f5f7fce6
eaf40803
07f6e908
ede7c8e7
c9f4decb
0602feee
0bf90d00
f4fffb17
f80400e9
00051af0
f3f509ed
fd1306f2
fbe0ea00
e4f1e1fb
042402e8
020d2600
0e070b00
063004fd
1219fde5
26161740
fd15f011
ff1715f9
fe0200f3
ec1e10fb
fe091305
04040003
fae1fa02
03f8f2fb
f004fb07
efe6f6ff
fbff01fa
fffb0cf8
e7ec0804
fffde302
07fcfaf5
f8f2f302
13060001
0019ebf5
fce90cf5
f30a06f4
f3fb0000
06fcfb03
0f03f104
17fefffb
f70c0819
f3fcfaf9
03feeac8
fef400fb
02070306
f1070ffd
f602fd0f
1100ecf7
1814140a
fcee0705
feeeedf5
08f4f9f9
03060000
00f8f707
10f8fb04
0c011cfe
03050a06
fbfbfa04
06effb06
e0f900fb
fffef6f0
17140afc
0203fe00
010d03ee
00fbfa10
fcfd07fc
ee050111
fedaf4ff
0809fa12
e2fc0cea
0dfc10ff
f3f913fc
f600f4ff
02e8f5e8
0307f1fe
1d060c0b
f0fc00fb
02f5d8f0
df07fc01
f8fdfff5
f3f2f5f6
30e50537
0205fff6
07fee200
f5000306
16fbf0f9
040e0af9
0af20309
fcfd0003
fdf2fcf5
0b000602
06180205
0cf7f8f1
cf0305ff
02f30004
09fbfff4
f6fd13bf
0c420700
f6f6f9fd
ec02fdfa
10440d04
fffcf3f7
01f1edc0
ffef00f8
040202f9
0afeff08
edc3f3fe
f6fc11fa
f40febf2
fbf9f3fa
090af0fe
e7fcfaf8
03d8fd02
ff090707
fb0007f8
f4fc0401
01000913
e505ff09
03f0f6ec
09090610
cdee011d
0d2610f5
fef91309
f10200f9
0b0a13fa
fc04f916
07fcf909
fa031800
02f2d3ee
0b001008
01f60403
0f0c0b0b
eef6fdf3
120cfd09
feff0c08
fc03f7fb
fff4000a
0c02c1f7
fdfc1702
07f700fb
0203edf4
e70a0006
000003f9
f6000bfe
14f8fc29
fce1f2f9
fbed13f5
d2fbe219
03f100ff
0b131e09
03f203f9
00100ffc
0300f4fa
f507f3ec
fff4fd09
1205ef05
00091afe
f8fd0afe
fe020903
dbf8031a
06fffff0
120df206
e6150cf9
f1e6fe06
0cf9d6f8
091e090a
0800110a
f302fffa
0bfd19fa
ff120504
0f0bee09
22091223
04f7f607
fc0416f5
0c0ef526
f6e8ec0a
05040d0b
16040107
11fefa04
fb08f903
100200fa
000b0b0a
00ed0bf5
0e0d0cf7
f3d5f30e
00f6ecff
0201fb05
ed14fafd
0d00fb03
f4000803
09001107
f303e2fc
ecfa00e7
f9f7fced
f9f50000
1701f910
f0cbf3f2
f1f4ecfb
030cfaf5
f1f4f105
f806e7fd
f8ff0009
ee07f600
05e0fd08
04000f16
f7fcfa01
f302f9ff
06f9edf0
ff0c00e6
03f7fff9
0806f4e9
01f90114
0a0d01f9
f0fa0916
0bedfbf4
0424e0fb
0e041501
07f1fc06
ff12fcf5
ed05130d
0208fcfb
ff01f908
fb02f7f8
0b000200
0002eafe
110a0516
00f8f5f5
0801ff06
06070009
01f80603
0b0ffb0a
e4070ad2
12100801
00fef7fd
f609fff5
070b0c08
fe00f9f8
22f9f9f4
fb21fd00
0007e709
fcf7ff01
04f3f2ff
0cf203f0
f2020214
0a02f102
10f2f7fe
f10af1e4
13f9ff0b
fc09fefc
01f0fb07
030003f7
010afb0a
e9ec0a01
03ef03e6
08071ded
fcf80622
fdfcfaf6
eaf4fc09
f6f306e9
f90500fd
fc07f704
0f0006e8
fc091914
00ded3f8
f414f006
f4f2fdfe
fcf9effd
050c03fe
0de1070b
0c000af9
f310f1fa
03dcf500
05fcdef2
fde8e4f5
eeebf600
fbff0304
eff9f506
f50008f2
0403df11
06fc09d6
09000a04
06f2dcf9
1c0f0a22
f4e6000f
0d03eb01
d8ed0702
fbf5defa
09010509
05070413
04180701
010d0f02
fb0af1f3
f8edfa01
05f7f6ff
1309fb15
f4fcf6fc
0204eeff
f8f70fe9
faeaf4fd
f5f0ebf1
1401ea0f
fafd0919
020ef307
f8000002
000cfdf8
fc05fc05
0df7fcf5
f7e50706
f009fa01
040d000a
edfff602
f8fcfef2
faf90101
01f80ded
f800e8fe
19f500ff
0a2409f0
0304e70c
0b1305ef
05f600f9
fefffb03
12f6f7f6
0926ee00
04090afc
faf30b01
08ecfb02
07f8e500
defd1408
1af103fe
092a3010
0dfafef8
0b280afc
fcecc1fe
1e08f3d1
fff2ff08
f9fefdfc
0bf9020a
0403fefa
0f0c050d
f8ea0408
1403ed02
fe040af7
1801fcf2
0e371ffc
0c0b081c
01ef0c05
1b320be8
02001cf5
040100fe
05080bff
fb07f300
f00de5e3
05f00b04
0602f9fc
fb070c03
fa080802
fdf7fafa
040706ec
0d100b02
0901eff3
ea0ff9fe
f9e7edeb
01f6e2f1
ff0af4f6
f7fdff0d
02f2e3f2
0800f90a
07120afe
f4f701f2
1f0102f1
03320905
fe06020f
0f05fcee
f6f9ef05
f606fedd
f104f0f7
071008ee
0c03e9f8
07fe07ff
f7fa0b03
f407fffe
eefe00f5
ffe9fd05
03ff150b
fe0c111f
1609170e
06fe12fa
eb01ff08
0108f202
0503fefe
0207f6d7
ef05f806
00e1e5ef
eb08f8ef
020106fe
fc0a03f7
f807fff2
fce8f906
08f1defa
eb00041d
f7f9fe05
f508140e
def3faee
00ebf2fb
f8fbf805
f1f1fcf7
ff1206f6
03f0f8f7
0000eb0e
f3e5f206
f8f504f6
1ffaf205
f611effe
f00c1001
fef10101
f1f10002
02080c03
e8f50a05
fbd7f6ff
000b0908
361c0416
0735021f
f603e5f6
e70deac6
fd1dfc0c
fe02f4f9
e5f00705
eccef1f2
f6fbf300
f8f302ee
f200fcf3
00010000
09fefe24
fb11f802
0c021510
00fadf04
fafdf3f5
2000f404
0908040e
11f814ff
fa04fe02
fff2f3f1
ff0100f8
00ffe4fb
e2ff00f5
dbcdf3ef
f6e0d3eb
0f03f936
00f6fb08
e5e7ccf5
e104eddb
f513fcfd
00f0d1f6
04090403
08090cfe
03f919f8
f7ec1807
07000418
0df7e707
1107fbfd
fd100003
f5ff0802
2e1500ff
00040305
0200effc
def615ed
0b0303e5
f9faf2f3
1c100001
0efc0a10
f3ec030c
f6ec0000
f91a08ef
05eb03eb
2f0a0c0e
f9020101
e8000201
14fbecf9
f7e4ed04
f1f8daf0
09fbfae4
efe9fdfd
07ff1507
f90b1bf3
fee80a0b
f110f30e
1119e7d7
ebf5f418
ecf6f500
000600fa
02eff40c
f0e61107
f2eefffb
ececf603
f405f100
fcf3fef0
051b0af1
0c141e0f
04150c1d
0100fe09
061318fc
f502fbe9
fe14ff04
0319ee05
ff0807f0
f6f00c07
f309f6ec
ebe8edda
fc0403f2
02eef3f1
e3fc00f3
0b0104fc
fc01061c
13170eff
f30df801
f1fe0af3
ef01fd04
fdfd0213
10142515
fbf81238
0c0b0bfb
0300e9f5
0607ffef
0320020a
f9fa0ef9
1107fa0c
fe050803
0305f310
dbfd01e9
fff401f4
ef071607
0403fdf7
1607040f
05f507ff
05f8e10d
f8f0fcfa
fefafe13
0b0707f7
f00d07f7
07022c20
180d0410
05f9fc14
ebfd01f3
e3f2fd11
eae7e7f2
0600effc
f009fcf9
fbfafdee
0802f9f8
0bfc0017
fe18e612
f3ff1d00
00fb00fc
03e2fb05
fd040305
fcf7f8e6
f8ecfaf1
f5faeb03
130cf2ea
f1fb01f8
fef7f6f2
eff6fef0
00f00202
ff05f500
15fb161b
fce9f70c
0b0d1d00
23020c0f
012e05f9
f9070904
09fdfdf2
ff22f8f1
fc08f304
2dffe80b
02f9f405
f2f7edf8
eeeeeade
0d1301f3
f218080b
f4f1fd04
0a0607ed
04fbf605
0a01fc19
fefcff10
fa0d2002
15fa1011
effff107
0501f004
11080018
1808ff05
070af6f6
1d12f1f8
f901fa0f
f5f509fe
0400080c
fff10004
04f3effc
080d000a
1612140f
00081116
05011308
ea0c14f5
08081c14
0600fcf1
fc28f0f2
020018f4
ffe1f8f5
0307f9f1
05f505ed
0bf20f11
0d250704
fb07ed0a
faf9f4df
fafd03f1
f8fc0001
330dfaf9
1c13fd1c
0000fff3
0a00102e
f7f40018
fff401fa
01faf500
ee1106f8
05f9f7f4
0af10001
f700fefd
07000300
0300f800
f9ff0602
fdfefc04
03fc0007
fe120211
11000bfc
f7f80808
e2efe9f1
fdefeff9
1b02f60e
0af60308
08050e03
ff060305
00eef400
f8fdf5f8
eff7fe04
fa0cf8ff
04fdfbf8
f3080008
09f40cf7
1107e002
fd0df5fd
01f806fb
00f6f404
fa0efd06
f800f6f5
0bf3f308
0b00110a
f4fcfe0c
f40002ff
10f3f9fc
fbfd0ce5
02f3fe03
fe00fa02
00160bf6
f50a09fd
03fff4f8
05f0fdfb
fcfff803
0af7f7f8
0d1001f4
fe01ecf9
1ff7faee
f0faf800
f8faf500
fa0ae91a
110708f6
ff00f704
eb000316
e7f6f9f5
0a0615f8
0a03f2e5
09081304
040011fb
0d07080e
050e090a
06051605
0a07f40c
02001505
0f0001f8
0c000e0c
f8e6ec03
fafd05f3
0803fc0f
ffff0cf2
fb06f2fd
070700ff
f5fc07fa
fcf2fe02
0303f20a
eeebfbf7
fffa13ff
11fdfc00
fb04fb00
f8faf900
0bfbf505
f508fbf2
03ed03f9
ea0cfbfc
f9dcfb09
0400f70b
140104e7
f90e0800
fa04fc00
06f8fe06
fdf80702
0dfefc00
f600f602
f4fd0fee
fef704ff
f9eeffff
030706ff
02020b08
04fb0500
e900f5f9
05e2fa08
0af0e7f9
fff2f80b
04f902fe
06fc130b
fe000005
fe0a090e
0011fee4
080c0000
05fd07fb
0a06fe08
07ef0102
0700f8fe
00f903eb
fcfb01fb
f600fefe
f4fafbfd
fe1804f9
07f7ea02
fd07080e
eefc0beb
fe020dff
0b0606f9
0fff051d
0000f108
f6050303
fc0602fc
01002302
fb0bf915
f006fefb
0dfeff01
0c031f05
ff0e1312
06f8fbfd
0200fd07
09edf5f4
f2021500
f3fdfcfc
effbf6f8
0df7f0fa
30060019
fc100200
00ea0004
f905fc01
ec0a05f4
0dfb1407
10f3f902
08fdf903
0104fefc
f8fd09f8
f8ff00ff
000017fc
ef03f00c
e9fb0005
fff103fa
0afcf000
0ffdfafc
04fdfbfa
fb02fa02
fd0608fb
f8030601
15faf7f4
fd040bf7
00fb1506
0213f9fd
ed0e0e0a
000d0e01
f0f7f101
00fb09f4
01fa01fa
fdfdf0ec
05eefaef
ff00e4f4
07fef9f6
fcebf300
0700fafa
0307f7ff
fd0100f3
f81df204
0bf2070a
ebf305fe
f9eef5fa
fdf6e8f6
ffed0314
0108020c
0201fc46
03ee0cf8
fe030408
06fc02f7
02ed0900
08f1f207
fe02000b
100b0709
02ffff05
fbf602fb
f40503f0
0906e90c
02000005
06fa0209
f7010402
0d05eded
faeef807
fdf30e03
f3fc02f8
08fa0a05
02fef104
0804fbf8
0bf7f4fe
d0dfefef
0410ce06
f4f4090b
02f40400
00fa0022
fc0503fb
fefd1108
0600f20f
ecf9eefa
00fdfef9
04fd03fb
f400ff01
fcf81608
f7fdfee4
02fa00ee
00fdf709
ea04e9e7
f6120ffa
040f04e7
04fc0c07
f307fefe
02f5fbf9
00f2fbf7
fd07fc03
00f50403
fa04f9f9
f701fd0a
03f2faf5
f1ff0100
f91801e2
01f60409
fafbf5f0
01ec06f9
0bed000a
0a070110
fa030006
03050e0b
f1001113
ecedfaf8
feedf602
0d07ec01
03070dfd
00f81a05
fbf7fdfa
060404f6
0402f801
1e1404fa
0502050e
f70cf804
08f4f605
f9f80103
0be9f2ff
060cfd01
f8fc00e8
00fdf405
06f70d0e
fae6fefb
fb000001
0604fdee
08fa1105
0dfa0af4
07f80413
f70f07f8
f8f82908
0204f117
f9e80afe
1307f508
0408fb07
0afaff15
fdf21104
0a0afaed
e9ebfc05
00fafa00
1002fb02
e9fe070e
00fc0cfe
f6fdfd06
050a0004
fef30a00
070dff07
02f7fffd
fefb0efa
0102f4f7
011d0401
03fafc03
f60006f9
030804fd
01e103f6
fffef1fe
fa0ffefd
fdff0f10
e0dcf3fb
01fefceb
0dfe12f0
0a04130e
f3fffa01
fd04fd04
f3f9fb0e
000605f9
f703fa05
0608f3fb
0f1e0408
f813e90c
f60100f4
0bfff3f7
0308f504
13ff1a18
fd01ff11
1204f700
00000cfd
11ff0a06
fdfff3f2
fd06f8ec
f3f20103
f4f101f3
d3fbfdf6
00060304
fbe7f0f3
03fe0101
09f9fb08
0802efe5
07070e15
0806f50f
02f7f8fe
00f50501
0d130c00
04fff603
f2f40300
fff801e5
d610120d
ddf2deca
04f40bf0
fc0a0e02
01e3fff7
0904fce2
e20cfbf5
fe03cedb
0b0f010b
fa080903
05f60801
f9fbf904
f5fffdee
f905ef03
00f4f6f3
0001fc0c
ff020508
fe0e06fa
0c020600
070fe6f8
0a050607
08f0fb02
f0f5f5f9
f6ecfcf1
00e7eaef
e4eaf9f5
f1f3fde2
05fc0003
140bfc05
12160f01
17060319
f818ee01
04f6eeef
0e00ff07
f0f600ff
0afaf9f1
000effff
0e00fefa
fd08ffff
f4070100
f5f707f5
0003040a
ecf4fcf9
0815ecf4
03040911
10f4fd00
0b1307fc
09040810
000405ff
2309fdfb
27110218
f83111fc
f0e925e7
f8f1fbee
fe00f6f7
fe04f8fb
fcf105ee
f90d1407
02fefcff
fce3fbf7
00fafff8
f603fdfa
0bf3fbfb
050804f8
02ecfefa
eaf1f6ea
00e2e5f2
fcf9f9ed
0203f502
0af9f1f9
e5f90911
fcf308fe
02e8f0f6
05f10a0b
0efeec0e
02ddebf2
fb09f9fc
ecf9f4fd
1103f208
1b0b0d1f
03200b12
07fd050b
070cf00e
fe0608f1
0a00f405
0605ff07
25151202
fa030413
070fe8ee
fffcfb0a
0dedfff4
03050b00
06000506
f7fffc00
05ebfffd
021703f6
e8f1fef6
04fddceb
f9ecfc00
fafbfb0c
faec01f4
eee9e9f4
05f4f5f6
0e0d08ff
fe090508
fbfe07fb
0607f1ff
02f4fe0f
04ff03fb
faf7fd01
e9f4ec04
0009080a
15190003
fafbfd16
f8090dfc
f807f2ff
fef3021d
fe04f6f9
0bfc0304
f6ef0305
efded4e0
eafcf1ea
fcf810f0
f6f40114
0f08e3ee
fefb05f4
e00ef404
fff800fb
02191704
f8faf3ea
00fffdf3
fb0b00fb
fdfb00fb
ff0a07fc
010e0bef
c300fb0a
faf4aaac
f1ebf4da
0101fe00
f8f7f7f0
f80700ec
030d0e00
020a0006
04e10500
feeae2f4
fafcfc11
f6fdf600
ffeefa08
fc0602f7
0af205ef
060d020f
07fbff16
0aec06fa
00050e03
160d0813
14070a12
0cfdf901
f6fd0300
fffa02f3
2503ff08
f5f02827
0cecf5f3
fbe6f1eb
fb0201fd
1a150222
fb08ffff
080f05fa
1407ea16
fd0f0cf0
f9f1fff2
00fc01f7
ff0bf704
000802ff
000afe07
0c101802
141e1815
04e2e021
eafee4f8
f102f5dc
fefefd05
0efff5f8
0106120b
04f90600
f8dee7e7
0b00f2f7
f500f6fb
fcf706f2
0a07f3f4
0214000a
1ce9ecf8
1a270611
08060606
fd06020d
000504fc
060305fa
05130408
fe0309fc
0a0401fb
0bf900f8
120b0b04
f501f207
f8f5ecf4
0600fafb
05e60009
06ffdf01
f9050402
f8f4fdf3
0003faf3
05010310
f8f8fdff
05000a12
f4f701e7
fef6ebf5
0c01f2f5
0d091b03
10021007
fd11140d
0508f300
0c04130f
f3f80501
0000f1e7
0809f605
f7140505
ebe900fc
f000ffec
15030406
fc030100
2807030e
ffe1e9f2
f9f60100
e4f9f4fa
00f8f8fd
0002070a
d9ee00dd
f705fd0f
fbf4e8fd
f2fff3f8
02f926f3
1cf4f88f
fcd2f304
ec0502fb
ef02e9f1
04d40100
ecfce405
ec0019e4
0505e700
2d0b3b11
430f1a3e
0d020af4
f70d140c
e30601e7
fdee0709
ea05e9f3
15e9eefb
fce9ebfe
e50c2cfa
2afd073f
fbd9ff10
08fbe8f8
7a0802ee
ed20e4e6
fef8b5de
04100fd4
080c071a
0dfabf17
011307f6
1002f7ed
ff0c05ff
f4f2f21d
000911ee
f4f308e2
0b08e233
0916fe07
f6e3fafd
bf08f2f5
fcfffafd
ebf800f0
ea11e6fb
f6fa0504
06f1fee6
2a0005ff
19f60120
1cfae807
0305070f
f107edf7
f005f8fe
da0dfe1f
09f01507
0402e30d
ea050500
f704e4fe
0ee9a7f2
2600f7d7
0ae913ee
fb0bda07
d5ec0a24
f739ece1
02f3fee3
0fec1847
ed3afc04
e701fbd2
05e9fd21
15fbfa0c
ff09f702
53130b34
fafb06fa
00fbe7f2
f9ff061d
fc190e0a
f9e7e4ea
25fb0d02
f40cfb00
0dfd1dfb
d71000f1
0af51ef8
f10deb04
eaf000fd
f9f7dffb
fffec304
fcfbef00
03c8152a
0215020a
dde9fae6
faecebf9
eafb0cef
fefde848
dab8f3e8
fd1e190c
e1110506
ec2ee801
06e377e2
091b0402
fcdc0726
0ae0ebe3
3301fb16
0200ebea
0800ec04
090f1229
f4d1f918
edf7daef
e001fab4
fcca0107
e20ddd08
01fbfb13
eff3f006
000fb40e
1200f6eb
fe2c09f8
ec0e710b
d3f9000b
0c090de8
f60800ff
d112f6d0
07f71206
0409ef02
0602fc05
cedae706
00d71ad2
00060c0a
02e30000
ffff0e12
10f4d801
db0f00e1
0d274905
de03ff0c
0a01fdf1
1e080604
0cfd19ea
06121200
0007ef17
2d06f707
f62f0005
f6fe05fa
fe09f402
f8f2e603
ea00ffe2
d5ef14fe
ffbc0000
f612ee00
09f4f717
f52708df
ef08f305
e0daec0d
f517f4e8
f1fad8fc
ddf6e8fe
00bff9fd
fb041306
d4f8f80e
0205ebe3
f7f701f4
dfe5f5db
05e409f4
f40b1af5
1ff9ecda
e5ec10f5
0121fffd
ee172bee
10e30317
f302c50a
f004ecd5
111ef903
04f8d800
08ea1b1d
05f1e9f2
e5031e0b
14dedb01
f1eef8dc
03013711
06010026
0f03ff00
f9fd05eb
0d0de100
0500f30b
fafdf1f9
1ffef820
fe02fbfd
080e1efa
dc0ffc1a
f1eafbe0
f605f800
fc190103
11161511
0f061200
22ff07f8
1132f8f3
f3040cfd
fdf4e9dc
fe32f9fc
17fbed0a
ff060dff
faf500ec
01081bfa
07f906fa
08010c09
0714fad9
fdec101b
d1fee3f7
f300f50b
e8ff000e
06ef010e
1817f711
060e220e
0f01fe22
fa120ff6
e2f4fd01
eb00f315
f8fc1af4
2c01facd
e70802fa
e7d40712
ecfbfb04
0320f3f7
f2f32dee
f6efefda
f3cb09ec
11f0c703
59f706f5
f0ddf0fb
06060014
24f7f273
f6290000
f7fcefe4
06f2f103
e7e6edf3
f20cf9fc
bd120f00
f61208fd
fdf31207
f2fd00c8
131613f7
2011ca1f
e91000e0
04c01e15
11f8ef0e
d10bfce0
05ab0724
10fd0c05
c907e7c9
e2d60df0
01fefbf0
e30bfaff
f6e804f9
fc0e19f8
0be7f600
173aeffc
0d05fdf2
f200fafc
fff1f3fd
1514e414
3df7ff03
0adefaff
fd0c0405
dbf40e22
fbd7f8ff
fa012502
05fd1141
f917ed13
ff37d9f5
0af9d0cc
fd1ee80c
100b2406
bf031720
02e8fcf9
fb03f4fe
0b00f400
0cccf1f5
000cd602
e114f3d8
0bc51c0a
0300d104
c74005ef
02c52b28
00fddb16
f5ecfddf
e9f5f8f9
1e12f012
12090df7
01f90d12
14e9db06
d4feecd8
0309efec
18e5defa
fd0e1b20
06f2f40d
f206fe03
ec07f4e3
f3edf40b
fcf3f2ec
0b0300f3
f607fbfd
fef203f6
0700f308
f6ee05fc
04fdfe09
12fcef00
f3f906f9
06faf7ff
0bfe0306
06de0305
f00ae903
1ef6fe0d
15140207
0600fe04
0604fe13
f2f70100
0dff00fe
f303020d
090b1203
f8050807
fefafe00
03fdf801
050b000f
eafa05f5
0f0108f6
0105f905
f6ebf81a
eaf4e6f7
07fb04dd
25140d16
0c030f00
09f9f5f3
0b040402
11130f01
fe15ef07
f3fa12f2
09090800
090c1900
060a0d13
00080b00
03f908fc
ed00fbfb
0b100101
0c040506
17fd1319
f4f9f60c
13fef3fb
03180a04
050e1d0d
fe09fb04
f20800da
0f040906
11f8fcf7
1911f400
faf70d09
f8fdebfc
fceffff0
00140efa
06080d19
14020307
f3f70305
07000006
fbf70903
fb010002
fe02fff4
02fb0cf7
00f5ef0c
f303fdef
11f4f405
0909000e
1c060d0a
ffff140a
07f80209
00f9f5fb
f9fe17fe
0008030a
f901fbfd
fff912f4
02e8f208
0401f700
030cfd07
0a1c14fd
0b101c1d
02f8f116
f2f9f8f2
0405f2fb
fa09fdf7
00fe0104
fcfdff03
e5f0f00d
04eefedd
0cfaf702
fe121405
fb05fd05
05f809f9
0f02fafb
fcf109fd
0ef5df0b
1902f1ed
0813f0fd
f4fb0603
16f2f3ef
01fcfded
fcfaf5f6
f700fcee
f6f400fc
fbebfdfc
e9f7fd01
fa0bf0f7
faf30ef7
f70e1001
f3ee08fb
090be7fa
0809090f
f40400ff
fc04eef9
f7f0fff0
fdfc0501
eb0d0410
fbeb0afd
0b01fbef
0d040100
0006100d
00e6fd01
f6f000ff
f6fde3f3
fde7fdf8
ff04e1f7
2602ff0a
f70700ef
fffd0301
f8fe01f8
f8e5f907
06000714
f8f00b08
f5f9fbec
ec00fe05
1311f5ec
f311ff00
fffc0209
0200f1fe
f6e1e9fc
0405e9fe
fefc0201
fdebf8fd
0c08de00
10fcfc15
f9f70df7
f200fb00
fd0507f7
eff3e7fb
07f803ff
00f2f7fc
f1faedfa
00e8fd00
f4f902ed
fcfffcf9
fef7f4f6
ecf7fced
060afef6
04f915ef
f70d000e
fd090212
06fb0200
fa0f0cfd
f200f605
f5fdecf4
08f1fae8
ff0ff805
000102e9
f7fffbf6
fd05eefd
09edf7e8
21120f1c
1505fa0d
f8f31d01
01f5090c
f6f2fa0c
f203e7f3
0e0511fc
0308030f
f802070a
ff020e13
0b0f0009
f603fcf9
fcf602f2
02020205
faff0009
00ecf2ec
f829ff07
fbf10009
f9f3f90a
f5091300
0d09f5fb
0e08001e
f6eff903
f8f8e3f4
0e03f8f4
000400fd
040e04ff
01f9f600
effa00e9
fc140a05
12000f02
03f5f015
ed03eff6
efecf9f7
fbfae3fa
00fa02fc
f2090bfb
f8eafe07
0700160a
010cfb13
f2ef0602
0000ed05
f3f000f0
f8e2f5fa
fcf7f208
f5fe0ae0
f5f3f308
0d08f812
fefe0ee6
f3e000f0
1ff3fc0a
edfff402
e5e7ffeb
fef9f2fc
f604f8fe
ebf8f8ff
fef4f0f2
f80103f3
06050002
f80cf4f4
f7000aef
eaf1f703
09faf003
eb070af3
17f2fc08
fcf6f905
240ef003
0b0b0809
05f81001
f7ff040f
0c030209
f401030f
f9fb0df9
1307fa00
fd080600
000ffcfd
04f5f900
f800f5f8
06fcf7ed
1ff50b07
fa010000
0bfcf510
f2f1fcfa
eff0edfb
f8fd02fc
f801e6ff
f7e712ed
ff05f414
ebd8fdf7
0f000509
050006f8
f40c21ff
faf3fe00
00f7fa00
fbf4f7fa
0303e905
100a00ec
fd060bff
f4f7f7f3
22f6ef01
fd23fdee
00081909
0601fb08
fb050105
eff30cfb
fbfbf2fa
0df0ea01
f51005e6
ef00f2e4
effdfdf1
05fa000a
0b0406fe
fdf103ff
03f2f8ee
f501f504
fff1f9f8
fbf60a03
0ff21001
05040006
0a01170c
01000009
09fdfd00
0000fdfe
0a1bf905
f7edf10d
f80e01f9
ebfdfa0a
05f9f4f1
fa0000f8
0502020c
f8f6fef4
fcfd0dfe
eff60c08
04e6f50a
fa070801
ff0af6f6
070aff0d
0c0b0c16
0b12fd08
fbe9fc00
090bfcfe
0403fbff
f8ebf6f9
05fcf7fb
0503fb06
08100404
10161d14
c2fa000b
03fff9e7
07060001
03f50003
0700fdf7
f5001816
020afbf4
0c0007fe
00ff0006
08fcfd0d
09040304
f6fcf3fb
f400f5f7
f41305f5
06f2fcf6
090b0716
f6f90004
fd0504f9
270befe5
fc060b15
f1ecd2fc
04f8faf1
e400fbfe
01faeef1
f2090411
040c18ff
09fe05fd
0707fe05
01e7f906
0d01fc02
e1f40b09
f6e9eefb
0c010201
f804fbfb
faf0fded
06fdfaf8
23010505
04091209
f0ff0300
060002f4
021b0300
1001eef4
0706fb00
f9f0f309
fe080f05
02170604
040e0007
f700f8ea
edfbfd0e
02020a0b
ff03000d
feff00ea
0d1603f6
fd03fcfe
eafe02f3
04fd04f3
0204f5ff
02ff050c
fef8fb00
040301f9
0805f4fe
fe130c04
06f9fefb
02ff10fd
09100106
fdfbf3f5
fcee0cef
061902f3
f20801f0
f4e9eeed
0d0dfdfa
eefcf2f9
fffefff3
f5d9f90a
fffbe6fe
03fb00f5
f4f0f7ff
fdf0efef
0003fd00
fbfffef7
01f4e6f4
08fb0103
03edfb00
f609e7eb
fa040bfc
000202e3
f8060d0b
e8eeee03
1df9fef0
0800fafc
13100207
0a0c000d
08f9d5f6
fe0207f3
faf3f7f4
fefdfb0a
09faf707
10fa0003
060f1906
e9f20411
fde7e9f6
1f04f900
e9f1121e
f8ecf8ef
02ffecfc
01f60706
f20108f8
0603f503
140d0805
f4eef602
0ffbfdf5
0bff1306
fdf7faf5
fc0402fe
02040c0e
fe010a09
04fff5fa
190d0200
06161105
f8fe0c04
0300ec00
fd0a0003
001809fc
02ff0910
090900f4
0003000d
cce300ed
fd00fcf2
fdf6f3fe
f8f003fa
070008fd
effef51c
f1f705f9
01fe04f6
02ebedf3
f5f3050a
080105fe
faf8f7fa
0503f106
0703f201
fcf3f2f4
12181a0b
03090f13
0800ff0d
0ffc0603
faff070c
0aff1203
1b1cfd04
0aff031e
03f90bfd
240700f6
02060207
110405fb
0d040e0b
0d020006
0408f8f7
e6f30b0d
f9faf6fa
fb131802
f8f3f9e4
00130000
e716fde8
0c0716f5
fd010701
0bfd070c
f2fe0005
00fefafa
fefffb00
050b0005
f20305fe
00fff501
fc080300
04000bfa
01150f08
f900fbe2
ef0400d5
fa02fc03
f90703ee
fcec0809
fe0809ff
e3030005
fd0af8f8
eff6e7f4
00090700
05f4f003
fd01fbfe
dffafe06
faf70b05
1309f9fe
dd050cfc
f5efdfef
0a041907
f5001504
fceff2fe
00050c0a
f8f9f8f3
f20b02ec
00fbf400
f9f8f306
f90102fc
f702faf1
1d10fdf4
0305fa0c
10000408
ed03f40a
f4ff0af4
05edf8ff
0a02fb03
f20f0200
02f4ff08
f80df8f8
fef0ff02
feffeeee
fb04050f
fe0afbf3
01fdf1fe
e7ff0609
fff1fbf4
07ffecf8
f5000000
1d051503
00050615
eafaf0ef
0b0703fe
08fcfaff
0002f4ec
00eeec07
f6fa0101
1007f9ff
ff070104
fdf70cfa
f4030800
03fc070a
f7f7fcfc
ffeffa05
f5e504fe
fdecee03
0a090008
0d0a1113
fc03eef6
f819faf6
130f02ef
05f81403
00fc060d
f8f4f7f1
02f5f50d
00000b04
1b1501f5
f300f6fe
0ef30801
f7fdfffe
faf6fefd
02fbf3fa
e2f4edff
07ecfe08
fcf80017
080909f2
f800f1f9
0306fc0c
fff8fbfb
f5f9fbf6
f0fbfce7
f806e9f7
03fcfd05
e6f2f815
000c00fd
e6eb1bf7
181bcdf5
fc15ff0e
0ef61cf5
fd01041f
f900fcf9
fcf7f8ff
1609faf2
0606100f
0c080b0c
f9090e03
0c0d0312
ee140009
fd0204ea
09ecfafd
0003e9f5
e7ee0b01
f50d02e3
ec070004
dfe9f7fa
f3fdf0eb
0705f80a
e1fc0f05
130809ff
ee00ecf5
fbf600ee
07140903
fafafcec
05ef08fd
00eff4fe
03f1fa0a
f60000ef
132119fb
0c0503ff
f1100111
0200f8fd
1f010df7
fd1200fe
fafa0106
fdfb00fd
fbf80618
e9d4ebf8
02ecfd07
120302f5
12f00011
0d0ff904
f4fc090a
150b0400
0efb0204
f9100bf9
f503ffee
130e0311
f0f6050e
00050af7
0cfffdf9
04f62115
040a090e
050006f2
06fa1817
fdfbf703
fdf6f7e7
dcf5f402
f303f4f1
e5fd1c00
0407f8df
110b0608
02faebf1
fd03050c
f2efe5f4
eefe0af1
0d18f2e5
fdeef70c
ec04ddf9
ccf3f8e8
08f4fa10
f507edfb
0303fffd
eb10ed05
f40020fe
ede800f5
071e05f9
03000900
01f6070d
fa0006f7
1bf302f8
151b0319
e8dbe300
fa030bf8
0b00fc1c
06f9030b
ef0ff700
d41df2f1
feff080a
0fff0e1a
f5f4140b
f7f1e900
fcf8fffa
f9ec00f3
f90d0bf5
fcf30303
fe070df3
fff7fa0d
15fdfdfd
00fe0a02
fc02ff07
fafdf0ee
e4ef01fe
f20aeae7
e6f4f504
0806f204
0915ff26
f3010406
f6fe00f1
f5150200
070df827
eefaf31c
f60404f8
13f4f7fe
e100fc07
0bf807fd
f305fe07
ecf90df6
efe1ea00
0c061c35
bbdcfc00
fafb0bc8
02fff707
f603030e
fd0d0a0d
0ed6dae0
080f0220
d9d8c70a
01ef1a01
fffef3f4
fff9fff7
0c00ffff
031d0ef8
13fe0913
0e110617
01030800
01fbf208
fbfcfdfe
0a0a06fa
09060ffd
1000fb03
0303fbfe
02010cf9
f7161810
fa050f02
d2f6defd
ff082615
f8eefcfc
f6f200f9
f700f200
100204f1
f9040807
f0dbe7ed
eef3fcf7
e906d300
f90409ef
14021119
020802f7
0e031902
fe011308
07010603
03fff2ee
f90807f1
f2ecf70e
fc0a190a
1e1904f8
05f8f520
1bfbf1ee
e802fc13
04f5e918
030e0b18
fff10204
05061b03
05f0f102
daf0f902
020105f4
e2fcddf1
0b06d5f2
f10500fe
0ce9e9e7
000100f4
07effafc
f6fc060d
0cf60300
0ef60600
0f0aff05
fd02f602
100b0602
00000d01
ff040a00
eae0ce0b
15001417
05f6ec24
211909e0
fc0912fa
ecfdf9d9
010c0908
14e8edee
01f50000
f5f1f3fc
03faeffe
0efff1f5
0109020a
f3081200
1908f3ed
fe171505
fb1d0f23
f5f809fb
ddfb070b
f6fde31b
f8eae6f6
f81501e3
f4061609
cbf9f4f5
f6f70005
f5eef505
f8f903ed
f90001fb
08f8f800
dedc0412
042308e5
fc040afd
1afb04f9
fffaf403
09e2eae1
06f4ff0e
f3e7f6fa
fb00f8ed
f2fd040a
05f50300
04fc0007
130ffafc
050c0203
fa06e900
010bf2eb
08060900
f9eaf6ef
190cf4f1
0900070e
ef0f0e0d
f4fded00
0800fef8
f6e9efef
ede61205
d3d0e004
02fb0cff
0004050e
04fdfd0b
0107f6ff
f30006fb
12020a0b
f5f3fbee
0202ea00
dddeebf7
f9faff00
fa0decf6
f5e4f810
04fdfe00
0200e7e0
f0edf302
060a0c27
f9fe00f2
e8ecf700
04fb1f07
30060001
f3eb0104
fc06ebed
0c1dfc1c
020efd0e
0c0e000a
2c1d1335
1bd10417
f90adf01
dd1609ef
f6eeee1b
1310fffa
0c06f110
fffb15ef
f501dbeb
d0f3f6e0
0a2c05f3
0d000300
3d3b0422
06fb082c
08e1ffe1
bfebf0e6
eaf920d5
fe09f2f5
f80d120b
f2e5f810
02feeeff
80e4fed7
0bc7f107
03ff1411
32050a7f
f1f1eafb
0c0b02f0
0cedff09
07200701
0ef8f906
ec020409
00061300
17f40a04
fdff0deb
00e80e04
12ff1603
29190400
083bf415
0e0030f6
20080d0f
fa05f9ea
fc2c0f2f
1d04eeec
0a3003fa
04040cfb
03fd1008
f8f9f418
f0000000
440c0006
01d6f50b
fdf8fce9
d803efe0
12061604
0c0b16fe
38150f46
efde050c
fff3f2f1
1b26fbf4
0b0d1efe
08ece502
f0f506e2
fb08fce9
d9edcff7
d2fcf9ca
d202f301
e1f5f0fa
cff6e2ca
f3deed07
fdeeebed
2609dafd
ecea0e0a
09ff0b01
17ef080e
10e8f3ff
eafbeefe
0df9fdee
f9e405fb
11eaf2fc
c1ef131a
0ad9eb00
ffee0ff8
31191416
f0800315
280bd910
e8ed2c2b
eb08fae8
fc0a0a07
0bf401f1
024701fd
0602fa21
cfedf9b6
05c507ec
f91bd60a
def600d1
1827ff03
011116f9
e10ef806
df350ff2
edf004ee
fb00fdd6
001329f3
2905f61a
380400ed
120d09fd
e909101b
eb1401bf
17fa1cfe
f4060d00
ce0200de
0d200c04
04ffe90e
dd071829
cfd7efe4
e4e1c9ed
3df8ff40
011afc14
fdf1fe04
130e0a28
fb7f1202
fc247018
35f8fcf9
fbf10809
f6f100e9
faf9dfdf
f409f6e1
0e03f306
49ff0d02
fbe6fb16
ecfecff6
0713e5ec
0e15f600
00fef1f0
08082d00
1f05fa00
1917fe0f
060815ff
0de3ce0b
f60aece5
10fd0a04
f5e20410
08e0eaf9
0b06130b
16f7091a
0017ff19
0118fbd3
0bedf61b
fbefd2f5
590cf9ee
180a0f15
e3fe000c
f4e004ef
f3fcf9f9
16e923ef
27ff1640
16090df6
e90100fd
fffce9fa
0d1b0dee
08010403
03fbe0f8
03ef04ff
1a0003f2
15f71418
f1e40001
ecf5e7f4
0610f6d9
fd040e13
ffece0f2
2607e9da
05160e01
0ff8da16
f50ceca6
fedff1eb
f8000209
d5f21cf9
0724f103
0d0b0fea
ee01ebf1
f3e507f0
f5fb1307
150c02fc
fdf9f411
04f4e800
fcfb11ed
fb0001ef
ef0b000b
02eef80d
f8e8ffeb
110000fe
fb1a0003
f4f4f617
00274313
01f10604
0f03fc05
fcfff8f6
2f16f912
00e20c01
f71b00f5
1e150d0c
fa21031d
051c2503
2004290f
effd1ded
f9d3e803
f9fdf119
f7f80dff
01e60209
defcf7cc
f9dce9fa
dd12dcf9
e81209eb
09190be4
f312010b
ff08eff4
19ef190a
ef09ddf8
c2f1f8e8
c1e41800
05ee0600
b8eefaf9
f6c0faf2
04f1b510
f60d1605
0afe0b09
e8f612f6
fde1f904
090e02f3
fe2211f7
fbef00f1
0300ec0f
edf4f8ec
0503f5e9
1602080a
f1df36df
1f07fb05
fb35fb0a
fbfc0efa
e834f4ec
f8d5fb0c
dc07d012
110716eb
17f4f723
09e6dfe1
29fcfb26
19131efb
f4edddf6
1408e7ea
07ed090d
0b0a03f7
f606fcfd
fc11f704
00dc00fc
000200fc
f534f808
0a0c1a0a
5ce3fd0a
f96602f8
faf621f0
e2020bc1
eddef001
fc07ebe4
ebfc0e0b
eef1fffe
02190afa
0ffbe0de
000bfbed
f30505f9
24fbefed
f72cfb0f
160f1701
fe21f707
e8feeffe
080939ec
3dd10b05
ee3af7d9
f2fa1ffd
010ef807
04341cea
06fa0404
f3020afb
fd1df708
120912f1
07ed1d41
071a000a
fa1ff60c
defcdfd4
02fb01f8
00eff6fc
1304fb04
fcef13fb
fcfaef0e
eefff5ed
fdfdf203
040ff8ed
0dfcf3f8
00ff02f9
fa0416f8
0604f308
09ff0cff
0701fffa
e0000600
efee1af3
24efef1f
0812e007
cbf50fdb
05fc0500
01010206
0509000b
0003f8fe
f704faea
04fafd00
0303fa0c
02fb08f6
fa0ffe06
e61812e3
16f7000b
04f90e06
10fdf503
f906f804
effe09f4
0bf6f9ff
080101f9
00f4f00a
0001f9fb
eafaf2ef
f802fcec
fb04ff03
fb0200f9
e3eb09ed
0901e9e8
fd0b070c
fbf5ff01
fef403f2
fe06e6f6
0f0902fe
0305020d
f8f60c02
feea050a
00040004
f7f60ce9
02000408
0307fe10
d6fdfcf4
f0eb10ed
eb01fe1e
f7f8fcc9
07edf40d
f903fa0d
0afa0f08
1000f919
edfaf9f1
e9f9eded
04f802fd
0bfc01f5
e701000a
faf70aeb
f3fffc0c
fdfd06fd
03fbfbfb
f7fe0ae8
03efeffd
02060cf7
0d05fd11
0602fc03
fdfcfefa
08faf801
f903fbf7
fa060900
0cfc0001
e4fcfdf8
e3f5fbec
f7ebf6fa
19f3fbe3
020ef40b
0a1003fc
f412eefe
f6030c04
0a00f904
0300fd00
f500fc07
fcf7fdf8
f9f802eb
fc0002f8
0af6f60b
22010308
16250002
07f2fc0b
0204f6f6
e4ec0cf9
02d6f511
fa12e500
eefb0afc
ff04f8f6
ed08ef08
e4dc0adf
f706f600
edf804ff
00f3ff01
fc01fc11
fafff6f3
0010f705
02030804
fe0105f7
fefbf40a
0800fa01
f5010100
ebfdfb02
03f0faf9
0002f4ec
00040600
0b02fafe
1815ee21
e50302e8
fb1305fe
0d0e0b05
fbee030e
19f2eb0c
e5fcf2f1
f7e9f4f3
e80100fa
02fefc0b
0105fdfd
f2fdf4f5
07080311
ec0812f8
05e80305
eefff002
0601fbf5
ff0303f2
f605fdf3
f2fd05eb
01f7fb0a
fbf6fc03
fbfe0701
07faf501
1a0005ea
0816fe0b
000a26fc
0f02170a
fce8fb04
fb0cfe00
04ff08f2
f9050711
fdfd1400
17f3fa07
0010fbf8
f1140fe3
fe09fbfb
f2f509f6
00f70500
f01ae9f5
e7f50cef
02e3f5ff
f302e4ef
fcf3ebea
0dfdfdf5
06f60603
07f7fb09
fdf0fb08
ebf9fbee
fafefdfb
f6ecfffe
0b11f3e2
f71b05f0
f2ed1008
06f6faf2
0811f90c
f20bfdf1
fee704f2
15fe09f7
04120403
fefd0f01
0bfaf50d
0f13fbff
f81107f8
01eeeffe
0b0607f3
0611fb00
03fd04eb
fc11eeef
04f705e1
02f000fd
0e07f1f0
e309eefe
eadffeea
f5e4f5f7
09f0eaf5
e4f3f2f5
fcf3f308
ff0908f4
07f80002
0dfbfcfc
200afe1b
152d0f0a
04080000
0209030a
ee001200
3ae1e70f
1501eee5
e20b03da
00eae709
f7f800f3
fef809fc
fefc0006
00fc0003
05f9050e
f004fb07
0bfd0706
fd08ff00
f7f2f3ff
fb0402ea
01f81505
eaffff05
12fa0000
ffde07ff
05f5f509
f5fc03f8
fbfdfdf8
0bfc0107
fd01fafa
06eb0c06
00feee0d
000801fa
00ff010b
06f4feff
f606f505
01031005
fff6000b
ea0912f1
15e2f813
f6f4fe06
fffef8fe
f6fd0504
f9f30300
00fcf404
06f3fb08
0300f5ff
07000b09
00f4fc06
fb05f4fc
02040cf6
000b010b
f4fb05f1
00fefd0a
0a0af605
08011800
fb0806fe
ffe903f9
121bfb07
e4fc0afd
f205fcf5
02f608f8
03fdff12
1511fb16
091a2306
01f50401
f511faff
05f21002
1213fe00
f9f304f0
fce1f1fa
fe0bdfe8
06e9fcfb
ff0efbf4
0cf7e109
f01802e1
fdf9f110
0016f1ed
ddf500fe
0ce3fb0c
f71ae50b
d3effcde
fce1d5fc
05fceff0
ebebf5f0
fffd25f8
0afbfe25
0a0701f5
f6f512f5
16f9040a
fe4a11f7
011c3b1c
1100f006
ff0dfaef
fd07f908
ee0a05d6
05dffbf0
060deb0b
f5e2f9f5
e8eedafb
04fdfaf4
c2fc0406
efbff7e8
f8f2d801
1300e8d9
21100b03
0d1b2d0b
e611103c
00e6000b
060fedfc
ea0af0fd
13fd0e09
00032400
fd0efffd
fb05f1f0
180c0c00
0a121508
05150e08
0d09f6f4
e90300d5
09f7fff7
0101fb00
ecf302dd
f5deeaf6
e8f9fff6
f6f6f3f5
13ff0302
fb1e11f4
0112e906
fbfb0305
00f0ef03
fa04fee6
efd80102
ebe2cdfb
2c0ae2e5
0007fc09
fc03f5e8
090416f9
02190012
01f80801
08070727
20ec0d07
0a040b02
fffa0bfc
02f7fef6
fd05e7e0
0b0aefef
f10000f8
e509fbfd
f5e30508
fe120b04
d8f4eff1
00dfe4db
081afd08
fe0e101d
091afd05
12f92a08
07fcfaf3
2214092b
0eea0006
0ef7dbf2
2ffff703
fd0c0b0b
0c10111b
f9f41f09
f300f313
0a1110fd
0af603fb
21392612
14f82f0e
1e00fd07
09240303
12fcf6ef
28071143
0a1500fb
ea02e7fc
f7e7f203
24f309e8
1518f013
fb0714db
ead10702
14f3da12
0803f306
16fb0500
0eede3f2
1c1bf605
fc030004
fdf0f1f6
2e08e5e8
0b290105
f3112e04
d4f3f0cf
0af314ec
000f0cf1
fdf6fe07
191f0e03
fd09f3fd
e6ebfbeb
110cf4f1
f5ede8e5
f6faf4f4
f0f102ea
0b044a0c
0a050d0e
f8ee0515
0e09ff02
f9f5fbff
03030cf5
fa0e1412
ee18f9fc
fd000f00
ecf2f608
13fbfa0c
fee8010d
01fbf4f7
d5eb17e9
feeae702
eaf7fe0e
df03f8e1
fafdf8f0
fb02e502
05f3f0ef
1208f9fb
1cfd0010
f5f6ed0c
040ef2fa
03ff12f4
f9fb00fc
f7f2f9fd
09e4e302
fef9080a
041214ff
ff051605
fc0207f4
f5fc0eef
fafb040b
10f2fe03
e8dbea15
f4030904
e40a06e2
00fe08fc
0affd703
1514f4f1
12130d06
ed08180a
f3fd0006
0ff2f9fc
f0f5fff9
fbfefaf7
f50df6ef
fefd0606
f900ebe1
edfe04f6
f4f5fbf9
fceef603
07f6f5fb
14fd14fc
01131207
efe6ea0f
ecf5daef
00fae5d2
f1f1e9ff
fef6ffe2
f40b0100
16011709
03f211fa
0e050007
fbe20603
eb08f6f3
ebf90dfe
f3e3e8f9
07e0eafc
01f50021
fe0605f9
07fff700
fa140300
ea2ffe0a
06073f23
e4001631
fafaf802
0703f601
def3fe02
0af9f6f5
fa0cf7f2
e8f7feef
03011401
0bf504ff
faf3f905
e0e5e6e5
00f3f606
1617000e
031013f8
1b0e1e1c
01f5161f
ff00f8ff
07fbf403
e6010a07
04060dec
110d0809
ddfb0005
0b0311ff
0209f918
e2f4fcf5
0501fcf3
fae30002
f0f5fe08
f9f204ee
f41bfc13
e8ed00d2
09ed06f0
070a091a
faf90505
0ef0f2fb
0a1e00f3
cffa0906
00d20b01
f40bea0c
d7f6fdfe
edcbf7e3
1a1f10fc
14340eef
06150e1e
ed0109ed
e616f1ef
f5df0019
f115000e
04f4120d
0609f613
0c00e912
043100db
0009fc04
14141e04
0ef6160c
0213fbfc
0a0105fd
ef04fa03
14eb0b0e
09fb1608
f507f901
eaf5f6f7
fde2f8f8
1ffaef07
00fae309
0afbe5f4
15070425
fcf0f304
f7f1fc16
01f80701
071a190d
07f9f413
fa0aff01
f3ec08fe
1bfbfb00
ed03f508
f002fff1
0d08000a
fe1203f5
fbeaff07
eaf3d005
00ffeee1
fc0ceefe
0602fafc
09010dfe
f20b1708
0dfc00fd
faff0a02
0afc0eff
f2f9f5f8
0415f9fe
fc000401
ec0017f8
f900faf1
060d0ff5
080d0afc
130e0c16
00060b06
f5f404fc
d7fdeff6
0026fa00
13001902
f803f919
0b00ff0e
f90b01f8
f8f20000
fe19f7f1
0bf5f8f6
d3f80418
fff403fa
01f6ff0d
f90518e7
0f06040d
f7e3cfe6
15e70322
06e80b0d
15faec08
d0ebf6f4
fae807ff
f701f80a
22ff0a4c
f2eb00f3
f508fdff
0ffbff31
0c570cf9
0b0a2903
293ef6fa
f9000e11
030a040c
190b0741
fce00501
0900ed08
f50308fd
00fcf710
ff0edbf8
0d05fdf9
17fff500
0f060409
1400002b
09fdfb07
02231e0d
07060d0f
fd0a0a0f
15f2fd0d
3507ff06
0ffd1112
e7f70800
131af8fd
00120d19
fe07fb10
00fbf3f0
000201f3
f7d0e4ee
0912f0dd
f2e503fe
270001f7
eaf11000
00f306eb
eceed9e9
d0dcebd3
0cec04e2
fa0ae80e
060b00dc
00f2f408
0305e9f2
f001fc02
fdfb05f6
19fe1f38
10f60c13
e2cbe2f8
eb06f7eb
200900d7
150b030b
0d060000
06f80f15
faf5fa01
fe110e13
fd010d18
f49af319
11ecd5f3
2dfc0eff
1c1afa1f
0b08f1fa
1d00f5f8
001309f2
00faf4f3
e900f710
105f15ea
f9053e11
edea141d
01fe0205
f3030010
d3f0e8e1
07f40900
f1060ff6
0900f5ee
f9dedefe
01f6eeee
1b21ffe9
f7eb0402
f8090818
1d06e4ef
f8f4e506
f5f3b9d9
0d15fa00
f1e4fa0a
f7f8ccea
b7f0fbfc
05f800d0
fbf904f7
f9f40408
050dfbf8
0bfbeaf9
190c0421
f23a0008
fcfe14fd
470907f4
071d1d06
06ef210b
f7f507fb
f1dbecfc
f0eecff5
08f9ede6
00fb09f3
fa09f609
e9f5fefe
1228090a
fb03170c
04140b0e
0e0514ee
fe0016f4
1dfc0519
010108f6
f6faf2f8
0af8f6e8
030603fb
09f50aef
0efa000d
e4cbeefc
10023412
f5fffb13
ebe6eefd
f8f2f502
e5fbfc0c
f5dff0fb
070808f4
fef80732
fa0dfa00
13013013
0f111022
ecddeb0b
00eaedfd
0a0bf002
040f0d15
f201faf9
fe070d06
03f40b0a
1ff9e1ea
2d161324
fae6090f
1400eb03
041c11eb
fb030eef
faeefcf9
d1f1f4c1
13fc06f5
f8f2c6f6
d7fef1d3
12030401
02f90913
ddf7f8ed
04f0fbf7
ea00e9f3
eef901ed
0afc16f6
f8f900f2
08ff1dfa
ede8f922
07fffcfe
e8080107
f0fbf0fd
f6fd05f8
e100f11e
fd01f903
04ff0aee
060c030f
09e3e80e
061afa05
280d04ee
2422101c
fd0b00fd
161c00d5
18061308
0e1516f1
00000b19
210b0ff3
0607fc0a
020a15fe
f810ffe0
e9f706f0
e1f0edcf
f5f705f4
f3f4340e
f6f0fa04
00d7f3f7
f501d9f5
dbd20aef
facde4fc
0708f8ea
eff40df9
0f0b1c13
eeffbcf1
f8f40db7
efe3ec03
f80d1ef4
cbe5fdf5
02ef07fc
1a07e411
142121f7
07fc0528
faff00e9
f5010cf0
fd060c10
f707deec
ecfbf0fa
07f3f6f3
06fcf2f5
33fe001e
f9080203
f400610b
02f9fa18
f126e8fb
f30bd907
c400f5de
0e2710f4
ec0b110e
0a14cad2
fdfe12f0
0b0d0108
08170d24
222ef915
022408ff
ec021702
eedd05f2
17fceff1
fa1f0b07
111f0a11
04d8f3ed
11fe030d
06fbf112
1309fd02
ca05190b
ddcbffe6
0902f20f
eb04fc17
060813fd
09d90aef
f606f007
fded11e7
e30aebfc
0606f0e5
080d06f9
f20315f8
0bfa0600
0907eb01
1a072d14
f2100b05
e60ee90b
0c062a0b
58fa0a18
043200f0
18f6e9f8
0d0df403
fbe3fff4
030feefb
08f209e9
fa12f706
04040311
4af01428
071cfa13
f3f8e603
10f3e7dc
fd2703ea
f3fa0afd
16020202
05fe0bff
0afd160b
c7e30801
0a1405f1
02051d10
f90c00fa
00fd0b00
f8131a18
0cff0808
ff16030e
f7f6f0f6
1c12fcf4
0018f8f5
0afc0bf1
0100fe22
ecdbf5f2
fb1219fb
2d05120f
ebcbdf1f
03f2e7e1
0a0efe04
fe06f7fe
0dfcff04
3d0ff337
06f8faf7
0bf4edf4
edfbeed8
051210f8
0c0d2f20
fbf9f729
0c12090a
fd0f1515
0c0cfae8
f706fafd
06131007
02f705d6
0022f0fb
ff094c07
0603020e
faf3f611
e8fe01ed
0004f4ee
fe0908fd
f308fbf9
ed0af6df
fcfaf8f5
030bf702
2302f9f3
011600fe
dc04ee07
feffe9ca
0e0d17ff
0700fdfc
09000e1a
05e41fff
f7f70e00
f4f00d10
0409f8f9
03f1faef
fefff8f6
f507f5fe
d90eefcc
06ff00fc
e1ebe207
ff04f1f2
180c0601
043211fa
06fafeff
f60c00e8
f7ee0508
f3f4000f
f3ebe7f5
eee8fbf6
02efe4f5
3dfff400
fed5ff02
fc00f811
e2fcfc06
0104f5f2
040601ff
040f0cf5
f9dff201
effefceb
fce5f2ff
20320ff5
0b04ff00
1b140a4b
ff1c03f4
0219200b
05070e1a
fee20b10
0a07e4f5
eb08ff0b
09f600fb
050ff415
1e0bf412
0c26110e
f5f4e1fc
e9f5f0e0
0e090bed
f80b1307
10061209
0606040a
f7010200
d1ec09db
f0daeff6
d9eec0e5
d5e9e5cd
09450cf0
020f500f
ff00061f
0308fd04
fd00d10f
d1f9071b
fa1504e7
0901310d
f3050013
05fdfe02
f9fd3804
ec01effe
0b1cfe0e
fd0600f3
fc0bdbee
ede802f9
0bf8feff
0302f6f4
040702fc
04151a0b
c7f6021a
0acff5fd
fffdddf2
11120004
00001306
0afe0000
1201ff00
fa11070d
ec0e0a0e
edfa02fc
f0ea02f8
feeff7f5
d8eef2cf
05f4f8f2
18102b20
14001254
10e109fb
fdebd5f8
cf0dfcd5
fdd2050f
df02f907
ecf1e7c8
031e00f9
1012fff4
100b1e2c
12071014
0616e707
def91de5
01fdf8fe
11fff8fd
ebf51100
fef80bf9
ff100f0c
000100f8
110d0507
05fcf400
eefa05f5
090512f5
e3fd04fb
e8e8f2c7
0700fceb
09f3230d
1107fb29
15170a0c
0b0e1e12
f610ff07
fb0001fd
f4011c00
050f06fb
04e5070a
151b07fa
f601050a
07fdfffb
01fb0300
01ef000f
f40000e3
f3f50209
fbe8e819
ff090aee
ff0b1607
f6f60c22
00ead7fc
fcf7e0ef
f70ff4e5
13080608
fffbf200
08ea0e1e
f6e7e7fd
08f0fdf3
fee9000d
fedff1fb
ed0b06ff
02fd1011
051c090c
07e4e9f4
fafff0fc
03e604fb
f1f5caeb
f8ff00d9
201dfd0b
01fe0bfa
31f2f7f7
1a430c1b
1b000b07
0813e905
f9ebf6f7
fe021709
0000f533
f8def4fd
02f5e5f6
fa0dfa06
fed605fb
eafdf502
ebfe00da
faf9fc03
f4fdfeed
05fefc03
f821e901
f9000c0d
2f170702
102a2434
0903100d
e2f60ae9
ee09f5f8
f0f434f8
fcf5fa18
fe0306f3
000917f6
0f060608
f7d80419
fbf6ecf9
e402f7e6
0c0201ea
f1eff4ee
eb02e5e6
eacefa06
f307ece6
e6000bea
01f002f2
0d090a09
e0fc2003
070509fb
ff0204fe
effffb01
01e9f4fd
04fa04f5
de090f09
0a05ff11
ff0c0219
1d18fff7
15fd0114
0400de06
fbfe0714
f8f515f3
efe502ff
19fcf7e1
ffe8f509
ebfb0001
e9010ee3
fff717fd
f216000a
fbf600f3
17fa1600
f00c0203
fb10fe0c
fdf80b1a
19fb0007
fa12f106
e3f401f6
03ee2700
e2ed00f5
fd28f101
fd0c1a06
f9efeefc
e700e4ef
0aedfe04
03020507
06f807f5
00feff06
0100f103
06f503f2
fe011402
f2f5080d
03f4f503
06f90e06
00fdfdea
f90802fc
f90cf000
fb06f4e8
000601f5
1503f50c
16040a12
f5f5ef00
0a101000
22022920
07070527
fcf9f603
edf6f5f4
fcf1f5ec
0300f7f1
fefe1008
fee1e608
0bfef7f3
2016f816
121c0c01
08f70c0a
f0fafcf3
00f1f4fd
1201eefa
f4f61612
e7e9faf1
f904050b
fff5efeb
f6fefde8
0eff0606
e00b1113
f6fcf90d
09090701
fff80609
feeb0208
ffeffbf9
09f60ff8
f3fb0407
eb05eaf4
02fc00ee
021c0702
f70c2804
fdfcfc04
f4ecfe00
ebfcf4f8
170b2d0d
ffedfc1a
0109f6ea
200100fc
e5e2f206
f8f6f2f3
e9ea0e12
f4e8f700
fc0d0e09
0f000af0
0b210802
05f0eb00
fa09f3f4
fa31080f
ec0001f8
0d0d06fd
ee0b0f03
01f3fe02
f9070ff0
00140210
07fb0405
0a0cfcea
f5f2f50a
000905ff
020e1319
13f1fb14
0803140b
0506fc0f
020b1104
09121f09
f9050a09
00f3090f
00f6ec08
faf60601
e9ebecf8
06f5e7f8
d6fafafd
fdf6f1e2
08fd0af7
f9fd0813
f4ea02fa
fdfa07ff
16100b14
081c080c
f3fcffec
f0fe00f4
eb0009ef
f705f9fe
e7fa10f4
070bf501
f709f400
251b07e7
17140c0a
eb04fd07
e1ebe0cc
faeeefea
0601f711
05f1fefa
fef9ebfa
02f8f6ff
030110fe
f500fd10
fff7f70c
0b030437
fbfcf8fa
02f506fb
f308ef00
f8f5f7fb
03061709
34fa0818
1119fc20
f21300f1
01f4fb0a
07fefdf2
df04edde
fdf100ea
faf2f208
f4f7e3ee
f1fdf4e9
efe201e5
ecfbfd02
02fa140c
f2f009ef
eaf6fcf0
00fb0206
fe09fb0d
f5fcf3ef
150afdff
002502fc
0400260b
e5f7fee8
0ef3faf7
e800dbfa
14faf5ee
10fb0afe
0510110d
dafe090e
f40108ec
03fc1406
e1f4feed
0505fa02
fffa0710
0309f5fe
18faebfc
f5fededf
ebf404ef
00fbf8ed
fe12090e
fafd04ff
0e090300
0e08000f
f510eeed
15120501
0b091a02
100a140f
0ffbfc09
f813ef0b
12fceed7
05220b04
1507fcfd
fb08fbff
00010207
0208feed
080a0b0d
fcfffef7
ff08faf9
02f2fff8
0409f007
08fc1b0c
fb190203
0500fb0f
fe03f5f4
e9fb03fe
ecf40300
01f9f7fe
0a0e070b
000e1826
f2f709f5
f2ebf801
e7f8edf9
f80003ef
00fe0609
fbf5f205
df0ae6ff
eeebf9f0
02edecfe
fe1d18f6
0afa0c09
160cf403
12e400f6
190d0301
00fc050c
f5fa0600
00ff03fb
f4fffbfb
ecfff9f8
fa0115fc
ececef01
f904f2e8
16ff0bf2
eff8000c
191508fc
fd0006ff
03140201
0d0d10fb
0c080b2b
f9f40300
00f1fdf3
d90f000d
00f004eb
f3020708
0c09f6ed
0a261200
fb071503
f9f40011
201000ed
03050701
2029fb00
f6e00209
0d08eaf5
ef021410
fafcfdf6
04f820ff
03fb060b
0015fcff
fc010f00
e0f900fd
fef6f1fa
ec02f300
f707eef0
030401f7
f1eae8fd
f1f5e8e7
051211e8
0f111900
f0f70319
fce6f9f0
f6080009
f3fd0df2
1b250806
f906f8fd
0408efe4
0a0904f3
02f509e3
0503fd09
10ffff09
05020bfd
020dfb01
fa0a0cf1
f0121c00
fdfb281b
f2eff924
00f2ff00
fc08eff9
f4f4f303
fde9eeea
10011106
f0130301
f5fbfef7
f7f0f500
07f707f9
fef1d501
01fef9e7
f81000f0
fd010600
07f10b08
f5e802f2
ef06ebfb
f0ef04ee
0b0300fe
f5fce9fa
031307f6
f8f5f8ed
ef0607fe
e1f005e8
03eafb00
04fd0703
00070f1e
11120003
0d0f120a
121a0a1c
0405fd11
fbfa0003
06f40505
140ae90a
1df3f909
2f1bf806
00fe06fd
fff6f6f1
f8faf6fb
09fb0008
ef09e518
fa01e9ef
fafe03f9
02f1f701
f703fefc
00effbfd
01ff0503
00fa060f
05faf1f3
0801dcf6
f000fff1
02e1f1ff
0000f806
f607fffc
fa03ff10
06f9e1ed
09f9f608
030300f8
fb03fb00
0e08f008
fa000100
21f8fe0e
1df7032a
090bfffb
fbf700fc
ef06eefd
1b2900ff
f5132b02
0e0902ff
0102fc02
06000600
0505f6fe
f300fb06
fcf80903
0914fc0f
efd50006
01e8e1ff
f803e3e1
0321f001
0cfff604
ef1c0f1d
0a09fb1d
03150a03
1b0a0ff1
00f9080c
faf70b0a
1701081c
f202fd07
f8f60508
04fb0201
f51a01fb
f4fc11fd
fff908dd
000505f0
f8fd1416
00fdfef8
062005ff
fcfaf703
f5f8f9f8
f7f10c00
fdf40305
f107ff05
04fb1311
f8070c1a
f8f2ff01
0801fef1
fc10e80a
30011421
f9ebed15
00f5ecee
00fd10ff
f900f9fe
f2f40701
ecebf5eb
01f2fcf1
11072308
05fc0718
f2ea00f0
fafee906
0b01efde
f1f601f6
f8fee202
0cf200f6
04fdfb04
0000f901
fdf6f3ec
07f208eb
09060016
fa0afe1e
07f3fc04
070709fc
0007fd02
f6faf300
0401f904
fe000400
07071104
100c3608
240201f6
0d000f16
edf9f409
ebfefef0
02eb06f6
07090003
02040af3
00000300
0417f810
fff30bfd
f8e2ec03
0dfdf6ea
0013efef
f50b17f3
ebfbe6f8
fdf7fd02
04000d0c
15000001
e5fa2214
02020df7
fb010201
1907fd1a
f60003fd
00fa1804
2a06f71a
fcf5f208
0507f3fc
f8fc0611
12fd0c02
0d1a0b0d
0007ff10
f502f100
03012005
1120fa06
fc0901ff
08020c0e
040b02fc
0103fd00
05f6f7f3
1307fe18
f3d8f904
fbfef1f6
e7fbf9f1
0bf1f7f4
03070503
190617fb
01fdf4fa
fdeafff5
f40af701
130d19f5
f9feeefc
e7f8f6e9
05fef8fa
090b0e08
15fe0019
080efd11
02f8f9e2
0200f80a
02040907
0011f9fe
f1fc09fc
04f4fdf6
1504f206
fbff07fa
fb07f8f3
ecfdef08
fff6efff
0b180006
0313f404
25f70213
f0e6fb02
01fef601
f8f9000e
02fff805
fef9faf9
ed0dfef6
131b0e04
020305f8
0101f7fb
f408f606
eaf900f3
1b02f408
171e0406
01fa06e4
0c08010d
fbf40006
0409fc00
00f9030c
feff0800
0000fd01
e8f7eef7
f6ebf3f9
08eedbf3
0200fe04
ed0101f1
04fa0800
09fefcfb
fdf90bec
f5f0dbf6
f80002f6
080507f2
0710200d
00000b17
0a080913
11070911
151602f1
ff001403
02020702
fa110ffb
f4fb0706
05fb050f
f9f5070a
f60efaf2
f8f9f7f5
f1eff6f4
fcf7f9f4
1308f60a
0707fc00
09ff0311
06f9e8f8
fbfd000c
03010002
000c020c
df03f7de
03ee05fa
02f8e300
fcf0ff01
f1f501f2
fb0b1816
f7ff06fd
10f20f0c
0a02ff08
f1f20705
efee0700
02e9f60a
f602f0ee
05f5fe01
0dfceef8
0a07fe02
02110f03
f1fd05fd
fafef508
fe1009f6
f1fefafa
f6fffefd
09e505fc
03f4cffe
06080300
04f70309
11011207
f4fcfb0c
fa05fef4
fcfcf70e
0000e7fd
ebdef9f7
faf5f1f1
ff090103
1d17fb10
06fefc01
f5fdfcf8
fff2f80a
f6fefefe
f50107f1
f9f0f702
fd0b030b
fc060203
f515fbfd
0a00f2fd
fd02f5fb
030e0502
0508edfd
f1f00900
03ec0f07
ff1f1c05
f20deac7
0c270805
f5fde5e8
03fbfdf5
ff1e26fb
e61119ec
03f50dee
f9e2f113
f800dcf3
1609000c
10fcfa00
ed05fcee
09ecf9fc
02f8f8fa
f9fef3df
ff0004fb
eeebe8fc
04f7f304
2b0ff4fe
f91d20fa
170e0610
f0fa0bfd
080900fd
f707fe03
0507fde9
f7060a04
0ee9f8f8
fef50205
01f1fd04
ff061210
07f409ef
f4f807f8
0000e9fd
03fafee6
180900fd
0003fb01
fff7f0e4
10201003
0efc1412
0bfdf500
f6f30601
0cf5110d
08000011
fd0517fe
f4090731
f8fd0208
03ff00f4
1407030b
fb110f10
f307fb04
0608310d
13060728
050e130b
1801f2fb
2c18f706
f400fff9
fff21000
01fa0206
0307fbf5
0c07090a
fbf0f70f
f4f1fcfc
ecd9d8ed
171df8fd
00001704
0efde7e1
fe0b0cf4
12f4f606
eb09e2fb
da0604ee
fff9fd09
fbfde1f9
eb00fefe
00e7f802
f9fe02fb
eef1fef3
09121bfd
1300080c
fe1002fc
f5f3fcf2
12001501
fffd2110
1d061a07
09152722
0e171106
e2dbfd10
07f2f5f6
0a160cfd
00070a18
faf7f5f6
dffa07e4
f813fee9
f5fde9f1
fd02f102
11121204
fdf6e7eb
dbf1ffef
00e0f7f5
040bf9ed
0711f405
11181c02
f907fd00
e5e6fbf3
030304ea
08000e0f
eafbfb1e
faeef2ff
e5ed02f0
0804e9d8
0d221bff
f7ff00eb
f5fd06f8
0c09f6ee
ff0600fb
03ff0815
0c0307fe
f2fcecfc
00f9f6e9
fe12f4f8
11070a11
f3f900f3
faed0001
01faf6f3
00f6f9f9
fdf7ed0a
da05ea13
f4e50406
f3e7d8fb
020c01fb
090600ff
ebfae513
f3f1f702
eeecf7ff
f31b0f09
0a022e28
0c04f902
0efe08ff
0d05f4f4
f903110a
fc0aeafa
0bfcea00
fffcf7ef
fef7ede9
f6f8defc
f8fc0000
01f9eefd
ee02200b
eee5fef2
02e8f306
0001edf2
d6fef4eb
f0fb07ee
08f60efa
2d22ff13
ff211503
180c0507
0c141503
e5eb0115
10fd0600
fff4161c
18f8f00f
e70a041b
1cfa0a17
0f02fc0c
00181615
f8f2fefe
fe070b00
fa040002
06f1f801
fff3e8ff
fefa09ed
00f1f90a
eef9e501
02000411
f3f80102
1309f3f1
e00314e5
f7fafd01
fc06fa03
091806f7
f80cff0a
fcfdf9f4
fc0c04f7
ea0200f1
08f500ed
091bf509
eef61308
090301ff
07faffee
100cedec
fa10fff8
fd01ff05
f6ff00fa
00220603
00040206
fbfc0804
f2e7e700
07f8eaf6
e9ff0b0c
0bf8fdff
17f60108
ff120301
03080cf1
100c06f3
f1fc0312
fbf1f7fb
07fedfff
0dfc02f7
0d0e020f
fe03fcf2
e6fc01f9
f2e803f0
15f1ff00
f211e70b
f8e206ed
fce4e60f
05f9f2e7
020306f4
f613fdfa
ebe91504
fdeaf507
fcfaf1fd
ea1b0e0f
fef90904
01fcfdf5
0b2005ec
fe050e00
08ec0afc
03f2fc06
0f01fbe6
1bf9e909
eefcf704
fdf4ff04
11e4f4fa
d3f20917
0ff6f8f9
f3f4f5fc
050806e6
f4060113
ef00fbf0
f3fbeff0
e9f0f1fb
02f2fcf4
000af014
fd0c1809
0003d7fc
fafa01e2
fdff1100
0208070c
f90af804
0f00ef0f
2a13f5fa
051d091c
f6e7fef7
04f60005
e604ecf7
fc06fbf9
fdf6f30b
080ff700
00220416
21090a06
ee0e192d
fdff0413
f5f6f3fd
fceafae9
d9dae402
fde3f6f0
01f3e7ff
0d111a03
1a06040a
0024f700
f9080be5
22f8e112
f70bf105
15080206
eae8deed
0b0ff8e2
04f7000d
040afedc
e8f6f5f8
f91406f3
0cdfed00
e8fdf708
0cddf8f1
f9f5def6
e5faf0df
0ff3f2f5
0200fefe
010400f5
ff080000
e7f39af1
f9fff0d5
eecad8f5
d7e3bee1
ebdbe7ce
dafaebdb
1be5ebfa
05160023
0df80809
e80800ec
11f9060b
01eef103
0bfbea06
f0ff0703
faeef607
1cfff40e
0004fffd
f7fd09f2
07fd130b
0afbff21
09fc05f5
0804e904
040904f7
ef0b0501
0ff70000
1f0a0546
0c0b05f6
08fbfdf5
33ff1525
f92dfb16
f9ff2e0b
06f9ef15
f2f6fd00
f0161719
08fdf8ef
f4eafdf8
e8fdecf6
050005e7
eafcf8f7
0af6d506
060702e2
ed1916f8
f50002fd
06f809f1
f5f6ee0f
0a1d1921
03111415
faf9f40e
09fce2f7
13fb16f8
f5fbd6f9
f7e4e4e4
f8fb02d8
0a0b0708
000e09fb
08030df6
00e61112
ff00fdf3
f51001fc
f7e405f9
f4f7f0fd
0af702ea
f5f9f4ff
fafff5e3
f2f6f607
1b252709
17152626
19ff01ff
f72a0efa
efed0afa
0005fd01
fef3f505
18fd0914
e9fa0c1b
e4e5f6f9
0ef1de01
1a000d03
1bf60f0f
04f806ee
fced0c31
f5f508fc
0cf6ff00
0e060a07
efcae714
f8e6bbde
1300fecb
fae6ecf8
00f1e3dc
d3f70deb
e0cae5ea
0e00351b
1a150c09
fe340023
0cf31b01
f7fe0d17
0e0d0304
fcfaf1fc
e4fc00e1
13def7fe
02071503
f2f7fb08
f90000fb
f111f5fc
121a18fb
1d091d13
ef002d08
e5eaebb4
e0c3e3da
0f0d1d13
e2e70e10
f919fdf7
00f3f1fa
ce00f9f5
d4cdf5da
f9e4ef07
f5fd0025
f2e9fef8
0efc1df7
07f3051b
ed3101f2
f5002efb
2fef000d
3547050e
14051305
1e13f122
f0e9000a
02051405
0310f3f9
0516fef0
10061b06
e8db0e2e
00d4def9
040511fd
0c01161a
fb010505
fe0d0004
0d0af900
0e1301f8
fdff0407
0efff3f0
f9f5f407
f0fff0f6
3013030b
ff04fd0a
1efd1d13
f301f9f6
ea00f008
08fa4b13
5c0b0036
f80ef6fd
fdf8f8e8
f601f5de
0c0cfef8
f2000fec
eefa0a15
edb2e9ee
0ffbe407
00ff042f
f0f1f9e2
f6f9faf8
fc00fff1
fb02f6fd
f9001903
e9fdf10b
08e504fc
18205224
18fa2040
f900f910
fef9f7f3
eeefedee
e3edf3ec
02fffe00
e8fc0b12
04f4e00c
1101f5eb
e9f4160b
fde9fd0e
0ffce607
f81aef04
f9fc04fd
0df5ffef
f00501ed
e9c3dbf5
ebf3daf9
e2f9edda
fdf1fceb
e80b0506
1ffdfe0c
0e020b02
02f80116
1910ff07
02e5f3ff
05f0e6f0
1005f500
01000001
05f7fcf8
400efc0d
fa400707
f81209ee
fdf92214
f809f0fc
fb1503f5
57190901
0a421f01
fe001313
0d04f500
0bed0006
00f702f0
0bf6fa09
17fbf7ed
f9fcf2fd
0403f60d
150b0716
dbf807f1
0af305f3
fff8f408
0400fefb
0906f6fb
e6e80605
ecf0e1fc
ace504f3
f4dde3eb
01020000
dcf70dd7
000d0901
0ff0edf1
2c2a031a
021b2a15
f3f20508
0200f7eb
0a1b0803
fe0ffafe
fdfe0519
0600f5e9
03ff1f00
f603050e
f91002fc
fd0efc00
c403f903
03e10016
da0af50a
de0019f1
eced0bf3
fdf2a2f7
effd02dc
fefaff03
fe04def4
1b03fef9
121e1e0d
fb031119
daf60dd7
f7effef7
04e40b16
f104d804
04050aef
08070211
35f507fb
e52ffaf0
fb04fc04
22030e0c
fe020514
0d0e14f7
0d12101a
030817ef
090e2e25
fa011440
0ff00ffb
0010f307
f9f403f9
01e0ee01
08051100
0700171e
073206f7
0b003212
26120710
072704fd
140f0e0e
ef02e6e7
f508eef3
10022519
effd0818
021103f6
050e1800
3aec111f
0323010f
f8f5050f
d5e7eada
0df707e8
0a05ecf9
fa0707ef
09000e00
fd1a000e
071304f1
f0f9ee22
05f709f9
ecf7090f
13f8fe0a
f41b1025
06fc08e1
050600f2
080c0301
29ff07f0
021b0511
00fd3003
f1030c00
04edfe0d
f0060706
11f9f9e9
09f101fd
0702f701
f3000e00
f9eeff0e
fefceff5
0dfbfcd8
06050002
e80216fb
f2fbf4ed
f4ed00db
05f4f9f8
0e1f1101
f9eee50f
0ff1f2eb
f0f90306
ff0c01ec
11eeecf4
00ee090d
fef5f813
0afefbf8
1011f602
17d70213
0329f506
f100030d
f2f401f4
0ffbfc07
06080e09
0400fa0c
fe0cf900
cc000707
182514f9
06fefefa
0e12f3df
06e9f419
f7f90c00
ed03effb
2d3406f4
fcbb82d7
05fbdfeb
e0e401fc
00fae802
e1f40304
e3e3e3fd
0d0007fe
ea0003f4
04e6ebfc
f6e2f902
ff06f5ee
091a040c
e7fa0b00
0000fef2
ed1400e8
01e9040c
f8fbebfc
0701010c
1e080d15
fb020b16
0a1c16f2
fffbec00
13fbe6f8
f8eef907
fb090005
fff9e4e4
f4f3faf6
0cfbf7f4
f6f70114
10100bf7
fd050b10
0efd000b
000af6fb
f001fafa
f600f2db
f91005fe
07f6ddf2
1812f5f4
fdf2ea08
0000060e
ef02f905
04ff02f2
030af701
fc070e02
19ffe109
f8f2e8e9
c4fa03d6
0e0a2600
f7fff4f8
fb04f9f8
0a090710
0f010100
10000903
fffff905
0c11f214
060305ff
ffe301f7
f8fbf900
dff5fe03
141e07ff
02f6c8ef
0e0709fb
ece0ec0e
0ee400f6
f2260a05
fe05e4f3
0e00170b
e0f50c04
fd0e00f8
26060707
f5001910
090c09fe
0f0bf616
0aec0cf5
00f703f5
14fb0fff
bfe1ea08
ffe9f10e
f3211107
f5e600ea
24120a00
08fed3f8
fbf80cf1
ec01f001
0efb130d
fc0a060a
0400fe08
1206f5fd
f602020a
12000006
eddae2d9
f9ebfd09
fc1a00df
ef060000
f0e1f2ff
eadce5e8
0907ff1c
040efa00
f60bf503
f60e140a
0d08e301
e3e3f21d
00fc1811
0ef0061e
e50effec
fd020800
f8f7fa0e
050f06ef
f9f9f505
120ef6e9
0ccfee0d
030cf10b
f5050206
090817f7
10fdf7ff
0bf90cfc
09120d02
f50ff812
0800fee4
13150cfc
f5041706
f30b0c03
fbe7f4f5
1403ea0d
e8161b10
f8f1f906
effdf0ff
fd01fef7
f801060f
f20c0a14
2d1deeac
08ed0031
f7f4ecfb
f1fafff7
f6f2f603
000117f8
14fa0311
e4e30703
fd00f708
e3f509f5
001111fc
f10b1a00
eb0d12e1
101a0b0a
0bd8dbfd
e6f700f6
090e0300
0b020c01
fbfe1eff
001201ff
f90a03f1
0a0fe6f6
0cee0802
0c14fa07
fa1f13e6
0ee403e1
f3f0e90c
110efbf9
06edfdf7
02fef1fd
f90efef7
fd06f409
fad311e2
f90a00f2
f7f0faf6
0600f107
f807070c
02060010
d9e7d9e8
1effdee5
17c1d5fe
08cfdd1d
faffffec
18f804ef
fcf5f4fa
1d07fc03
fffc05fd
fffbd5fd
f2f2ea01
fafb01f9
030b2e08
19060007
e6c8f10b
17000003
f0bcf6fc
e8faefde
f10e1b10
fcf40402
150a11f3
fafc0813
03fbefe2
0408f6f2
0e05fcf8
01fd0712
fae8f406
000ce6f7
02f0fb1f
e5d1e40c
f7eff8f0
0411f8fd
fbeafcff
07f30e02
03fc120e
f8fafc07
e7fcf8fb
0301ede6
12e0fc1c
0505ecfd
f0ff1101
fa14fffb
fefaf000
f9f4120d
f4f9fefd
f900fe15
0003f6f8
0522090a
fcf8e4f9
f3ff0808
f321ebf2
09f707f1
e7012315
06000613
f204dff2
fdfb0ff0
03f202fe
0c0b0715
c7e60afd
32fcf3f7
070f02ff
2116eaf4
01ff0111
060a170f
fc04fd0e
120c0d02
09fdeef9
0706fe01
181a1204
09120f0e
0f091406
101bfe04
0900120e
1113121a
00fef71e
fff9f402
18070000
09fa0b19
000cf40d
fc060cfa
f5e8fdfe
04f4f9fe
09070103
00080309
0cff020f
040703f9
fc0703fd
fe04fa01
f7fafbdb
060bff0c
05f70b0d
0a0ff006
f3dafafd
fcf6ecfd
1200fbf2
ecfef4fd
ff0811f9
040001ff
f70df800
0a02f40c
fa0500ec
fe05ff00
01000409
01141118
03ff01fb
0805f804
0e08070f
fdf4f601
ff080900
fcf90801
f6fe0404
04f6fa00
d9f7f615
feecfbf8
0808fe01
070e07fc
0af90a17
04fd1101
f7040209
020700ff
0506f7fe
00fd01f3
08fd0501
0a160107
03f7fe10
fb0dfb02
f4fa03f4
13f3ff07
ff03080e
0203faf4
f709f80b
08f21009
fb0b040f
f10304f1
1bfa150f
0ef70819
0c110009
0c060d06
150c100c
ecf6110e
100dfefe
0f0f0708
eb030ce9
08fb0afb
ef0cf1ff
e8f7fde3
0b1907fd
0e0a0f06
f1ec06fe
02eaf2ea
0cfae2f2
de01fe07
f8e9fc00
01ffeeee
03050003
0ddf0101
090af800
0b0b0702
090c0809
f5140504
f4ec0df6
16140012
f701f0fd
f2f803f6
10000a07
050009fa
f6fdfd0e
f9ed0309
10f7fd03
f80d0f14
0bed0300
02f60f00
0603fe05
0d160502
010b1202
ff050509
01e80303
0007fbff
04fe0c0b
0708f70c
0608e60a
00ff08fb
0eee0405
fe01e700
e6f611f5
02ff0003
f406f802
fbfdf6e4
fa151504
fef8f0ff
061100f6
0b040a14
06080712
020904f2
f6f7fd01
f6000810
f8f7faf3
00fdfbf8
0504f809
091313fc
f1010321
fdfafe06
ee180206
01e80a0e
0912f11a
f7000018
fafdf6fc
0d160e09
0bf70e08
fcf80405
01fced00
e7fa00e4
01e5f80b
fafffaf9
f0fe03de
ffebfb03
03f7f407
0100fbf1
00f200fc
01ffe5fb
fafe13f4
0817041a
03101808
fc0cfaf8
04001303
f7fcec00
f70ef3ed
120003fc
0803f313
05f903ec
0e11f607
fa0d0d0d
f3f7f9f4
03f2f4f3
09000410
080d0612
0b0e1404
08060f07
0800f6fd
fdf80916
f60f0014
02f4eeec
0f09f101
02160308
fe0e0cfc
01f70407
0503fffc
e5e404f4
fb00f4f4
05050000
f910ed03
09060404
f7fafbfb
fe00ff00
ff0c06f1
07070701
060000fd
02f8fd0c
fa050403
f0fe00ef
0603f3ff
fc0500fc
fffcfef6
091f120e
14002902
02f90e21
1209fc01
040a05fd
ffff0400
0009faf5
f8fbeff9
eaf2f9ee
06f9f1f6
0004e5f6
0d0307f7
04120104
0bf30d05
cff7f7e0
02f70ef0
0f0c0013
f9fb01f0
16090305
1503f310
fdf909ef
ff140113
00fa07fd
0702021a
f50101fd
f9f5f9e8
f5e7f8fe
110afaf7
0c04150e
ff120f15
0bfe130b
fa07f910
e1fefa01
050706fc
fa050604
000411e8
0a1c0f09
fbfc0d06
1d08fbf5
18150116
170b1b01
fe10ff0e
0608fe08
0a1f0d10
1e031114
130e0113
070e0a03
020a0a13
04fa0408
01030904
150501ff
0805080f
00010908
fcff02ee
f4fcf6f8
f6fef9ed
f4010002
0ceaf810
0501ebe7
e30000f6
06f300f4
00f20707
fb03fff8
fa050b08
04080610
f7060013
fbf8fd03
030b06fd
e4ff0d08
0e000dfd
ff02f00a
110807f1
f5ebf712
0f01f1fe
fb0a01f9
13e607fc
fd02ed02
01fd050d
f9e5ee06
05020000
1013fb06
edd9ff14
11f9eafb
03fafff4
f1fb04fe
06fafb09
f0fd03f9
110107fb
01fa00f4
0bfcfc06
01fbed07
f9f8e7e5
f3f2f0fe
efeff3f8
f5f3f403
02fff7f1
f1f9f2f2
0200fb14
faf703f6
00140600
0b11f905
1b10111c
fdf1ff0d
f6f3fdf5
ea0106f5
fef70406
0301090f
f712fbf4
fcefeff8
f2eedef2
0f07f7f8
09090a13
fb0a0705
0bf9f506
fb07ffeb
0bece5fc
f902fc14
0c0a06f3
fa06f805
f0e502fc
01efeff9
080808ff
f70d0807
131b0600
170af0fc
e1010915
04090904
f010fffd
f8030807
f5f1f5f2
f7f7ff09
08060414
09fbfc01
f7fc00ee
f2fc0900
0b0f0a13
01fc0efe
02f4ff07
00ee0603
04ff0000
1721ff15
03fa1108
f6080705
ecf802cc
fff50bee
13f5e8f9
f901fb04
fb00fa06
f500f5f8
fef3fd03
f9fb06e9
fbf0fffb
fb0bfff9
eff8f604
ed03fdec
0a0703ff
0ef90016
190802f3
e8fc0901
f60afbf5
01080e07
f805fb12
e5edf405
f308ff01
d6f50000
edc9f2e7
0cf2effb
030507f6
0cfdfa07
ebfdfb00
d3e3fafb
f3f5f5f2
0fececfa
0d120a00
080f0e0f
0519020a
f7030016
f2ece9f9
23071320
fc050d0c
eee2f5f2
e5ebfbec
0a04f101
001103ff
17fb00fe
12111009
0004fb04
02111505
f70913f2
fee6f608
f107e3f1
14fdf1ec
080b0107
09eefdfa
c5f80b09
10fd10f9
02000505
080b1103
01f5f209
00fdfdf9
05ff05f6
fb0e0400
0df5f4fe
0e0d0424
0600fbfd
080f0804
fd031603
010307ff
ecfdf5fb
1a0bf5f1
f9120b08
fcf30a02
e9f50b03
fbf4fe07
03f8f604
fcf800f3
002905ed
04250017
f3f200e8
07edf606
0e14ff00
08042811
0bf70301
fdfef202
160001f3
0e11faf9
0c11f6ff
f4f40604
f5f5f5e9
f601050b
fc000201
08eff90a
edfffeeb
fdf8f5e6
01f3fffd
f40d02fe
f4fc0b0b
f1fe02f6
02f3160d
e3ec0700
07fe11f1
000013f1
0200070a
02011a0f
01fae50b
f2fdfce8
01fb00f9
fd090d04
f0040c08
011404fa
1103020e
01011c18
f5f5ed23
120cfbfb
0306111a
f5fcf602
fb00f800
fdfb0508
060400f9
eaebebef
f1fcf0e3
f60ef4f7
fcf7eee3
d7ecfc07
0deefdf2
0a0dfdfe
040806fe
090a0a05
050601f3
ff0c1f0f
0dfbf811
09fbfe02
e0eeff06
f9f60deb
00fa0700
da07f909
06f60800
0c0e0009
0001fffd
f606fa0a
02120f1e
fd001000
00f10600
faf8fa07
d4ed0d02
09e6fdfc
eb0a04fc
f4f301f8
f7f9ec01
0405f5f5
0a0de1f4
0310f108
02f306fc
01060007
fe00fa10
f0f70a00
1603fd04
f6f90707
f7141900
fd070fdd
e8ec0903
110a0702
ecfd060c
040200fa
e500f5ee
fef40e10
10101400
0004f4ec
02edf9f1
faf10000
00f7f4f0
f2ecfe10
030dfb03
06fffaf4
fffc0c26
070500fd
0600e5f7
1213f7f9
fef0ff0c
f202e7fd
d9f3eef6
fce900ff
f2fe1cf9
040afae6
04030bfb
03f2e6ee
030103fa
09f5ec00
12f0f9fc
020b170f
0a06f2f9
03021800
f908f9f7
f4fdedfb
010006f9
080d030d
fa041401
fdf4eb02
fb04f7f6
f50004f3
0b02fc0a
0213150a
ff02f410
e802fd0d
e7f103ed
edf8faf0
fefd0103
ebfc040a
fbe6f407
000e0503
f2f406f8
f9f0ec08
09fffaff
f803fff5
fefd07fc
07fd1e07
0afbf6fa
f2fd01f2
0dfb0004
f60a09fe
f2f4f000
0204def9
fbf0f5ea
f8f0fbf9
0e02f705
000f181f
eaf31303
1509fe0f
01030bfc
04fefcfb
ff00fff8
fc00f0f7
05000909
0efbedff
ecf20afb
05e60400
0ffc07fd
28070526
f9e4ff13
1d09f112
01ea0a1c
0b0608fd
1d09f9ff
0007f3f9
04e906fa
0501e3fc
030a09ff
f1eff300
0cfd0113
fcfaf404
efd6eb0a
02f6dd0d
faeff9f5
00ed03fe
0febdae3
1e0e1a21
fefef81e
fa07ff02
d7edf7f3
f0ecf6f7
17170710
f3161a5f
051f0dfb
f9e91ce2
1cd2242e
1c3a2d10
fc00d9fa
d71af4f1
01fb1903
120bf018
fb122433
04e8090e
f4fa10fc
e906fe00
0e422002
0b040913
e906fa27
e4f5fefb
fdedf326
0b0e0421
0413ff17
000bdff6
f5f701ec
e9ef04fb
f7f3fc02
c2f5fdde
e1e1f7ef
fdfa11f6
08f1042c
e510ecf9
f40327f6
ee01f9f7
0500f508
04f7e7df
0a1b09ef
08f50b17
f2f4e5f0
f8f2f8e1
0df202f8
fa141ced
05f51df7
060e0607
02190d01
2932fdf7
0ff51a13
17f2e900
0e0ef91c
e4e60502
f9fa1008
fe0e0b00
eae6e800
e10feae7
ebee05e6
10020409
04fcf9f9
d0e51ee1
e5fcedfa
0009e4f8
ebef06ef
0deb0f0a
0208fc04
18dc03e4
eafff1ec
02fd09f9
ccec0104
f8f7fcf0
ff03041a
f7fa06dc
fafbebff
0908f00d
f6f6f534
190b1309
020f1917
0304f7f7
e6f921eb
0205faf1
10010d07
2edbeefa
e00de5f4
e8f525e8
02fef4f0
fafdfaf6
160bed02
060e0b00
0c261108
07fa080a
03d015fa
08ede304
caff00f5
0d141ee7
01060e0c
f8fd0002
0901f7e3
0d11fd0f
fe0001ea
296d3109
f2251c29
0ff50221
f7db0a3e
2cfef9e5
0e100011
effd0ceb
01f5e800
ff05f6f7
f8fbfffc
16131d03
0cf30b21
0c210d26
e8010e14
1000fc01
210e00ff
0e0a170e
fbf80920
19f4e0fa
de00f9dd
000507f1
ebe5effb
0004eaf6
000a0603
16001605
fdf3e202
fc0914fb
02b4fb1d
0e00f7fc
0d020e13
f9eaf6f0
e20005ee
f3cce50a
f1fee3e8
ff06e6d9
05f60c0f
03e60d04
fce70903
f00aee0c
0e00070f
0400050a
ec00f101
0ff8f4f6
15f8f711
f8f00c01
0f1305fe
0302fff1
d62b10d6
1809183d
f50c070c
00e7f2d5
01eff003
f1fbc0e5
15f8f1b9
f7e01109
19f2f410
e4f3170d
052f11d7
e607f903
05fdf505
010003f9
e3cbe5e5
f8f6fbfc
d8ffe706
f0eff2ea
e1f5d7f3
ed07f9de
e1f5fcf9
1efce711
ef0907ed
040918fc
07fb0e02
0b22f6fe
f6002402
e9e7edef
0a261609
eb100afc
1103f1f5
01f606ff
1713f0f3
17fefc11
28f91f0d
1d09e201
e82230f9
fc0510de
02f9f503
faff0300
0829f40e
01fc2123
18f40806
08f7f001
ce08fee8
caeaed02
d2d6f1fa
fe06f006
ecfffbe6
fb1d10ee
fcfade09
02f308ff
0727e8ea
e31c1bd1
f2edfbf0
00f30b05
f2f4f1f5
060afada
16261f02
f5fe0cf1
06da0911
00ad23fd
fff2d9cc
d0e8f7e5
f8eff416
f8151601
f4f801e3
11dff10f
0002f3f9
d3ed000a
08fa02e9
ede5f7ed
b20405fe
f5edf9f0
2600f216
08280407
ebd511f2
1af6d810
11091805
11fa0206
090eef03
08f0fefb
05fe0408
00fdffe7
e7f7f819
00dcfbf6
fbf70002
1d020d08
13f607fb
ef05ebff
34f8eddc
f00003fc
0000100c
dc0407fc
f9eb00ef
0d0f1009
f41c0bf7
f2e610ec
f302e6f3
edf9e9ef
f706ef0e
db021bfb
0a05fcf2
06f3e10b
0a1039f1
f4f0ff0f
f80ff3ea
ed001801
5fcdfddc
041505f2
0002faec
10fdf5f5
e901f9ec
f8f5f106
120af7ff
0506fc03
07051509
05fe1743
f40bf0da
f200e7e7
0218e5cc
05120e0d
0517f91b
e9ef02f9
f9f0eb00
fc0aedf1
e5f31004
eff5f2f1
ff00f6fb
efef080a
fdfc000c
f0fe1300
ebe3f903
0f0912f8
250c0819
0104112d
060bf70b
09071600
e2fdf300
e7ece0ea
f501fc16
e5eff4ec
ebeeeffa
0cf4ecfd
f5f6f702
f6f5f909
06e9efe8
f711050a
10072116
0bf1ea01
1c100c25
ff08031a
0a1bf210
04f4fafb
fff7fefa
fbe3eada
c0e6f101
e8c4d5db
00fef0fc
3a121212
ece7f918
f9ecd6ef
eeebf4f1
02f2fd0a
110b04f3
f2010e1b
030300fc
ff0cf2ed
edeb01f2
01fdf5f5
ef1e2afc
1213f9f2
0cf60207
fdede3e7
1204f604
011a1807
dcebd9e3
efd8dedc
071204da
eeeee0f0
fb10e3d0
04ee0703
f305f3fa
05fdfefa
0a0c02fb
1c010213
040c1207
f7fcf80d
f9f5fbed
030002dc
f6fffbfd
ff00f6f9
e9f403e5
00f9fefc
030904fa
13000a08
0004fd08
fcfaffe3
edf1f1f0
05fd01fb
fc03150d
fafffbed
01f205ff
02fe0002
0400fe06
030806f2
0f02f2ff
0c15f9f9
190b181c
06181500
02fdecff
f6f403de
040d1c17
f2f70f11
f4fffc08
f4f1e3fb
0aefedf1
f5f3fafb
ece8deda
0302fef2
14160201
00010801
180b0901
07090504
fa11ff08
0e100101
0806fe16
f103080c
e00000ed
efdffbf9
f6fee5ff
f2e900fd
0008f8f8
ff19000e
01f20a08
1a1d0401
f5ffff02
fcddf806
eae7f3e5
fffe0e04
fbedf6fc
f90109f0
06020afc
f5fcfa0a
f6080600
0c02040c
e1fcedf9
00eee9e9
210a0a07
2c2b0f25
0000fd1a
000e0005
ecf1112c
ec0ef7ef
0a0005ea
f8f402fd
eef2f7f4
13010814
0006ffff
effaf4f1
15f0e707
e7eaebed
fefef9f3
150700fe
f9ff0114
04fc0d0c
13f90500
1f1206f6
fc140c0b
0d091b12
050dfb05
19ff1711
0d200f0e
fd1bfff5
04111112
3012211d
1211081e
0d1c051e
05151ffb
e2000a1f
faddf0f4
00fafbf3
f702f9ff
eafcf2f3
0309faff
12fe0409
f4e2fd06
f9e2eaeb
0e11f6e2
fe0d140c
010104fe
ebf50cf0
f2e4f809
010801f8
fc0f0d03
0bfcf303
f002f706
eefcfa03
e7daf9e9
07eae3f2
f6f3f700
fef7f7fa
03fd000a
0e1ffc00
03f50707
0000f812
f5fa0002
0efe080a
06090409
fcfe160b
0412010a
e6e9ebf2
f2ebf6da
f4f4edeb
f4eae9e0
f703feee
06f007ff
0904f50f
0802f90f
faea0300
fefc030c
f404fafc
0c0d08eb
eeecf101
e7f3ffe9
f2eaf1f9
f9faf014
05f808fe
0b0af501
0003f5f6
1f0f18fd
01fa0218
0ef4fc0b
0806f916
1801fe19
01000907
f5e3f902
eef4efe1
f406f6f1
0d07ffe7
ef0bff0f
fbfef6fc
1205140a
131f1002
02f0f0ed
2d19fb03
05231104
fd0003f7
fd150912
fd05140e
09f8f71a
f800eef9
07f41b08
e70a0309
c7e4e8ee
f0eafee8
fe011c09
d3e6ed09
f2f0f9dc
fefff402
e2040806
00ebfb00
e5f7f3ef
0a0f00f8
030d14f7
f6fafe00
ebfdfd0e
d5dceaf4
fffaeeec
01f0f8ea
021507fa
f600030f
f6ed07f3
0cf8f0f8
f6fefdf9
0b110907
04fbfc12
fcf5faf1
fd0cfffa
f40a1101
ee03230f
fce6f806
ff04f3ea
081a170c
1019090a
ff12fc02
171d1100
011616fd
090b2303
fe07101d
01f6f7f4
00f70004
01fef40a
f8fcfff3
fe1207f3
0200fa04
f8fa06fa
f0dde6f8
01fff9fc
030308fe
071c07fa
f301fc06
0012f0e4
fb02fdf4
f900faff
f3e3fef6
f1e0ea02
0900fef7
f20b08e5
fbfbfcf8
fbfbf6f7
f7f7fffc
02fa0efd
00081e16
0c00fdf7
00241207
12050d01
fdfa140d
0108f405
fbf204fc
eefffaf0
fd1df70e
fe091202
f2f2fefb
203e24f8
e6f9f7ef
02e606f9
f700e6f6
f514010e
ed010013
12141efa
fbf2050e
1818f5ef
03f9fb01
ec05f6fe
0d0cfdf3
131718fd
fef1e8fe
0b1e0c0d
06140502
04f21e07
f70b0417
f6101107
f1050efb
f40200ff
04fb00f1
f3fef9f4
fffe00f9
092214f5
03ede604
0c11feed
f8e5f712
f90b04ff
eef301f5
fb02f7fa
f9050706
00f80bf4
e6eef6f9
1af20005
fcf5111b
fc0bf9f6
e604fef7
effaf6ec
0a0a15fa
f1010002
10e6fcea
250819e7
e6e4dce3
271cdaf1
1110fa20
09ebf0fe
f3f90f09
ff01e911
f6051115
0414180c
100c0d14
fe06f200
090d09e7
fef5000e
f4060805
eef4f9f8
00ecf6fc
1808f710
e3f5f1f6
faf9f4e7
1600f605
f7f50502
141213fc
030cfa00
15fa0613
f1f302fe
0d03fc05
f102dde9
06f9f203
03071000
f0de0611
fffcfbf8
0e00050a
0a0b0d25
0d041509
02fef904
1001040b
05261303
f00bff07
191af6f5
07f9ec12
f302f8f6
f604f9f7
0c1315f5
0d07f7fb
180e0d16
fbef1806
030b00f7
0100ee00
f107f109
f6fd0903
e2f30301
fbf3fcf7
0d141f16
07070901
0af800f8
0009070f
0814111a
ff0313fb
f4fff101
07fd1116
f2dff5f7
02f4f3f5
1a0a0512
fd010210
08f90b07
00fcfcf3
e8e9ff0d
11f4f4fe
000a010f
fb0a00e9
11e4eaea
0b00f8e7
edf70301
fd120802
f6030001
090e0900
19fdeef5
05030613
08020608
09ff0010
fc0bf0f7
0b192004
e402f0e8
0108f5f3
f2ebfc01
07f504f7
fff80722
f2e6ef0b
0a080f04
f6f20b08
0a0cfdfa
edf8eeed
ffeaf5db
fffef8f9
f3020bfc
09fe01ed
03fefd00
f3eee8e6
0506f1fb
f9fffb08
ff090008
0412f5f2
fcedf413
fcee01f8
faffeef0
040102f3
02f9fe03
f2f50605
19060406
f5f3f800
03fae0e3
ecf3fc11
050206f7
ed00fcfb
000a08fe
01eee1f6
f3eaf7fa
f2f92bfd
df11212c
010dffe8
120d12fb
ec02070e
fdfa0008
030c060a
fbf8fd0a
010cfa02
01f8fa0c
04060404
f7f9090a
fd00edf7
e903f7fb
0704f8fd
06070ffd
0001eafb
fc07ff00
071104f2
0006fe08
ed0dfdf2
ebecf3fe
11f4fbf9
01030b09
00fe0200
0310f309
fcf6f9ec
0a0010f3
e7f907fc
e8f8e7f7
07fc00f7
050b0cf5
fd0c0400
0e0a150b
f2fcfef5
dff8f1f0
dee5f1eb
f302f415
f0f9f9e7
e4f005f6
f5e6f100
eff001fd
fffbfc06
1201f713
1007f6fd
15100007
050af2f2
0c02fbf4
fffcfef9
0a03f7fb
0b000010
13f7070a
14eadae8
142e05fe
0f0b0413
021ffde9
f5030105
01f7faf4
03fdecf0
09f90912
fcf4e9ff
f7f8e6f0
160dfa0b
fbfdfc08
09e900fa
2b090a08
08fcf80f
15fee7f2
07200a18
05eded05
000f0902
05fafb0d
0e0c01f2
03fd0300
0d1bf2ec
13192708
f90e140e
0e14f5e4
f7fbf809
f6faf1f4
170ff4ff
01f1e900
f50507fd
f5f202f7
fdf805fa
130c0003
f8fb0a13
faf609f4
fe000612
0cf5faf5
ece5e909
0e0100f8
f4fa09fe
f7faf8f6
0ffdf800
000203fe
fcfe1411
f8fef9ff
0318fae9
0108f218
ff00f8e9
e3f9feef
110e1cec
040d090f
f8f51204
f70f17fa
f4f0eff1
f9f3f2f4
f8f1fef7
0b021009
fe030907
001516f4
ee161a0b
000eeded
080a110b
05f0f3fa
ff13fafc
01ed04ef
0304fa02
f0f9f9ed
01f801fd
0b04ff00
0512090d
03130a07
f4fb0cfc
14fe040d
00fff803
070a0a06
fe0a0506
09f2f000
0005f7f4
0012f8ec
e80c23e8
0bf80b12
f515f5f5
f2eb07f4
fefcf0fb
04eaf7f0
17f60509
01070008
05fa0802
021bf406
f50c18ea
02f21b04
0a000809
fb12f6f0
f6071606
f1f802f7
0ce8f30d
f40f1a06
fde30a0e
fd0dff0a
05f00d0c
0800111d
f90bf400
f4f618f5
f30b0eeb
1005f614
09030511
0902fe06
f9f4f1fd
03050507
190e0003
001f00f4
05000006
040beaf3
120704fc
ec00ffee
f903fef8
030c10fa
ed170001
f6cef8ff
1df9d80e
f7f4f7e8
06f5f400
f50d00f8
11fc100b
0b0b0806
0203f60c
02fdf9fe
0af60706
fefc0504
cbf3f7f2
fedefb00
1305fc05
04fd0915
0d070406
02f71b1a
06f6f314
000f00fd
ff010aef
02050c14
f7f8f30d
fd0301f6
f7eef5fb
03fefbf7
0bfef8f7
36ffe811
fffa01e4
0bf6f600
090200ee
0508fe0d
040e18fc
f616fdd7
f70e0709
0e08fbf6
01140500
03eafa00
fa00db09
f700eee0
f9f50808
0405fd02
0cf80b18
0dfaf20d
faf6f301
01faf901
18e9eef6
f729e4f0
fe0814fa
f90e0500
08010603
eb0df9ee
eafc0af0
0509f502
1b0cf908
08f00000
0303001d
00f80308
f6f90600
fffa0504
f302f7ea
f8dffdf9
0902f204
fc0002f6
e9ebfef3
f7f5f6ec
eef908ed
e7f918eb
27edf108
0d14f313
e6241bf0
06011b14
11000f0b
00000321
11efed08
0c04f9f8
ecff00fb
f900f9fd
fefbf004
fb0707f4
edfcf2f2
f2e803e7
f2f9f225
11f00411
d500e301
00fa04ee
f7f9f8ed
05f20308
020503ff
02eff2f9
f600f1ee
e1c80405
1ddad60b
1101ece5
050ffe05
030206fb
0f001b18
0b04120b
e802e8f8
ecff06e3
00fafb03
0900fd0d
0201fe01
e80709e8
0cf81b01
fc1ff502
e3f704ed
f2100300
14021900
e0e5f715
0bf6f008
fdf5e6f2
00fb0cf9
01f70914
f8fa08f9
0af41203
f9010000
130a0004
fafbfb03
15fdfdfc
f90e00e8
f1ff02e6
0bf90306
060d03f7
05fffd08
0ae80d04
1001e416
000207f5
00f803ff
1a1afb0a
fe12f015
2102fbf9
ee04fffe
010dfbfd
07f90712
f60105f5
1312fff4
fe0300fd
04fcf604
060000fb
f5f800f7
fb01efe4
e6f1f5f8
07ec06f6
f9f4eb03
01fc00f0
1407f008
fb0f0008
fafc010e
02fff7fd
0b05f811
0a0cfe01
090b090c
110ced14
f0f30df8
fbf8f5f4
0e1cfdeb
eb0c0bed
e6ea0913
0cfb0df9
00ee0205
0d02ec04
081104f1
08f2f700
eb1ce8f7
07f21aed
0402fb02
06fb150a
f1e902ee
00f3ff01
e80e07fe
eeed1906
05e8f5f6
f50805fd
e4e30cf6
fcebeefd
0702df09
0100fae6
f9eb0010
fdf8f013
0f0000f9
f2e8f504
05f8f60a
f309f7f6
fdfa0af7
ededf009
ebfa02f9
f7f4f008
03eceffd
f404f005
fb09fcee
fbfb10fd
08f7fdfd
02eff80a
fb10f5f0
0bf30815
0305f107
fb04e606
13f803f6
00f5f414
f6ff00fc
010f0212
f9fafc00
0efe0908
e10209ed
01ed0b00
09f1ea08
fc0de5f3
fde60ffa
eb0d0a11
fde80419
1914ed06
f108fcfc
f309fadf
0a03effd
fff500ff
fff4f610
f0de0501
0ff5ef04
ee05eeec
0ee6f9f8
050ff5fe
120802f4
f31c0100
01f6ee0e
fe150007
f40e0b01
01fbf405
fc0ff1f8
f0eeffee
fbfaff09
fd0600fd
08ff0f04
fd06e904
0006fcff
01030000
fd03f902
0ff9fe0a
0dfbf606
ff0f0004
0f0106fe
f6030c0b
19ee0414
0e14f408
0b00f7df
fd06f5f1
030e0500
e7d80ae8
f701f6e3
ff0604fe
0dfffcf9
02feef0b
040a0cf8
1202f403
fa120bf9
fd060d00
0bfdf40a
fc0709f0
fc0503f6
020704f1
09fdf60c
d6220fe4
0f08f929
0803fafa
15f60401
0b01f1fa
0c0a11f9
f10406f0
f9f50503
200a150e
d713f910
0007faf5
0300fe00
0af7fafd
000beafd
fdf42802
f50008fc
00fbfafe
0001fbfc
060c0307
fdfa08f3
02fcf40f
f9ea080b
fbf1fef4
f303fdf9
fd03f4ec
f9110501
0307ff00
eff800f0
12dd0e06
0000cc02
06f805d7
0a00f80a
0dfdf5f6
fdff07fd
11eb120a
0101eb09
f40705f0
fb0bf710
f9060efa
0eeef90e
06f2f30b
f8fb0dfe
06f60117
f711ff03
080102ff
10000303
fb0409ff
07fdfe11
fa0700fa
f2ff0fee
00ecfeff
f7fafcf9
0705f500
faf20cf3
22dcf202
0af4efe7
08f7f1fb
0303f9fa
f9fdf5ff
08010001
ee0308f1
07fc0a0c
000cfe05
f7080ceb
01090100
040702fd
020ffc02
07fefef1
fff9fb00
0cf4ed13
e127eef5
04020004
fafa0607
0301fcf6
1b120110
02f10ffb
08ff030a
fb0501ff
f8f80d00
08f2f604
f4f404f6
0dfaf805
fef6f5ff
fef9eb02
0204fdfb
10000310
040ff9fc
f40007f8
fdff010c
f70efffe
fef809fb
131afd0a
0b040500
d617fa08
07f7061a
f208f71c
17faf308
0403f5f4
05e40407
fef5e50b
ec02fd05
f3fffcff
0707f90e
0409f312
03000c04
0103f10a
e8fe00fc
0cfd0603
ff00010e
10f7f5df
fc02fbf4
efef0cf7
0afdfa18
fa10fbf3
08f806fc
02fdfb0c
09070ef8
0ffe070a
0bfe0406
fb12f1ff
fce8f803
f1fafcff
0af8fa00
0200ef02
1200f5f5
ff0eec01
f2000cf3
fa0a1109
04fffafe
17f50106
f90508f3
03eb0e06
0303f407
04fd07fa
02fa09fd
eaf7f9fa
09f300fd
0408ff02
da0c1100
fefd0014
fb0df810
f9fd0105
fb000007
0cf5e809
ff00ebf7
f315f506
eee313f4
ebf5ee12
f9faf6f0
09fdfaf8
fb05fefc
fced0dff
0fee0a03
0c08f20c
03fa0df8
00fb0008
0001fafc
fa00f7fc
e5ff0003
f902f1f2
06090105
08fbff05
0b07f407
0e0202ed
f60400fb
ebfcfe05
1501f521
f81ddff2
0802fafd
07fcff10
e7ff06e9
01e40717
151d0500
f8051001
15f41615
020801f4
0cfd02fb
0307fd04
f9010b05
03ea15f2
0609f708
fb120f06
f2fefb03
c60ef703
01e80207
fa00e4fb
fdfb15fd
09fbfb04
f50a06f7
07f60106
02fafaf9
11ffe708
020dfff6
0805fa08
fb020df8
f80004fb
f6fcf204
fb0104f5
02fb1004
ef4ad4fe
ec0510d0
ef12fc15
fcf40efd
f90beaff
f9080305
fcfefc09
f40904f5
fcff02fd
0800f6ec
02faf8f6
0bf90001
070800fc
fb070908
fbeb1209
081bf008
0200ff11
06ff0109
0bf90b02
030d100b
02fe03fd
fdf6fc05
fc02ecf3
0b0cf310
0f11fdfe
0413fffb
fc03fcfe
fb09f8ef
ffedfbf6
1f04e808
0f08f707
030ffcf4
000309fa
0903fc00
02fe07fe
05120401
090201f3
fa0300ff
ff020312
fc0c00f6
feee1403
f4040afb
10010306
01080f04
0a15e91e
10f200f6
060bfa08
0febfdf3
00fd1101
0600f207
090603f1
0bed0c04
fff003ff
0cfef3fa
08fbfafe
f90a08fb
0312130d
09ed0dfd
f70d0911
fe01f0fc
040506ff
fbfa14f7
0f03f8fe
fdf0f2fa
fefa06f8
e0e50207
fafafbea
06ff04fa
0012000f
faf919ff
f6fef7f1
12fb0708
11080b00
0e060303
05020113
ff0df605
fe051a02
0309fae7
03010916
fd00120b
04fb0204
04fdfcf8
0d0a1002
0e020402
06050600
fe040504
f802fa12
00fcfcfd
0af90418
f4fcf9fe
000b0203
05060910
fefe00fb
fffaf4ff
f712fbf7
0cf9061f
f7fdf900
120d0003
ea000d05
fd12f908
f6ff0afa
0cf3050b
0ffd0304
fb08f51e
ee01ff00
fce600f8
0210fb03
01060505
fee6f607
0500040d
bef902fe
00f5ffed
01050f11
f6ff08ed
f1eaecf6
09fd0408
29010016
01190303
00001601
f605f514
fdfeff06
fefcf104
fef8efd6
f5fa0cee
f8fde3f3
f0f7f201
f50cfcfe
f9fb0af0
deecf705
fcf5f1f4
fff9fdfd
1afdfe13
0613fa08
0a1b0805
020200f5
00fc0503
fa02f209
e2f500f5
fbe2fcee
f907f304
04f5fbf2
fc000400
0a0f1114
1319100f
fbfef10e
03010601
ecf60502
f7f5f9f4
0afaf4fb
f1fc0a16
0a160e01
02fc0afe
f100ff05
f6f5f1fd
fcf402fc
07fa13f4
06fffa0e
ee0aec01
03f4f901
01fe07fb
03fc0403
eeff02ff
f6fc0c02
f903070b
09051508
fcfa0000
fef7eff0
f5fd00ed
00ee0204
fefaee06
09ff0409
fe0d06ff
faeae3f1
e3f7f5e8
f902f6e9
faf901fc
020b0928
0c2005ff
fbf8f6f9
ebfbf8f3
0617fefe
00ff02fe
280afb0c
0007000e
fa070307
f9f117fe
0dfcf802
04fbe804
020af1f3
00f400f3
01f50700
e1f307ee
02fb03eb
04031c05
e7000dfb
09fd0b03
fb03fa00
f40e0100
060e2800
23fef719
260605fb
0403f511
02020ff4
0b0a0203
0d0c0604
fefcf601
f6f5f108
fafceef1
f10210e9
e4f6040b
f9eaeff1
010200f7
120000f1
0002f401
06050206
0203fd02
f7e2fd00
fb010000
f9f30215
04fbfcff
ee07fb01
fdf6f204
fef8efef
fefee3ff
f2000701
fdfef605
05051505
f92403fc
f2f50ef6
0bfbf419
1309fd1c
fb00f700
f7f0baf0
f1fcf2ea
f9fd08f4
0afff509
02f2fef5
0202f700
f1ff04fb
f5f4f5e9
0000f500
fefef311
f803f9eb
0400ed00
020600fa
fe08fbfa
ff120bff
10fd0201
e4f108e9
eee8f1fa
07fdfbfc
0ffbff02
070efa09
f8080cf8
04fa070d
08fffc17
120df20b
0c020007
0d080e03
f503041a
fa02faf0
f0fc1003
17f2f60c
1014fc06
0a170dfd
f4ff0112
f601ffef
04f90005
f5f90e14
f7f904ee
0e0113fa
0c101015
f4f10ef4
09f3f204
f119fffd
f400f8e6
fe050002
fc021408
edfcfefc
f71b11fa
f4f30e07
05eb03fd
0014f9fb
ffebf4e6
0006f1eb
060700f8
0df1ec00
eef50300
000525f2
03f7f215
fafafaeb
fe0a0807
050b0bf6
f6020914
fd0009ff
f509fb09
03fceef7
0e250600
f4000efe
f904010b
0f110806
fbff0106
0e040c2b
011eff00
0b021704
00fffff3
01f60910
000710fe
fbfe1b18
fb000106
0a000410
1009080d
010e0003
f60017ff
fb03ff02
f4f900fb
0dfdf40f
05f8020a
fbf7f2fb
fdf8e7fd
f9fd02fe
09f5ff03
002727f7
f2010afc
16191f00
01f5f305
f7f7f8e6
fdfff705
040507f6
ff00fa11
fbf7ff00
0e092316
f9f9f4ea
1a3205f7
fdfc02f5
1bd100ff
fefbeff9
01fcffee
f6060df4
1901080b
10f9f2ff
07080007
092b0209
060d1d01
f6f90a10
12e5f314
04fdf1fb
f1ff08fe
fbf501fb
d6effa07
faeeeadf
04030701
0eeffbe4
f4f3f400
df17f4f0
f5fcf4fc
e8ee0cf5
07e508f7
0309edf7
fa01fdd7
fc0c0603
250903ec
06fb1231
efd8ef07
06e0d8f7
fd0015dd
0f0f0710
0305f31d
060df2de
0023fc00
fb0b2317
060de2ef
ff040bfc
10ff13fb
181a0816
000f0d05
061e1410
0100f0f3
f8f500ff
03fd0818
f102fe0f
f6f1fafc
e31c07f3
f5e9e9ef
f3e907fa
29011d0f
0b0e161f
01f2f6ff
f4ffe5f8
f4efe2d7
0b00dd02
fa17fae9
0af6fef6
e806f1f6
f1f2f2f0
cee1ddc7
f6f1f5df
f906c0f6
fa0103ea
000002ff
f3f6ff00
fbf00001
0d0400fa
fcfb00f9
fe00f8f5
e3e300f0
07f5f001
e50ef40c
fc05f9e5
e50cfef7
edf1f0e1
02ebfbfb
f106fbde
121300e6
01f30cfc
f90d0cf2
2112f1f9
017413f5
290d2b1e
0020f11a
f50001f9
00f80b0b
f2030601
e2d7eef9
00dacdf5
1714f1ef
f3e2fe1c
ec0500fe
faf2140e
f6ddf105
0efa0300
f81b07fc
f1e8fdfd
f1eeeef0
282efdec
1642301a
f6f4060a
e6fcfee2
271b06f2
00fa070e
faf1f319
0b0013e3
1c0e1013
f3041610
fe08fbf4
f800f503
dd00e2eb
fbe4f1ff
13272c2c
03070e16
04fa120a
14f0e302
0c13ee0c
14391d13
12072a04
f305f704
ee1213f9
12f80ff0
190b0b17
13000c0c
1606ff09
f6fbfa0b
0000f5f0
e9242500
d2f1f5f3
0ef10bf9
16172928
0d101668
fb13ff0a
11130318
06f407fc
01f510fb
0809040c
f5f5f5fe
12ffe106
120e0823
e4edfdc9
f3ffeaf8
fff708e9
0c06f40e
ffecf50f
facedfe8
f40df700
edf80800
dfe8d9e9
f0efdcd9
0ff6e1ee
03f9f8fd
e7f31009
0a16f4e1
f9fdf503
fefe08f8
02100dff
fdfae5f8
0706fd0f
0af1f502
1108cbfb
f4ee05e8
03ffeefd
030bf6fd
26120f0f
ed200f0a
e7ef03f9
05080700
03fc0b03
00fadef6
0af1f9ff
041a0004
f0091419
0004eaec
fd181ff6
f5f61d03
dbf4eb09
0e1bf900
ee0f0dfc
0e05f7e8
08000c0f
000c00f0
fd1302e5
0c15020b
e4fbdbe3
ebddf3df
0ee90206
1e28fc11
06f915fe
fbf9fef5
23051cff
0003252c
00fefb07
ec0d1405
00fa18f7
05040d05
1103100e
fa13070b
f5e3f208
f5e4c3e1
e9fa0d04
f5e407e9
fbfae515
eefbfce9
02e0e9fd
0ef9e4eb
ff09fbf5
1d09f207
1517f8f6
f2f00b0c
f9fb0be6
0310f3e9
0b1919fb
f90f0fff
04f3e8f8
ea00fffc
f5e6f0ff
0502190c
fc05f6f0
0c13250b
faeceef8
e803eef0
09fbfe05
fdf3ecf9
0b06fb06
ff0611fd
0c100313
f0e704f3
0e071aef
f411fbf4
eaf712f5
e6eaf516
e7f0fdec
fbfd0903
fb0013f6
000505fe
e3f705e2
03f80afe
f3f8eff7
fef608e9
16f2120e
0116f5fa
fa00f406
03d6edf5
f203f1ee
dbe9eecb
1b0c07f6
0dfde316
0c0df4ca
0c1bea02
e1fa0a04
f904e4e0
ed15fff4
fe07030f
10101216
11060f04
0aedfe06
210df6fd
f80d0a12
09fcf300
00f601f7
fcf2d811
eef7ede9
1b07e100
ec0c08f2
0607210f
02e9fd23
0200fefc
f503f7e9
c5f204e8
d4c2e1e1
f3efc1e3
ecf2dfe5
f5ec00f4
fa090508
e4e911f1
ffe6f5f0
fc0aeaf6
f6f70df1
02fc0cf9
1909000a
fb05ede1
10fd0f08
00dce3d9
f4fff0e0
f2dded04
f1dfd8f2
3100fae5
0009edfa
0015f805
ec17060c
f0f4110f
031105ff
ff16f9e4
faf81610
1cfc1109
dc09ee00
02e804f8
de09f500
05ed09e9
1709f803
0004f6f6
0200040d
ef050b0a
f5edebff
2713fd06
eff4fc05
12fbe4e4
040bfa02
03e9e101
16fb04fe
f908070c
000903fd
09fbfbff
04ff0508
f6190c01
01080806
fdf3fdfd
00ecfee9
f8070e01
fffefcf8
ee02fb01
f4fcf2fa
fc0f02fb
fbf7fcff
0000fa03
04eb0000
01edfcff
010b0cfb
f703050d
fb02f5f5
f50ffffd
0107f7f6
0c04010d
fb06f4e3
f50300ee
fef30008
fee6e5f4
fc000503
00040502
00010f09
0a0206fc
11fb0009
fc02f9e9
1c05fbf0
f4f11500
0afdf7fd
fe020a10
f8f0ff04
f7faed00
f2ff0afa
00fafcf4
000811ef
f2f8f1ed
fc040404
fafb0d13
e8eefc0b
00000d00
01ff0c12
e9f6f0df
f5f903f0
f5f8fd00
0aff0005
f4e8f700
07ff001c
e9f0f6fe
0b100e05
f3fe07ff
0c18ff07
f5f70701
f201f700
e9f7fdf5
fee4fafa
f8f40d03
f5fcfa02
f6050603
070d0d13
ecf801ff
01f70101
0003f5ff
fb04f8fa
03fffcfd
02040204
e7f2f9f2
02030401
02e6f2ec
f4070614
09f9ff00
f9120c0a
eef500eb
f910fefd
05040911
f5f5f6f8
000e0bff
faf3e7f8
2300fef3
fd0a0604
0a031106
fdfefc0c
0efcf4f9
02fc0600
f5fbfffe
08070008
04102412
f705f201
08040efb
020a0d09
ebf1f1f0
fffbf9f3
0700fb02
fffd0010
01e101f7
f70b06ff
1f0800ec
0c15010a
fcf8fcfc
f707f4f7
0404f6fd
04f904ff
090500fa
03090705
fef2fe02
0e0603fd
fd050bfd
00ff00ff
fefa0b06
f6f302f2
08fbedfe
fef800f7
f200070b
ff0e1e19
ff0307fe
0cfc010e
fe070300
03f5f100
05f5f904
1708fb0e
eaff160b
fa03f3f5
fb02fdfb
06020003
f0edf8fb
fb0902f7
08080808
0105fa05
00021403
fb0108fa
0402fa15
edf6f7f8
f8f6fdf2
07fbf302
000002f5
1d0cf002
00ecf607
0eff0906
fefe08fe
fb0108fe
0cfe000f
0302f8fd
060c0b11
15e6f3f7
f7140bfd
02fd14f8
f102fc11
fdf6eeef
fbebfdf3
0bfbf900
100d1709
