4406eefd
e408dfe0
e1f313b2
290d2222
f6d6f414
e9dad500
f9d52fdc
1d170510
21c71af2
d0c01833
05112b47
c23b0760
16e542fc
d6e1bb7f
1af00c00
59c50065
0d0fc8dc
1ed42e07
10f0e92d
1ce40703
2aedd9d0
2afd39ee
f71ede17
43d3b865
032418e0
fd5bdf12
1ef1b080
fdd483f3
0026b10f
2afa14e1
e9e6b4d9
f3f0cb37
d0d2117f
c823e7f5
aaf605ed
08baeb5b
ef2050e1
9fe87876
cf25e8ed
e2271031
0feb1cea
b33014eb
0c26dbff
3ad9d5e8
0c0a0b5a
e1e150e4
e8270ca1
f49fb1b3
d8c70d0b
facc60e6
2b44b713
0ef61efa
0ce3d262
177fe2ef
ddd2073b
dcc4eee2
efcbed0b
f9ec08b2
5116e30f
f3f3eb28
090824bb
c0412af2
aafc0fff
41083e13
ffde00e7
050cf52d
fa00f609
eb0815f4
e5e5f3ed
fcf6f5ea
eb35e5e9
ff02deea
efff0f04
0ddbd1fc
00fd0a06
4622fb00
01ffdbe5
f7fee7e6
072404f9
dc04fcea
7f00fafa
dd0004f6
121c0ad5
f6f30802
f4011212
d4f80de1
ded8ef20
32d3fef6
0eecef2a
daf40fcf
f0fe00e3
f424d412
f30f00fe
ecfc07ec
f3e3f707
0e7607f8
f405cd0a
f4edfc06
040200fc
fcf4e7fd
fb02e8fa
04ff080d
dee6ff02
00f80a09
e0f8f5ff
16fe2c11
18e3d006
2fea4d01
2500d600
e8fdad1d
12feeb10
05f507fa
f4f008ea
05ef0300
0af5f3ea
100bfd06
f81df806
fefaf8dc
f336e503
f5f5eef6
42eef600
bff6f8fd
e4e6f5ff
1113bfaf
0f0a00f4
eaf1e9f8
e7f2110c
0ce2e20c
0000dc09
1d0c0a1a
e70ba9e4
f8e219e9
e4f02b08
20f4f1e9
f6ecedf3
f00aee09
fbe31ef5
05e9de09
0e0ff3e4
08fb010d
1b151f18
fc1408ec
eff1d30f
2915e7ee
f9e2d4eb
eced00dd
00ed0413
00e61f08
f0f91320
f2f5fe0b
04081900
1dea050d
16e3eb0d
2100f5ea
fdd8e5f3
0c22e4f7
e6fdfb15
0206e907
01eb0a07
16e7ede2
0c01f5fd
f9d5f211
fafdf414
0f0800ff
f5ef1610
0419ebec
0ff90a07
e807fd11
1d0af4e9
f910d500
e6f9db06
ff05df07
f0f5121a
0c12dd0a
fae4d2ec
15f7100b
10fcfceb
f9ec00f4
f2f10820
f10ff7fa
ebf7fce0
1a1705f5
09e0f113
ebfee3e0
dfecfbfc
0002ed0c
06f70415
f7ecf023
fc00ff0d
0b14f5da
fee3fb09
ed221a18
f9f5e430
1100fe1a
052ac015
f618161a
41f30cfb
fbf10219
2d140ffc
07d4f400
dc15f037
f7bdaf17
0fec0def
e703080a
fa080016
10e963f8
f1ed0af6
03fdecf7
66fc10fd
fcc9fd05
f1d9d5e4
0ffa02ef
c501f1f0
061eeee2
b5f4fa1a
4ee7d717
0ff70226
07d0410e
e5f8e7df
e959e807
12ef090d
ecefebee
07e716f8
28701300
dce7a2fe
f6f5e404
1401110c
0f06fd03
0ef0f1ee
00100dcb
edd4e8eb
f2f5f406
fe14040d
f8fcfbcc
550708ef
0733fcf4
09e40bf6
cd0af9f3
180627de
0be20320
d1fff2df
eeea0406
f1f80715
dfeffd03
f4051308
d5f7d911
e31c0b00
dc0ef7ee
f7f900f7
aee6e908
0c11fd0e
0002e1f6
0c1cffe3
17e60bfd
04f60d0a
ef17e10f
5ad2e3dc
f3e2efdd
22e63f98
dbd9e3ed
420be9fc
f40936e9
18ea36e8
d6efd5f1
ecd6d1db
14f4e058
e6dca737
d10b254e
db00cb37
493d1298
00f73a15
23fc1660
e2de01f3
48c01ebe
e9c2d5b8
a3de11d2
34cec8d4
bc2f3c18
1fefd2ff
1d93d258
c6d14cc9
ee5d2b41
cfee06e7
d100e1d0
ee0876dd
f35e25fe
20d20052
0ce6d5b7
d7c8411a
1cba99f3
4f42e9d3
f7e61831
f4de05d6
f3caa8ef
05201fea
0ef6630f
01380710
d40d10c5
dad3d1f5
1c43dbe0
20e61a10
1c1f5f7f
f948e9e4
f6eaf47a
e7f77ff2
1dd2411c
bab0d0da
e5d0f8eb
c217106a
ffe4a23e
35e40dec
100111e8
be10f8e0
07076b26
f216f5e2
a9f3102e
1fda1180
18ebd0f9
80330cd4
fecde6ee
cd08f003
f3c5fede
cefea7cd
07f1fa14
fbee1ad9
fafdeff6
fb15e4d7
f000f61f
fc060b05
0623f4f3
08e61421
f7d8f816
0f0002fe
d4fd0e10
fcf2e0ea
01f40100
20e40706
e9fa22f4
f9dff61f
0a2202ea
d203f70c
030d00e4
1ffc021b
eefa181d
fbd20b19
e8ee1500
0cf0f1ef
d81cdced
eef5dffb
e9fbe8ff
14daf4ff
220eff05
dc00fc07
d9e5e0e6
fbccdef0
111cfdeb
1b00e4ed
13eb04f5
0401e5ec
db0108f2
e0021403
0c03eaf5
fdeacfee
0eefeae8
1b19e8f2
ef3ef7e7
15ce0003
fd0a2704
e2fcf3ea
0d19d529
de001d0e
02e6eddb
000cf7db
fb19bd06
fae5220d
02e0d208
ecf400e7
ebe5f9f6
d7f50230
c40fe9fd
f306e4fb
f1edf8e7
dc08f403
121e1f17
e4f0fcf3
eef111e5
dce8dfc6
ecdbe402
0506f4d4
eaf5e600
f0e1ead7
020bfce9
0120ef17
09e9d9d1
ead2cb11
fbfc00d8
08f4d701
ee1908fc
fad4f5e1
e1060800
26ff1710
260df801
05ed1300
f90af3f2
d901ede8
d1ff2214
10f9f715
d106f719
e7e7ece4
001603d5
ef0915f8
f716fd1d
d905d406
fb2aee0f
05dfd1e9
f9ec00f8
f9f3f7e1
ed01d605
e0fd0507
e0e0f9df
0004ea02
07f80ee6
f2f4ef0a
e81a09e1
d60d00c3
e5070ded
ea10e6f0
fcfb0407
1907e7f7
0407d704
10f10f00
fc12fde7
d8fdfb0b
320ff020
f600f914
0de30ed4
f426adf7
21d8daf4
23f4010c
0eddf415
24e30712
e1fbfeff
04e9e819
0af9eff7
0d0ddcf3
f5ec0606
d70dfdf1
0b17021c
060a0cfa
f410f5f9
f204f402
0e02f1f9
0d00fafc
08020802
0e02f518
0a09fe03
f90a0b0b
02190907
0708fd00
04070f03
fd03f906
0b0b1509
0c1300fa
f2f5fbfe
140003f6
fe190bfe
faf8fb18
1511fa04
0e08fe0b
010006ff
1f0c0011
0602fb03
f8daf000
040bfa13
fe0c190d
060ef6fc
11f80411
040f0c0b
130aff12
f7f1010d
1217ee00
0006fa0b
ff07fe04
03ff0ff9
fff70f00
10fd02fd
fb12fd0b
f1f70cfe
0bf7fb0b
fefd0406
ee00f6fa
0ceffaf5
fae5fa1d
f21ce9f3
fd0701f6
fd110df4
f003fbfc
0f0cfb03
f6fd1300
05100b18
20fdff04
04072506
0f0a0303
f7fe0911
0af400f7
22070500
18faf6fd
0cfffa0a
05fd0916
f6fbf9ec
0d05fa01
07fdfdfd
d2f9fffd
edd1e007
e7fc0309
e6ffe41e
f40222f3
0debf40a
ff2c0f04
f906e7dd
110f0426
f0c4c315
16fee600
0e1e08fa
10dafefa
08ddf11c
dfeaeaef
03e4fbf5
7808e5ec
efed15f5
f31bf3f4
0afdf8fb
2411e10e
f6fff7ea
e103f4ee
01e91702
e2f3e210
05e204e3
e013f50a
14180e14
e7f0fb1c
f5f7fd01
eb1cf607
0d10fcf8
00e416f4
0f08e5f1
13240af3
e6f3fbf5
1aeaf403
faf40401
ebf90307
0d060506
0606e107
10022314
0e00f80c
17ca0016
1af7f607
0a03e1ef
11ddeae3
01f72318
d9ff1b09
e3edde07
f1e22103
f3deda26
e7fc0e02
0feff6ec
e7460ef5
de07d6f7
fef3fdde
d311faf0
edf10210
fd04c9ee
03e71ef8
f6f2091a
e3e8d9e5
fff3f101
07041019
111ccadf
d6d4e47f
df13190a
c4230dcb
edf880f3
11c532cb
0a0d0804
32f241ee
13e57f25
21be0bfa
2dcca6cf
f3ddb316
bd8082f8
2ad34bd6
9bf256dd
f5027309
d8c23ddc
0b09d4c6
d5cf2beb
a9d6fef7
de0bb91d
151eb0fb
f87fb713
cbd1ebc6
e2c1f908
ca44d52a
cedd8039
d70a0403
2fc5c721
14c517cc
0c312f46
007f2280
02be3fef
dad7ded2
f080b9ec
23d87f0c
1c1306d3
e803e4e9
0307120d
3321d0f8
f8262418
4c05a526
67ca67fe
c548e755
c5e63b80
d2c04790
1a24fcb4
0ecd9c1d
c97adbf5
d6336ce6
d30b0ae1
2bc08703
fe2fcc3f
a7f70842
cc80e9db
ffd308d2
80d823fc
29ded9f5
acf427f9
060e1d24
131113cc
55c40bec
6411e607
001eee16
e21dc314
2e0280ce
1607593d
c2f9110d
1b00ebf5
ad0bccd3
f0df32f9
d623aa2d
08e16a13
0fc9cc24
0ed4e557
af92d209
455d1e10
19dcc2d4
f11750f8
e93d480c
fb45dd80
2dcbde0f
d70fe9eb
eeede446
c91b6b08
d2c5067f
fb8106f0
c749fdf0
142bccf6
c92907a1
fb1a1ffa
397fa73d
16e5bf21
eacdf70e
0e1c4625
1020d34c
ea9161b7
0d32ed14
14120728
01ddf70f
23e4d2ec
16eac6c8
0adb0095
ef72f304
39d0f20a
21004b11
17f87f34
cd26ecce
e6cea580
f8a215d0
32b7e9de
70ee0cf6
012a2f01
193f7f08
2c553ab7
35e2287f
1dbe0f70
310eee66
1b25e7bd
04ede3f3
80ea80f7
880009d2
f3e600cd
0601097f
d3d52b0a
7f96c124
d6da38bc
9845fe56
0eb1fc4a
ec1aea39
06be300b
000b15dd
e31cecfb
1af93921
f3df0900
67e647f5
ecdcb800
5700f49e
3cb3bab6
1c00dcd5
bcc2d4f0
15546a1b
f60b237f
def12105
511400d8
4fe6fe0e
2a1ee3c7
7fc4d7c5
25e5a1b6
10e4faf3
6af503e4
17d3d1e7
cacadd3d
d48046b8
26fff4e3
7bf1d80c
1205df0f
360c46cb
87e8f4f6
3e8009ed
2280801e
80f8d3c1
02f7ee0a
d800dffc
9bc20e7f
f3f0281d
1708f011
4e2d1be0
edbb0917
ebeac8f3
f209fee7
15791b4b
d5ea2434
c12a0048
bb9d18aa
a724f9d9
370238d2
b7fd8df3
b81bf9e3
e0e500a8
f3d896e8
1ef0410b
151809d8
dd18d708
1f05cce3
f3ffdcca
bff18da0
030df514
cb7fe31b
9b3605d9
9bf63af7
408018fb
deddd1f2
46cbf58f
0e7fe6f5
d2e234f3
f12e80f3
233edcd2
e81c01f5
efefc0d9
f2d435aa
dade61c8
630f036e
22c1ed16
79d835bf
35f548fd
d52913f8
f91526ec
26f6e710
d7138489
25f716cf
c93ff6d4
af379a1b
f596d8a8
cada1528
dfcf09ee
3526e19b
1ee1c930
f4efe7ec
1fc654fb
c926c807
fb2d1207
27ede974
f17f3feb
7065f9be
8b80c31d
ea24e7da
132b75c7
01d17f5f
f4ee65fb
01cd13bb
a450f206
e5de44e8
e222093a
007f0f01
1c0f3f77
e8547ff8
f5ebdbd8
6e8c3826
80a03ef2
0627f419
e932dc16
f1c6f517
ed063cac
000df068
c4ed0fa5
33d2d009
fbfee6fe
0fce420f
85230be9
24070f7f
e3f408a3
55a0b9e6
d91b49f7
facb092c
d01319ea
e7f6d40f
22f8104c
dfd5cef4
dff3f82c
df077ff3
ff02e902
fa0b15eb
faeb2ce1
faa2065e
17f4cde2
162f07f4
de50380a
27441833
bd25f5dc
fccc11bc
da3642e6
3e4d38fb
d701ea02
db0dfb11
2500eef4
970080eb
e7c11a08
f2abe60f
080cde08
ef87d900
ad1e00c0
06f89b25
6215bb31
20bee204
3ebfd016
b95300d3
e39f13e0
ef80f300
8628c2f8
d2002c06
d72cbd10
9210ef7f
30fef7cc
ea3459eb
dcdc0124
25e50e08
ec0a0602
fce9e7e9
422b15e9
eb0f3abc
cb0109ba
e7111d0b
32268d35
28080ed8
26270115
d400e9bf
36fcffe6
f4a1df2a
ebf0091f
5bd2e8e5
dd11e3f8
e8c77f02
f944fdf2
340efd6b
09d51e30
047f0d2c
0cd2e9e4
1adbbef5
20f60ae5
edebf420
fdedf714
07ffe2f6
041028f6
1cfee5f7
f8e1f8ff
fa3ff008
e21824f5
21e7c909
0721e01a
01042ada
e818f007
033214ee
e60907da
f4f4f202
0a05f8e8
16db140b
0900fcee
001b03e9
090f07ee
f7092216
081f14f3
ed02f5ed
e5eff2fc
090c01f8
db1a191f
fafe01ef
ed000200
e70ad5fc
e5f60120
ff0cefff
05dff400
f0e10600
edf00d02
1320f3f3
ec13021b
080015f9
14f00241
e615e8fc
f013ef2e
06142bdd
e1ffd215
11f1edea
09bbf216
08fac61f
f8f202f2
fef2def5
db0ee9f8
fed5eef5
f30205ed
1103fc12
0c23dbfb
11e9d604
381c02f9
cded1e1b
230b2803
d0190117
d3edfdfc
0d17fa00
fcfa25e6
fee6fee5
ef1de3ec
f9df05fe
e9e720ec
e2ff0f15
000411f4
04e7dbf0
ebefece0
0212d101
040de8f2
d6e32b0e
0ef2e912
fadb1603
0808e3e5
0111161e
f0f2db00
0604e6fc
0c01f4ce
fffafff5
49f10504
1ef3ee05
f3f84827
f432e0ef
dbfbf8ee
df100b06
1f31f6e9
e5fe1203
edfc0c00
fa0600f9
f30d2df7
fb1fee12
f4f2e8f3
070de4f7
f3c1e1f0
03fe1515
17fcfb17
effe0005
0ff3fafb
f00bfe06
e7f2e5f9
0a110407
e013e2ed
f1fffc27
cffde8fb
f40e10fb
cfe4f702
1cd62b0a
0d12e4e5
02f0b00f
ecdc00fe
de0607fe
e1e800e1
040deefe
fbfa18ff
fd07e6f9
e0f1d205
e4fc1700
021907f3
07ddfafb
fa08f20d
c5f9fae9
cef6e6ed
00f9c3cb
f6edf110
db0407ee
faf20206
030002dd
25c2f1bc
dc4ae0da
b27fc4fc
fc4c2cf6
c3520b0b
1712dec5
dfec0ccc
c9291203
12d9f70a
080bcd2f
b2ae7f2a
d565080b
047f2f4d
20360528
7ff95bff
4f083080
150a2c2b
1126ef7f
cd2b06aa
c63831fc
d8d92818
5424d7dd
07f58cd7
05a2a444
f8121a15
eb1cff02
62ab1a49
24edd108
800dc7cf
020b1b11
aed606ee
41e0e60c
baff2743
304954ec
7f7310e5
153f161d
2323b502
aee7271e
ebd5e701
e6d1f250
ff8008a1
cf7fc5e8
ff2623e8
3ec1b2ff
fbdf13f2
0813e5cb
be141d19
2ee4e9d9
e87f242c
011d1b07
f80239ee
e9e943e7
13196a7f
17572afb
e3f39c78
e2a20e1b
c6f33e15
d04d7ff2
1adcfa1f
df3225cc
c218e09f
0e840713
ca1c04db
2a183312
18fb2af3
12f1f8fe
1bcee02d
06fed727
fbfbf1f0
00224af3
f617c42a
e018f1f3
efe2e315
ffeaeffd
3ad4071d
18eac22d
1500ff07
04f1fc1b
27fdd623
fc070df6
360f00f0
fab0fe15
07040fa3
17d8fde7
270515e2
e9f800fc
f0f800ec
1e38fa3e
0102ea12
13262213
e62e08d7
fdf2361b
0dec180d
0d01f50e
f7f3f105
d80411f5
f110d10c
12e4db00
3bc7dd0c
e60b1a18
f6ea2cf3
05eef8de
f204dbce
f5111cd1
fd07ecf0
e8f400d4
16f7cd15
ccfa220f
16401a10
fa04f623
fb0635d0
f91c13f4
e01bd70b
17ff17fc
e6e0f207
f91103dc
f600c2ee
d721eefb
db0ef61d
fd2cf4e4
eef7f701
8713cc04
fb17e506
ff02fc25
f3e00037
e1040207
15000a14
0c01fbc6
fb911ae9
e627f8f5
98f6e6ea
a03af412
f7c1f250
f9e8f9f7
ee0c08ed
c21cf1ba
02112201
0021b6f6
000099ea
3a0dd879
ded4ee00
51da40ea
0bc30d36
1908ca81
02e10b13
1044ee42
f0431fd9
8028d5e3
c0fee71c
d021daf0
fc36d1d3
19070ed5
d92ff709
0aaf058d
2e0b18a1
cc0059d2
6ae3cbae
09bce9fd
0c7f2dfc
17dd0550
eb47e4f6
e57fe0bf
061d000e
19badac1
f8f0dbf6
e803f415
13f2e329
1f119806
c73b0102
cf340e03
27f519e3
01220e15
f43f1a01
dce8f606
0116b4bb
439bf6bd
4eb6b3d3
e7e1201c
e25d55eb
db3e09e8
1105dbdd
1513132f
f715fb3b
cc1e0b2b
14d90d0f
eca18f1d
c122f4eb
adea0f45
f404ba08
3680dde6
1120f6e0
cbdf66e1
0d0dfb0c
1e0f0b19
01f50ddf
ffff0012
21130700
1f1905e9
051916f4
f709effb
0a0cf414
2aeafff1
e20607fa
05e4ebe8
1904fcf2
df19f701
0003ece2
040f1a00
e8d912f6
17ce14ee
f900edf5
da0e1b06
16130021
e419fd1e
e3fc080d
05fbf8f0
1b0f1613
1afe14f0
11e8d2f4
15f5ea2a
ea10ea06
eaf804ff
00f8dde5
dfe1f4f6
01e80bf1
07fa191f
e4111609
03ec29fc
02e5d119
110dfd00
e6ddee0e
08f0fdff
ebf3f8e3
fa091c11
ef30e9fb
0711eaed
26f819f1
de03dcfe
24f116ff
04edf5e4
f6f5e1ff
0009f51d
16130012
f2e0f924
21f6ef10
fbddfce2
04fefb03
f2dbeaf3
da0307e6
f4eaee18
fef1fd28
231a16e8
0c0bfcfb
02fd0607
e8fae413
f6ee00f8
fd12e168
04ff1e60
05f5eb00
04e70724
def83be6
1f1bdde0
f21bfaec
01fd0309
02eef62c
03f0e4e1
faf4f9fe
ecfbd60a
15fa1408
e7edf4f6
02e003fc
0de9f7ef
12ededf7
f9f81107
09f2e1f9
dce2e7e6
09f00d32
fe1301f6
fefdf1eb
0ad805e5
16e0fcf7
240315d2
f4e1fef8
fdfce203
eb100301
03fe07f5
030c0000
e66350f9
e803de04
0507fdf6
f8fb02ed
f50bfffe
04e505dc
e6ddf1fc
00d4e805
1407fa1c
1af402e3
fef8ebd7
10f6fff2
d60be915
09efee15
f400f5ff
2fe81412
f1ee011d
0e00e3eb
f3000e0b
fefeeaf2
f4effb11
0404fbf1
f1e9e704
f9f2f4fe
001318f1
ea11e401
e513ecfc
ef1ffd30
0008ffed
db041803
ffe4f910
ebf3f1ed
fc0e1f04
06fc050f
f9de001f
031e080e
fe00020a
0d1cf2eb
0ff5f216
30f3e2e4
d61232e5
1726f50e
09b9a820
1c00fb06
1d0c1629
06f2f5fb
23fb0420
ea06eefd
e9ecfbfd
271bee08
1ad9ef12
041aeee9
06e308fa
1cee040a
eb1412f4
f402eff6
f1f015fc
1614eb0a
22fd1d24
240afdf6
f52615ff
eaec190c
1209eeeb
ebe7e51c
0ffd1408
07e5c40b
06e4fafa
11e8d809
021a0701
f6f406fe
f012f8ed
f1010125
e312fd19
f3f4f3ea
0310f349
fb1ce8fc
28010606
0fafdd0c
07eba6f5
13fd0ff8
f5f302f7
c625effe
f616f8f9
fb1118ea
01122806
11f51908
000ef217
262cf800
06f6f317
0bfc0dff
e7ef01e7
f802f719
0410f70b
f71400f5
fbfe15e9
1ce70502
2214ea06
0d18d528
fd142c01
6f423ed4
03950cc6
003edfdc
03c437f3
f2060a01
2af20f1b
d50a3530
1c10e76c
6eea18e3
cafb09c8
fcd61e2f
007212f0
d66fc40f
240c04d9
15fc55e2
34e7ffe7
fefa3454
3222d4e2
ee05241b
3226f806
1903c017
d001f8dc
0536fdf6
2dddc4df
c50d4d22
06e7ecc7
3b562fd0
28b6f40a
f8964a0f
e6f40b9a
4fad2df6
18807f33
120f1a22
2b61fc5c
d70b3605
0f26d6e4
27ca020d
371c5c44
2e64e0f1
20640b0c
1f5149c2
07100a19
f2f0d40c
00f6f90e
12025b29
e90ce8df
c0efe42c
cff648fc
e1071b14
ed0bd5fb
d2f90a2b
101421f8
13043b06
2019d402
e717f702
00ad0728
870f0408
730de9e0
ca2be901
ed2ff1ea
080d393f
20f1f800
e01619f6
15f1fb00
ea0cf7e2
00fdd430
3cfd0fcf
04fcf70b
e515f7ed
ff06fb04
e45ef120
fee3e2f1
01fce112
c10ce6ed
0f10efdf
09e8e624
03de0027
d4e314fb
6002f90a
01ed07e9
0005f2f5
f8eaf3ed
012d090a
f415efe3
f3f7f001
e810f2fb
16fbe71b
eeecf2c5
ec26e103
1411fc15
0be5fa06
11e522ee
1ed1fbf3
17d612fc
f7040b12
f71df1f2
0a14ddf6
f4101bf4
fcefef0f
22f2f829
ed0d08d3
06ee02f9
0af10c0d
0715441b
04f13b00
0ae5d6e7
09e7e0ef
1112f100
02ebf704
100c4414
f50d21f1
2419ff0d
e8fa00ed
f503f5f5
081fe80e
faffd5f5
133e68fc
e8f1fed3
e5000d08
9206ebf6
f010f722
ef10d3c3
01060d1b
dc01ec12
1509f614
0de92bfc
e7cbf621
0b1105e3
032404fb
091fde0f
250df707
eb09e509
181ff003
fbf94bfe
f50ccb14
0ddf0afb
0615fef4
e3011100
0803e0f6
00100f00
cb06fee8
e2fde5fa
271a04f3
f1fffcf5
07d6d7ed
f7e6f1ed
f1150efa
de110405
ece30ff4
4a08f449
fee108f2
08191d22
2f15fee7
171bff0b
1dd0feef
f1fcdce7
08070509
10080307
d0d8b2fa
1afa04fa
fde2ccf7
1619f802
110ff60a
09150bf0
e917eef4
f2eb060d
f2f7f3f8
faf21efe
fcfe1bee
ebfdc319
f503fd51
1e19dff0
f302f3f1
00fffbfb
c41decf4
251c2ff7
c8070d0b
ebec15e3
1204210a
f7061004
0af327ec
cf190512
15f1ed0c
d8183307
32ea0a19
fbe7e9f3
1c01f8fe
f72b0501
e1020605
fe001cfa
d51f3e18
fcef2b1d
221e1328
d45511f5
f210001c
f112adf5
edd7140b
48080b0e
00f69bfa
1ff2f093
1bf3d122
342701e1
fdbffbf0
f2bb1140
da4bfc4c
ebd1e240
2e037b1f
1503efed
09f211ca
e0dc00c9
d1f6cf17
dfe6fa1f
d9adee00
f225f258
2405d9e5
c580d0f7
0a1d13d6
f01cf834
132dc7fe
013721da
e849fe7f
ef1413d7
1edeeaed
ce55ea09
a6a50ec0
f314fb25
de15abdc
f0121abf
05e60bcc
040fa023
06290c02
1cae090c
1a0a0814
0fbad9fd
f72dd2e6
e80a06fa
fc0bdd19
ef42eaaf
237f98ec
0fe4b8fe
f62ebbfa
f323f6ef
5522fcd7
03bac2ef
181613eb
03fff6ea
eaede20a
99805cfa
fd111519
45db2256
140b1049
baebd6db
23f72039
d519f3ea
cbdbfbf0
def5210b
0a0009f7
dc80d8f0
f736e817
0200d107
f00e1c10
1e0f05fc
d51acc41
e763dfca
a1f62d19
181de10a
c73ce9fb
f953eecf
d0b289f8
fbf009bf
0d0600c7
f5d7d447
18e6d0d0
80f800ec
cdce0500
25fa45f7
ed20e209
cffb060c
e44af105
e700ab0b
7f41bf12
e7151a44
80e02cf3
c7401a2a
ae24d918
f41cf880
bdfff4df
257042cd
61fb522b
dd0f24b3
f2dfb021
2504c29e
ee2bf428
0cefdc0d
2adad8e4
0940ecea
46faf3fa
0080e5f1
ebe8d9d9
f4feac36
dd01576e
7c7ff7f9
144912f7
e033cc10
ca1c15fe
e0f9e900
10ed53d3
0e226c2a
1b140011
c5113c32
e610fb12
383c7ce6
a5e0fcfb
d1ea30fd
dafff2de
e88502e3
47c42225
fd17482f
1dafe8a3
00f00dc8
6303df3a
0b6c1404
d901f8f0
0ff82a04
f3ef0494
4b18daf1
1411be14
d3d9d21e
afcaf815
3b09fe0d
f5081819
135636aa
321d3dc1
e8192d2d
c4fd5f00
061bd749
22e4c203
f2280134
80231f56
d211560e
ddf8f00e
fac6ecb7
20f5fcdd
1a752c9c
4359160f
04e0eef5
0ff777e6
ebf3c629
d561f523
40120c79
c27ff319
256410cf
254c0321
e545d0b2
190d31e8
1e27e56c
1ae6b3f0
2c020357
fa090711
1e20f8db
e0ef113e
2862802c
fcefa2db
dcfaca80
07b4d0dd
1419f0cd
f93ff329
c7f50031
6be877dd
16f015da
1ec9e07f
f3f81d45
f5eb2d18
19fab6f9
c2fa2100
cc062cd3
d3154511
d80acc13
0d06e70a
2c9bfc0c
1efe27d7
11cf5fcc
fd040019
fde9f521
10070511
f502fb2b
351141e4
050bdceb
1934f1ea
fde706ee
0056051a
01c4b0eb
09f00004
ec061a0c
e3dffa15
ebf30afc
eddffcda
ed11edfe
680b00f8
f8cdf90a
22f6e4ee
d7f0f0ec
f2d8f228
e41afde4
df061bfd
27f7f6f0
eb01fd2d
30e22bfb
e41203fe
fe190a1d
f9ecfffe
0c18d5f2
22f608ed
0d164503
f4f203f0
000001f6
09001bde
e10f00fc
00faf006
f1ee03f5
08d705f1
eefbfd10
0efb0dfb
05ea1600
0af71806
0dfcdae8
f0e80a06
eb1df9e6
e8f8f5e5
11fa180e
da0e0af5
e7f8fc07
f61409e6
edfbf512
01001f00
d20feeee
df311e00
dd11cced
f9f602dc
d5fcf1f1
f61ce707
13d8d0e5
031a20f7
0a0d12fb
0509060c
ff011af7
fd181c02
fddd03e6
0ce1ff00
e2dee2e8
250ff101
0a0af819
fb0913e2
08dc2efe
08efe1fa
f2e8daf4
e70ecef1
05f4ece7
e413edfb
18000715
f2e8fcf4
e3110eec
e4f1d60c
1fe7f70e
fbedd9fb
ffea11fd
fe21e911
ea230904
0e021805
f0fe00f7
06e31411
edf7ee2a
0009fff3
ff0113f1
e8d9f61d
0915f8ec
e302fafa
0bebdd13
09f0dc06
d7eae60d
0516feff
f9e9e5fb
1e0ef203
070bf3f9
0004e801
0ef7f3e2
000504d0
f210f1f8
f2f5ff1d
effff904
fad5ebfd
fff2dded
13ffe10a
0419e812
01f0d102
1e00f116
df020e12
000bff13
1108f0f9
1f00f9fe
02fffbf9
e913e810
e423f4fd
d511f7fd
fbfe071f
d5e1140f
fc1d1b08
f4fa0d1a
e0fa1d00
1cf4f2f9
fc651700
e0170901
0a0ec289
2bd510fe
e928bd10
f12ba107
12ccf0ba
ceccf8f3
d519f020
f2e21e79
f8bbfdfe
dd28eff2
d8f3e133
0f08e3f1
db4bd800
56e60ec6
111000f7
df30b9d6
f9ff3f05
b1e7f0d6
fa11f409
04072feb
ebc2af51
1b5fe8d7
102bf20a
e6abfc4e
d9e4c44f
053a80fd
8008e47f
23ecb1f5
f4b31d57
2ed7e080
4ba1e80b
fc8022fe
08530be3
1a4738fd
cd1a2eed
02d01095
15a401fb
3726d403
fce4c20a
cfc8e0f9
070aded7
cbc8afe1
f6fe100c
27050fee
fdf04e07
147fb6f3
f9f3b3f6
b14fc4e9
0b173aeb
2b02ede9
0d05467f
f9ecdce2
1b0e0a17
ffee3323
cfe512d1
0cf06f6c
f5f345d7
4d1031d2
deef00c9
dd2e0438
4dd9c5e3
0fde2afa
f6d9ca04
ddc2ccff
7fe1dcf2
af804202
c6fb25dc
05ef49f4
36f75739
1ff2ea31
27cb80fc
d957fa5d
0ce607be
1515cbc8
c9e8ab18
4e4f5309
06f0f4d4
10fbe27f
0f0deadf
620efdfa
319cbdb6
e5cff1c9
7f24012f
bb0c1a00
f43ad014
a680fa02
2cea23d9
060dcafd
024c17bf
ee0a580c
43f626e4
fd04001e
eb00771e
c4f6f9a2
10ec0d27
1f2a19de
a822fa0d
f7e09e28
0fec3ad8
1ee29d2d
fdebe601
09dc0d36
e57f1d21
e53b1b1a
06f527fe
ff2c10d4
ef0e0f12
e7271537
f5eab612
18ee1540
a2800e00
30f43ae2
0254c400
d0b419fa
e4ba269d
171a1219
1b0765ca
092c40bf
401e021b
a3a70203
f121e4db
76012511
14f51a7f
1cf3dbff
9ce33ddd
cbbf3111
faeae0e3
14ece30f
0fed3433
1649b104
e3290c03
fc0a10e8
1516f5f0
47ee0a05
f205fc02
e2c532e4
43e900f3
090c0bf5
0cdb15f3
022e1124
deb2f720
aa1510ba
fc05fcf4
fbaf14d0
0920e1e1
18ef0fdd
fbff1af9
b2e332f0
d7f8e500
d9e7fff0
01ec0a03
0d2ad6e6
fe28f1d2
dcfc22fa
f015cc28
0016fe05
06d91212
11100d0f
d3173207
22bbece1
1ff8e0da
cf3e1700
fee9cafe
1eed0718
ebe9dddc
edf6491b
f4d40ef4
ec451ce5
120725de
cff503f6
033e08db
d8ff0ff4
fbfb20cf
f25413f8
e64900e2
13e323fc
e0e80ff5
eec1ffce
b7f14703
ed01ee03
20f815f3
fc13f6d8
c70cfae5
b4e6f818
d6fbf6eb
f60edefa
1303ebd5
2508f213
d9cb25e7
10d7dcc3
551003ff
fb440300
42f7907a
b80958fd
d8e51fcc
f0afbc03
e7f4b434
25d83b3e
21f9f329
f72521c3
4d221902
d751bb69
dc2b4c06
0a74b771
c90a9f37
46ebf1cb
223d0f1c
352536ef
0ee20715
2508d6f8
741d021e
112844e3
b640dd36
34cac519
41eeec36
03d7a9cd
628047ec
2fc8d806
5327450d
46267ff7
cf1b0edb
0d0316ee
fc38cde5
1f044fe7
db30e819
e4860c57
27de4cf8
951741a1
131107e9
ddf02313
23121df4
f0b2d504
08684523
388a0cf2
20003365
fdf5fe80
f82bc6af
099706ce
0e100018
d0f31d0c
18580229
e00e01cd
3c140b7f
1f42ffaf
12121622
d217c6f3
19f4eff3
d6002eea
20e00901
35250f44
d60bda36
ba580617
ff26f11a
1cf200f7
0bef061b
ea62cff2
a6d1e942
fabafa0b
bb1b1407
15fdc505
e9540fa2
1a111c09
e90c4906
1d2e21f7
fb13cff1
2217ec34
4008f9bf
152d0314
fbf8460b
e5e438b0
3614fc19
ad280135
ff19350c
9e2eed08
fcddf520
f6ed9af8
cb151128
2b341616
d964caed
fe1004dc
41500002
cef9fa05
f2f88003
fe0aa80f
fd0e30ea
1f03ec7f
8096f437
d97f4512
17e62dfa
20f151e9
0ae91bfb
262a3e0b
ec17d2cb
f90aaa0d
36bf0bd0
e8f4281a
7f27d8fd
df31ba22
bd2111eb
0e07ae44
0c191882
0849edbd
7dc8b800
deffd00d
0ba77300
e0131bd5
3df955cd
2000093d
fa010bd6
01dc0ec7
fafcf7ff
801995fa
38fbf6fc
c11f2490
03191221
e2daf7f3
17edd91a
3820f5f5
fa14baf7
cea7ccfd
38e8ee1c
bf2af70b
22de14e6
0f17d203
1de62160
c33def25
1ec163dc
f7d9044f
ccf880a7
08ebdbbe
031c4dbf
94cf1e0e
d220e910
d71883e1
bfecdcfc
b9d9cd1d
e10b2c9a
3505d1f7
f1cd20c7
d9e10cfe
301723fb
f4200df3
c4f04804
d58039bb
4ff5a9a8
20c4dafc
20197ff3
0cf4231a
0b32c9f8
eefc0528
ef7f1d8e
f660e1ec
2622cffa
b8acf7fe
d6d59ddd
bafdda7f
e7e7f411
ebfb1928
c6c2c81d
f3e0fad3
d419fa19
1c152ae8
1559f84e
26b164cd
c225bfa9
30e705f4
05f280df
d1f70d00
c02a07c2
f0f9e1e9
eeffb3d2
ff93b930
c7f41947
2c0c0cf3
f6cfbd16
0672330d
ed12c8d7
f5e4b011
06e7d900
12cb0a21
df29efe0
0bb8e5ed
0cf3f517
1f1a2e0b
f3e20200
1ffc063a
0003471a
13171703
0decf115
21eb042a
f80cf800
18efe507
140d0fe7
e7fde9df
0a0301fd
e5e2e705
11e6e30a
ebee1af4
f41b0e18
efdf0d15
f6240dc9
e7f5f9ee
f1180f14
fa09f422
0f071ce7
f91ae606
1806eeed
131d26e2
e406ec0c
f706fe09
1e1411d7
10f34312
e1020de6
161d44f6
f523dc1d
e706fc12
fc0d0b22
2c3dfc09
02f90d13
0de90c01
09eee5ec
04fd30df
f41117f2
260212f3
0510e706
e6d4ddfc
04ec0e35
24e9eff5
0713171a
08ea2c0c
11f4e11c
fdeb1629
2f000003
0df0f716
fa220420
23092d0a
f727fb06
15f1e0e5
2014ee01
12000206
02200231
f116021c
ed15fdec
0d2cf1e9
f4d40e05
01fdfb0b
f6f3ef18
eff4fb01
ebf40000
0b04ec00
ede337ec
0b01e9dc
17393cec
f3db0de8
fcd6ed35
1e0efa00
0beb17ed
e406e712
f415eced
f3eafcff
00f6e9ff
e30413e8
6202e503
08ed0cfb
0af7d6da
1303dcf4
f6000409
fe1ef1e0
f3e5ea08
1af518df
dfe10ffe
02f0e3df
ea02e4e3
034205f6
d6f11b0e
e20de90a
e4f209f4
24ef26f6
e9f1f814
f9f9eef4
fc22fefb
0bfef90f
190ee0e9
1a10df14
ebefeb11
dfedf0f3
fde6f301
04f2f000
250de412
3ce7ed08
e214fd18
f11f0712
1303f0fe
05f9f806
e3fdf3f3
fcf4ff1a
edeb0b03
05e4f903
fd00eb15
f405fbdc
172e0a0a
df05e315
ecfae7f9
00f9fcf7
e60cf614
f7eef3da
1a0d1904
15ff0fed
dff0f2f6
ee020012
ddc6d0e4
13e51011
6ddb5dfb
ed19e30b
f61a40cf
1415110b
2d003740
284521e9
e91edf1c
fcfb02da
aee9e9eb
0cd91d1e
03f521f0
2eedfcd3
7a8749d7
d0eebcc1
e5221eeb
b9e8fb7f
f01feb8e
18f1e2db
0c3ae6ea
0d0f0a12
0604fccc
0cbc58da
fffc36fd
eab3d6ab
547ff1cb
0bf92d23
501028f5
f4ccc8fb
097f1a64
01fd077f
c673d908
0c32e2d8
ff011207
dddad5b3
e82001e3
5308010e
e9ed27d8
fd00292c
2a3be806
19fe1213
e608e2fa
f7e52b08
f0f9fc07
d92cf642
e3e9ad25
49d6dd1d
e2470af4
37cd541e
0020f6c6
f80fbf1e
c4e2dbd2
ee241f2d
bbf9dea3
2f280e22
def5f6d2
270b2ceb
54ed0207
1f31062f
31e4fb05
3189f719
cf211a1f
21dd19f5
040ff307
f305f91a
fde90700
e0f8dd0d
0af51de6
192add10
00e22de4
151824fc
0dff1a14
2ddce4f4
ffeee1ea
ebf307f1
e31d17ef
db0c22de
f50fdf03
00de13f7
f80af7f5
f9c51b08
21eefc0c
19f415f2
000beafe
04252222
ed170f00
120ff3f4
01dee206
29e60521
3500c4df
06e0f81e
d4180519
d922fe02
e60d1828
f9e9ffff
04ecece9
ff040de2
0415ee13
0c110dda
e517f2fc
f6ed17f5
fff3f5fe
fc19dd11
eb12edde
fb0de912
140ceffe
0f05f910
22fc0cdf
0dfaf5ef
1df5ece9
05d6f1fa
ebf1e1ee
e02f0908
c9eef6f9
15f10ff1
030bdee4
d4e5e1dc
16220310
e405d81c
c5f9ebfc
defdeb2c
cef3f118
f10c00fb
020e2104
faff1b0b
dbf2fcfd
0ff01ce5
07020720
edd30944
e80b12ff
f3effe1e
f0f0fee1
f3f9ed0a
fd2501e8
02ef41fc
f107f71e
04d6c2ed
eb0dfefb
f018f214
e9de03f4
0ef6e4f8
e5ef05e5
f6e309fc
5ffcfdf2
fbf8ef10
0c010bfa
fd0a0004
03ebe214
f32805f8
e8f2e9fa
f6eafc00
e5f90823
01ec33fa
e7e4f500
07f502ed
fee401e9
dff8f4fe
e8dd0af2
2a29310b
060edf10
e707ecdc
f4ef0ef3
0cf9fa12
fef00e03
e603f811
e7f6e8fa
e616f81d
ed0bfeee
11e81800
10deeb0e
0afd0b05
1de0d0fa
1714f5ec
0aeb0c19
fc000a0f
d70007f9
0008f00d
0feeffe6
fb00e808
ec12fc05
ffeef7ec
f63ce7e0
f5e3f713
fbe40e00
e2e7fc0c
f4fffb15
dae6e2e1
f8f418e5
faf8f900
03e805f9
030ae5ff
0a1c060b
fc35cff6
28260ad2
059edee7
0b0502eb
ec0003f9
130119c4
7ff0e212
331605dd
f23dbce2
39dff408
12f7e2f9
e603ff38
25061811
380413bb
d0030920
0bc525e6
326413e9
1cb0097f
800bfad0
edecea1a
f22de0f3
0125ee00
2580f3e7
c52402c6
f0b4b6fe
07d91387
eb0cead1
f7f6db0c
261e4ee9
f18d0026
06feeab0
e79902eb
15e00eb3
d42729f1
0fd5041b
d2d3ef00
c0cae21d
efbb2f39
29fc2ce4
2b4ec4f5
e73300dd
f0e7d8df
020300f2
1907f70f
02ef0ad0
c0ff4915
f0c6e0f4
45f9ed09
fede2afe
f80cdeed
13ea2905
0ff10048
09e2c90d
f9fd1f5e
fedc19e1
2dfce6c9
3c00aefb
f9d9dd13
f5f62bc5
fdf60203
0804c805
fbf62bc0
dbd1fc06
f0fc0116
f70f0020
e118d409
0b08f108
fa08fee7
fb0be9f8
0ff3ea05
08fd3004
fdf000ee
ffeec4f9
fa08fbf9
fb0eee00
fff3f7ff
e4040a01
01dc04e2
e9efecff
000505e9
f5efe407
f3e109f2
e40af506
f5e8ff07
df201e0c
0606ecde
07eceff9
fdcb0403
3b00182c
fcefff00
f9080407
f9df0208
eb05eff0
0c04010c
000c0f00
eaf9e4ee
13e9fbed
00ede5fe
09fd1007
04ea1104
f2ee04f0
00f2f2fc
0011f312
f6090113
06f902f1
03f5fbf4
f30bfff6
0adefcfe
09f9d900
f4eef1fd
f0eb020a
e5f4d7f1
f70bf8ea
fff710e7
0906f8f4
ee0600fa
fa13ee23
f110f1f6
ef0bfd23
eff40bf4
f2f90eff
08faeaf6
f3fdf4f8
edee15f2
ea0307fc
ef07ff0e
0ff5ebfd
e5edf5f1
eac9f407
e305ed0f
e1ff0610
e3eef1e5
13f20010
f8f70fda
eb100015
ef0e191b
02340b10
2d0bfef2
eefafb0b
f0f6fbfb
09e9f505
c80f10d2
00e407f4
2610fe0d
f0dee806
1cf115eb
161a0c08
16f3f91f
f4fbef13
f9f72210
e4040040
08e4f9ea
fb0413fb
fd091800
001bfbf2
111df906
f518e506
dbf204d6
11101101
08031b0a
e2fc0ef1
0ee8c7ef
fe0801ea
19fa0b01
f4f9f706
052f0200
ddede6e9
fe0df424
2bfa0cfb
df0cdaf2
1cf416f7
17290a1c
0815d901
0ae50312
122319f5
e919fd0b
ecebe022
e314de06
0fcce320
c50202eb
d311eef1
130ceefd
f01100fe
19140d10
f4fafa02
f6e908fc
f418e1fe
fbe7e6ed
f1fb14c4
dff0e3f6
000c0aea
38581b01
2e16f90f
77cb40f3
ed0bc3e0
f33215df
1e2a2bf8
00fdf76d
384c06fd
0007200b
e3f0031e
45277a14
f42c21c7
2d0e4ef9
e8b7f705
181704ca
13fd50fb
1c150c24
fdc42e23
cd211007
60e3f129
421c1104
0afcd501
f4b7fac6
097fd749
10d9d21c
fc170901
f55d1811
2d0ac922
eafa273b
fe5d1d18
e0e81d18
dd380307
bde8f4d6
1cdf1234
f31aeff9
da30f616
2aef9ae0
d4de2313
eaf316dd
d8e56630
e2fce931
fe330b07
f702250d
cdf0eee2
29f919e3
12ede40f
1af46eff
e469fb0b
f7e86b14
1e00dafe
08d3dd0c
fbd0ee05
f30ed900
0080fc19
c0f0ebf0
eff9d5e0
d025291a
f1ca4923
53f62936
c0210c0a
09e912a4
2bf5e0f4
fff80c15
100ee302
0efcee11
e6f6e9fe
e90a3307
f3cbf01e
fc270ae4
27ffdefc
fafaf9f4
f80060f2
03f5ec0c
19cff5db
c90cf6e1
01ff1419
08eff1f9
f0eeedf4
03e1d2fe
ece7f812
000efafa
29ea03f5
ffeff61b
ccf514e9
edf1f727
00160813
23ee0a20
e6e004d9
1125e710
1ae7f632
1002f2ea
140e0f15
c8f210fb
0706d20d
f2ff0cf9
07134003
fdca140a
f1da1010
e5fd15fd
1405edfa
1e1bf0ee
fb0bea04
10faf1eb
ef0df40e
0000eaf3
ffeef212
00000afb
f100fe11
f3ef0909
ef0c01dd
f91301ef
eae208f7
0600fd0a
0f0b1604
d8fef6fd
f2f70cee
f5fcdee0
f0d2e3f9
f400e0e0
00e8e50b
c7f8f4f7
011103f3
d518fe1d
0ce01ed6
f8ef26e3
08e4f1ff
1be506f7
19f70407
08000e15
06e40cfb
f70f2600
dc04e01a
0ef9ed00
030decf4
091906ee
f60335f1
fc2fe51c
fbd2cce7
eefae3e2
f81a06fb
12e413fb
ebf907f6
dcfc0d00
dcecec16
710ee20c
0cf3ecfa
edeffdea
f800fdef
fef9f822
dded13f1
140f0803
09fe08d5
181bfa15
f2e60400
dc1500f6
042ae2f4
faeaf0ff
e213faef
08e413e7
10fa1df8
f9f4fc00
e018e200
0600f801
f306e815
dbfef509
0be0df06
f0f207dd
fb14ece9
e91b01f7
16fb0af2
2303e3f0
1fd6e9ee
04d8faf3
fa16dee5
f00a1bed
0aeefefe
eae51ff6
10effc05
0ef10ffa
df2402ea
d616ee0e
f8e0fcef
2a4800f1
e2ffec11
ffe612f2
d00f02fe
cfe0de1c
04ecc0c6
e008f1f2
e4eeec0f
01ebea07
08e20b0e
cedadf37
0af1d828
932acbc4
ef80e901
00dbd8f1
fde604fe
f41804e2
43e5fee0
1304c4e5
2943f5b7
3919f633
cb2c13ec
dadd09d8
0c232d33
2dc08934
22fbf6dc
12d80707
a5d809aa
3a1646f1
d208efe4
280512e8
2f0e59dc
cf72fd2a
24f90ef9
f02803ee
fd4728da
60dbb988
fbe2782d
db0de2e6
f8042b01
c573fbe1
0cc31e1e
4934f3a3
e47fdfdd
01f7210f
ec00134a
dcdc6300
28fe00ac
dce6b1c1
dddacd0a
53e7dca4
200ae816
5ee52201
1eb965db
f7fef5f4
e8d8e951
f50b027f
23f620d5
74de00d1
13f1dadc
d71cc6f4
25050f07
1d0b7f39
0d7ff98e
78d4023f
f4ea2f18
3f061400
df69c1d1
d4b3de28
2c1555a4
05eadad9
bebad724
d816eb1a
d2f210dd
f21a130c
e3da0602
1110ebf9
f10cf1f7
d9f057eb
4106d9ef
0e1b0dfa
e70919eb
1814f415
1803f5dc
2e1000e9
f4f1ed1c
09130516
e8f3f603
f726fbfa
fcf718fd
4ee1f7ee
d9df2205
15ff01d2
0302f60a
f0ecf530
ee080005
fa0aee0b
053112f6
f80c04e0
20da382b
ea19e3f8
150ff213
e8010e00
13ddff07
d0ff1b1a
17053000
10d7f6f2
ea190003
e410f7f4
fe19d8fb
f002e50f
ece2eaf4
e9f3e700
faefe6ea
f6ee00fa
0ed5ddfa
080ff9f1
3c0af9df
1be7ee00
ec04c4f5
0fe816f2
edc50df4
03f3e2e5
241afb0c
dde10efb
11de0307
f0fbd419
19daeefb
022318ff
f50800f5
f8e906e1
faf9fff2
f5241215
f90bf00a
e20025fc
050c0ff1
e808f912
0ae225f5
3053e3f9
f1daf621
0f10e180
e3cfefff
3cf510f9
f8e1fdf2
0ddcd17f
c3c9dc22
20d4fde1
1bd9313c
4c26f40c
ea6cf03e
09500abd
dfe3ed69
a95bea3d
35f906d4
f60ed614
e8e40ad7
ea050cc6
38d70dfa
21eb01aa
d6ce10e7
16feed12
0265e62d
fdd611eb
05cd642e
089fcf45
ddead60b
9fde15f7
262a2824
10d7cde6
d7f0d280
1b274ad9
dceeb7fe
e6fbfcc4
fedffcf2
1cda4fcc
e4f50cee
c1ebf0f6
ed1b19ea
b6ec152e
dba51005
37e731fe
1b030ff9
ca52137a
f1e97420
ef48f1a4
11cb28f5
bc8ec916
29140bfa
0bf180e5
f8fcfd1e
e6119800
f3a080ff
cbc7b2e4
0ddef0e6
f7de0af1
aa69c2f6
afdffdfd
17f6c607
e00100de
e4612e07
f5341c2f
bc1605d6
570ab7e1
1930bdde
ced0c3d1
db3b7ff5
e46201f9
e72980fe
25da19f8
9efac7e1
0d00f2e3
0aff7285
08da3fe2
00b1a947
f6c9c8f3
f7bff8b8
6e0660fc
cdeebf49
09152cda
633efc71
fef1e089
c9ee1509
f0e8c50c
1ff98fe0
e7fc0f05
b8c5fa33
02113fff
df312c4b
80fcbf2f
adfea71d
b6ffdb44
f53bdc04
e7d4e1de
fbf0ec7f
01e61241
19c310f8
54deefb8
2c9a22da
f808f910
2ce4f5aa
f7b96817
07e7f8d6
eb9daffc
02e227e2
33dbe6e4
2080320a
27df05fc
1cf071ea
c6edecbf
1e091e0a
adfb0fe0
311ce8ea
2d2321ec
ebee35f5
300603c3
1a66e625
fde315e4
d6c2f742
b4f8fadd
06d3e5e8
6decc6fa
3bffdaf6
0c081f47
0f80e907
fa24e9ca
130e0f00
ca16ec17
206918ff
ef02b346
db8237fc
e8f8dbf0
18ea66f4
00ef288c
7ffc31e7
10f5fb27
3c3c3c26
0205317f
ba3a1e28
f3c4d1b0
c27abec2
cbf5fdaa
f214e981
000eaafd
010fd010
f0003618
4018c815
e9020505
ea0c8319
d121e31e
1838ac9a
ccfdfcfe
1e23e983
42fa3f19
f3b72508
392717fc
c2f0fc26
31000888
17f40880
19d102e0
379fe7ce
477f18e3
0eec0f3a
2feda31d
a7d1f94c
f6e3cc36
eafcc70c
c4fdf1fd
0937b7fa
41dc50e5
03722637
0ddbe626
92038980
e5004eb9
2ed50312
7f0039cf
09f1f1d4
47c35521
f42ddffb
2ad4a4da
1508261d
41eae931
c11c0ddd
1d06ed25
800b80db
a458f209
80e9e121
04152c7f
26171803
2c00efe5
dc2c01f3
15ddef0c
ebcef530
0e1312f7
00f7260c
c61b2edb
0b09ebf0
f72223e2
ef0c2100
07de140f
18c7d600
02060815
642e140e
0edc02e9
18fbeb09
df19fb23
ee00f4f8
400b000a
f5ea0403
08061de0
dfe81012
020f0e11
d910f107
f6e907f9
26d7f706
0ffaf6f7
060e0de5
f2feeb02
090af918
eee90202
16fa1001
e9da0004
024c16f8
f4f4e109
f7fbe9f4
00ef0000
0ef1fb02
f0fafa02
d5e81420
f7ebf30b
0f07f319
f9ec0ff0
ff030906
0cead3f4
05e74eee
08e8e8e8
f0e0b813
f9e118fe
12ebe504
f20cfb08
00f70302
080101ec
ec021b07
0ce31709
16f9fe0e
0420ddf7
fa00f1e8
41fae8fb
cd01f0fd
ea1ef91a
0504cddc
ffdc18eb
13df01fc
02e1fdfe
03f4dff4
10ff0402
fcede81e
0a04ce00
10ed160d
11e23a0a
3f17def3
ee1b35dd
0eddebe9
0eea1030
0ee5edec
eaffe70b
09080200
ff101508
f0f5ebeb
f1fee2ea
ee0b1ff4
fb160b03
040af8f6
03e3fae6
ddd91808
06000e2b
fbe907ea
02e61b11
f8dee506
f600ed1d
09ee15fb
eee1e2ed
1113f500
f911202e
18e6fefb
d7160a01
fbe7f400
f303fdfc
12f9f9e6
f61f1205
12fde2f6
f80ee815
fce6fa0f
1bda0cfa
e6eaf60d
27011b0c
02fed012
ec31e8f2
1411fcfc
1410080d
ff0deeed
0fe4f00c
f3f0ebf7
e413e7de
fefafaef
dd05f41a
09edf934
f0ecedfe
ff0013f0
f1ef20e6
e3fffbea
05f40202
f6dcfa0f
ff22ef32
06f81312
e9f519df
fd0c10fa
f7011d10
1b0f1a09
f602f4e8
e9f41604
f105f2ea
f40000f7
f6fe11e3
ff1f0000
fb2c21f6
eb1a08ff
07fbfe1a
fc102514
0cf4f002
fc10fb18
fd0cffff
05ed03f5
f5fef4f9
fef0f10d
29f3f4fc
fffa0bec
f5ec30ec
fe0afc07
fef3ef2b
f90ff810
040df819
f3fa1cf9
04f9edf7
fef9fbe8
17000ae5
182df5f0
eb19ee12
f90cf022
e2f7fc0f
05f909fe
0f002917
ec000a15
f50af9ed
02e8f0ec
fceee808
0715ef11
f913fc0b
0b0b0612
eef3edf3
0610ea02
f816dff0
12e20fe9
f51502e2
1a22c3fd
07eafaf7
f5fef3ff
f40916e8
e5fcf211
f512fb0d
ffd5fb25
e200edfb
ef15dbee
1aff07f9
1a05e610
050001eb
e9e40b21
02fc1518
1714f9fe
fd05fa12
000501e5
f7f5fdfa
ecf8021c
fe1c0510
ecf70505
fcf0e304
fa0b4100
090b0ffe
f7d6ec02
1cfffa11
01e5f9ec
fd002a00
f5bfced5
f2f3e6c9
fbfb12e9
f2140802
eadedd0d
08ee02cb
d6ebff2a
23f1ecff
150eef09
f2ebeef2
eaf7f00a
11fafb08
e01d220f
c0ebf9f5
eae134de
0f0105ff
31eefb09
0de1fafd
002ee6e6
f00afb0f
00f618e3
10e807f1
0818250e
04fb3600
feff0c15
e740e2e8
1ef006f8
f2f7f1f1
0a04e304
f10700f8
05dc09f9
e01cfafa
08f2e514
11f61a0e
342cfff5
e500f4e4
ddf31600
0004ea1d
01f2fdfa
28e10cf5
e8ede2f0
25f4f901
0816e202
05fb06f0
ed00ed0b
dd4a01fb
08f10ff0
ecef00f0
e5df0f00
e8ff01f7
1cec21f3
f1f7f1d4
0701fb1f
fced0a09
02ede720
161ad932
19dd1d21
e0360bdd
4f80f4f4
0634e508
19d2e415
d5addeec
8dc3ce02
e9d3fee7
021bf2fe
3a004b54
eefb1407
c2f0010c
1b5c9a0f
c766bc2b
0fe7f53f
1b0cffcc
f9da012b
11ba0d64
bffbd6f7
d2e6d706
12e8f408
02db2d1b
ee1d296a
f8ee1123
fa30204d
ca28fb3f
dfedcd3d
8050cb19
11285518
d980ca27
df0cf180
21aa2e2e
fb800044
131106cc
22702a6a
eae5df0a
440f8da6
e1c7d508
15f0ce0b
0e3fcfdc
11dbfcf7
2e02f8fa
0ddbf3d8
0a1328f4
0ae01eec
d7270db2
f85013f9
93ec270c
2b27e016
0c0d08d9
02e5d31f
05fa26e9
111ab5ea
f9c607ec
fcfe3aef
032408f5
6d060011
25e420f9
3ccccdb7
e8ebee15
dc7f0afb
e6213ce8
0e0ff524
54f2eef8
0bbccff0
1910a3a0
ce7f1aee
2fc2dfe3
fbd1c6fb
4303da32
b1c8bc34
36f79ce9
dcfd3c80
d92c0ede
f21e08f8
e29e415b
dbc4e93f
c4e706da
ea21037f
edbfb8bc
c59ffe99
0fd7e833
7f9710df
60ebd802
ce30650d
11c8f7b4
ccec0ebc
d28432ad
ffe4da34
c0e9de1e
d918c405
5ba7173c
2de3f4f3
e332ca1f
0109f0eb
731bf3d2
0effd2d1
cfcbc3be
d2a38042
c60044d4
30d229eb
e5da5208
dd001fd4
143fd00b
c59c05f6
24d402cf
f5a510ea
6429185a
fd5f7f92
fd0beddd
d6f03407
80af92fc
0d21cacc
a7d1eebe
c2bbf326
af0422dc
f4ef8db8
13fd3d7f
d61896c1
22cbdbdd
59c37f27
fdb0f3e6
7feb275a
d42c3ce9
397eb432
98e863b4
1ae7dd17
f3ff063d
07d11414
dd060d2d
07f5cf02
ce060118
d90d7fd7
c80438fb
610746d6
c5f976f1
00b8d56e
63dc4b14
c259f9e8
072532b6
00fddc5b
bcf8c216
65f26cf7
fbea4507
0e29e5fd
fc1d4177
8032e8d6
a6fbeb1d
e6fdf10b
0b0cff0d
217fc4df
1410b5d8
1dd9aad1
20a50480
48fd64e6
361fe61c
ffb8d2fd
14b94414
13f10faf
e1d7dcfb
2609f5c8
91183a18
022ac105
07cf19fb
80ce2c7f
bb420aee
f9d70c46
041416ed
e233c9f9
ce1fefe1
de7febee
f201071b
0fc8948b
053c19ff
d6afcde4
7fd8fadf
a9fe2bd5
0008ee06
3227dee4
56f23413
149b055f
09f60c58
28b01e30
1d0400f8
c50311d1
ba6c1bfa
801c02c0
09e4cebd
e42bfb0b
3dc9f2dd
1bf8e1ff
0206fa14
05060606
1115ee11
1713f011
050314fa
0105f5fc
f7faea1b
eeee1cf1
dfeef701
03ecd401
0e030a24
eeef0000
14f2f805
160923fe
0917140d
19da00f8
0cfa14f8
0efeef17
01f9ebef
07de0907
000000f8
fa1002fe
d4ea050c
3609db1e
03faf502
0d0a0003
fc000904
13f1140d
08fb04f8
1304f3ed
0ef00bf7
fc120d0a
f2f1a609
1c0017f3
05eae5f8
effb11fc
f8ed0ff1
18f712e9
fef8f2ff
f2f90918
19f3effa
f81af807
fd10f20e
e21100fb
fee9f807
0100dd01
0a050ef1
02faf7ff
d918f0f8
241903f4
d5160d04
000aeeec
20faebfd
f3041d15
02fefeff
eafe1cf5
fcf909fa
b71d00ea
090f000c
df02ea1a
01000827
fe00f006
01fcfefe
faec08ef
443719da
eb46d3f3
2f1bc6d6
00163ae4
ee26dcf9
092e8002
f811f532
b8dfd9f3
d5f3ca0f
150e1706
faddedfd
c31547b9
c3123440
ee390ffc
470a3abe
9ed6c5ab
eefd4b02
1100df37
091d32e4
f4050fdf
fbde1b1b
ceec96fd
ce003bef
111a0dca
fdf218d3
fef2f0d2
2d400a47
ec37f82d
9965e608
fc040ec5
c329e924
43d2f57f
2455bcd7
035b2fd3
064103dc
f5c6e32b
11ea0c25
5d2450cc
36983de9
282ed951
21edd93a
3b060f21
2df80df7
e6c2efea
e8f0edfc
fbf18600
dae737bc
3e6df83c
49dfb6df
0f0aca06
7221430c
e922d2de
1b01f40e
03facadd
e4f4ff2b
eb16fa16
0312f0f8
041788ff
56f5e41b
61005dcc
dcf40f2f
558becf8
7fdaf0da
f707f6fb
dff0f302
f7f101ed
faff09f8
fb00e501
0202e925
f4fc01ec
0e1e0a05
ef24fc00
eaf9f2fb
f9e9f804
0105e809
030dff0e
01effcf2
08e8fcf7
e70300d0
1913f11c
23f108fb
ebe9f410
fedd02f4
ea09f8fc
00fef501
02f6f5ec
11fbf629
cb1a0121
e902ebfa
e9030bfc
171be7ee
00051d27
fdef06f0
ecfcdd14
e2fa0af4
f5fbff05
1aecca14
00f827f3
03021ce3
dcffe80d
e101f7f0
14f8f2f7
0322edf0
fafff025
06fbe20a
05faf5f8
f2f5f41f
05fe0ff4
0300f8f1
f2e711f4
e4e008df
1e00eb0a
cc0012e1
e5f213fd
d402fe05
ee5df6f7
1ef61f0f
3f0314f8
2906f7f2
e7050f07
fbf3f607
fbf2fcd5
f0ece3f9
07f1c4e4
f5fc00f6
dc0811e0
e7fdf0e8
e7f907fb
eee1e424
260a22eb
0b18f50e
eef5150b
faf722e9
0f190afb
15271dd5
ecf104f8
f300fc20
01e305ff
e0ebdced
fef3f3e0
0e1b321f
f8d90109
ef0ceff0
f2f11c0b
de0afe15
01f429fe
e508fa18
05f4f012
1bf3f8f2
0e0eeef1
db13feff
1e06e2f7
050cf432
edf7efed
fbe3ef02
0803fc03
ec0b03ea
f4eff116
28fa0a01
ed0717ee
f50bffe8
f2051709
ef220df7
04ffe207
1e17fa13
24220cf8
0f02f00f
eb1ff0e5
0e050710
0a0e07ef
ee020c06
16f10dde
e8fbe613
0a0cec07
31020014
20eaf219
e4ee0913
e7daff1b
f1f0f4f8
22e604e7
0835f606
e8f208e0
03d91efd
eff0fdf4
0d0f0ce5
e7dbf71c
ea070049
12ea00e7
0903ecda
030818dc
e61d2c28
f4fe04fa
eac02eed
efd8f71c
f1a3157f
2b7fba04
ffcb160d
c2467fdd
1a0f1c21
7f301305
bf22fb04
ebefdb7f
0f0fbb38
ffe5e3e3
00e33000
d21bbbf8
cc18e7b2
e71e13a4
df232e04
23b60029
321acf2a
35e5ebee
00fe150e
b6e67ff9
d92df6b0
3b1d60b8
d9d50add
1735e7eb
10f214e7
4eda49fe
7fd40219
e3f6d302
6a7f4bbb
35e822fa
a67ff5c7
29f5d02d
bce41f13
eebab114
d5fbafe6
e5d05f38
f54b1312
032c174e
dc7f2ae4
3eecff05
dcf7011e
fe3e26e8
4d1bdcec
ea1ea89a
edfedf58
1826edfc
00d0efd6
e50c01fd
c4d0000b
d4ef14f2
e9f1d31f
e9cfe0f4
35fbd90c
3e29c1bc
fe2fdbcf
41c2a337
da5549df
b928e953
e0e6dbda
1bdcbccb
f205fd05
a6c41ffd
e8152a07
def10131
f3fffdf6
eef3e23d
3cee2bf0
eff9e209
eb23e0e5
02f71703
f97f012c
e9d4a506
02dcedfd
ca1cdcfd
07ffe814
0411ce06
01cdfc01
e8fc04ff
440d1500
04ee0601
fbe7e202
f6cc0e06
ef31000f
def30807
05f0e403
cbfb060a
1f04f907
34dc2cd2
e811de04
02100b27
e40410fb
ebd92cdf
0bd10cf6
0a2b1d09
f802010a
f50bea03
01f0e5da
e2ff381b
15f0f3fc
0c12f814
e2fb0cd8
e7060806
dcf2f800
fb053200
e3051b1c
12dedee3
ff03e111
ffeae2f5
0f0318f6
f90c2500
03f00edf
1a0bf601
f1fd0c10
f3f8d1e3
e71af10c
e0f2d8d5
f5525507
d1e9f5e0
cd0ae3fd
a90be9f1
faf3d6f7
eb1bc7dc
0dfa0203
f6d7fef9
d61df4ec
effc0d05
f8c71a28
ed0fd413
2ae6ca5d
c5babfe1
020500e9
ce0f6a11
ea2714f6
3a183eec
260728eb
b5c7cb1a
c2242cb0
35fd19fb
4b0d07f4
099d6d30
64ce12f5
f4d1e536
e0ed4ef9
f006f7ee
15ead0d8
f9cdfcfe
7f1812d5
2d001ce5
1e1e03ec
21ed1433
07fff9fb
1303ee00
db1b1da5
cb067ff9
7ff5e602
ca301319
3dfd13c8
d300e8d9
e0804b16
c27fdc3e
bfe3f1e6
14e4d0bc
00fd10fe
f00eef7e
0aefe6e1
20cae9ea
a84a0715
34fb0610
d1dfe605
f5192ff8
001a1ebd
e93f0c7f
0e58f407
18021af5
3a9627c6
02fd0bf1
c4a80efc
f01dfd00
1a03f2d3
f692f968
034131c2
ecf3f4ea
3a12fafb
14bd80e6
2b3af927
93d40fdc
01dc222c
00ee0845
c7d8f0e0
cfc80902
fa2920f4
0fedfb11
10f8dc1b
0efe00f9
4102f2ed
0e150702
5016d512
0506ee12
00110d10
12d3c7fb
2a16f8f1
02060e00
0cf50407
1bd51c1e
2bdee5cb
f1e4eb2e
3325011d
05d12300
1504eef6
25ed1309
fcfd08ed
0b141b09
fb070b02
3dda142c
00e6f707
19fa0c08
fd0606e5
e8081505
fc0f35eb
1d09060b
ece016db
e10409f7
f80bb9fb
1fd0ed02
01f9eefc
19f11b08
0921f61b
f70224b7
0f0a1508
041f0208
fded0136
fbf5f907
21faf301
031d09ee
14b00c27
e3f1daf4
1a1e0fe5
f8062509
cf00ef00
fada0f1b
d4091c11
fc00f2fa
12e51a1e
f103d225
f9fd071f
e71ae90c
f7fafb17
bb0903f5
1400e9ff
dc24ee06
e61edc1e
f2050201
0d0819f6
181bfa18
d109ff13
f1c7ee27
effd02f2
090ce621
310b18df
eb11f424
14f3ffeb
eb001b13
e8660802
f1bae801
0535f4ed
da13eef1
06f90001
09eed80a
e2ea05f4
cfe7f3ff
fbf3f2ee
eff5ffff
f1f7e2ed
c5ecf7ee
350fdf1d
cd23f8f6
0c0707eb
c1faefc2
f3faee02
0af60bcb
e6fc110f
d6ee00fe
fce40709
11f620f0
3cee0efa
1bed32fc
0e000c07
ea13defa
ee04021b
021c23ed
fe12ec09
def30a10
e40c041d
fa081806
3218f610
03ff3508
00102926
faf2d205
eef8f205
eaf7acee
0ef00604
10f23403
f51a04fb
edf0f70a
f3f2fe17
faf5f10c
012700e7
0efbd500
ea2f3310
eee3e2ea
e20efaf5
9b1eebe0
f71af21e
fe1eefc2
ff070610
08c4e109
03dedeee
021c2e0b
f90411da
fc000603
1203fafa
fc19f2ff
eaebf6f5
080f08fd
0508f918
f917e7fc
fd080206
fc27020d
f4fd2500
0d0d09f4
fbedf6ed
16080410
130c0008
0bf8f7fc
0bf606fa
0603fe00
04fffff0
320df50a
11f50400
18f508f6
f512f417
fd03f628
f8f4f102
ec06e602
f9150811
1203e50f
07f01118
01130f0f
f9120014
fbf2e2fa
05fce6f0
fbfffcf2
0e02f9f1
f9f1fb0b
fbff00fc
0707fcfb
f821ffe9
fbf60904
f7fdf708
eefdfe20
e505e7f8
07ee0bf2
f9f9f8f4
f10ceb05
f00a00f9
041916f6
e5070ef4
0c050e04
f815010f
09f804fd
faf3fd0a
f2fe150e
0ef00204
f7f01411
15f40bff
fb081306
12f8f812
fc0df309
fbfaec02
f5080102
e40df6f1
f9f7f3f3
f3100221
fc2b0009
e904381e
e8fae3e8
f60cf0f4
dfec0d00
e1e3ddd8
1de503e7
dfe91408
f927fc0b
2806f5f7
41d1efe1
faf6e51a
082e06eb
042dfe2d
0501d8ef
060cf7e5
fbfb00ff
edd8ee30
bd03f0f7
de1b0004
f41a0304
eaf21f0e
fe04dc34
f315e8fe
000ce110
3b172202
e2020fe7
0af70ae4
f0e6df08
e5f51802
fbf9faff
e8e7f601
f1ee17de
f4cf05ef
ebfe14ff
00ea140d
fce6f9f0
0c26cacc
f800f4fc
061f07f1
f223fef7
e71605ff
eb08f7fc
13eff2e9
17f2d9e4
ebf53dfc
240efdfd
dafee312
132408f4
d9dd05f4
eaf80afd
fce13108
d802f432
2adb03f3
eb161c1f
22f9d7f4
cc01f1fe
fdf4fcff
f807fafd
fbf10a1b
ec27f2e4
d611f815
0b11fff2
01f0f715
daf00a11
efeff9ef
e40d2b00
021133f8
f4d5efe6
f806fef1
f0eb1020
0a2a0b24
15f9c5d6
f008f0c8
f70b06de
110bfcfa
cab6d217
03d0179a
feef0d3c
33f5f6e4
f509ecf7
1a0f11f4
e027eb06
14f3e603
04240013
f509e51c
eceb50e5
00f5fa20
10e2fcef
fceeeafe
f517f111
f4ec071c
ebff1fe8
1afff7ee
eff643f5
1bf22b06
d5fdf8e5
fb1a210e
0100ebf7
f7ed10dc
e1efc809
ebdf2a09
02c909e4
f54400e9
23d4e026
0002fe12
1f1b23e2
eeefe7f1
05ebf8e3
fc11f117
01e618f3
00da25fb
0be7dee0
12dbdedc
ebeee1f5
ff000bec
f7efebdf
135200fa
0ff407e8
0306ef05
d4e40def
d2072cf0
1ffb19f4
080619c1
cfdef60a
0000feea
0210f84c
e3dff507
12f91204
e81d2ee5
07ebe90c
f9031bd6
f209efef
0828fbf4
fb1b64ed
e8efd012
11b6ebbf
fd00d4fd
ee02dbea
e112df12
e0e7f307
c7e0d0f5
e8db011a
2dfffc04
f8f7041f
eaf00bf2
0000e60e
f915f7f0
fe25e910
f0de0be5
da10070b
ea2c10ef
090a0e0e
fe0dd5dd
fefe0de7
08e2e7ea
e716daf1
eafd16f1
f309313c
edf90009
fbf0df0d
e700f9eb
0a12e80b
140ffd0d
eceaee16
e844f908
0f0909ff
fae1e423
07fdf30b
08f3fad7
e0e3e9e5
f4de1806
fb14d309
f210f812
07e4090b
f4face13
15f80810
e5fbf2df
ffebeeff
ee18fb1a
0bf8d313
1a1712e6
e0dd051a
100fe9ed
e7f1f40a
ed150418
f9f1dfe8
e3f329f5
db05f610
f70c21f1
14e40700
f800d444
e8e608ff
f713eff4
20f81920
fbeb2b0f
19e8fa0b
ec120905
ede842f5
f90fe2e7
13e0d800
f2e8faf0
f3f4ed03
21f21dec
e4f60100
e4f40116
01f6fbf2
e418ff07
fbed0714
e9f4ed05
f60310fd
fbfe010c
fbfdfc1c
fbe7f302
ebf7ef06
ffff012a
2eea14dd
03e2e6f5
080e13e9
d81ff4f9
13f8dfe7
f2e4ef0a
1b212f04
f6f2fbea
030aebe6
12fdf4fe
ef23fdf5
12f900ef
ea00fe07
fffef811
fe0ff5fd
000e16dd
0807f4db
2100e81b
f812daf6
0bfff10d
eb0fe2f0
ff0d0e06
1606002f
f8f5f7ef
111005de
f002f810
e2e909fb
fe16f6e8
00f1fb0a
fd01f1fc
f1f4e8fa
fb03f2ee
f000efeb
fd0ee739
07fdf1fb
04eafeec
f6dbf3e4
00020b1d
f30b2418
e8d7d609
0be12116
0ce807fc
19291413
e10031c4
ecf3f6ee
0d1ad908
f019e7e7
fff70a14
04c6d6f4
0414d4fe
14ea3517
f7151905
e8ec070d
00f3f506
cc09050b
170bf725
22e82002
e9ed0fe5
d7eaf4fd
26f8dce5
eff5edf9
00fbe6f9
05eff708
e8ed010e
071f1dd7
ddf8cfce
071310fc
e706f824
1249ccf3
dccef7eb
efd629f7
1ce3f2ee
f3f7f4f9
fe2700fa
fa010ff1
edf9f401
fde7e9da
d81ae525
01f806db
ffe2190d
0118fedc
0808d8e9
ee01fff5
0dd5dd15
de1da5fd
20ebf517
1b05f602
d80ceae0
00050f25
eef816f6
ff10f9e1
ff0ee503
26fcf6f3
1be6e208
ffe00a06
09fe16e4
c41adc0c
cfe20a0c
2c0807d9
e3fb291d
18fbff07
d80a0410
09e723f9
1afbf9fe
e9f6f31d
ecf9ece9
01ea0aed
fefcf404
fdf30800
01f7070b
0005ee1c
fa1c05fb
000ee81a
f20809f8
f707dc00
e80207f4
f3f90df7
e70decd0
0cfcf6ff
fcec00f3
fc28f806
04ea0905
ef2af706
0eedf706
13e904e6
f704e9ee
11fdf6da
07cafe0d
07fdf00d
0fdde11b
07f9fa12
fef804ff
ecfb16f0
2907f610
18130a00
030ff9ef
f527da09
02040ce3
f5eff814
ecf322eb
eff5fcf0
e9f5f6fd
f503fb29
fd07ece7
f9eb0ae1
07e22004
12030800
1b010401
13040f0d
eee90009
f0f4f0fb
e5d900e5
f7d1faf3
03f2d7ee
f800f915
f7fefa00
03d935fe
f31b0906
0af70b06
ed05070a
55e01c04
fdf4e7f1
0308050d
02dee1e8
f10df4f3
0b01fc00
ecf213fb
10f5eff3
fed916de
dcf2dc02
e52afb37
220fdfe7
e2fc0000
f71dedd8
f60dddf9
0e300f16
f314eefd
fefee11f
e01008e3
2de80000
290dfd1f
04eff901
f6f405fb
e4efeb15
1abdfff1
f8f5e6f2
23290108
14fb1ddc
0117fe0b
d20a1e07
da0ff61b
19ce1c15
150107cc
f803f013
01f00304
4e0f1bde
150cf70d
e2e20022
f3f7fdf1
f4e8ed04
0f15eff2
0adbfa19
0e1121e9
2b0d13ec
e21a17dc
09fa15ec
f61bd7e3
14fc2329
f7ff16fe
062df80d
fcfdead4
0406edf7
f419cbf9
2f05e309
10e930fd
dbedd119
0cf8fe22
16000c0d
f6e2d60c
e0000802
15ffbef6
170f2007
e4e3fdf4
f019e905
e5ce0b04
15f01613
ee09fe0a
0512f109
fadef2f5
df50072d
1a1514f4
eff7d30f
0de408fa
cfdae1e9
fff8f9db
f7fa0403
052dedf6
e1092105
001dfa22
eff9de2a
2b1c1bfe
dc180bfe
ef05e6e6
160500f7
fc240806
0a0bfff8
0ff901df
f61ef911
e10927ec
11f114fb
fc3818f7
d7f315f5
15f8eafc
39f60426
e12a00fe
10e109fe
f01901ed
0c24d6e7
02f4021b
2508fbec
fbe7fa11
e206f3f4
03ff19d6
17fafc15
dfef12fa
f1e30d1f
f6e7fbfa
0a27031d
0422fb0b
29c4e30e
ecf3fd36
ecedfede
1d12fbec
de15d8d3
0dec1602
22280ced
002be7f8
2ae604e1
2d122102
e7fef807
0417d721
e108f60f
f1ebeb0d
d71ce0f3
ef0d01d1
ffe31901
0cead1f3
0f061508
d8f2fafa
e5080605
cefe0018
15243015
efe710f0
fdfee603
ea040f0b
cffa16e5
e2f81410
c9d4c908
11e4f313
0ff706e2
0a14191e
0f10f4eb
e60af20f
22fe10fc
1bbae80f
000ad8f1
0f19fbc6
12edfd13
f1e427df
d9fbe704
3aefedfe
f6030a1d
00ea0d2c
1e170003
3fe2091f
f612ef3a
12ed00ee
f60f0817
04e33324
ec0e0bf4
02f8f9fc
ba0bee04
032a1c19
d517f632
e7152bfb
fa0de6fe
0cf60b00
e806e2e0
fa10f403
d823e2fe
26d800cf
edea1726
faf81f05
1d2a250b
dff40013
f6102dd1
f248faf7
f018d805
29f306db
f5fd1104
e202e005
fddffffc
edf4ebec
fb0a15f7
e4fc00f7
d22debf2
32ece404
d4ee0121
fac4fef9
e3f7fa1f
0cf92bfa
0cfb0f02
edcef906
f51cef2b
f5f7e51a
ed0f04f8
ddd723e6
e6fc10ea
db091f0d
14f70c03
25f42cec
19e1e1ea
0a03fdfb
ea210c11
0708efeb
0f1a26e2
fc0f0412
09f2f8ff
1cee0fe6
effef9dc
edd7e2e1
00ecfbea
000003ff
fbfeff03
fe02fbeb
f9effd2c
11d51cfa
0becfef7
1301f10e
03f617f6
1d001905
0fe71409
f6ea0bde
f5071815
100a0af5
e3f804e5
0313dae2
fb22e71c
14f1e9f1
0406fbfb
2a14e5f6
eee8f9da
f70302e4
01091f20
2becf60c
20fce20a
08020300
1df7e5f7
0015edec
121a2800
09eef010
f41c07e8
14e815f0
23ec11ee
1110d8ed
1402fbf9
05cfea11
15f708df
fc091c00
0608f916
0af9ebfb
fd0bebf5
02fadaf3
f7f1e70b
f810eeec
06ffeff7
fdcc10ed
f314e60d
08ea09e7
02121fdc
0ef4eeea
f6dd1100
191c2607
19e1c717
e61c0d45
70f4009a
de15afea
dcf2fe1f
0510f7f6
f3eeda77
2ac31df3
1d01d514
1648e4d2
63ff0775
1fd11a2b
eee84a0b
5ef80f2d
22b61b04
040e0a0e
e504e9e3
f106f1cd
02e30928
17da010f
aa30eced
32155d29
1fca25e7
fd0eff5a
e0f323f9
03e0ecf9
05d1f4fe
2de2551a
3bf4071e
0cec5b06
02d6e47f
ff0bec10
3831b47d
e64bf2e8
d6e2d9fb
c3181158
00e589d8
0cfbfe71
ed2b2710
05dc4f80
14fc2bbf
1beefadf
2ef62f06
17ec2dd6
f8e80416
01dfc630
ef0594f3
f49ce8db
a88f48ed
4dea1a1f
e07f0308
cbe7f51e
ef1e3434
1f57f6f5
2c22ef38
5625d1ba
0aecfb10
072b7f34
e4010d14
dceae3cf
fdf211ce
044bf62b
beff0a1d
e1c84c00
140403b8
05ec1416
16292edf
1502c21f
0d051bf4
e61aef0d
120bf8e0
0ffd0d0a
f41ed43f
f6bf482e
0be61411
fe05fa1e
15e3f1fc
19ef2f0b
dd14f028
e80af9d6
28160509
fdfd0a10
eaf11cae
17e1fc0d
0000f50d
ef00e5f0
1e190f12
2703d907
f811fa02
0516f8ec
e81915e0
ef070d11
07fd1018
fefbe4f7
f0fbf827
fde106eb
fa0fbe04
f915f10c
1af7eb13
ed091308
18f4fdfe
e5fc1109
02e0edf2
0a0e1214
2df8ffd1
f82a25e3
04fced03
e2d5e900
1704ed24
f1f8b3f3
0feb19da
18fc1df5
e325e002
0ffa0beb
cd1419ee
f807eefa
14e9ea0c
170b3600
10e9fb00
0206dce9
090407f4
8021e8e9
1704fa26
e026fb02
0616f557
0de900fa
18f40010
ec1c1ce3
ed020af6
fc0807f7
f8f00e07
fd1adeee
f100fcfa
f9f82202
ef17f92f
00080c07
f6011012
fc2147e8
06fe1af6
1efefb17
0d05f4e5
2106f815
fc380413
d906f50c
2814f20b
fb0403e5
e7000cd0
28eaf507
160b09f1
f2fe0c0b
0a09032a
ed07f740
f5e9ed0a
020ff305
07ff130d
eb120af6
15f809f6
fefe170a
0018fdfa
fbedea27
1306000c
f22100fc
fdf2f0f2
04f509ff
0f051ff4
1cf8011f
032cecf9
f0f703f9
f2faf501
ebf0f910
f2f810e0
0cec0e00
f4ed0714
fdfee104
09f8e8fc
f9161bed
eafc1a0d
25130c14
f8eb03f5
02fb03fa
de000dd7
f018100d
16e3efff
fbed060a
0d0cf7f8
cee3e7dd
1b10ea15
0b03fff0
0009033d
f401fee6
fc02fe02
00fd05fc
1d3ee5e1
243d22f3
5001c380
2f5f2d13
f3f9f905
e424f5f7
c723f4ed
c8d01ce3
c60e3e2f
faf534bc
22183468
01eac95f
05f9450e
e4f2e5cf
2de0c00a
36ef4c30
074992ea
36200b1c
010bee22
4c04031a
1b0cf500
fedb4e25
e31122f7
013625c5
ed1a28f8
021be311
c907d836
3406f115
e8016475
d20d2819
0ec2c936
2319f8ff
2b0bd47e
1ec258dc
7f03db12
0a7ff424
08f29d0c
1416fae6
fb0013dd
d1dc0980
3796eb49
ff13b1c1
04172e1a
fdf3fe1c
e9f213f9
25fbd2df
dfd4f3dd
0bf1e325
e8f42b13
1620f9e2
267f5c00
02fb53e1
0d270162
145d1c31
10e3fb29
2f390c00
d5f5f0fb
cd7f3f10
3733effd
d0eaf2dc
21e50c8c
1258f911
48c7b2f0
dee0f400
071d00ef
22e200fa
ef0ade15
e600fa1c
19ff0108
151ff811
0512ffe2
fb0d15fe
1931fc04
18ea0805
0a1bf903
f00009fe
f903000b
fd050a26
f4fc092c
f918e801
140ffa11
11df0beb
090df316
09fa1b0d
0f10ff14
1716eb24
0b0620f2
f71d110e
fd0b0f00
e2e60500
fa1afc0b
250ef701
1807041c
22f60e1a
e2fd1e0e
17f6f8f4
fce3efee
fb0cf502
09ee0109
17fa19fa
230800f5
f11bf3f2
02fd1c24
f601e200
11ff0cdc
ff211b11
da2aed04
ec06f8e3
10dbf50e
ebe9c1f5
0c091bfd
26f74c14
ed1feb0d
f73901fd
df021225
25fcf4df
1efa0d1a
12edf106
041c0b14
f2ee00f6
ec0d0fee
c9faf7f7
e40f00ff
faf80f09
f404101d
ecf7fd07
eefef516
0e02f80d
0906ce03
0415090f
01e3c70b
1903fbf3
061939d7
181ffa03
0011f4d7
03d9020f
10df04eb
f0d719e4
eb1af2f4
11cddb12
14fd2418
02f9ec0f
28fe0feb
000404ed
02e405fc
06031c08
06ebf714
eeebf106
12f716ee
f30e04e9
0efe0ff9
fdd6e3e0
15e0ff38
e80721d8
eefcd3ed
0f00d9fa
de0019e2
190b10f2
250cf30a
08f83df5
03f5fef5
070810e9
f11c0a23
071ff9fb
1914fae4
0206f4e4
fce7ee03
1ade0f04
21f5fede
f1e212e6
f21909e4
fbeffbf2
fcf116e3
ee16fe01
121904e6
fee316f3
fa28fddc
f718e8fe
dcf8e9ea
e20eebe8
1700dbf8
e6efd3c5
e006ea0c
e0ec2008
fc14e8f6
d8d7e8ff
d4f90149
00de1dec
ddf214e5
00d9e80b
d1f62000
e7f33f21
e9c3ddf1
f8f6eb13
fbf61f2f
f1ded4e6
08f202ce
f6f07ff0
f6a2f17f
eaf1d911
e2f12feb
22fdf77f
011a4ce9
c210c4d3
e6250707
09ef076f
c8c0dec5
dbedc7f4
ffdb021e
ebfe1335
eaf400ee
4af7f10b
e0ff1ffd
11007510
06f5c3c3
022fc67f
0acf21f6
fa093e15
facabefd
41075d0f
221743d4
0c2234f8
009e252b
f610fdc1
267c3fed
003fd7fe
5ffce0fb
dc3d9c68
f2253513
3a20ca11
d139102e
e20dee70
e91108d0
f110e8f7
def1df08
da1e3fe3
28dc2614
03fa06ea
e354100c
0ee827e3
ba520130
f7a10fea
d3faaede
01d4f203
ca1c0c79
f209ddf9
b5ee1025
dd1e4a05
ec2af200
00361e09
ce1debe0
60d53f5b
f204ec13
3e2b14c8
ba2f4d27
09e9e0f9
dbf7e814
e2faf30f
0e09fd1c
0409f114
ee0042fc
0304defd
f93ffae6
05e417f8
e6dd0137
edd5baf4
080602eb
0de5f81d
1202f0f6
f5e802fa
0b08f6f5
e91003e3
7fe202f8
e7fd010c
1cede5e3
c90c0f10
0007fa0b
e5f12efd
f5f0e901
09e4ebff
de0306e6
4fe12fd6
f202ecf5
003a0d00
ce0c04fc
010af1e6
fed8eaff
01f53ee6
12e30c26
03fbf8f1
fe1af5f7
0d1e1800
f70eefd5
0ed8ec17
03d8f2fd
f8f1faef
06dc0eee
00ec140b
19f2e400
3befe901
08f3e303
eafcce17
2af7f701
08f6fee1
fcf8f3f3
05faecf5
e0f6f9f0
ea0bf814
fc1ff004
fbe4d7e4
fc47fa0b
0e07cfe4
05e8d5ef
e4e7f7ff
ff1cdd3c
0a0ee8d2
07fa34ff
0216f3ea
f1e80ee5
07f50ae6
2b050803
0afdd821
52d4128b
7f6af2de
0516081e
172ca4fe
cde211df
8714f73a
c0cbb9da
daf02a80
162a71e7
f100db31
0a26b7fa
4fdbca26
db0b3bde
e2ff1f41
1d0400fa
fc041edf
f8f2ec99
1df4dc17
1313d1f4
32b74108
dcc7fcf2
f43b0052
0eeef7ff
0447ce68
80dff03d
e7edea20
801419ed
f77f00fc
d0ec0e1a
eff6061e
f7f011ea
0c800b23
e9d0f6c1
f6402d44
12e06cec
24d77f96
0cf55eeb
12f319f8
f004d2eb
03cd0aff
1401fe0b
2dede5d6
fc1344df
211236b9
f3f42ce9
1124173e
99e05feb
0050e3ea
f6cd03d8
0fac291d
1c167ff7
32ace19d
d9e5e89f
fd1f2fdd
dd0606e3
e6ade32a
e2e61705
79deffef
e6fdf5ea
3d8007e5
39431100
3ad80905
00ff0005
fafdf308
04000ff2
02070309
1818f2ee
0408fcec
f3f03a0d
e0f21ef5
f1dd1013
19cef707
160301fa
f8001cec
e40004e6
18072402
0deef101
e210ebf4
e3ff0af5
0ceaf2fa
0521ee34
26c9e5f4
ed0505f9
e91b0b01
c6d3f9e0
fcd6fafa
ee30fc10
28f71f43
0f07f9fb
0c2906fd
fef91d09
15f3f0ff
191400fc
04082013
040e35e9
f5efedf9
18100016
ee04ffe1
13f90006
ea061409
00110403
f9090eff
eeee0f0c
e80be3eb
140533d8
1ee3e029
04dde8f9
04dacaf0
ebf1df0d
13fc19f4
f80bf802
c9ef0a12
0c0202fc
edcc1141
c610141a
e0f3ca0e
0003feef
d8edf131
dd13f5e0
ffe30ef3
09d7111b
0400ea0a
fd0b11f8
df010bfc
fced06f5
09ebeffa
f909e90c
0a02140c
02dfd9fd
f009120a
f5113401
1cedfc05
202630f7
1cf0e7eb
18fdf8f4
fef9d2ff
f30600f9
18eeeeee
09ea0710
13f4f216
00f2e0da
e816fdf1
05f0faff
effc19f0
dfdaecf4
041b05e5
0ceee3f2
ee12f7f6
e8fdfaee
08ebf105
00df0715
2cfd0a03
0ae200fe
f63e0bf2
deeb17f0
ee03dcef
ea16110c
f6f2eaf0
ee0bf60c
f6f6ef12
ed28f415
f50300ed
fbff05ee
02010016
f00ce301
07f8f7ed
08e820e5
0610deeb
00f1d70a
1e09f7f8
0d10f2fc
15ece5e5
22e0fe0a
fa00f4f7
f3f1f8ef
e0fd0716
e814fd19
120c0535
0801ee01
f4eeffe9
06d412ea
ee1200fc
ed1816f1
d6e0e206
0018e734
e8f503f4
031b272b
f900fd00
d31e18f7
15011309
ba453e00
e9fbe927
7ffaf97f
47f7c7e5
06eb0001
f6f572f2
1c0ce8ea
0a0c16f1
050ffd19
eb2fdbd1
1e1dc4db
04162106
00fa26f1
0f75e3df
b0449c0b
d9f81323
fce810f8
ba03f490
5c0702d8
ecf3ddf7
cc17ead5
c7cd670d
dceb14f6
57757501
1a261a0a
0ff0f70a
0cf6c94e
29fd31f1
2217da22
e5ff25e1
093d1473
00e238b9
0b7fd2af
17e7cbf2
e6b803f0
cf005ec1
da1233ea
ffeee0d7
f33ae1cf
fc02feee
0c33f4ef
058cfe09
d2023122
1aee1dde
ff2b17c5
240ddeed
1b1e607f
36410d32
efd918e0
002f1b13
a8c2d2f2
fc0aadf3
16eddb00
d8dfb9a9
06fdfa17
1c47e1de
46200f0b
3be7c437
80ed3706
2e0cf13e
d7f70de0
10bff9f8
00b21e30
dcf953e3
f0df0509
100715eb
fc27ddfd
f4ee07f4
05fceef5
eb0903e2
df0a12e3
00e7f111
1f16f714
1517f3e9
16fa020d
05f00408
190f070a
d30ee7fd
19e3f2ec
20e3fb11
1c070f19
070013f6
150fdcf8
23f4170e
e805f905
10e8e010
0500f315
0002051c
16fa0b04
fffdf1de
fd14edf6
1420e1f8
e8ffeefa
00efe907
00e90a00
0e0ef1fb
f61df00d
ea15ec00
eff5f512
ece60ff1
16f8e3ef
36fcf0ff
00fe0ee2
ecf1eee8
0efd1df7
17df00f3
dfeef710
00f0eded
1ee90808
1a1df800
10f5f9fe
06ff05eb
0002d4fe
0111fd0c
00fc1416
f9e40109
e4f6f8fd
01fbfbf3
fce51bed
1d0007e7
f3ffed13
e7e1f0fe
09ef0c27
02fb0503
fff1faf0
f6f8f500
dbfcff1e
141cf5f7
13f6f8fa
fd1408fe
1decd6e9
0601f920
e3002f12
3e0aef0c
e2f728f0
e9d4ecea
1411f7f5
29e707f6
03f4eb09
fa0711fe
0b0801ff
05f90d1c
fc0cfa23
10f51d00
2006e3fb
1bf32213
ff12dd05
fc19f822
ea1900ee
f81ffa05
e9ec1102
1100f8f0
0d18ff18
f8e0fff1
f4f512da
020debf1
e5090620
f3f50010
fef3141d
e6f41df4
f5f6f0f6
fb01f5e0
e80e00f1
2123f2fa
04f4dd10
f0fdfaf7
22fef0ef
0e191af1
15eb0d01
12d3fe20
161cfa20
1cffe707
1ff9190b
15dfd3dc
21141800
0cf90814
00f4faeb
f9f7ec03
ddeee7f6
1a051afb
f309f60c
f806020c
fded1204
001d070a
0a02edf9
f3e01527
f027fa32
07110bec
160e15ef
12eb060c
fbe6080b
04f6fc29
2353cee4
191bddce
3e03fb0d
7f86520b
f30e10df
250940fd
08f014bc
0ffbe030
ed1abd13
0be27f16
33e82175
170215b1
fbbbfbf0
f62002c3
ba38b6b6
32e71d42
fa1843e0
341eeeef
e4d9b678
44dc16fb
61011408
f3e83cfd
06ea1311
dc9b08f2
17e107de
066f2554
c2200420
e1e4fef2
a1f8ec1a
c72eeaf3
33aac2fc
d72fff0e
f784f963
ed80b123
30491e04
08003508
f5e240f0
26f3e0cc
3cf4d2e1
2b073fd8
1b071327
1711ef11
52f3fbf1
e2dd9d0a
35dee6d5
b5f204fa
070207ed
eb43d122
cfce6afe
441b0a2a
5e9a1806
f2d70706
ffe5d17b
1efb2241
59ea160e
37c4a7f3
acbfe903
e6caea04
371f27f7
f318ee09
18f811e3
d8f40513
28abcf32
29ecd205
bce0edf0
eadbf016
afeb5845
fefee903
01f82308
e1151de4
f3fae321
1e1ef511
08dfdc33
11fb4a19
f3faf4dc
0807ec07
00f5cde8
2f8e203a
ca152d0b
0611ddca
11eea311
00fdf4f7
d9fef6b7
19f0fd11
0df6ea00
1ce5eb25
15eaf51c
ddd9e95f
f714e024
18390003
e6f503d4
ed0ee8df
09fce8c2
e014ff06
1207fdaf
080b14e3
dfe6d7ab
1d23b4f1
1201ddff
11232401
1121f71b
21140706
06e5e1ee
fa0a1030
d8ddeebe
f3001be9
efedf817
d9ed14f5
0b2a0d2b
1cce100a
0cdfe3ee
3bf404cc
d629fbfd
e7e1f118
9d34f918
ea05e6f3
d3fa184e
00ba04d9
18d2eaed
19d228d6
1ee90225
d72c63e3
1819dcf4
d3210005
ef101dfd
f3001cf0
d60df5ed
04f3efd3
2205c72b
dcb6f33d
df45f9e2
e04803f3
0b1e09ad
f4ee80ed
f9261a78
43d9fee0
0f01430e
0cb6d202
f01807d4
0baf000a
15e80f27
e2cfd9fc
175f5003
fe01e1da
13dca632
e594e737
d92adad9
4545eee7
1d0bf4df
23dc80e3
13e0f5f0
0c7f222c
33e9f01c
e44b24e7
c474d26e
021ad119
271f72c7
debddf12
f23e2720
fbd70837
250a4052
42eb323e
28e40ae6
0649e744
f009ffff
2f104e2a
02ff43f5
2400b02c
2407ecdd
bd2c00ea
de2ebee0
e87c25dc
d6ff2415
24fb0a3f
1725c200
171eea2b
adff1dfd
3ae2fb19
143bdaed
fac69d13
bd12e8ce
f369bde1
b5eb27bc
0750d8e8
c6441be7
f40cf9f7
3afb141a
4d02e820
091cddd2
ededeae5
e6315b0a
0ee4ef22
f2ef132b
00e4fb35
050e0703
fe051013
08d923d8
0719d1e7
ef00e5ef
0008ee0a
f534f00d
edbcd113
faf9fc0c
2535eb03
df02e8fa
fd1efad0
dff106f2
f6de0ef4
38ea04e8
e600e2f2
ef140bf8
e014f8ec
0be3021b
ddee0ff3
222107e5
03e212e1
10e5f413
0cee09e5
ecfcf7fe
0224e706
f2fc00f2
04050efc
fce1fef9
3048520c
14fb0001
0b03fbe7
10fb29f3
ee17f608
04daf9ea
dbef13f5
f3ef10fd
0008faf8
f6f5e2eb
fa040cfb
f7e0db00
03e52a00
fff4e8e0
03eaa506
00f50f06
0be0fb0f
d813140f
f9e014ef
0504f3e7
0f00ccf1
e100f804
00e4fee6
012e0be2
ecf5e1ed
0d0c10d7
eaf1ef00
f1ecddf9
0b04c0ad
f3f51b01
0de5ff08
f815f110
15f4ea01
e4e2db19
1bdbfff3
421631eb
270bab0d
26f10726
264ac917
e1fbfbea
e317b5e5
17e8080c
f606a69c
d9cb7fe1
3e2cf4e6
32184a11
f6aaac0a
4d4214ae
15d7c7eb
f9040036
f4f6df9d
a7efcdc8
7fc3efca
f91620dc
0c04e2f3
082317e3
2e1de924
2add0ef6
0017337f
c73ac17f
2527980f
80f2d37f
ef660e12
01d71139
0b1ef747
e5abe44c
0fb7d528
4bdc11e4
d2f505bb
230413ee
3cdcf205
1fabf0f1
24e0fd06
20e7fd0d
ecf22bf4
fbc5e52a
db95e51a
e90b1912
14293660
fbee26ca
3f4cf0fa
da230008
ea3002f5
d304fae0
0ef6eb07
cd0ccd5a
cb4daf3b
00d7e026
46cc0cf0
bdc31ccb
47f86740
30dd21f8
45091cdd
f8071901
f4b6d952
a600fcf3
f5d3fccb
ed24faba
db180502
5653f317
fe7f0309
d43000fa
1544d9fb
df01eb80
33f501ff
f0fb8f03
f7f50efa
bfca9646
0ffa2d98
08ed1a06
16a30bcd
7ff947ea
e604ec16
ed06ceff
eb1f17f4
de1da606
e7eef2de
f516db55
44e92811
f0e0331d
c9807ff7
003be4e6
1311f7f8
bc3375e3
e507b518
3145e920
ee188026
f62a0051
fb5b3755
ef980187
fadc4826
47cb12f6
d3eae30e
ec2f80f3
c9fd1d1c
1ddfced1
093b07cc
0025d4ff
03b01805
48c14c19
339fa9e4
20059d0a
ec16c3e2
e4d5eeb7
e87fd2cc
3a4cf1e1
fa43c4e4
cb5d7ff4
f12427dd
f6dd57bf
14eb0dc5
0cfb0e44
23f3afce
01f8cfcc
abee1418
7f09f7e8
bff21dad
1fe41508
fed8eae2
11ceb8e8
dde2aed5
e5faefff
f8ea131b
f721e8f3
050902fe
e40711eb
ff06fd0b
fbfee9d9
002cf3f7
f41ffa0a
fb13f412
2710d825
211021ec
18f9f4ea
0600f000
ee04f0f8
fc09e70d
050407f6
00c0140f
fe1f1fe5
fc3bf4f8
fb00f60c
fe2309fb
290d0707
fff1f535
f30e00f8
fd0e05db
f81a1402
0803f6eb
fefd0cfe
f705e7fe
f3da0e01
12fbfefb
0408fa21
e9e9f703
09e9f9fb
f90b0cfc
fb0df920
07052f00
f41e082b
e90c0e08
eef7021c
050b2325
fb0cc700
dcd933ef
0edff209
fe2c950e
160b19fe
ff241306
df12ec13
0a05ea28
f300fcfa
1bf814f9
f90bfa00
120dda0f
3114d2ed
00fe0af9
2e16000f
ca0e030d
0cf2ee17
f514fcfc
eefe06ff
e9d9f2f2
fb2601f9
1f1ce915
3bbc12dc
fad1d701
afebdf9a
067f70f5
0a08f509
e9148005
fcfa1956
8007fd25
d3f015fe
eb05c2ac
82f4e1fa
b50df712
1c452bd1
f6cb1770
7f017624
f8d8f47f
21f7d501
2010d622
f8102c93
23fdeefb
7f04f800
00ec7f1a
be3413f0
17362d2e
e0000900
11250341
bbef00e9
012a0b0b
ad01c50c
f1396aea
d070cdca
f1c9f97f
e2f01ec9
ed40c30d
2ee6fcd8
000ad0de
06108ff4
fb1470ea
172627e3
2215082a
24adec32
0fbdb8ee
f9f3fffe
f0dc0606
2634e6f0
f6e3280f
0730a39d
00330165
bc072feb
1cf1f1fc
f900e31b
dedd4401
fa321ee7
02abb6d4
13f3f8b7
df1702e6
f0220301
627fe01c
7fdde2da
9d31fb92
ebe4e592
f48fe60d
e61acce6
ddfed3ef
061aeafe
fcfcfa13
f519f714
1105fff5
f9ea09e7
1c1ef109
fc0914e7
09250502
fd24f800
08fae207
111dfb24
25f40e17
0015030c
13f40d07
f3faff0e
fcf90bec
170813ff
05eb0a15
0e0c1f0c
1e180116
240f0c29
1a0f0202
01fc03f3
d4f9f50f
02060e03
f31709f7
f2251b01
0b1f0af6
fa130922
f8f1fefc
ebf40e26
15f901ff
000bf8fc
27fa0ffa
0eece613
002222fb
0002e901
f702030d
051b0b46
ec180bdb
020a1927
371a1624
df0dc812
03eb0105
0ac6fe16
040ab10a
1c15feff
12eb170e
e91eed16
f124090b
e91e0813
16f1191f
12ff0116
060bce0e
20fff00a
fcf01f2e
0d141413
e2fcfc19
050aff21
19140cfc
07110403
e7e513d8
0608e91d
10080a1a
12bb4c22
ebfecb2a
f7bedf2a
2fbdd9da
44b600e8
e2d1eee8
1e320fa1
1807fb0e
1fe70ef9
c6fad41a
db1c4e0b
f3d32265
2fd7a4f6
f1e8ec33
f323d665
cffdfc7f
dfd6c0c0
11acedd9
21142858
fb25d7f2
070adec5
ad150f13
eae727be
7c7ffb46
25d00aef
e47fe935
e8c30e40
ec0ef70d
08ee4fca
053b6715
fee5f242
f5e6da93
cc3a1260
b54f52d5
0dcdf200
052ad0f4
d414af04
fcd9e71d
d417c42e
d2b5f341
fb7ff312
0202d41d
99da801f
d17fb9d8
a50728fb
1c1c144a
d02f351f
27d22afc
139941c0
d80b08f6
c3c780da
ded9f10e
040a18c6
feb0d2d0
f606fb87
07c8d4ee
030af9d2
1b09f3e4
91731aed
b3ebf925
0c0c1480
d30d00cb
1b01240b
21de3d48
eae10fdd
fc130628
2afffadd
f8fbeb2e
f70b3ede
1a370902
fffd0a39
02ddfa00
f01cda04
32fbf401
0aebe631
e1221317
08021e03
44d715ec
07eedee5
0de907fd
2cece815
13d521e9
192300e5
560508f0
22030217
4800e321
f8f70cf7
03e82016
e6cf13df
091b12e1
f522eae5
fc0311fe
d42c13e9
fcdde927
e9fc0ace
fcf3ef01
1ad9de16
e6e60dee
d244ffea
091cf0fd
130de618
1f280e0e
10f0ef0b
d6e9fcf1
e0f418f4
1bf70ef5
090a00f5
17f4f111
f5e8ecf6
e206ca28
260a0708
e718fede
05e81308
f3d721f5
dfec0011
f9ea1127
00ea0bf4
1015e5f0
e018f31f
10d9f5de
e317f2e3
f4fd12d5
f1ffe919
01ee0003
00031dea
fced21e7
ebd910f7
15f51c0e
fa20e6e5
f6e70d0f
04ead702
f5e10625
0a040dda
15fde3f2
15d6e028
00f9f7e6
fb05fd00
01fae907
071c153e
f6e40cf8
0ef52400
21da2429
1d0bfbed
0817150d
0607f929
ffc92a2b
f002fc0c
f6171b11
1d1b25ff
12f2dc10
e7ec24f8
f0f4ea17
0bcf1c10
1d04da28
1d27e632
fa06f929
f41d0007
0bfbedfd
f629e81b
1600e6f8
dfcaece1
05180100
1dde0ee6
f9190905
f80f101a
e41f04ed
fc030905
ee00efdc
01f6211c
05e6ddfc
ef0fd50e
fb0ee401
00faf909
1b0ce906
00f2fced
29f60a13
e8f70916
e9d718e8
e30f0f22
0ee4e8df
e3101812
21e6d612
e3e70def
fe100200
0e25f914
e605ffea
e61001f2
e9051520
f3080bf9
f8f410e9
e632ef0e
180f06e6
ede5e827
13ed0416
f2dbffe7
d6f84502
0efc1a06
e8f6e6fe
05f615fa
ddfc39fc
f6000fff
f5dbceda
f716dcc3
e9f213fc
18fc17ef
f2e1f2ff
02d4f2c3
f6220754
1801e709
22100d0a
1bfd0e10
002c1bf6
fe020917
0425f8fd
0000e4f8
cbf6230e
03ec0510
11e30b04
2e15e700
f80802ee
f3edfc13
f5f30c1b
0beff30d
f310faf3
00f8fde6
fe0d0719
f212f017
25fbf4f6
280ffde5
eef5d8e8
ee24190b
0fdf01eb
f92a0815
14ebf70f
0df0f011
212614fc
06f100f7
0af3c3f3
1119fc11
10e3e710
f1db060f
0dfc13f8
44e50efa
0bfbdfe6
eafc10de
eb04e8e4
f938f4fc
f9f001f7
e8ed0b13
fad4280e
001a2129
220520ef
070027cd
00dff201
d81b0a0c
fefbf61d
00d9ce00
f6f5f812
010dc40c
1eed1f08
d81700f5
2b11e3dc
041507d8
f0f1fd0e
150cee11
2bd6c403
14dee00d
7d000e11
f2161006
2709d4e4
df180213
fd0f0a0f
feef241d
ebdbfb0e
1814f8e7
07fdf1e8
f4160a15
fb0724f8
02ec260c
07000c00
f72c0c09
10f11ce1
0011fecd
fbf8e800
cbf22c19
effdf000
27d111f9
011a21fc
e4e7bd02
e7ed02dc
05f11811
1c0ed9f7
2614cc02
082649ef
e5e5e71e
10fe4413
f500f3cf
000c1d1c
0c2fde1e
ffee45df
f2e8d90c
e5009711
1efdf9f2
fff2e1e4
ea04d9ed
fdf5032f
f70fe816
08e630eb
fa1fe60b
ff12e706
1ff9c900
f50b0206
7501f30d
c1f6ebf1
fa15fb2d
1713dee1
06fbe7e1
15d5fff5
d8f31512
0212ea2e
072dcef7
e4f0f3ec
41dc30f5
1fa98016
2e043bc2
00fb21fb
23ff0247
7908f5d0
3a2d02e2
f9b530bb
64f558b0
5ffc1608
c805325b
f3c5e1bd
80b9f6d1
e500dff5
cfa211d7
19d7e5be
eabfd07f
57f400b0
f62d25cf
f4f0b021
45b0bb8f
c10a0b0a
fd84ddde
ed18cfd0
ddffcbe1
0c0c10dd
3eeb5f78
d4041fe0
2a80f627
0c420096
d4801d7f
3ecffa44
1a1f38e7
2ae6d6d6
de0f5ad9
30ebad5f
dbf53634
e11038dc
dc20f030
012203f7
f8dfea17
d2f82deb
00eee8a3
d7281247
04140412
d10eefc9
84ae0a24
4772b5e0
ee41eff3
e5e4a42d
02f7dc9e
1d2cd6c0
dad8f7d6
49f50dd4
f516f0d8
1d8f611a
a72bf9e1
4fc22430
eafcf598
e557df2f
ccf80227
48c6b624
fb0640e3
1308f207
ca15ee03
7f7f32f7
0e2a0ff5
c5ec80f6
0f1d3aac
a80113dd
dd006514
f1eb630c
a2cccde8
f9d3f321
1fe7c6f7
1328d480
d13f4c15
ef21fa1a
13f17ff7
384edf7f
da311f1b
14ecf9fc
27e6faee
4a14cf13
2e17eb0e
5d4b1305
dd1c01d3
e2f76cfb
0f80817f
e921c613
ce1d5b03
139ca008
2dfae4f5
2197fb7f
2c2b0031
f0ec04ff
44f013e7
091d099d
d8097fe8
dde709f7
da80f9c1
304a96f8
e3aa19d3
f4cc25e7
03f180e2
0e09b116
aec7f900
d6ca0c7f
12fdd824
25e1eefb
2c42efdd
80d0342e
ff2f44f7
ff123dee
04170e75
0029ce1a
3af2dce6
0cfaf337
c5fc00f9
b800beeb
bf150823
273aae1e
32fff6e2
18cd1636
2ffb0d09
3fe042cc
0d130938
e7210ffc
eb0ab30c
f6faf50b
420c0be1
0403f209
2a0500fb
fae2fdee
dffaf025
fac0c900
110be8f5
0b0d0302
0015f81a
07e04f13
0fe808d2
ffdef30e
30fb0705
0fe1f8f7
00deeb23
0ff106ef
db0bfcfd
ec0f03f3
a1f5efe7
55e701f5
edc1f006
40e11737
08eb18e8
dc43f21c
000f1cf6
001ac3fe
3324f0f7
16291201
d70ddc03
20c500f0
001be614
0bfe140f
f6f1f600
f8ee10f7
e9000400
02ecdf00
08f5f3da
dd02d4fa
fe1e15f9
0d0be3fe
01e9f003
de0dfbf1
00ef18ea
0bd40518
f700e400
e0e1060a
db1b0d09
18fbfff3
0512fd05
c1fde821
060011f1
ee2b17f9
cb030eff
0aec0106
0016ff1e
f90feb1a
f01106eb
f00905ec
000a0604
f1fbfb06
03d402fa
04f8f818
1bb1e180
67ed4c11
dcfdc43a
e72092f0
0fcd1ab5
80372b0c
0d31e53a
e701ddf9
ce2e150b
cd000e80
e92be7ba
bd28fcf5
29f11ce1
f0feef65
f916161a
80cbdab5
ffe51df7
2923f107
78f3f416
112d7fd3
e35f0c27
5da2e1a7
001ddcd3
f8fd15e8
6fdfe008
05f9effc
fb1a6953
ee34e21e
0b4fe1f8
0ac62148
554898e7
cd0b36e9
a209fce3
fbedfb15
1fe923dc
17da080c
0428f7c3
f213d528
e63e0e1d
efe3f021
c2d514e9
e4f6c0fb
11d2b217
14f79719
2709a8f8
f512c63b
64c342b4
cefdfac2
08a557ed
18004202
24eddd47
dea11f13
371c573d
b256c629
38c6daea
3c2cb90a
33f51af4
2cec13ee
dbf90738
10bb332d
1bfb2d0f
ebe1d3eb
ecc3d6a9
ef35df00
0b150e7f
0fe7c903
e6f71dca
e8ee250e
ed1831bd
5cd8f3dd
143e5e3a
e4eae1dc
deadba1b
27c11426
1d2740ec
b7d72080
322b41bc
d0f3ec21
07e5d3e2
0405df06
ca01ec0b
fbfe1e33
3aeb210f
fd258017
1a1a2ad6
06d0e4f5
15fb00f7
ec7f0cc4
39650cfb
f6e243f3
2f0521c8
f0e40316
291220b7
2846f679
b9232350
3a511ee5
66272ef4
00412fd9
fcfb18db
0ee02116
fcd9eb1c
0ef931f2
fda70d01
0c2adc08
080f14e4
dc4e80ff
1ec7a8c9
d037af6c
e81d4930
3056c4f2
d9754709
05aeed35
345d3309
1105261e
dbf7d919
f514fa17
2ee20819
4d04ef10
9fff22d8
0f1e461d
6020192b
ba320a15
e60fffc8
11b6f6f0
0ce6ee1e
e7dcc112
e402ec25
e6ece8f1
eeeacc08
01fe37ff
ff0df4f1
fef20702
d2040013
f226e518
0bf81600
ff1de3f3
01fbffe8
f412eef5
eb160f02
ea0df4de
f8fcfac3
eff1fa1e
16ec0de2
f3070000
0fe7f8fd
f851f5e8
0df9fd11
ecf90bfe
3d0408f5
c8f441ef
02dff6f8
eef215de
09e8dc0a
0314f200
fefff00c
fafffdea
f0f6f6d7
16130812
0ef15700
d300f701
f21aef00
f701e3f5
f1f513e5
ecfef30b
f2f4fce6
f5deebf5
f707f80c
f5d0e4fa
11030fed
31130b02
0a1408dd
f0350bf3
06ece317
000d090c
17de1607
eaf6ed05
0dfaeaf3
e3d7fc15
08170cfe
ee0ad7eb
f72900fe
fbf8d500
fffbf0e3
e6e80e20
e9f400fe
fff11de0
f3f5ffcb
eaffe1f4
f2f4fbef
0402ef13
a7da04f4
180004f3
b00df17f
2680ba01
14c0f21d
20137f05
fbdeedf2
7fe61808
0dfce6e0
fe46056d
3ee2b2e2
00cb01e4
0bf89d50
173fa3e5
b3cce2e5
51f0e5d4
eb25dfef
36f6e6e5
e6f5ee32
c1ced7e7
00f1160c
41022410
14eb990b
40b9ee06
da3afdd2
f513ec05
796afeeb
f8fb0cea
faf5dadf
001ce6fe
09ee36c2
f1120581
c9d90709
163f0ce6
030b27ef
e3fe2448
c5db7f07
ebeee003
e2bff709
425e392a
1338d2d9
3df718fc
473bd416
12f72ec9
f60ac7b7
ccf1d701
14212059
2f7fdcce
392ce505
dd5f0128
a8e71ad0
e329ba15
cbd20afc
f60741bd
3b250955
c8d157fb
361becdb
008365ed
80dd031a
56104d63
d2fe2754
0546bf19
f0e7ee10
fad60423
0713e012
0c09eb07
0fec0407
e9f8f113
04f523f1
0af1d504
f30910dc
f2f00924
fce6e921
f908fee1
edece1f1
fde7fcee
18f620e3
e4d2e816
0cf6f702
0af011f4
31efe41f
f8dcfadf
2a02f2f7
00fb1b0d
fe031517
181c04f8
f210f9e3
11e420d5
fcfc00fd
f21a1af0
01e3e905
23fc00f3
05f0000e
f515e1f0
f3000dfc
19f117f1
23e01bed
09f1321b
ed050d00
23eef0ee
0113eaea
2005ef0d
fef1dc10
13e10008
0010f309
07dc11eb
05f2ef01
1dfee50d
f7e0f10c
04ebfef7
081b0014
30f40ef2
dde5d921
00fa02ed
02e7001e
0ef4e71d
f61aec08
0e13e6d5
1beb0812
f21805f2
08fdeb10
ddf10ff7
e711151f
131d1fe9
fbf032ef
07e01a13
f8fbf700
131ef12e
fdf9f90d
fa14e7fd
f6ead4fa
f3fedffe
0d090401
04f4fdeb
17f3fcf1
fddd1a01
f900f5fd
ec00f7ed
f1f60cef
fdfc09e9
f3f4f904
effe04f2
01df04e0
10f7e9ec
fcff01e4
02eceefc
f5dde80d
ea0dedef
e6f9e8dc
ef10f7ff
e406f7fd
04f8f4e4
04bbf4ec
23080b16
19e7fef9
ffe7ea0f
08eefdf4
fbf3cbe5
10000ae8
f7f4f303
f8ebd005
f1dae4fa
f7ef03f7
f6f6f4f5
fcf6f3ff
1df305f0
00f0f7f9
f2f8fa13
f30102e4
cefcf2f4
02fa0ef5
fafc0200
00ec0ae8
fbf9ebed
06e0f0e8
ec01f5fd
d5f7f0f0
0ee4fce6
eafce5e6
e50113ff
eb02f5f2
eeec0df3
e2e5fbea
f1f5fe07
00edf4fa
090efcf3
f2faeaf2
fde5daf6
f7e90d02
ea0bfffa
d3e8f8f4
15f2f5f1
f0b2ea0e
f3f9ecf9
e510ed41
12c6fef5
e9fd2403
f7ed4b05
f34c09e3
53e3070b
0efcf80a
071152ba
040226cf
0ad0f744
fbd90e0c
48661fab
88d7f19f
02100e0a
00f9ddf2
eedacb2c
0244e84e
f0f613e3
d7e8e20c
cc1a8006
11b8e217
0f07f0cb
1032e9ec
f052fdc0
333bb660
cc02432f
741318e9
eb8028ed
0a385b3e
39dc029f
7f7ffd61
febf1fd6
aa3fe703
d0e80c04
e4d253e8
29f5f2c5
ca2dd9fc
1d54b9fe
2c0bee98
e5402908
361bfcc5
d8f014f3
ebf026da
19e6d7ba
f4381339
f1a0f326
0a1fedd7
f5f70700
1e0c4307
19dfd11a
da00dd4e
017f4f1f
dee21228
067a0910
e61809ec
eacc77d1
80302204
60d7b827
d40a0922
303ef5f9
c9f6e7ef
650e4501
0a7ff802
1a091dee
f1ff1769
21ba23f8
0164d0e2
1dde22ed
e8e204f8
151ad5fa
1ed32f09
0c02e16d
08e1f611
abf2db54
f17fd7f6
f442d3fb
6675e521
aec74025
00412600
405b0104
08336821
80280913
4fd4fcd5
2dcbd7c8
e6c9df44
f0fceb3b
cf2f050e
f20b3e6d
80f3fc07
f5f8b6de
80ddbac4
1979e4e0
1e803c1a
c404ddd6
8a883de0
03934702
7279fcf5
33085d1f
14e7a2ff
cb15c6c6
eabed204
09ec3666
f800dc0f
3c210107
18f0e0e6
fbf2023e
f01310ee
14cef704
fa19ee0a
2d32fcf6
483260f6
1eee27fb
3413e40f
e7eb34fe
1f13f1aa
1789f322
201fe7ce
40b23111
d410d013
c55680fc
5d7f10fa
80f48be0
e8e8e5d3
c0f6fef9
11e5d41a
09e3c9c5
0f1df448
062424fe
0903fc13
0dfb361c
03121c09
261104ed
f0ea2913
f8defbfd
e6f414f0
23e704ed
f40211e9
f903f1ea
03f61eed
ff0728f3
121afffb
fe190b1b
f5f3f62a
ec1418ef
16f8def3
e50d1c23
fd00060d
f412ec0e
da080f0e
32dd01e4
fdd0fd05
15ffe4eb
09e20016
17f0fefb
16160113
0cf40101
f5f807f4
ea3114eb
ea10e00b
1013111a
ff1e3500
0b1ef705
2d1df119
df17f012
01010efa
0efff0f0
17160702
ed02e00d
1c151cf4
fa270305
e7012506
feed35f6
0d27020f
000915f6
2a0a061d
14eaf416
2103ed04
0f0f0031
1eed1601
feff2600
eef1eaf4
11f7f402
fe0f0715
d6090d14
1c241f0a
03ee16ff
1b06250f
08191810
2b0d1a27
00040cf8
05f7d3f1
0bb5f3ec
804bf61e
80d49cf5
445413bc
3a04edf0
1904044d
f231f2ce
e4ce77f6
30c85333
c0923abc
0346dfd2
fbdca9ec
f08f3c07
de557244
e3e846bb
1ca74a17
e49bce20
c7f3d4c0
fb0ef305
cd2dcbb1
eee08013
4ecbfeee
de1c0b2a
0be70ae9
a88e0b21
05280a14
bc0c80d9
800ab7b6
00aa2d35
15c5f4f3
f0fef7b9
8eaa7f9f
e075fb27
7808f9e7
22c5f9ab
b4d9ddeb
ddf7ea0f
e4a32903
f1be1a5b
13e9b61d
dd0f1402
fc10dcf6
dc19edc9
1adffc3c
05007f7f
c02549d8
001e08ec
ba47a903
01490403
cebb8cea
0feba9ed
fa0d3383
1b12ecff
e3c2d5cf
38802dc8
e4c0db17
cfcf7fb2
f10fc1f4
2405782c
d23bf0b7
f9dadde6
9afbdb0f
3701ba48
f00dd724
1b170bfa
ece1e100
fef1f921
04030cfc
0af801ff
060afe05
fef50404
2203f407
0efffeff
01070a0a
09eddfe5
26001df4
f2f4ff03
00e3de0d
ec190007
00ebf719
100b2bf1
21090001
06fb1d0b
ee13e70c
0702f117
05e203f4
06dd1e0a
14ebef0d
e70b1de0
f7def2f9
15f305f6
f2f8e609
04dff9f7
edffe9f1
040cffe1
02eb0002
f3131805
fd0b0c00
f007fbf3
2806fb04
f70200ee
0cf4090c
10f5f5ec
04020a0b
1104e5f2
f10ceb12
fff0e10f
1fef1600
e8effcf1
240a1400
23040ae8
19f6e7fa
ea07f4fd
f0f1f00a
190004f7
1018ed00
0009de0f
1b000716
1a0ce4fc
0624f9f6
0908ff02
e702fb36
fceaf0dd
ef012ced
2001fce7
040af6f7
020d1dfb
ebf309ed
ecede2f2
fe15d705
0c01000a
06f4f8e6
1b07ddff
0b0cfaf5
f2f4eeef
ea16f419
06fdc6ed
f9d80015
04f01f00
0403efe7
152c2bf8
27e4fb01
f306f2ec
3deb23fc
11e8fe11
01fdf4ff
081405ed
11f40aeb
eaee0803
130ff9ec
d7cf280b
f1e7ebfc
dbdc0011
e1111df4
0e020708
fcf41b2f
021eeb04
10e3fcf5
f1f3f3fc
05eee502
f2e6fdf3
fef8f002
06fafaea
06ffeef0
0cfb1cf8
eeff050a
def214e8
cc0d0d07
e7070907
fc0eee04
12e90ff8
e4defcef
03ffc811
e6eff300
f4ffed03
c623ecf8
1300f315
d409f4fd
1016f4db
0004e2f3
1af0d7f3
06f609f4
efd50bfa
f40712ec
e30507e8
e1f8f4fa
14e6f4e4
e5fb1b02
fe010aee
02f2e1f2
02e7eaf8
b6ee491c
e8f8d907
a10ef603
dd7f7f29
0ac7ef37
e616c506
e3e8f9c7
80de1cf6
cfd6060b
dab70c12
e7062d80
c249ce24
f2f2ef00
011acb57
dbf4a129
2528d7bc
faed011c
27e31048
153460dc
4e13ddec
3f1b14fb
31f905ee
ff04cb18
02301ae9
2218d624
0ac4f511
e7d11600
07fedfe6
9c0fc502
1acca417
23f7cc80
0ec809c9
57e71192
deff2613
190ee3cb
f7df36f7
16fa48eb
de0461c6
f38ff3f0
06fcd534
16b7f3c7
f507ef00
1c1e4de9
00f3fa03
ec3e2011
ecc6ed24
03f9b8d1
ef0c1af5
28eb9ffa
d02acfeb
260ae112
fe1802cb
23281cd4
01e8fb80
d5ebfa1e
b3dbfb01
3a0105f3
bfe6b806
3600ea00
7f15c31e
cc0ade55
ed5f300c
4bd9aa28
f2df00ce
e90a2c00
10f610f5
f726e9f7
0fecf204
03f0fafe
1203ecf8
181002e2
fb00f7f1
17420013
f3f2dd13
2217f212
f8ff1814
140d0314
0f05081c
00d6fa0c
0ceef1f7
1615feff
2bcb0e15
f9130a2e
1c0601f7
1e240019
ff0ef90a
1fff07f3
e607f809
f9ed0afb
fb1611f6
f31e10e8
17fdf8f6
fe050a12
0e0f0f00
ebde1515
0df8fafd
010fe8fe
1501f207
07f6ea0a
0c1e3cf2
080eee04
e3fcf4fa
fe172026
eaf8ede6
0f04f01a
1f28111d
cd10d4ee
f2ec11ef
0ca9ed17
ff18aaf0
000913e8
0e00360b
c41edd13
022df0ff
f2081e14
1ef910e5
1700f70f
220dd0ff
1f040111
00f62c0c
f3071bed
f20200fd
00f4031d
f62cf7fa
f6120114
e3e610e9
053fe805
1b13ed19
c5f8de0f
0d09eb1c
f103e1eb
1400d623
f1f244f8
190fdffa
d9f8e3ff
f4140e0e
fd28c54b
160053eb
f41ccc08
033bfbf4
11f200d8
1313eddc
2cec06ca
f61201ff
00efedeb
fcec28ee
06ee4204
f556e1f2
dffede00
dd3310e4
643a00f1
a10f10e8
0c16f913
0906e5f3
f1f42205
fe01ea1d
e509f0ef
ec14f4e5
21e70a0a
29083603
28063a09
dcfbd712
f5e60701
e50af611
fb0100f9
e604191d
ffe4fa0f
02f8ec01
1604fab3
11fcdde8
95fae9e5
17d110e5
1c25f8e6
161ac50b
1feffef7
07291afc
c60a0ce3
fff200f7
fe06faf6
ece9f4ae
ac25cc0e
f7e9ee0d
2d090805
18ebfee2
001321f3
abdadcda
ef2e112c
ea05d7eb
f9050dfa
dee300da
de0df9f7
25fa0c07
c7fbc3e1
e6dbd0eb
ec1cc79a
f1807503
f424fa4a
fce5980a
fcc3ead3
c6c4faf5
0d20e5eb
1314f0d8
02f89443
e9a929e2
f55ae0cd
cb570c80
0b542420
06040793
272f16e8
fff0f07f
16ee6680
7ce4edf6
7fb4e813
180a16ce
0b35c468
3f9fe6bb
db2ce2dd
d4bf335b
3ce9ef60
d1f39c1f
dd20dec1
e7c9f011
f2bffabc
fdccd430
7f2319be
e0034bff
3107b9ca
05fb30de
d521e31c
d4f1abd2
06b1e8ef
0f12a3e9
4a20f328
fa09fe25
5c510005
4580fbf1
c4d2d700
f1c40bb1
99b72514
f03af9d2
7f7ffa18
02800ded
fc5f5d08
cb1bac0a
beeaccc9
0c471e44
11203bff
f8070000
ce2612e8
e7141b06
0fe109e5
0832bbf9
e6f51161
145f3b35
8d0ee517
c7e10913
f0fc0cf0
fcf1f9ff
f7e31102
fbfeebfc
070115f2
09180003
df0b0e06
f217100e
2004032b
30f652ec
e10fef0a
0630f411
06f90df6
19f1dd04
03f8fad7
f814edff
3f100019
f100ef00
f81442eb
0b2b0719
0909ee13
fd120005
0f1a03fe
ce0e0cf3
0f0efa0f
ec10da0e
0f10160b
14230417
ed08f70d
f4010524
f311edfe
10dc06e8
001532fb
fee408ef
071a1b0b
0a18f10d
1b19e50f
f0ecd717
01fd11db
eae3e600
12fa1ced
05f809ef
c723dcf1
44d30109
f71819df
fa04d2fe
0f06eb05
0f2605f8
03ff1f0c
d7dfecfd
e3f50700
0fbcde1d
b8100200
f2101b00
fd2ef9fe
0ad9fae7
06f8edfb
deeffbe6
d4040d08
140af1d2
11000700
dd01f4ed
fdf5ee0d
faf8f3f7
31f9ee12
f0ea0a29
dbf6eaec
06fd1afa
e1022cfd
26e7f2f3
25f100eb
09e3050f
190113eb
17c9faf0
e9f3eae0
29fa06eb
0fff0b0b
f6d2db0c
00e00002
e8ff06fc
f3fef30b
02fb20ff
f902e700
defcf216
f9f9031a
d8030311
0ee8e0e9
f6e713ea
0036f511
01f7f5cd
fff8d8f9
fbe8fe0b
06fcfffa
ff032ff5
22e8fb26
09101be8
e20cef03
f9e7f300
080d1afc
0ef30e03
0401eaf1
ef12f6fd
03dd1304
07f9fcfe
e2f704fb
01f00206
1af4f2f3
03f606ea
22000ef8
fcedecf4
210ff4fe
0feaebef
07d90d01
f2ca04fa
390de213
04141dfd
10f9f9e3
07f7e1c6
06faf4f5
04f6fcfb
fd18fc0c
42ece610
06fde51e
f8fd06f3
f62222d4
1dff0b22
24f81bff
eb1c1f02
